/**
  ******************************************************************************
  * @file    network_data_params.c
  * @author  AST Embedded Analytics Research Platform
  * @date    2026-04-10T15:21:22+0200
  * @brief   AI Tool Automatic Code Generator for Embedded NN computing
  ******************************************************************************
  * Copyright (c) 2026 STMicroelectronics.
  * All rights reserved.
  *
  * This software is licensed under terms that can be found in the LICENSE file
  * in the root directory of this software component.
  * If no LICENSE file comes with this software, it is provided AS-IS.
  ******************************************************************************
  */

#include "network_data_params.h"


/**  Activations Section  ****************************************************/
ai_handle g_network_activations_table[1 + 2] = {
  AI_HANDLE_PTR(AI_MAGIC_MARKER),
  AI_HANDLE_PTR(NULL),
  AI_HANDLE_PTR(AI_MAGIC_MARKER),
};




/**  Weights Section  ********************************************************/
AI_ALIGNED(32)
const ai_u64 s_network_weights_array_u64[3930] = {
  0x3b9665a5bdf60362U, 0x3db0b6933e6fffcbU, 0xbe364f3f3ddf68b3U, 0xbd2859c03e4fe843U,
  0x3d2b61a33ea2a3d6U, 0xbe313f93be402e80U, 0xbef45a163e0c38c7U, 0xbe2dd7e13e753422U,
  0x3e134088390dbbdbU, 0x3cd798c6bd8017b9U, 0xbdaab4e2be6b1a96U, 0xbd9a0569bdb28eb9U,
  0x3e2426c3bdbed2f2U, 0xbdfbd655bdadc16cU, 0x3e217b3dbdb2f3d8U, 0x3ab5c8a5bec57373U,
  0x3d42c4f5bdc75afcU, 0x3e5df191bdc4e76fU, 0x3eab051abed33dc6U, 0xbe6915cabe1d2c22U,
  0x3e044406be3f9f63U, 0x3e9a4fd6be932fb2U, 0x3c876827bd342dd1U, 0x3b056c7d3e14dea3U,
  0xbd498203be9cb42eU, 0xbd76302ebec58e94U, 0x3e15deb6bdab121eU, 0x3e0aadccbeea76d0U,
  0xbdbe2486be41ae4fU, 0xbe258c8dbe104066U, 0x3e433106bdfcc8d1U, 0x3dcb61dbbe4bc4b1U,
  0x3e82486dbd957b25U, 0x3d2e155dbe374df2U, 0xbdc8cc78be206cddU, 0xbc0f73f23e29dbbeU,
  0xbe6aa8e7bea4c1adU, 0xbded8f853e3e24beU, 0xbdbe4079bcab78c3U, 0xbe2fe8adbf0a38d9U,
  0x3e2bb4363db48819U, 0xbe40ab60bd2dbbd6U, 0xbe4830d7bea552a4U, 0x3e86528abe0a252cU,
  0x3e5947cf3d2da0e2U, 0x3ea14facbf24a265U, 0x3d89755abf214821U, 0xbe3f08c43d57f258U,
  0x3e680de7beec400cU, 0x3ccf3b41bf0be5f2U, 0xbd6e0080bd81e83eU, 0x3ee0f994be5cffcfU,
  0xbde6a5bfbed620eeU, 0x3ea1110a3cc28f03U, 0x3e962f2f3d87c80fU, 0x3d676060bcefb85bU,
  0x3e74ddc0be1f0db6U, 0x3e68116a3db5cea3U, 0x3d5b9e19be07968bU, 0x3df929743e0cb600U,
  0x3c96cac63e60f795U, 0xbe4e638bbeed621dU, 0xbe6ce2c83e5dfeb7U, 0xbdbd409f3ef6333fU,
  0xbd12ab0b3da9549eU, 0xbb1e3352bd8ae893U, 0xbe32fc693f17796fU, 0xbcfe23babe238c7aU,
  0xbdf82f0c3ce33686U, 0xbdece2a13edb3ccdU, 0xbdf53ae5be3f3818U, 0x3c328f99bdd6f0feU,
  0xbe2e6ef2be85c5f6U, 0xbbf89ea63ec2d7c9U, 0xbdde6877bdda7ee3U, 0x3e353158bf154d53U,
  0x3e024f333ef4b972U, 0xbdde4dd6be5a2cb8U, 0xbe03bd7bbef447cdU, 0x3e4eb46e3ef2eee2U,
  0x3d98cc87be496bd0U, 0xbd7e3b05bd2c50c2U, 0xbddbac44be9707caU, 0x3db58a773dd04030U,
  0x3e1eb2ffbe5cf0baU, 0x3da5e0aabec3afe0U, 0x3d37fd64be617927U, 0x3e2be0d7be5361d7U,
  0xbb0de200be7bc6a6U, 0x3db1f468be31951eU, 0xbf02cc7b3e6c8192U, 0xbe292b563e2800ccU,
  0x3dd8511b3e282e54U, 0xbea899ea3ec18e03U, 0x3e07761b3d8999ddU, 0x3d49fe863e813887U,
  0xbe80143c3e6bc3d5U, 0xbe3aa9e53e91b1c7U, 0x3e40b55e3e4e0357U, 0x3d71411f3d4fbf45U,
  0xbdc2ae24bdac4612U, 0xbe061e96bba9195aU, 0xbe856c14bdc96460U, 0xbc79c1273df024bdU,
  0xbe16dc35be06ce15U, 0xbe37a0143daf33d5U, 0x3bb3015b3c3662b6U, 0x3da2782bbca17206U,
  0xbe556cf4be6b90eaU, 0xbe42e5433f27fcb9U, 0xbe2045c0be93a532U, 0x3d56c029beec1c04U,
  0x3df71d3b3f1880c6U, 0x3e55cf00bdcfdf70U, 0x3c6e2de0bd9b73bfU, 0xbe0b9eb13f439704U,
  0xbe6f0987be240b43U, 0xbe2aac52bea564cdU, 0xbd08023a3e16cb78U, 0x3e536b54bdfa1eeaU,
  0x3e82256cbe8b431fU, 0x3e29f185bd147e5dU, 0xbcf7253ebdf2471bU, 0xbd8737debebbddb5U,
  0xbe21fdfc3dd9f419U, 0xbbd988ca3da13513U, 0xbc8952b5be0c714aU, 0x3e7b856abeb3f351U,
  0x3e8445c4bdcfb899U, 0x3eafad5cbd5993e9U, 0xbe4afe6bbe033413U, 0xbd3eeb0bbe3c7326U,
  0x3ea02ac1bdde093fU, 0x3e2ff756be73268bU, 0xbe579a1ebd23321aU, 0xb98ac9f73f13213aU,
  0xbd8408903e72de57U, 0xbcd4ce683e9363b4U, 0xbec77a473f0245d7U, 0x3e3e52143e5be488U,
  0xbcd2fa6abd45317fU, 0xbe0c58a13f1b4c59U, 0xbe1666253efca7f9U, 0xbe85c9e53d7971fbU,
  0xbe75bdad3e763fe8U, 0xbd3e85033efff5b3U, 0xbda4c4023e051029U, 0x39e5b5393e5c0f4eU,
  0xbe4af94e3edfd63fU, 0x39993fbabd0493d4U, 0xbebb1ee03e7a1b80U, 0xbe40f3283ecf0628U,
  0xbd8ec94ebd23d442U, 0x3e4bb667be7bb585U, 0xbd46489c3e0b1530U, 0xbdcc14fb3e1eeb3fU,
  0x3d46c6dbbecaf352U, 0xbd9101cebe805951U, 0xbe25372a3dbe8c9cU, 0xbdf7b47bbe8cab4eU,
  0xbdad33943c2d697cU, 0x3e277c62be732470U, 0xbd06b44a3e088c09U, 0x3dc883a4bf172930U,
  0x3e183f293e1121b8U, 0x3c4ac33c3ea330acU, 0xbdd962d2bf02165fU, 0x3dc7792bbe0054ebU,
  0x3eb07be43e83e993U, 0xbd6c7a88bec2ff3cU, 0x3e0112373df363a5U, 0xbe53b695be8a831eU,
  0xbe3a6b103df77460U, 0x3e2e12cdbe71ba61U, 0x3ccccb383daee138U, 0xbdf6ae853e85e24cU,
  0xbcc5d68e3da93ea0U, 0xbe14dac2bdb9875fU, 0xbdadfa9b3ebc1ea1U, 0x3d9697003d17b9aeU,
  0x3eb00bebbf11bfb4U, 0xbd6bf7cebe12c5adU, 0xbd30a8c43e6ef45bU, 0x3e277e91bec47e2aU,
  0x3d37b334bf040172U, 0xbb938cd5bd25a6dfU, 0x3ee19a0ebefa03e7U, 0x3db99835bee13e4fU,
  0xbc8b8bddbe37f81bU, 0x3e6ec371be380bbdU, 0xbe58ebdebee59b63U, 0xbd5eefb23e4d2617U,
  0x3f09958bbe212a44U, 0xbd2538bfbd52ad2eU, 0x3da236513dbc5c33U, 0x3edbee02be5e6a6eU,
  0xbcfa3118beab6883U, 0x3e06c548be14e0c1U, 0x3bf2302cbd4e07afU, 0x3e24fa46be5900a7U,
  0xbe84ff47bdf1a06dU, 0xbe631401be598064U, 0xbdbd51adbd99e9f3U, 0xbd2a1cee3dae546eU,
  0xbe1414d53bb32d73U, 0x3cfb3523be66fc21U, 0x3e894facbe081ec3U, 0xbe9cc6013f12b83fU,
  0x3e15eb843e0e5c50U, 0x3c00fe583e807130U, 0xbd0c36ba3ed3e2b0U, 0xbe1a51cf3d4a4edbU,
  0xbd9cb7203e8028c8U, 0xbed2db503ec44c46U, 0x3add96f73e5cde58U, 0x3d9a542f3e7417e9U,
  0x3ee19ff8bcf65328U, 0x3d4b034ebeb276ceU, 0x3e0c6e393e776cfeU, 0x3ec832a3bcfe0142U,
  0x3c8550813d84f16cU, 0xbe406901bdbb4251U, 0x3f045bf1be956d87U, 0xbe14af0fbe422877U,
  0x3d5cbc46be363168U, 0x3dd4e0873e03f42bU, 0x3e1ef505bee8179eU, 0x3e41c4edbe1f591eU,
  0xbd1739303c0bfbf7U, 0x3dde8deebea4b893U, 0x3cb659203e30f8bfU, 0x3e987ee53e59a8fcU,
  0x39ac582cbbb8bad5U, 0xbdb76d953cb81d4aU, 0xbe2f2cc1be642d00U, 0x3d947d053ef2e502U,
  0x3dfd446cbe35f62eU, 0xbe05437bbeb350baU, 0x3dec21ef3ea915d7U, 0xbda1b8dcbe104950U,
  0xbea057efbe9b56a9U, 0xbe24ca7e3f1645ceU, 0xbd47fdf6bd274f1cU, 0xbcd9ba513dc78a8dU,
  0xbaa949c7bca5d4fbU, 0x3df54e8a3e51c55dU, 0xbe79528abbf5ac02U, 0xbb975575be9e9935U,
  0x3c17cb233d569a9fU, 0xbe3f6b7ebd2efe96U, 0x3e33491ebd25ac96U, 0x3e0a00753e69dfccU,
  0x3e5204353f08232aU, 0x3de3c1683d37d24aU, 0xbde9e7593cf7989aU, 0x3cae24f03f18b598U,
  0x3e93be483dc3b8fbU, 0xbe458e8f3e46381fU, 0x3dedcb243f38ceadU, 0x3e13ca8f3d9d3637U,
  0x3d98f3a83dd28ebaU, 0x3e9035d8bec48d9cU, 0xbc9783d5bef18adcU, 0xbce912b53d96255cU,
  0x3f004352be94abb4U, 0xbddcdb68beaa613fU, 0x3e1ecd0b3d21c139U, 0x3daf2d163d069809U,
  0x3de1445bbe86590fU, 0x3dd6816abd136629U, 0xbe6fcf0bbe5bf053U, 0x3d36c41fbeb2e61bU,
  0xbe21aa2cbe32ba39U, 0xbded8246be7bd8e9U, 0xbb4bf6ca3dd3e3abU, 0xbe1664bdbe2e24f4U,
  0xbcd3f24f3dbaeafaU, 0x3dea43393de5d966U, 0xbc8129913d1c611cU, 0xbcbee4653e141884U,
  0xbcc326873e2a246fU, 0xbde262273d05ee3bU, 0x3d6cc341bd632b7fU, 0x3d8d26bbbdbc6167U,
  0xbe77e6e13e2f7b88U, 0xbd1e79933df3e0fbU, 0xbd2ba1023de8aa3dU, 0x3dadf94c3e9067aaU,
  0xbdbc68ef3e2b959fU, 0xbe6454ccbd8d0355U, 0xbe574a623e2e97daU, 0xbdf4cea5bdf91b4aU,
  0xbdd3606439d43e80U, 0x3cd5c0afbd338d5eU, 0xbc832d1b3eaf42bfU, 0x3e9b28bfbdd36dfeU,
  0xbc8565873e3ce679U, 0x3e813d56be730e05U, 0xbe11dc0abe0dddd2U, 0xbe123fd4bd767069U,
  0xbe21df3dbc616468U, 0xbe052ac73eaa5e89U, 0xbe581798be08de4dU, 0x3e2335dbbdc2d202U,
  0xbe6fd6993e29fa40U, 0xbdc89072bd37ecf6U, 0xbd37b5ad3e30a836U, 0x3d2204543d35ae41U,
  0xbe8a61883e582fe1U, 0xbd21999bbe0a0ba0U, 0xbdf6b536bdf6b25bU, 0x3de43a04bd96a21bU,
  0xbe4f321cbe79bf32U, 0xbe8a67723d1f4a79U, 0xbe2768e13d33381fU, 0x3da241763ab454d3U,
  0xbddc17bdbdb59fa1U, 0x3d3ddda43e505c3fU, 0xbe1189ff3c204114U, 0xbdae72173e4b9fb3U,
  0xbe1c21c8bdabb33bU, 0xbd962742bd626102U, 0xbc7586bb3c534be6U, 0x3e09feeebccb87a4U,
  0xbdb573153d2e16b5U, 0x3d258941bdab3f46U, 0x3dac16263daa9217U, 0x3e0156783d00b7e8U,
  0xbcdbb1a73e481817U, 0xbadd6b17be438e89U, 0xbd3edb2fbcdc25c5U, 0x3db74abf3e5e13e1U,
  0x3c90a32a3df2c691U, 0xbe4011f3be174232U, 0xbd9ee54c3d9d6816U, 0xbb7fba1f3d584d6aU,
  0xbe0c7f033e402b4aU, 0xbe3a68183e3221c7U, 0xbda056aabcfbd8fcU, 0x3e1d9ba7be41dc85U,
  0xbe742b733bc31758U, 0xbd3d3315bd195af5U, 0xbdf2e81fbd9eb49fU, 0xbe6679ef3e3796e0U,
  0x3dcb8a1e3dc0b6a3U, 0x3e30ddf63e4fc443U, 0x3e3c2157be046091U, 0xbda7228cbd1f8167U,
  0x3c72c5cfbdcd296eU, 0xbcbccb55bdc33078U, 0xbe00b978bdfe3b94U, 0x3cb3aef43ddf5666U,
  0xbcec78e4be7c9904U, 0x3e1ca641be5442cdU, 0x3e1f7de7be1ca0ceU, 0xbe4c0f3fbe0c25e2U,
  0x3db648c4bd8f1958U, 0x3df2e9c23e0a0af8U, 0x3d241ad5bdb3c9c7U, 0x3d46b072bd8a3babU,
  0x3db4f6ff3dccc61fU, 0x3e1d3f3b3db6f436U, 0xbd186e0abcaa32b9U, 0x3daf739d3e01f8f5U,
  0xbdf7043fbdb13600U, 0x3e0563a3bc315244U, 0xbdfee58ebe45f71fU, 0xbe08fa97be36da3bU,
  0x3c7dffa23d104373U, 0x3dd990743c8e9eeeU, 0xbd3aeed73d92f0ceU, 0xbe0c338cbe21cd75U,
  0xbd1c1f04bdc50cc2U, 0xbd7b06c8be724d7eU, 0xbd9be1483d00ef5eU, 0xbab36fb9bb524187U,
  0xbdc5cf07bd9d17caU, 0x3e272c953d00b5afU, 0x3e117f18bde080f5U, 0x3ca614393ddacf5cU,
  0x3e2e6dedbd8c827aU, 0x3df374b43dee0fc7U, 0x3bb5442f3e6216e5U, 0xbe3cff5bbe768178U,
  0xbdc9b6a93c0bca76U, 0xbd719482bca66192U, 0xbcde509ebe19ace9U, 0xbe32a4303e3f1134U,
  0x3d4dfc20bced8880U, 0xbe81cbe4be961aaaU, 0x3d1c9e333dff566eU, 0x3dc1a6ef3d923d82U,
  0xbe103fc2bb15090aU, 0x3de1f5e1bdcd4f57U, 0xbe3e7cc7be7e0dabU, 0x3bb79400bde30ba4U,
  0x3dedec24be12787fU, 0xbcc6637f3e2c61aaU, 0xbce4fdf2be6a66faU, 0xbe971d3abe2b6c52U,
  0x3da70ce53d8beebcU, 0x3e7cad1fbdd236f6U, 0xbe23c2623e045a24U, 0x3d2addb13db1d44cU,
  0xbcd4cdfd3e393711U, 0xbdddbbd9be11e030U, 0xbe548548bd44fb10U, 0xbdf84972bca5e00bU,
  0xbd8b04d9bdc14a83U, 0x3e16de00bc7880b1U, 0xbe7895c73dfb9831U, 0xbe011896bdb04d0aU,
  0xbe6491c4bddcc20aU, 0xbe3f441abe3ef51fU, 0xbe3caaeb3df1ef72U, 0x3da36569bd8b286fU,
  0x3da35a1dbba51a8dU, 0x3d2a0a01be285b52U, 0x3bb138d9bb44ce47U, 0xbe1525c4be2abd4eU,
  0xbdaa3b25bea27040U, 0xbe7e9f6ebe10876aU, 0xbe117da73da980a4U, 0xbbb7cec33b8f9180U,
  0x3e256ed53d89434aU, 0x3da858933d597ebbU, 0x3da85885bdbde3f2U, 0x3e438ae4be23a642U,
  0xbda3744bbe1c1669U, 0x3e59922f3d6e34b4U, 0xbdaa14cc3e1fc23cU, 0x3e68d125bdd39d38U,
  0xbe01b51abe1c9740U, 0xbdd9ae75be646492U, 0xbe088a9a3de851d7U, 0x3d136b22be615174U,
  0xbdb5dceabdd7de26U, 0xbd65a806bd4290e4U, 0xbdc251f1be48aa5dU, 0x3d65ccecbe3b04ebU,
  0xbe228cd5bdd2d7ecU, 0xbd2b436e3dc331a0U, 0xbd378838bc854cb3U, 0xbc9914de3e205398U,
  0xbe21eed1bd240006U, 0x3e2cd43fbdc13b37U, 0x3e3706223ddade4bU, 0xbd6e098ebd597249U,
  0x3dc3f115be8e00f9U, 0x3d59d05d3c5b941cU, 0x3dbf84ed3e224a91U, 0x3d568350bd02fb95U,
  0x3e225b2abd5c1c6cU, 0x3d5af1bcbe0fa2efU, 0xbd4f5f68be574140U, 0x3dfc9c51be04dd0eU,
  0xbd85c297be901bfaU, 0xbe72ce6f3e1f1882U, 0xbde2e9c43bbbcb74U, 0x3e182565be109412U,
  0x3e5a84dcba222b82U, 0x3dedfb6cbe761ee8U, 0xbda7232e3d307b5aU, 0x3e3d9d45bd71a352U,
  0x3d90f1a73e34e18bU, 0x3ddb9c4a3e164b21U, 0x3da90949be35051eU, 0xbc9c8454be4d88d5U,
  0x3da975fabe4e4325U, 0x3dad74a1be48c5ccU, 0x3cff7aecbd035aeaU, 0x3d22b02e3db29506U,
  0x3e0762f9bd90c2b3U, 0xbcb1afc6bdb0f31bU, 0x3d722ddebd776114U, 0xbddca183bdc5751cU,
  0xbe2777ce3d9fdf76U, 0xbe559e203dea3d42U, 0x3e53a25c3e41bcd4U, 0x3e2f2ace3d9533b2U,
  0x3e1195a1bdd85719U, 0x3c457d56bd3d4d45U, 0x3e15b05e3e302a62U, 0xbd39c18e3e16b53bU,
  0xbd0e16f2bdd956a6U, 0xbdda5c7cbdd3719fU, 0x3d8fded63d7dcbacU, 0xbdd67c763e375639U,
  0xbe19df423c36aebdU, 0xbc736609bdefa567U, 0x3dbde36e3e487aecU, 0xbe7d87193e5c6c2eU,
  0x3e5e72dd3e145420U, 0xbe19bdecbddde9cdU, 0x3e3a7900be39c712U, 0xbe0b8e7cbe4e0553U,
  0x3def4311be7b8153U, 0x3e533c73be2a033bU, 0x3d9c1d323d8627c8U, 0xbd847bf5bdcea71eU,
  0x3d9fc54bbe954411U, 0xbe344c5a3d803efcU, 0xbdeda7a23d7decc9U, 0x3daf2179be676aa0U,
  0xbdb63b6ebd4e7eadU, 0xbe50e5df3e2be917U, 0x3e4aa0273e3c3d12U, 0x3e3895083e2b3c12U,
  0xbe088fe33e5e76c2U, 0x3d6dd4bb3e15cc54U, 0x3e00c68dbe1b1bcaU, 0xbe6b62a1bcdbdec6U,
  0xbde3be3f3c10321bU, 0xbdf4a4e03c2f49a5U, 0xbb9df0c6be1ccf14U, 0x3d9ac97cbe10dc9dU,
  0x3d81aa19bd7f3029U, 0xbe66fbae3d8208ffU, 0xb9e647dfbe27e05cU, 0x3e46982a3dae381dU,
  0x3d835a13bd004b7bU, 0x3de57fe53dda0701U, 0x3e28e7313ddc0fb3U, 0x3c0bfc013d3e04deU,
  0x3e326db43cd289ffU, 0xbdc11196bd91ac9eU, 0x3e2b4ff6be1d40f5U, 0x3cb437f9be2a59b9U,
  0x3de3c2f0bdc1bc26U, 0x3bf5b9bebbf534eaU, 0x3d8dd95d3e72dc6eU, 0x3e120e5c3e073616U,
  0x3dc1bde23e225342U, 0xbdd7c8eebe0adc31U, 0x3ca2195abd82b655U, 0x3c8f222ebab36812U,
  0x3e20bdf83e0908bdU, 0xbdbd55393dbdc94aU, 0xbc7bf144bd020b0aU, 0xbe6f8fa53d57c1d5U,
  0x3b2b3dc3bd03e313U, 0xbdc159d8bdb34399U, 0x3c2ae1ee3c04a5d7U, 0xbe647280bdbaa490U,
  0xbb939f6dbd99e746U, 0xbea527a2be56f59bU, 0xbc477f46bda80718U, 0xbd44e432bc080be6U,
  0xbe065c05be74596bU, 0xbd27df29be55d02eU, 0x3be4f6cc3e3c8a75U, 0xbd3760113e21e987U,
  0xbb1f42213d4dc85cU, 0xbe8fc33fbd1020f9U, 0x3d6909dcbe03b539U, 0x3d7f76253c13e89aU,
  0xbe50c2873d826f66U, 0xbe1834b0be204562U, 0x3dc32897be3e0ac8U, 0xbd1c27383d863d44U,
  0xbdff22bc3e0cc705U, 0x3e0136263e128486U, 0x3dc762eebe4bd348U, 0x3e1dca8ebe2ccc24U,
  0x3e1b37cebb4a0632U, 0x3d4d31a2be437babU, 0xbca55d833dd18c38U, 0x3d8baca9bcbd4c77U,
  0x3d3144b53d86b9e6U, 0xbbced10bbd88e8b1U, 0x3dd642babe9a922dU, 0xbd4db3f2bdb2d40dU,
  0xbe49726abdf0e713U, 0xbe829713baeb4f75U, 0xbe463d293db42e2fU, 0x3e22aaaebd039ca5U,
  0xbdc32e7b3e3a24feU, 0xbe07fa8ebcc8e260U, 0xbc79efafbe5345bcU, 0x3c654f1e3d0b6191U,
  0xbd713e0bbd7a575fU, 0x3e30a18d3e0cc789U, 0xbd4876a0be1a6649U, 0x3e17714f3db854f6U,
  0x3d826afc3e03fb97U, 0x3d43b603bd8ecc98U, 0xbe223c4fbe431690U, 0xbe3b7e6a3da7d33dU,
  0x3c4b9b243c3585aeU, 0x3de73579be51f34eU, 0x3dc98bbabe508383U, 0x3dde7ae03cbbd3b6U,
  0xbd82ea433e630a62U, 0x3e6e44ffbdb79626U, 0x3e944910bd5ee3cbU, 0x3cf3bdfa3e4e6a9dU,
  0xbe121473be592c0fU, 0xbde4ca4d3c20b483U, 0xbdbfb50ebcf8c779U, 0xbe72ea543df14cfdU,
  0xbda43d10be12c3e9U, 0x3da89822bdeea102U, 0xbe1d97f63cf65f4eU, 0x3c16ead93e048af0U,
  0xbdd5d0f5bd8c382bU, 0x3e26c8f73d304dbdU, 0x3d87f3203dac5dbdU, 0xbe0e1849bdddc9b5U,
  0xbd93f8123da0df2bU, 0x3d0700b83e226344U, 0x3deb599e3e3cadccU, 0xbbb41f743e132c81U,
  0x3d15c580bd888121U, 0xbe30415e3def4326U, 0x3e0a3d04bcef1157U, 0xbe4ea6863c0f35f8U,
  0xbe1aec69be09825bU, 0x3e1ca6363df9d899U, 0xbddf68b23d973681U, 0xbe05c490bd4bc25fU,
  0x3e14c730bd46ae75U, 0x3e71711e3e43d91fU, 0x3e524fd63da1fbd4U, 0xbe2b233a3e14e385U,
  0xbe3bd2463d88ec3bU, 0x3e153fc7be26b9dfU, 0xbcc0ca893e0481e8U, 0xbe88ebde3dd234a3U,
  0xbc6a5a77be4a07d3U, 0x3e02d7ffbc787e97U, 0xbe0ad2fbbe0309f5U, 0xbe3d76333e2e3511U,
  0xbe498bb0bbc206e5U, 0x3ce441d33e1b76ebU, 0xbe3ddc413df0a694U, 0x3e1b45b83de4d9f0U,
  0x3e2fc65c3dbf74e5U, 0x3e423339be3bca4fU, 0xbdbc68a5bddb130cU, 0xbe3bc10fbdfac8dbU,
  0xbdefe399bd31260eU, 0x3e0dd998bd03cc71U, 0x3cad25233d2ab123U, 0xbd2063683cef5c55U,
  0x3e1f065f3ce43505U, 0xbe444ff6be11e8f5U, 0xbda3d91e3e427293U, 0xbd4268b93ccc3d01U,
  0x3d7d8a25bdfdd4f3U, 0x3de530a5be15ad78U, 0xbda0ba27bda16644U, 0xbb4b38babe1e5869U,
  0x3c871b4cbe0b2659U, 0xbe0332ff3ded678fU, 0xbe1a4164be3a0a68U, 0xbe36581dbd11b2dbU,
  0x3e2c4a143d931cabU, 0x3d91af3b3e116d4eU, 0xbe02d92dbcebc670U, 0xbdf68ab53e464adcU,
  0x3d0666b1bd9698bfU, 0xbdae5d7a3b4ae059U, 0xbde1fcb5bd852270U, 0x3dd4f4d5bb9f158eU,
  0x3de5955cbc94edc2U, 0xbd711664bd888476U, 0x3c085b903dcb8ee4U, 0xbe6ef17b3d90b0b4U,
  0x3da3a798bd5a61b4U, 0x3d548583be24a641U, 0x3d8250ee3d2f6f1aU, 0xb9d20f6ebcabf024U,
  0xbe26b24c3dd36268U, 0x3dc4c1823cc82ec3U, 0x3c84e1e83d5fc7a6U, 0xbe07c68d3e06834dU,
  0x3dc09b5c3e3b7865U, 0x3e3fc227bd93f358U, 0x3ce3538abceca2edU, 0x3e1a028a3e3b3866U,
  0x3e4540f2be00129eU, 0x3de980533e067016U, 0x3e26b9853d34c6dfU, 0xbdbc60493e349d5fU,
  0xbd1143973e978f6fU, 0xbccc27bebc619930U, 0x3c4afe77bcfb8f87U, 0xbe6cc72abd968e96U,
  0xbdb9428a3decda49U, 0xbd1879a83d1ad347U, 0x3e1f56913e600df8U, 0x3e1371cbbe4b2e38U,
  0x3d099d463d8a908eU, 0xbdd9f333bcd13935U, 0xbda07e6c3e7c7ea1U, 0xbdef2043be41e60eU,
  0x3c5622573db8f4c5U, 0x3e2ad91dbe7e16f9U, 0xbd7f33453dc0f267U, 0xbe89f5113e1b6f5dU,
  0xbd18b0dcbe1dd1aeU, 0x3ccdd1813e1461ebU, 0xbea2e387be3be2deU, 0x3dee7a05bce143c3U,
  0x3d5021ec3e1ef7d9U, 0x3d556618be17f8caU, 0xbd79d6ff3e145f9aU, 0xbe2e1c7abde73776U,
  0xbdb8ff793d55e564U, 0x3e316856be3b5a1aU, 0x3d81de0e3d8286ffU, 0x3e28ee0a3e355e7aU,
  0x3da24c233e24428cU, 0x3df5a994be573586U, 0xbe3c2898be14e00fU, 0xbd61feb03db879f8U,
  0xbd42615abde88f90U, 0xbe4d88903e463f1aU, 0x3c4e54573c9efb93U, 0xbd7088403da75f59U,
  0x3e316448bd6991daU, 0xbdf8bbf8be17adb4U, 0xbe8976d6be241fa1U, 0x3ddd9316bb914dd5U,
  0xbbba2b663d8580f9U, 0xbdf35b9abeb07681U, 0x3dba1bff3e3056d3U, 0x3dad5ec5be0f624dU,
  0xbc0743db3e3a8f7eU, 0x3c41ea01be756f22U, 0x3d9bba66bd82711eU, 0xbd972fdabd1fba6cU,
  0x3dd778df3e784803U, 0xbe8ab60ebd816fb7U, 0xbe7c33b9be0fb8f5U, 0x3d182bacbe047a0fU,
  0x3cd3dcf43e655cfeU, 0xbc7854e1bc09bf9cU, 0x3d9582543e82ae0eU, 0x3bb75ef3bdb4b52eU,
  0xbdfad8b13e024d7eU, 0xbda9fc3f3e2e8763U, 0xbc821b173d61108aU, 0x3c8372293df0c0dcU,
  0x3e519e82bdf75501U, 0x3d7df7143e4ef76bU, 0x3e0dddb73e6f84feU, 0x3e4654b3bdd8178cU,
  0x3dd7742c3d3c6839U, 0x3d49dc313e0149bdU, 0xbbcbe001bdb14499U, 0x3e82fba83d2d1335U,
  0xbd8a0521bc78c534U, 0xbc123e523e376471U, 0x3e27792fbdae3e66U, 0x3da645d73e3fb675U,
  0xbdaf00113c7deb9bU, 0xba77be043d818182U, 0x3e5dfea13e46a0a9U, 0x3dafad57bda813d9U,
  0xbe103fffbeaff5f8U, 0x3e1ed1d4be13a4d2U, 0xbe626d9e3d02548fU, 0xbddf5bd2be591ee3U,
  0x3e145de3bddaf24eU, 0xbe816a643cf950d6U, 0xbe105b523df68db4U, 0x3d38c63fbe3cab5bU,
  0xbea2da77be46babbU, 0x3e137842be8dfc2eU, 0x3db8454fbe1c0587U, 0xbdad1c88bed3dca5U,
  0xbe7efafbbc8f1831U, 0xbe7536083c0c3618U, 0xbda4c63bbe544c0eU, 0xbd8a1133be12ea1cU,
  0x3c7f073bbe1b3e25U, 0xbe7e55f4be9ae5a4U, 0xbe6d46083e16afacU, 0xbe412c85bdcec241U,
  0xbea85312ba35dcf1U, 0x3d3297aabe60cbfdU, 0xbe4fd69dbe026ec7U, 0xbe6c987e3d20af55U,
  0x3da64abebd97b496U, 0xbe72cb1b3dd6cadfU, 0xbd6e86a33d0aaa7dU, 0xbbf1fd46be44c0b5U,
  0xbe1d1daebe0ff885U, 0xbde8462fbd327adeU, 0xbe8c91f43daccaceU, 0xbd89c0d6be810688U,
  0xbcc92ccebbfaa413U, 0x3d40e0f73c8d098bU, 0xbc544d46bd8658e8U, 0x3e507f91bd623ff4U,
  0xbd8afbb4be3602efU, 0x3e2cee3ebe571966U, 0xbdf227463e94c7cfU, 0xbdb8b809bc0f4e94U,
  0xbddde18a3db9ddbeU, 0xbac6a9adbe95c6a9U, 0x3c3ac0bf3db97939U, 0x3d08fd4dbcd6fa2fU,
  0xbe9b817dbd972c74U, 0x3ce9b3c43d83b26eU, 0x3e1fb352bdec71abU, 0x3e17f09bbd5f19c5U,
  0xbe037bb53e0740f1U, 0xbe9d955a3da5ee3cU, 0xbe831c83bd34446fU, 0x3def5e34bd8f1bb7U,
  0x3c77d62cbd92e599U, 0xbd424780bdf2699dU, 0xbe3ed59b3e53f62eU, 0x3c1eb870be151ca6U,
  0x3d649a45bbe3318aU, 0xbd07798cbe44307cU, 0x3c9222c7bdb6ec4bU, 0x3d44c0bf3d50ca2bU,
  0xbc094662be70681cU, 0xbe82736cbd13acd1U, 0xbde6e435be7af597U, 0x3e2d1a49be3711e0U,
  0xbd00a0b6bd656211U, 0xbd779c02bcb64c88U, 0xbe176089be5f7a95U, 0xbcd33ccabd9f5f84U,
  0x3dde1652be2fdeb0U, 0x3e07e36dbe7f700dU, 0x3c27f2873debde60U, 0x3dfafc8ebde5204bU,
  0xbc34a33e3d5732caU, 0xbbe93932be3d255cU, 0x3e314451bd5f89dbU, 0x3d0b4b153e113105U,
  0x3d6814c83d405b01U, 0xbe769b223db67e6cU, 0x3d26ea0bbe710591U, 0x3d31eb55bdf1d30cU,
  0xbd3f8dd2bdc04a28U, 0xbe195014bd297089U, 0x3e6b28ed3e04f441U, 0x3e35dc483d9144e3U,
  0x3d00a83c3c8f8029U, 0xbb5c4b6cbe018b76U, 0xbd9c263dbca63026U, 0xbdf6ef86bca7093eU,
  0x3e57d91dbde84da0U, 0xbe3f79833d7e662aU, 0x3caae01e3dfd8db0U, 0x3db44f20be2a2e7eU,
  0x3dd24067bd9cd25bU, 0xbdcc7af03e48aa08U, 0x3ce8e7213dd26a4cU, 0xbd1843aebd511a7cU,
  0x3e63d69b3e0457ceU, 0x3dabdc6a3caa4e07U, 0xbdb1d263be45b766U, 0xbd1f4316bd4579a0U,
  0xbe6712f53ccb0a5dU, 0x3c291561bd6d0308U, 0xbdff5cf03deeb62fU, 0x3d2c94023cd61fc8U,
  0x3dd43a20bdc6efebU, 0xbc3e239d3d97dde2U, 0xbe72d207bc9c5c51U, 0x3ddfb744be62288fU,
  0x3da48d19bd60ed04U, 0x3dd3595a3d00536cU, 0xbe2ec6dbbd8d8ba2U, 0xbdfbd14abda6796eU,
  0xbd949226be54caf2U, 0x3d72071b3a3f933cU, 0xbd9a5b11be038131U, 0x3e31b389bdb7a0fcU,
  0x3e109e95be4e8688U, 0xbdbd14f1bdb0f474U, 0xbdfe8ed13da27e50U, 0x3dddfea3be6011caU,
  0x3cba5280bcb8b028U, 0xbd937dfc3d6716b6U, 0xbdf22dec3e480e2bU, 0x3b6fe43ebe48a084U,
  0xbe8b28b13dcd4876U, 0xbd812403be76820aU, 0x3db411febe40c132U, 0x3d001e9c3e3e735fU,
  0xbc5190e23d711869U, 0xbc3ba9afbe8b8a97U, 0xbcbc0cf83dcee532U, 0x3e42fa6abde1ce01U,
  0xbbe5ebe2be15dd54U, 0xbe4ed470bd8c1601U, 0xbe7135113c85d071U, 0xbdd814253e562326U,
  0xbe8c0617bd9d840aU, 0xbe88090cbe53e187U, 0xbe04900cbd20087aU, 0x3d60ea83be493e89U,
  0xbdaccb3dbd89a3deU, 0xbe0318863e0c7b55U, 0x3d85f3ea3e11698dU, 0x3d13209ebe1a510fU,
  0xbe04a587be0033f9U, 0x3d1a44383d9621b7U, 0x3df8ea5d3d7c8d54U, 0x3e1a30edbe026141U,
  0x3d1f3a0fbde7c1a4U, 0x3e124fa2be3edcccU, 0xbdfaaa893da1c52bU, 0xbcf92e5b3df34d24U,
  0x3d3e446f3d9c3bd2U, 0x3d9277ecbdc53f71U, 0x3d1ea93a3db3a946U, 0x3de49643bcbb9660U,
  0xbe4a40fbbd9f6ce5U, 0xbe6c2eddbcedfbdbU, 0xbe727028bdc07ebfU, 0xbd325c093cec916cU,
  0x3e05e4e33d759bddU, 0xbe63a3f93e1b3866U, 0xbdcb576bbd1f6903U, 0x3dc046283d80c3f5U,
  0xbe5865583dc1b1deU, 0xbe249e80be037e62U, 0x3e355d1dbdb41c98U, 0x3da423603d9ae11eU,
  0xbe12500c3d71c511U, 0xbda24d67bdfc4212U, 0xbd1e01063e260c4bU, 0xbe2806e2bd950249U,
  0xbdd273fabc33e69aU, 0x3dfa4dbfbe27c580U, 0xbe5a95db3c9cc38bU, 0x3e00cc72be141998U,
  0x3dfa7df03d9e679bU, 0xbe52b9cabdcd65a5U, 0xbda43c5fbd231710U, 0xbe812ae63e233989U,
  0x3cb2f0cb3d8577abU, 0x3d91c3cb3d679fe4U, 0x3e1a046f3d2b0a21U, 0x3daeb6a73dcce4b8U,
  0xbe5141f23d05a062U, 0xbe33785fbe07caffU, 0xbdf779663e05d37fU, 0x3c38489fbe01cf19U,
  0xbd83a146bd356b8bU, 0x3de827a83da03501U, 0x3d8801783e485ee1U, 0x3dcba0063d6be3c1U,
  0x3e1e4e053e1405b3U, 0x3e06b900be2ccb25U, 0x3e2f9afb3e31fe18U, 0xbdb16b8fbdfa6434U,
  0x3c903f6c3da4d3d3U, 0xbe2d4bb53e0b0dadU, 0xbe713312bdf69201U, 0xbdb75502be275083U,
  0xbe15da79be1b7f2aU, 0xbe48c431be1590ebU, 0xbdf7a936be9487b3U, 0x3e294366be7c8c35U,
  0xbe800253be85ac4eU, 0xbd58141fbdae45d8U, 0xbe74b929be2472acU, 0x3e53ccc3be92f562U,
  0xbde833e3bddfe3bfU, 0x3d7bd275beb00993U, 0xbe868647be5758eaU, 0xbdb5567cbda8b9b3U,
  0xbdfe27c4be02e530U, 0x3d43aee1b97b0a48U, 0xbe547f4fbd822a59U, 0x3e335da33e075b05U,
  0x3de282213d17175aU, 0xbe52c734bddf8042U, 0xbe779fd2be424803U, 0xbcc4cb173e26b186U,
  0xbe2ee8273bcb2611U, 0x3e6f85103df0e03bU, 0xbca0e515be324a85U, 0x3e6b6f3fbdf030d1U,
  0x3c2d23573c28537cU, 0x3c0254a6bd244968U, 0xbd9ff3533d36c655U, 0xbc09d89fbc8c16a6U,
  0x3e6829e6be44cbf0U, 0xbb9fe376be8fb146U, 0xbc29cc18bb34644dU, 0xbdf58474bdd43e5eU,
  0xbdfb08b9bd2b7b18U, 0xbe80209fbe03ed47U, 0xbdec272bbe5ef65cU, 0x3cac1e9ebe00b53dU,
  0xbc11160ebe2f7fe0U, 0x3e251afd3ddfb845U, 0xbc067bd8be7404a4U, 0x3e1faa28be71d948U,
  0x3c0f43eb3e06a610U, 0xbe0016703d9769a2U, 0x3d15fac1be1cf5fdU, 0x3d2cb208bd96b0c5U,
  0x3d5ed6abbe09eb96U, 0xbcae3405be63aa3aU, 0xbd485b113d8ca714U, 0x3e32ddd7bde8d1afU,
  0xbd8f640d3e1d8cf4U, 0x3e10e449be5a068dU, 0x3dcd65cbbd61c42fU, 0x3e17a15f3e0ac0c0U,
  0x3d310f7dbe159cfbU, 0xbc97eca13de85f2aU, 0x3b253d263e02927cU, 0x3de98b8fbe8a7cceU,
  0x3c6008173e6277a4U, 0xbe248aaa3cfe5f22U, 0x3db876f1be89cb71U, 0x3e24e45bbe6da37eU,
  0x3d91ca49be35b411U, 0xbda190213e29a1c6U, 0xbd3bfb6d3e1363d5U, 0xbc9d6e35be21ccfbU,
  0xbde08c1bbdbd450dU, 0xbe263d833de0c546U, 0x3db9d8b5be0001f9U, 0xbd2f16e6bce7cd3aU,
  0xbdab66693e01a4a9U, 0x3d807ff0be62ef6dU, 0x3d8aef0ebdd52f4bU, 0xbdfc1197bdc282e3U,
  0x3db625063e5f14c3U, 0xbe2763953e1aab47U, 0x3e3d8eb23e9dbe3bU, 0xbe7663183d90c254U,
  0xbd0d4f8a3da61428U, 0xbd852923be5bd157U, 0x3de52c843d622480U, 0xbe1d96f93b5dcd89U,
  0x3e243dfb3d1b2c72U, 0xbdb670af3cf2017bU, 0x3e80c5adbcefbbd3U, 0xbbd5de4c3d91da74U,
  0x3bda9bd8bc80f773U, 0x3d8e276abdacf899U, 0x3e0e0e283e13dc00U, 0xbe90927c3cefb822U,
  0x3d99f9ddbd8a82adU, 0x3d4227b53d4006ecU, 0x3dd899b4bd96aad1U, 0x3bd180183cfc7bbcU,
  0x3db7d9b33be1dd01U, 0x3d3189593deb1107U, 0x3e087c91bd944327U, 0x3dbd55ed3e1d27e4U,
  0x3e11638bbdcce10cU, 0x3e88249fbe0a50e2U, 0x3e5106b93cf9cc96U, 0xbd741e703e86dda0U,
  0xbd5d42a63d986830U, 0xbe0d484e3e1b45dbU, 0xbde765cfbda764c9U, 0xbc87e2323d1b9f1bU,
  0xbd9748c8bb8493c1U, 0xbd238670be17af1fU, 0x3d9554c9be0eb214U, 0x3d9c25c33c9aaa13U,
  0x3dc8dbc1bd66f72aU, 0xbdc94b28be027986U, 0x3de5b10dbd3ccfdfU, 0x3e37e27ebdaa030bU,
  0xbe0107033e6eabb4U, 0xbd8f4bfebcae226cU, 0xbd37c5debe518f95U, 0xbd12f77ebe03fa7eU,
  0x3d07a3b13e9e295aU, 0xbd91350d3d945c43U, 0x3ee24067ba284bb0U, 0xbdd725e13d1cbad7U,
  0x3d9a0fe2bd1d80b7U, 0x3bd3c7fabdabb398U, 0xbe4349973d67da27U, 0x3e462298bd4b86d1U,
  0x3e32a7e8bd0c4120U, 0xbd6c5ad8be0770dcU, 0xbe4aedb0be40a713U, 0xbcb85db03be1d274U,
  0xbe1cca05be8438b2U, 0xbe3a28683d717c80U, 0xbda8e1883d35a3b6U, 0x3bc68e473d576715U,
  0x3dbdd8f7bc837131U, 0xbc9d55873ddc62bcU, 0xbe8e94a2be257707U, 0xbc343156be83a84aU,
  0xbcaa77adbe205e80U, 0x3db5b07cbc1fd9c5U, 0xbde7a2a2bcad45e3U, 0x3dcc27773e248caaU,
  0x3c7244b93e0573e5U, 0xbe045fb1bd642f2aU, 0xbe76ccc2bd785ef6U, 0x3daf1249be802b41U,
  0x3d9e20023c8181dfU, 0xbdf50ad9bd6f587bU, 0xbd9c2bd03ca4d178U, 0x3db994d33d12be1cU,
  0xbe2a8d29bd221be4U, 0x3b823d2ebe2afee2U, 0xbc7df541bc406614U, 0x3d5fcabebd762607U,
  0xbcada2d33d44c144U, 0x3db7a73bbdd38befU, 0xbd2a56be3d822811U, 0xbdadbb04bd3e9f63U,
  0x3d83a2f2bda7155aU, 0xbd80cb7cbe543e2eU, 0x3daeb40abc19c6e6U, 0x3de27fb3bda9eb09U,
  0xbdb039b53e1a0b28U, 0x3c93023a3d71a4bbU, 0xbde678343dfaa23aU, 0x3ddf3005bdc4420bU,
  0x3d87c94f3cac9a4eU, 0xbe0d7a2abdc2b37cU, 0xbdb0abaebd5d9e11U, 0x3dd892d83bb4871aU,
  0x3e16e649bdd4d3c9U, 0x3e2650673e5049d4U, 0xbd973f5cbd8638a2U, 0xbb9900f0bda18f05U,
  0x3de1f914bdf0e79fU, 0xbddab0d8be173dd3U, 0x3d9618dabdb168beU, 0x3defdde83d89b32eU,
  0x3de030453e14d35dU, 0x3e2c8a963b8f392cU, 0x3d475f853e10ea9cU, 0x3e2e4de3bd8dae29U,
  0xbcd6d2cdbd802323U, 0xbda6d368bcd4a0c5U, 0xbd80bc8d3d935614U, 0x3e13d9633cb93a7fU,
  0x3dcc52c73daf02e4U, 0x3c4daae6bcdc77e8U, 0xbe05f8e73dce26b0U, 0xbd8ee592bd4e98eeU,
  0x3d98f4503d5f94c2U, 0x3d3ae186bd88ed14U, 0x3d29b7b1be28eea6U, 0x3e1b32fdbdc75321U,
  0xbd7d55b53e69f021U, 0x3cfd82b43d18a602U, 0x3d083c533d0a46d3U, 0xbca38a09bd68fd71U,
  0x3e452c31bdff8453U, 0x3c30038abdb7c57cU, 0xbdcabed7bdda2ea0U, 0x3e08d0f2bdfb244cU,
  0x3d78f0a63d8c38dfU, 0x3d5538543e61f453U, 0xbe01f192bbedabf7U, 0xbd2ddc663d0a6ca3U,
  0x3e8f3c173c71adcaU, 0xbdd6834ebcb55de9U, 0xbe0f04ee3dbe085fU, 0xbb1766d0bc41151eU,
  0xbc2133573d480aeeU, 0x3db8ea76bc208ab5U, 0xbc973864bc0849b0U, 0xbccaf550bdb89b24U,
  0x3e3c43b33b8f2c47U, 0xbe00ec3b3dc1628bU, 0x3c007298bc522567U, 0x3d34aa093ca3ef04U,
  0x3d8adba5bc743cc1U, 0x3deade42bc832a71U, 0x3c8ba7c33c428fd6U, 0xbdbf9299bd479d7cU,
  0x3e243f35bc9ca26fU, 0x3dec4e98bce402d8U, 0x3ec3f2583c859079U, 0x3c710c8abd29309bU,
  0xbd5372debd0f578cU, 0x3e0d23903d894363U, 0x3c88c3ab3dfd3786U, 0xbd042d413d97df1dU,
  0x3d9b158c3dbcefa4U, 0xbdcd1ba33caa83c7U, 0x3d13bd9cbcb7331eU, 0x3e02c1c63b22e383U,
  0x3e0ae5863d352f8bU, 0x3e14874c3e248673U, 0x3d69f4f63c89f3d4U, 0x3dd9baa13bdb0479U,
  0x3defeb0fbca761d7U, 0xbc2838bd3abb10ccU, 0x3cf952ea3dac4c84U, 0x3e0c1be5be170b1aU,
  0xbdb750c4bd9ac69cU, 0x3d4c4bbf3ded30e7U, 0x3b223a743db71c31U, 0x3e3ef446bcb6a349U,
  0xbad22d4bbd5bc24eU, 0xbe2328173dcf439cU, 0x3d1c90823c4169b4U, 0x3c1f4ba0bca26095U,
  0x3d8194bd3e40b95dU, 0x3d4fa8953d1afe04U, 0xbd4aeb7c3dced5c4U, 0xbc1e5142bd2c5a80U,
  0x3ddc9e26bc8d6590U, 0x3ccf333fbc60403bU, 0x3e06e4d7bd787523U, 0x3e6640f23c76f2cbU,
  0x3e206fa03cf84d7bU, 0x3cd9eeb3bd3e944bU, 0xbd801d1abdb4f40fU, 0xbc1c9e6c3e386693U,
  0xbd14b3623dc1611cU, 0x3dbafc65bd84a7deU, 0xb98e94263d3dca85U, 0x3e3ee724bd8200f0U,
  0xbd783106bd7c385cU, 0xbd9497b13dd73cb6U, 0xbddb20d3bd27c73aU, 0xbd1a1dc43da9e9d9U,
  0xbca4f6e03dba0f29U, 0xbbbdbd2b3d8ad323U, 0x3dad24583e59b174U, 0xbb85b7c83b78ce82U,
  0xbce1da80bc812b17U, 0x3d90ff483c54d8f0U, 0xbcd5f432bd0f2febU, 0xbda72a183e0d436cU,
  0xbd858247bd4b1872U, 0x3e15a4173e5ede77U, 0x3d0299563d353abcU, 0x3da0c85a3dc1b67bU,
  0x3e732dac3d82aebfU, 0x3db80a6e3e7e56ccU, 0xbdadce703e11fbfeU, 0xbe4079833e26b17aU,
  0x3e2a7fc6bd18bc93U, 0x3ea776da3eaab599U, 0xbcf3bc033e70146dU, 0xbd5d89013d16382aU,
  0x3de2de17bdde82edU, 0x3e87261e3dbabb69U, 0x3d627ccebcd8b691U, 0x3cf6bed3bd1ae638U,
  0xbc2f7f32bd66e2d7U, 0x3e47a7053e8f5043U, 0x3cd76cdd3e1f491bU, 0xbd8b64883e600c22U,
  0x3df1d0fd3d2569f5U, 0x3d1c7924bda9961bU, 0xbce530283da717a4U, 0x3de74085be18646eU,
  0xbdad434fbe573dc1U, 0xbe1eba723cd0f6d5U, 0xbd5ebf27baa21eceU, 0x3c5ce823bdb16ec0U,
  0xbd925c85bd0665bcU, 0x3d776948be132533U, 0xbdfb54933d6f5becU, 0xbcc9bc6f3c5c4234U,
  0xbdc5c20bbe64cd91U, 0x3d215e14bbc3282fU, 0xbe201895be0421ebU, 0x3daca1fabc45e930U,
  0x3e173625bd6ed47fU, 0x3d3c4f4fbd0dc400U, 0xbd1bb3ebbdc31362U, 0x3e07e99c3de461dfU,
  0xbc646f173c81c1ebU, 0xbd98c000be601a34U, 0xbe4549c1bd60e666U, 0xbd9a84ad3cbf77bfU,
  0x3d8214303babbb3eU, 0xbe116169bc37dc12U, 0xbbbdf9953db13523U, 0xbd0dc0ef3c4e65e9U,
  0xbdcb6909bd417a9cU, 0xbce2de74be3613a0U, 0x3c4f1903bdbbad23U, 0x3dad46adbdc978f2U,
  0xbd83607ebd23fb24U, 0x3e0760fabd9c1f49U, 0x3cc31189bd5905feU, 0x3d66ed5bbc93a4d2U,
  0x3e59b3d3be1b49a5U, 0x3d341bc6bdebc14cU, 0x3caeb738be08e991U, 0x3df32c70be5e02edU,
  0xbcde54263d6050e9U, 0xbda3e76e3debcaf8U, 0x3d735ee8bce5ea07U, 0xbcad7d6fbe15b7b6U,
  0x3d457f47bde3cf28U, 0x3dca3866bdc04acdU, 0xbd96d4413dc9d1beU, 0x3d5de6353d9067d4U,
  0x3d8517b1bd34bd15U, 0x3ce07cc8bda797dcU, 0xbdf150c3bdc47c6bU, 0xbdd94be13db66214U,
  0x3df8b3a9bcbe967bU, 0xbda8fb8bbdcedd1fU, 0xbd5727f7bd53fa9fU, 0x3e0806b43df9b542U,
  0x3e1f67353d8a44f5U, 0x3dbdb9473dd02290U, 0x3d0fb3183dc21ab3U, 0xbd31cceabe40eb59U,
  0xbdfe35e9bd469a88U, 0x3d1136dd3d7804eeU, 0xbe2c8b003dae6ba5U, 0x3d7b255f3d8a6392U,
  0xbd93f9063df60628U, 0x3e2df2b23d799517U, 0x3d2730543daca32dU, 0xbd582aac3da4d057U,
  0x3da15057bd142edcU, 0xbd56fde03cf7bf74U, 0x3d9178bfbdf3f977U, 0x3de77108bda79d68U,
  0x3d58fadeba295082U, 0xbd5d92393d9e7006U, 0x3ddbe2d0bae3d41cU, 0x3d458eb23d896188U,
  0x3d801e0a3db18b72U, 0xbdc1ddcabdc6523eU, 0x3e06d427bdf26056U, 0x3db29e6dbda92cc6U,
  0x3d90eadebe11d160U, 0xbde398dc3e5b9544U, 0xbe0af62e3e0f529bU, 0x3d07bf113d903b86U,
  0x3de87044bc225043U, 0xbd4eb363bd89d6ecU, 0xbd8329e53c90adbaU, 0x3db9fac1bd8991f1U,
  0xbda1d1a3bdf6df8cU, 0x3e1088633e074535U, 0xbe0f7a813d5399f4U, 0x3cb626df3cb96f47U,
  0xbe474f1d3d8e90c6U, 0xbb72c35c3d34b3e5U, 0x3aaefea13dc32f02U, 0xbc29c1253d892b0fU,
  0x3e129f53bdcd4dc6U, 0xbd63242c3b44d666U, 0x3ce5b6403e350e2cU, 0xbdec9a8e3d2f3670U,
  0x3e0f89c0bd5e3dbbU, 0xbc6914dbbc9d9191U, 0x3b3f1d7dbc84fd8dU, 0x3dbafb81be62dd71U,
  0x3dfa0e37be532e8aU, 0x3bdf59d43dbdf5bbU, 0xbdbb2020bd21965dU, 0xbcaa7b843c1cee89U,
  0x3d83d111be4d8956U, 0xbd8f0e2abd893b9eU, 0xbde884c9bdd2ed11U, 0xbd378579bdb41665U,
  0xbd0e4b93be0c3a3cU, 0x3e1700b93dd0a930U, 0xbc7f62e73e048afaU, 0x3e1c38403e438dd9U,
  0x3e0d53f93d5d0c89U, 0x3d1246693b9e387eU, 0x3d9f7df13dad9f0aU, 0x3e04338dbd2e6e1cU,
  0xbd892a673882e77cU, 0x3ca443863d10997fU, 0x3d85dd163da30134U, 0x3d7ddae33d6617abU,
  0xbda919a7bdeb5323U, 0x3b8729b2bd18c36eU, 0xbd60d004bdf083efU, 0x3d367d9b3d0d7919U,
  0x3da0b8c8bdf1fa94U, 0xbc95e17dbddd11d9U, 0x3ca835883e0dfa3cU, 0xbd03c2f33e32da94U,
  0xbd945646bc303006U, 0x3dae793a3d8f05faU, 0x3bb4de2b3d21483bU, 0xbd50a0f1be04b186U,
  0xbdedc787bdeb7af3U, 0x3ba5d99ebe8aa409U, 0x3bc8439e3daac808U, 0x3cca2b37bbcf2a45U,
  0xbc776c6ebd7026baU, 0xbc8086a839ce2afaU, 0x3bb71719bcdd1622U, 0x3d342c2bbe24825bU,
  0xbce65889bde8b564U, 0xb9fdd8a7be3f06d9U, 0xbdee39febd37b04eU, 0xbd6e0ccfbd605bdeU,
  0xbd8514e2bd9ad0a8U, 0x3c5700b83d710ea5U, 0xbe5acbe63ada2e4dU, 0xbdc836763db24470U,
  0x3db9404fbd55f258U, 0xbb6940743e210ec1U, 0xbd1982423db437e0U, 0x3d950e8e3d5c56c7U,
  0x3dd8fba33dcce50aU, 0xbd466865bc953d2eU, 0xbe2ea1653e040f4cU, 0x3e3cbf853d1827faU,
  0x3db316c6be2bafc3U, 0x3d8e71ba3df108d1U, 0xbe20b2bdbdc77b32U, 0x3d8828a63d65085bU,
  0x3d38a798be3f87ddU, 0xbd7a7cb23debf4e2U, 0xbe414d8f3d8ed5f7U, 0xbdea9bcb3d99b3e6U,
  0xbd632a7ebe284703U, 0xbb0afe8abdf11659U, 0xbe31696d3dc9a9a0U, 0x3b16b240bd2425d1U,
  0x3e0d17c3be45d839U, 0x3d9f47003e110140U, 0xbd7d3e4cbe1adfc2U, 0x3c520e5ebe6eb882U,
  0xbc5cedd03ab045c5U, 0x3da800443bf9e829U, 0xbb997c4abdb34b47U, 0x3d882492bd6af6b3U,
  0xbde92e8a3e2e1144U, 0x3d6fd2dabe4376f5U, 0xbdaaa57cbd91acdfU, 0x3d06e82e3dc44032U,
  0xbdb22b27bcf150dbU, 0x3cc975f43d02e9aaU, 0xbcea6486bdd620c1U, 0x3d6b19b3bdcc3258U,
  0xbd61bd393e5d9d85U, 0xbdb1b311be327b66U, 0x3e0d033c3d46412fU, 0xbd221db2be4acbcbU,
  0xbe0d6c03bd8c940bU, 0xbe11d7763d1bcf10U, 0xbda0e6bb3d5111eeU, 0xbca4c351bdcc37c2U,
  0x3d2bc42a3d394dd7U, 0x3cdaf383bd027fa5U, 0x3b66ca99bdb1e678U, 0x3d6de60cbe028694U,
  0xbc003c06bcbaf7f8U, 0x3d5c33a23d1d1202U, 0x3b916e733d3d5e8cU, 0xbddc870bbd94e508U,
  0x3cdb6dd43dfba820U, 0x3d7815533d36b7a3U, 0x3ce48ae0bd899d16U, 0x3d55b29a3dc01dffU,
  0xbd9433d6bde46d08U, 0xbcca207abde9d5e5U, 0x3c72b7d9bd52937aU, 0x3e03ef373c8c580cU,
  0x3d10ce7e3bd91797U, 0xbe3d552ebb8202dbU, 0x3c53fa1c3dc85a3aU, 0xbd9d11143d90b4d5U,
  0x3d3f9cc53d14d672U, 0x3dc9afe8bd14b008U, 0x3da9e51739d61bd3U, 0xbd82b285bdf6929dU,
  0x3e61b5313e18792cU, 0xbdb7e62c3d34b01dU, 0x3e5ba47b3db5c569U, 0x3bb230f1bd6594ceU,
  0xbd2ccd703e20c9fdU, 0x3c2bca2bbd0ce2cbU, 0xbd05431bbdb4b5b0U, 0x3da91e1abe1f24bbU,
  0x3d082f7d3de2579cU, 0xbdc20dc4bca0a52eU, 0xbd66a1e03dcd2c11U, 0xbc60b2973c01f8c4U,
  0xbdb27cc3bdf107ccU, 0xbdac8cd4bd48be6dU, 0xbd9cb5a7be6a1c59U, 0xbd92121d3d920190U,
  0x3c8b418e3d5f6f66U, 0x3c9f40c93d6fc19bU, 0xbc198e03bda72a74U, 0xbdc656ea3c46f21aU,
  0xbd0704ea3dca5546U, 0xbe15f90b3d8dc52aU, 0x3d83376bbbac16caU, 0xbe03a9e9be12e6eeU,
  0x3bc02fbb3df48101U, 0xbccbee59bd933cdcU, 0x3e61614dbdb4187eU, 0xbe26c9503d0bfcbfU,
  0xbe0afe7c3e343b69U, 0xbc8c227ebdd941a1U, 0x3bc53d343d42549fU, 0xbd9a2d45bd8c3035U,
  0xbcaa84b13cdaa9a8U, 0xbcc376a5bbab3e89U, 0x3c772afd3c8329b4U, 0xbdfd6985bd23860dU,
  0xbdf2bdf23dea9461U, 0xbddcce9fbe54768aU, 0x3da145f33c91d943U, 0x3cfcede6bd349c69U,
  0xbe1aace43d37d6d2U, 0x3d008802be018219U, 0x3e193c66be0816a9U, 0xbe138df3bda6dabaU,
  0xbbbbb294bbd5da55U, 0xbda6773fbd9e4c19U, 0x3c7750a2bdb615ffU, 0xbbb2747cbd7a35e2U,
  0x3ca0c8e83dd9d041U, 0x3dab51a2bd60af1fU, 0x3df4b961bd0d1c6dU, 0xbd01ff6c3c4231fdU,
  0x3b41fb98bd151e5eU, 0xbd6f3e35be540ac3U, 0xbe0bbbbebe339feaU, 0x3cacbc3ebe298506U,
  0xbe357b28bd3f2733U, 0xbcf4f5b8bddfbaa7U, 0x3e1521cebd8992e3U, 0x3cb29e1b3dad316fU,
  0x39c4dd283df438efU, 0x3d597949be1a4b0eU, 0x3d988f4f3ca63846U, 0xbe162d13bc29f63aU,
  0xbd71c752bceca8fcU, 0xbe1f90803af64770U, 0x3deba2043dc28f66U, 0xbde5accdbcf2b14bU,
  0x3dc2ac373d6682fbU, 0xbe36cf503dba51d1U, 0xbde2c2aebd06938dU, 0xbda74fe0bd7fd69aU,
  0xbe12f177bc4955daU, 0xbda282a2bddd9c2dU, 0x3e44f004bdd40839U, 0xbd6fa6a5bda1a225U,
  0x3d92da713debcad1U, 0x3d573654bd8ca5d6U, 0xbe148a6ebd45161dU, 0x3c834ce7be604f76U,
  0xbd26ada93da157bdU, 0x3c66e843bc1ce21bU, 0x3e99341dbbcd6ee6U, 0x3d2aa92cbe1290c2U,
  0xbd2a3f5f3d86ad91U, 0x3cde160e3e808d35U, 0xbdcff77a3d192e0fU, 0x3d18bb43be50d177U,
  0x3e0ee77c3d03d42eU, 0xbdc6023f3b36ef1aU, 0x3dfd48483e2bbc21U, 0x3d8692ac3d022056U,
  0x3cdb38673da4cab4U, 0xbddfcc3b3e322f45U, 0x3e0094d23c6b241cU, 0xbdd6f5873db9f2bbU,
  0xbcf6e443bd50b88bU, 0x3daedb763d307bc9U, 0x3e1a8a103d067fd6U, 0x3b79d8e4bc99392dU,
  0x3cf2b881be053875U, 0xbd2d69283d2ff98dU, 0xbdd65b3c3d7baee2U, 0xbd99e29cbac8ab69U,
  0x3ddcce2dbd55f768U, 0x3d58e3f3bd993c7cU, 0x3e00b67b3b893987U, 0xbd8069cf3b1576b6U,
  0xbd9ad2e8bdd60ab0U, 0xbd86f5d7bd29d50aU, 0xbc50fdafbe07ab9bU, 0xbdecdf9ebd0d8e91U,
  0xbdc1ba20bc13422bU, 0x3d2bacbfbd4ad257U, 0x3db061643ccacf56U, 0xbdc804c9bcbe5d01U,
  0x3dac843f3e2644adU, 0xbce60919be4b6a63U, 0x3cc70d0d3d5bc05bU, 0x3ae56a7fbe575e15U,
  0x3a7f0dfa3cc16628U, 0xbdb22aed3acd50adU, 0x3e5d8dd9bd4b508fU, 0xbdf23bddbd5f8917U,
  0x3d5fcc0a3dab7961U, 0x3d4210bd3b9a64d7U, 0x3d96e760bd998978U, 0x3dff56eebe0f601cU,
  0x3c9ab9003d0d2732U, 0xbce0ed3c3b162450U, 0x3e58ff863c87e26aU, 0xbdb1a5ebbdb2e722U,
  0xbd8d4fa2be08759dU, 0x3d3056b6bddab457U, 0xbcae3c143d4ad584U, 0x3ac1fb8bbe47f73bU,
  0x3d0324aa3d9f2e25U, 0xbde010a5bd98a8c2U, 0xbae2d8553d800ae1U, 0x3d98fd033d3d9d9cU,
  0x3b0dbd80bcd8fc80U, 0xbce6de09bddcb8a1U, 0xbd1fe5723d547726U, 0x3ce62153be251ec2U,
  0xbc918a113ddcc6f7U, 0xbdee9450be0e8ef6U, 0xbd605f9cbe0f8a89U, 0xbda1b017bd1db708U,
  0xbdbb295fbd88d368U, 0x3d089115bdcc77b8U, 0xbb40a68abd4357efU, 0x3d7d8e63bdfe3147U,
  0x3d37cac23dbfc563U, 0x3dc56b813e03c029U, 0xbd3ebd0fbc0585afU, 0xbda82f0cbceb9275U,
  0xbad4d5a3be022a97U, 0x3cac672d3c9844fbU, 0x3d4118f5be0c9f4cU, 0xbd5fffe6bd3b86c6U,
  0x3d8747ad3c9f917cU, 0xbd8ca9623cc4fbb5U, 0xbdc55804bc65c6caU, 0x3d665484bd896669U,
  0x3e08bd27bcf15c9eU, 0x3e0ae541bdad0e88U, 0x3bde3dacbe28e901U, 0x3d7f031dbe7f6904U,
  0xbd11856a3d956116U, 0x3cca120dbdbcf3eeU, 0x3d5a89a0bd09d6f1U, 0xbe07aab83beee969U,
  0xbde30b133d0c4864U, 0xbd27e4263cbfcee0U, 0x3dc7c6d5bd48dc5aU, 0x3d0ea0e9be541a5aU,
  0x3e8212de3e0ff476U, 0xbe346ed33d4faba3U, 0x3dc464323cd29772U, 0xbdc60988bd36feb6U,
  0x3d3b3e083cd8439eU, 0xbd632d983d9ab372U, 0x3cd3850fbdb19007U, 0x3d13b8edbcdbc2adU,
  0x3d7d69c3bbcdedc6U, 0xbd0a05a83d066e07U, 0x3df22e9ebd96bfd2U, 0xbd6cb1e8be09150dU,
  0xbd0265183db0cf1dU, 0x3cafa133bcc34eeaU, 0xbdef9c5ebd985f84U, 0x3dabfe40bd98d9ceU,
  0x3d9b61e8bd063b14U, 0xbd3585d13e2708b5U, 0xbd12d8e1bc9c07fcU, 0xbd358402bd90d08cU,
  0xbdb69eb43d7f96c8U, 0xbcbb8680bcc26131U, 0x3cc79e1ebe16568eU, 0xbc88a352be0622e6U,
  0x3d2dde493d1555b0U, 0xbe408b063d1b54ddU, 0x3ccc50d0bc9e52a8U, 0x3c64a8f73d3207b6U,
  0x3c9a9dcf3dc9fc11U, 0xbcb0c239bd75f715U, 0x3d24a98e3d97ffc9U, 0xbc402d28bd2198dcU,
  0x3d50c5e33d897cdbU, 0x3cb6c39b3db188d0U, 0xbc4bdb87bdbdae37U, 0x3c047827be3f4fafU,
  0xbb65bbff3d8b9657U, 0xbd9cb03dbd22a315U, 0x3ce8ff42be256f8fU, 0x3db65a8ebd22fc3fU,
  0x3b97a5153d37c252U, 0xbda1a80fbc9196c2U, 0x3dca0feabdce2ca6U, 0x3cbbe6b4bdfb6782U,
  0x3d203a9bbcc7504bU, 0x3cf6bf123d83f540U, 0x3b5ad5a4be00dc7cU, 0xbdbb10713d902f94U,
  0xbcb7dd75bd185d61U, 0xbdc5c1f1bdb445f3U, 0x3dc69e263b84e256U, 0x3bab51bdbe0622d7U,
  0xbe3735fb3df60f9dU, 0xbd138fd73dbe741eU, 0xbd0a9eb53d557d34U, 0xbc928f88bdfaeab6U,
  0xbdab51043d963c85U, 0xbe05bad5bdef6cd7U, 0x3d7bbb79bdfcd43fU, 0xbd100d7bbe039ceeU,
  0xbe09dff73e1bf819U, 0xbe02a89fbdae5e76U, 0x3db00af5bcfa57c0U, 0x398a8458bd7bd125U,
  0x3df1122f3d89a991U, 0xbc1d21093d1e26abU, 0x3db391913ddfd607U, 0x3c883f383c3370e2U,
  0xbd9a70c3bce13377U, 0x3d22df8a3e0646d9U, 0xbd317b973c17bc20U, 0xbe0c4632bd656c3fU,
  0xbdb3c7acbd62ff8eU, 0xbe3aa6cabd91e05eU, 0x3e11c3003c6aa6b1U, 0x3d7e408bbdc2fa50U,
  0xbdf87076bd60483cU, 0x3d82002cbce53edaU, 0xbce9f5a6bdef6e7eU, 0x3d948757bd34a32aU,
  0xbd959a053d825c3aU, 0x3d44c182bda9a1deU, 0x3e52cb3e3e07397bU, 0x3d880f5abd282479U,
  0xbdde7436b98489d3U, 0x3c947c453e173d8eU, 0xbc550185bdce7fffU, 0xbdd6e8f4be1c34ecU,
  0xbd9860c3bdfd4bffU, 0x3a86bb58be00c766U, 0x3e0bc394bd8f01e3U, 0xbcf9c7bb3c4fc4d6U,
  0xbd22ea453dddcb0bU, 0xbd76d7df3d95a7f8U, 0xbdd0ca293dedcfb3U, 0xbda13ae3bc4da15fU,
  0x3cb3d9d93d9e9f99U, 0xbdbb3829be065554U, 0x3e154fbd3d8700e4U, 0x3d0bd56bbb299e49U,
  0x3d7031f63dfdb3b9U, 0x3db257e23d3f9bbcU, 0x3de324313d8ed194U, 0xbd3cbf91bdbfde30U,
  0x3e15b4243d6324c2U, 0xbbfa7a6d3d344328U, 0x3deccd4c3dabdd32U, 0x3da0a2b8bdb947b6U,
  0xbde5183d3cbe80b2U, 0x3c2257ee3d772a5eU, 0xbcf4774abdd1f939U, 0xbd795ce7be111e49U,
  0xbc0d24cf3d58f86aU, 0x3c6a011abd2200daU, 0x3da10e883d1df7cdU, 0xbd637aa43c3938d1U,
  0xbc6c1d693dc3456bU, 0x3d0ba0863d8076a4U, 0xbce78a0f3ce99233U, 0xbd497f563d3ebf03U,
  0x3cc89f503cdb19d2U, 0x3ccf8e4e3d0860b7U, 0x3e0dd475bc8e6034U, 0xbb17f114bda40fabU,
  0x3dbe53053e460efeU, 0xbe0923183d846988U, 0x3e7234e4bd25700cU, 0x3e23c5bfbdf4797dU,
  0xbd8bd8a73e882227U, 0xbc6792293d64a545U, 0x3e25bbeabca52d44U, 0xbdc1c85c3e2a859fU,
  0x3cafceebbc4fc0ebU, 0x3c03cb0a3ca15824U, 0xbdc851cd3e1bef82U, 0xbdda1113bc8d3a00U,
  0xbca89f0abc17026aU, 0xbe13063e3d841adaU, 0x3d8b80df3cdf48c3U, 0xbd78ee133ca35f54U,
  0x3d89ecc03c2bcab7U, 0xbcb267b73d52329eU, 0x3d97dc62388bcc40U, 0x3c21d8dabd83ca01U,
  0x3dbaef76bd647dd6U, 0x3dfc61d0bc7f4e5bU, 0xbe33378f3be92e7eU, 0x3ce67285be067824U,
  0x3e0b75ffbda1a90fU, 0x3d1e78f0bb65e478U, 0xbdb0ac433e1e8b81U, 0xbd2dca083d02a503U,
  0xbdfaf255be0d0eb2U, 0xbe1c618cbc8413e6U, 0x3cda9d10bd94d518U, 0x3df2fbd83dadb5b1U,
  0x392b6ab33d468680U, 0xbc5c64e63d8db86cU, 0xbbca80e93e2bb2f0U, 0x3d7b5f473c8f55bfU,
  0xbcd90619bd738742U, 0xb89543c7bd94a825U, 0x3c2b02203b1e95f9U, 0x3db8ebf9be00bd06U,
  0xbd5c38d7bd2ce71bU, 0x3c6cd2e9bd302ec7U, 0x3d7d48653dbcd102U, 0xbcc830003dec6cedU,
  0xbc377427bdacf630U, 0xbc1c727abd801688U, 0x3dc4fcd13dab9517U, 0x3dec11173d9d75e1U,
  0x3d89ccb73d4eff0fU, 0xbbe9ed333d977dc0U, 0xbbe98b6a3db71716U, 0xbd917bf43c8c96a9U,
  0xbbb05fd8bca8a149U, 0xbc7cc512bdc472b8U, 0x3d2fcd473e0e7642U, 0x3daf0f96bd3d93fcU,
  0xbc1c4d58bcbab67aU, 0x3df026bdbd54dda9U, 0x3d31ef61bc220e70U, 0xbd272a5a3deafb23U,
  0x3e4cfa83be57a576U, 0xbcef55d83cf9454eU, 0xbd83d3a73dbbb36aU, 0xbcf201a03d5f8dccU,
  0xbd00c4533e30af58U, 0x3d9f74c1bcc8c5b4U, 0xbdd634f43e3f10b6U, 0x3cf569cabc945a22U,
  0xbe2c5cf0bcd7f52eU, 0x3d115599bd662e7aU, 0xbe2a0b9d3c9df7d6U, 0x3dbb7d6f3da2dbcbU,
  0x3e8977b1bcca2e5bU, 0x3c50ccca3d3d0a5eU, 0x3c3197d43d9b6fbeU, 0x3cc0a3d0bcfe4af1U,
  0xbcfda181bc2e5013U, 0xbcfb8374bdbb00d0U, 0xba4ded8abd238ca6U, 0x3e5fa80e3bb6bd87U,
  0x3c127f96bda3faf4U, 0x3c8c7c92bc3a829dU, 0x3b7f5cf13e354e22U, 0x3c8d715f3da35ffaU,
  0x3daef9f03d5f1474U, 0xbd810564bdb7346fU, 0xbc3e486dbdca0602U, 0x3d9e447c3d56fa25U,
  0x3c89704c3dd89aa0U, 0x3d09e90f3e611cd6U, 0xbce3c88f3da41644U, 0xbcc06426bddabd77U,
  0x3e10a7cbbd93ffd2U, 0xbd89b2cd3ceac55aU, 0xbdbf1bc43e312294U, 0x3e1e22b3bb2794c8U,
  0xbd0e03763cc43f3dU, 0x3e05fb6cbd86f1aaU, 0xbde452323d7bfa55U, 0x3de4238c3dd3f914U,
  0xbe31d6143d1f7ec7U, 0xbba428963e23fbf8U, 0xbd51a1613d649103U, 0x3cac95b53d10144cU,
  0x3e75b5653d6342bfU, 0x3df945c83e1d9ad0U, 0xbdb920aa3da4f94dU, 0xbd1ef5033dfcd21aU,
  0x3e2a1181be38c8eaU, 0x3db02b5cbd244778U, 0x3e246fc63d0ab988U, 0x3d1c8e10bd93ac67U,
  0x3e18bc93bd889946U, 0x3d8c0bde3cfcc007U, 0x3d0e61383df5da7cU, 0xbd1be1d83dc2ff40U,
  0x3a66ff87be0ffe30U, 0x3de3f423bd065bbdU, 0xbd367502bb230a26U, 0xbcdf8744bcd6261cU,
  0xbceaf8d1bd8e47a2U, 0x3e66b5c23bf8f932U, 0x3d012e943e025c99U, 0xbd1c25aa3e63053bU,
  0x3d843691bd876ad2U, 0x3e2812803dfda8a1U, 0x3ddc5661bd3e8ebfU, 0x3df86b77bd61c7c2U,
  0xbe1ebf23be0b9b6aU, 0xbd956af23dfef7e3U, 0x3c8ab7143c2b6cfaU, 0x3de825ef3dc715d3U,
  0x3c4219393d543d8aU, 0xbd311d093d9f8dd6U, 0xbda0bbfd3b852214U, 0xbe1b5c38bd9a67b9U,
  0x3e0bbafdbd820869U, 0xbd09db32be358dc3U, 0x3dccd95fbd71dd9cU, 0xbda7a1af3decd127U,
  0xbdfff764bdd3819eU, 0x3c04ad1b3d02e57eU, 0x3d060631be3813d5U, 0x3e0492c5be49a7baU,
  0xbb435618bc6b56a5U, 0xbe0b6582bcf9aeb3U, 0xbe0864793c84b1bfU, 0x3d9205bc3c66a8a0U,
  0x3d0c66b83c92573eU, 0x3d9e26adbd03cea0U, 0xbe1a8bbc3de7aa24U, 0x3d559398bcbb2dffU,
  0x3da3211e3d4330b3U, 0xba73522abcd6b173U, 0xbd13f9d43dcdb481U, 0x3dc6581fbc24aedbU,
  0x3d1af069bd506d97U, 0x3db8d7a03e455c99U, 0x3c5bfdc4bbfe430aU, 0x3d4b567b3e054b8eU,
  0x3e0cab4ebd80d226U, 0xba8c729c3d4dd8baU, 0xbd9aa6fe3e259db5U, 0xbd0e5bb83dfc34efU,
  0x3ca38bbfbcdc8b23U, 0x3e7b740bbd9a09c0U, 0xbcb99a553e376398U, 0x3cdf7791bd5e07b8U,
  0x3df002d1bd85bdc6U, 0x3d97623b3df69fd5U, 0xbd7886c53e449b77U, 0xbd2f0f313d632108U,
  0x3d80f8ffbbd88426U, 0x3e3c44953eec749fU, 0xbe96f98a3d8f1234U, 0x3e8debd1bcc01aefU,
  0x3b0e61dfbe1c72ceU, 0x3d85c2413df6e2a3U, 0xbe76d3c2bdafd5b0U, 0xbda825d23e0840c0U,
  0x3c673d7abe08ceb5U, 0x3e5096ce3e7b2a8eU, 0xbdfbfef8bd77e718U, 0xbd5fce5d3e49ac59U,
  0x3da478203d484a02U, 0xbdfa141f3dd99671U, 0x3d625e6bbe41144cU, 0xbd0be7373b94a109U,
  0xbd6114e43e627ae0U, 0xbd890f91bdcf8a1cU, 0x3ba52c90bde84d3dU, 0x3d2500d6bd058c04U,
  0x3a49a4ca3ca0a2a8U, 0x3d43c27a3cb25d87U, 0xbdffe0e4bd12ba6bU, 0x3d9916523dd6bceeU,
  0xb9eb3aa43d06f478U, 0xbdddea72bc851393U, 0x3df2ead9bd321cc0U, 0x3c2c4e7ebdbf7e4cU,
  0xbe03e3d6bdbd4fb4U, 0xbe13fe453de72513U, 0x3c92bbe4bdf4f9a9U, 0xbd8cd25abde6f2aeU,
  0xbd9ff5473e5d6787U, 0xbd1105cfbe029d92U, 0xbdac44bb3d248ae5U, 0x3d7923903c7fba0aU,
  0xbdb3466abd08aeacU, 0xbd95697ebde3f8c8U, 0x3c3b48aa3ce83cb7U, 0x3d1f0dbfbd8456b0U,
  0x3e2575c43d527e4cU, 0xbda135273dc3172bU, 0x3dd9ed50bc8ce43dU, 0xbde65a50bd9f0fc8U,
  0x3d243d60bda2b339U, 0xbdd5480f3d311c9bU, 0xbc0d8216be1a702dU, 0xbc6088dfbe8d9fa1U,
  0xbc8a8eee3dc77027U, 0xbe0786843dec10e7U, 0x3dbf7ca43e06ec52U, 0xbe594f5ebb6bfbabU,
  0x3d8411ab3c3534a3U, 0x3c3f33babde94580U, 0xbd632cb5bdc49600U, 0xbbc7ad3dbe222e40U,
  0x3e1cb5a13da9a9b7U, 0xbdf0d977bdf3254dU, 0x3e2fafd0bd8636b9U, 0x3d808b61bd885277U,
  0xbda00d1d3dbacce3U, 0x3c5868563d6f0161U, 0xbdbf5848bcc0cb03U, 0x3d1a0f1bbdc14554U,
  0x3e429a933d5920ffU, 0xbced183b3aec417eU, 0x3cba365b3d571f0dU, 0xbd84c7c5be01c825U,
  0x3d8c8777bdd141d5U, 0xbd8f6b9ebcc089dcU, 0x3da4988abd0deefeU, 0x3ce86c443e225d82U,
  0x3e5b37453e016b37U, 0x3d64eeaabc9e4310U, 0x3da13611bd3e12c3U, 0xbc92b411bdcad878U,
  0xbe44978abc6c7fadU, 0xbafae8113d0556d2U, 0x3bff6ebabe18a016U, 0x3d99e685be35b85cU,
  0xbcb510f43c867b0fU, 0xbbba25143cb07471U, 0xbcba98bfbbd69c68U, 0x3ca68e1a3cbe8e9bU,
  0x3dc1c1393d8c3264U, 0x3e2853b23d9d0673U, 0x3ddbc736be07ed78U, 0xbdb92eb3bd57fecbU,
  0xbe4880483e13a83cU, 0xbdacc38e3d41b466U, 0x3c3bf12e3bc1679bU, 0xbd20eee93cb0c77aU,
  0xbdbc78b9bdcd732dU, 0x3dcb3c98bcd7ca13U, 0xbbf6fb9bbdd1ffdeU, 0xbe00c6f2bdd78cf1U,
  0xbe0ad17d3e3afe95U, 0xbd02fab6be60e34bU, 0x3e415336bd056d57U, 0xbe55ed19bde77dbcU,
  0x3d1f3eb33e11c22dU, 0xbe5b01e43ccbb024U, 0xbc570ee53e08e8a6U, 0xbce182aebe0abc37U,
  0xbcb82cfcbd08c624U, 0x3acc13bb3d1aa2b1U, 0x3e2b9538bdf4dae7U, 0xbc07a00dbe36e1d0U,
  0xbe36e92c3dd7225aU, 0xbcc0ba4abdc0b428U, 0x3ca8bf40bcd0dae3U, 0xbd9e4cffbc9019edU,
  0xbe2ebab43d796693U, 0xbd605cc83cd416baU, 0x3eaa096f3dab8916U, 0xbe0f37a8bdbbe365U,
  0x3c9df1f23e4a8682U, 0x3c678bf6bdcc90c4U, 0x3e0267cabdb9796fU, 0xbe075186bdb3a57eU,
  0x39695470bd63f9a8U, 0xbe0e567ebd92072bU, 0x3da13be73e06d57bU, 0xbc96b0c1bd86cf3fU,
  0x3c7f2f763d890ae7U, 0x3d166c77be381d23U, 0x3b13ac39bd6b1a67U, 0x3d16e0c1bc83eeabU,
  0xbdffdf8e3d434bfdU, 0xbce2a5a1bdcbf869U, 0xbbd7af79bdb4f4fbU, 0xbce4e836be3fe5ddU,
  0x3c72a8be3d7c1043U, 0x3c0fcc4cbdcb64ceU, 0x3cefedf93d3c70efU, 0xbe313975bd7b31f8U,
  0x3dad9c9fbd6d7ce7U, 0xbe08bab13d8debefU, 0x3e94dce63e177fbaU, 0x3de67c24bdd31b39U,
  0x3c15967d3e06612dU, 0x3c8c8a333e9787daU, 0xbe25513abd714b54U, 0x3d47944a3c5ccf27U,
  0x3ec76255bdda6ff2U, 0xbdf7b526bdd9ec63U, 0x3eccb5963de30998U, 0xbd06ef0cbddb672eU,
  0x3e04c145bd37095fU, 0x3c604709bd915c99U, 0x3c85c157bd8430aaU, 0xbe214cfd3d9d5093U,
  0x3d1bda383da3020cU, 0xbd9bbbd93da0b24fU, 0x3da846a9bd94e876U, 0xbcada5e1bdc0286cU,
  0xbb9fb72abda6848aU, 0xbe0d8a39bd08bd10U, 0x3bff099bbc0433c2U, 0x3ca31db63b7b6e58U,
  0x3e0a457e3db59669U, 0xbce221dabd214db6U, 0xbc4d8e043d51d57eU, 0xbe1f843bbdca0bb8U,
  0xbe3cfce03e1140dfU, 0xbe18c7b73dfad302U, 0x3d0e2a28bbdd9545U, 0x3c8ade69bdc1a048U,
  0x3d1f5320bdfa2917U, 0xbddbd4443e8cf853U, 0x3c2c4127bd06b857U, 0x3d32decb3e03724fU,
  0xbe41ca16bc489ef3U, 0x3d20fb6ebe26e9c9U, 0xbd452999bd2c7225U, 0x3dd0f148be3dab6eU,
  0x3d8aaa3b3d934b9bU, 0xbdca2b783dacfae3U, 0x3ec92068be1a0779U, 0x3bc4c0eebc2a261dU,
  0xbdd3ce513de166b0U, 0x3e2effb53dda6e6eU, 0x3e377a57bdbcf58dU, 0x3e02398ebe1d19d4U,
  0xbd07ecb33daba538U, 0xbe0fdd2e3d95cca5U, 0x3db447dd3df977fdU, 0x3daf78003db31904U,
  0x3d2d0736bccfb554U, 0xbe040805bdc8ca1aU, 0xbca3b0863d19a689U, 0x3c987ea0be12ec6fU,
  0xbd3397f3bc5c6c19U, 0x3d730741bd3b2b00U, 0xbddc12b93b9f719eU, 0xbce42a743c1172e1U,
  0xbd411a7fbdd6566aU, 0x3c5f32f2be0a15fcU, 0x3dcd41b63d8be0ebU, 0x3d7df7a03db76dd0U,
  0x3da889e7bd711e9cU, 0xbd14db6cbdf8b599U, 0xbc886d81bdefdc2dU, 0x3c369bbfbe1326abU,
  0x3bc5ef26bda85623U, 0x3cd5b510bdab8155U, 0xbde7950e3e0c5b10U, 0x3d5f96e33d4d3dc8U,
  0x3bc4f714bde4ffe9U, 0xbde89090be0b343dU, 0x3d2cf65ebdd04fc9U, 0x3d2999d83bab662aU,
  0xbd9ebf733cb6a68dU, 0xbcd9d5e53cbcd735U, 0xbd1197033dabf7f6U, 0x3cf366f93cf74f48U,
  0xbd1f3d0fbda16678U, 0xbe0535fbbdd9a599U, 0xbe20fdf43cfd1361U, 0x3ca530dabd8ecb29U,
  0xbc7798c3bdc2f7d3U, 0x3d2c9420bdb064f0U, 0xbd926aa5bc714335U, 0xbb779de4bd7b0f99U,
  0x3d3e75cebe3b25d6U, 0xbd89291cbe2cb334U, 0xbd4d4785bdf5d0bbU, 0xbd5e6897bdf43d6fU,
  0x3c1c43393c97b091U, 0xbd92b63b3ddedadeU, 0xbba353493d8c4e9bU, 0xbe09a9333da75c42U,
  0xbd2a9fd9bdf25170U, 0x3db6e5713ce22025U, 0xbc101345bd674343U, 0x3c39986a3d9c1e9cU,
  0x3def8f083bc05a6fU, 0x3d963e13bda61fb0U, 0xbd0650c83d981018U, 0x3d8c5eebbd3a7a2fU,
  0xbcf003f2bd0fe8c6U, 0xbd380039bde24828U, 0xbdb82e963d938c3dU, 0x3dbc2571bdcc708bU,
  0x3c86d4f63d55d386U, 0x3dc97b2c3d54f107U, 0x3dc27ed4bdaea869U, 0x3da2c994be1dd188U,
  0xbe0f4785bdf982dcU, 0xbdd03b3d3cfb305fU, 0x3bfd1d7a3df784f7U, 0x3dc2f99dbcc74a2cU,
  0x3d6e10513d8c52adU, 0x3df18e65bd86f6f3U, 0xbdedcfbf3ca97d63U, 0xbcca89113dec3325U,
  0x3db4692e3b11105aU, 0xbb98b169bddbd0c1U, 0xbdbe61373c19b0dcU, 0x3e59a9dcbe165965U,
  0xbcfcbd493dbc0301U, 0xbd90c4f9bce7d743U, 0xbd0782033e258371U, 0x3db2d4a53e1bd942U,
  0x3d98c31bbe032ca3U, 0x3d832e9ebca7648cU, 0xbe0d208bbe13d3d5U, 0xbb0c271db8a082eeU,
  0x3dddf8afbd650b1dU, 0xbd8db0b43e232d74U, 0xbd2f34493d521f5fU, 0x3d91fa7f3c225c51U,
  0x3e414207bce6f721U, 0xbb9ed06d3e163794U, 0x3df40cf33d9e64baU, 0x3d883e2e3d81b7f3U,
  0x3dd30e703c8272b5U, 0x3e5226ef3dd23a20U, 0xbda3b5f03d9e060aU, 0x3bcbf6393d94a4dbU,
  0xbd0191da3d1638b2U, 0x3d11c1d83d854cbfU, 0x3de5f4823dd6d0cfU, 0xbda5e4f9bda28667U,
  0x3e01a396bdfc6289U, 0xbcddd4703cd451edU, 0xbd60c7b7bd000a5cU, 0xbe14c4333cadd136U,
  0x3e0747083d7aed76U, 0xbcce799c3c05e08eU, 0x3e48b2b33d1a0732U, 0x3d0daedfbdd914ffU,
  0xbe2272f2bd89f3f2U, 0xbd3ad6933bf98095U, 0x3db227adbddb5a18U, 0xbda94672bdb457d8U,
  0x3e2ee023bdb8840cU, 0x3bfbb99a3e5c770eU, 0x3e0618e13d979aa9U, 0x3cad8a72bd78d9c7U,
  0xbdb7ab633d325602U, 0xbd53710b3d91df96U, 0x3d8387dbbd9848c3U, 0xbbf1fca53d4e4eb0U,
  0x3d5569a7be1a6565U, 0xbe022bf7bd2bdf1dU, 0x3ddb3c9f3cc20c37U, 0x3dad497a3d7bd9a1U,
  0xbded9f423d07b567U, 0x3e2ec5453c18d164U, 0xbd25bb0bbdcca0b3U, 0xbe01a97c3d40ead4U,
  0x3e0095233d0409a5U, 0xbb4947d8bd0fcf38U, 0xbe3617d13d867af9U, 0xbdf7ce983d21efa4U,
  0xbd375cb53dc944b8U, 0x3c61a60ebdb58b01U, 0xbe1947ca3d79a53eU, 0xbe0dbc7dbd2ed31cU,
  0x3de638a33d2e4c79U, 0x3ca50b5d3d5e73d9U, 0xbe1e8a00bdda0410U, 0x3e51deacbd93f5c3U,
  0x3def9ad73dd82262U, 0xbda709813cc9fc2fU, 0x3d067a463db0c5fbU, 0xbd6140493d90cc3eU,
  0xbd1ca0bbbde11fecU, 0xbba54709bbf5ec33U, 0xbe0c32583dbb3e3cU, 0x3cd6e78fbb203b7bU,
  0x3d6c91343dfe2a17U, 0xbd1481f83d579579U, 0xbe1550d63d619636U, 0x3d9756be3bd5cf13U,
  0xbcc3fbba3dd27d64U, 0x3de8ef103e0dd56cU, 0xbd56f663bd06621eU, 0xbcfd27de3e4d4776U,
  0x3df77f6b3d81c550U, 0x3cc957893c4a25c8U, 0xbd40b1bc3d4a49c8U, 0xbda8c8d43d263c1eU,
  0xbd11fd8cbe44ac76U, 0x3e89d8c83e2ee5d9U, 0xbe0e404f3e2afda9U, 0xbb8879c73e2e1633U,
  0x3df148a63d909851U, 0x3e6377af3c715191U, 0xbdc8d0993e2cea8fU, 0x3d1651473dc94e90U,
  0x3e9dd6513d0a131dU, 0x3e32b9d73e1e4a93U, 0x3c7100893dce1b31U, 0x3c6edae23e11a9c2U,
  0x3db89e3e3c5dd849U, 0x3cccd6e53e3cd759U, 0xbdded33bbd2a6beaU, 0xbe2c606f3e37ce61U,
  0xbd02ea4a3c9f9057U, 0xbcfb96c83e68edbfU, 0xbe2794e73d44023eU, 0xbe29046f3e17f1e5U,
  0x3d4d4fc23de7bb71U, 0xbc91fa593d3723a2U, 0x3de0ce0fbdf2b25cU, 0xbe1fdc7e3d8d7f4eU,
  0xbd4c80c93d2713e7U, 0x3c14ea093c8295f9U, 0x3e4cd6893d3a8c63U, 0xbe1222bf3d6e85a9U,
  0x3df6dbb23e3a0ddcU, 0x3e26e28b3e0b0a1aU, 0x3d8d1c22bba83b33U, 0xbdcdeb3dbcde1052U,
  0xbdc7a2ebbd8b1b50U, 0x3da3156c3e1f7becU, 0xbe24cb113d13a107U, 0xbd42f65c3db96031U,
  0x3de7395d3e0701ceU, 0x3dcb40cdbdcc5333U, 0x3dae28ef3d4ad385U, 0xbe29f303bd915600U,
  0x3d068a9fbe03e4deU, 0xbd5c89043c8cc10eU, 0x3d94c6943d3042f0U, 0xbc1f849c3e27e5e7U,
  0xb9802213bc840ef4U, 0xbda701f03d48e99bU, 0xbd8f22ef3c5a1254U, 0xbe004e66bdb200a4U,
  0x3da2df8ebc490aafU, 0x3d6e74a23ca09ef2U, 0x3e123942bcfa72e3U, 0x3d8b48973d8dba10U,
  0x3b7a22e93dac39c6U, 0x3aedf7a63ca79716U, 0x3d9fa7ac3d02c933U, 0xbcf3d7ea3d4824fbU,
  0x3d0d55a13c4b69ffU, 0x3d955e253e032935U, 0xbdac8f5ebc73fb06U, 0x3d4376233e1804b7U,
  0xbca01c743dd48754U, 0xbdda89323d2a179fU, 0x3d947a57bcfd773cU, 0x3d327fe83d29a2e7U,
  0xbe594b003bf1087eU, 0x3c1bc5e73de1e536U, 0xbd178cad3d2ecd52U, 0xbd8aa2e23c0892dbU,
  0xbdea26253d5b84e6U, 0xbe7364973cffc56eU, 0xbc887179bdde5996U, 0x3de522653e3c6352U,
  0xbe17ac223d94b9beU, 0x3d98261c3dfd5da2U, 0x3e0e256e3af8b669U, 0xbd0c14e33decdb8bU,
  0x3db3056c3d746abaU, 0xbcc0b570be00c995U, 0x3e2f2fa13bec039fU, 0x3cef57163d17f99eU,
  0xbe368e433cd6db42U, 0xbe11e8cebcec1078U, 0x3d6c5153bb2fd7e5U, 0xbe1eddcc3dbd1b04U,
  0xbe216638bd7a66ceU, 0xbdbc876abd2258b4U, 0x3d8b1875baf4c8b6U, 0xbd3dfc97bce703e2U,
  0xbe383b0bbb9fd4e9U, 0x3d5d4a533ce0784cU, 0x3db4b5313d32912fU, 0x3d2f29533dce7758U,
  0x3c89442abdb1535aU, 0xbe333358bd830022U, 0xbc6fb523bcb59975U, 0xbd3a5d8e3d7a0d7eU,
  0xbd62ad04bd8e253eU, 0x3d80a2373dc7876cU, 0xbd06cc94bcc71d20U, 0xbd437a9f3d550389U,
  0xbdc79c65bc97f743U, 0xbe2a9ac6bdfb6a92U, 0xbde17526bd366840U, 0xbdf20bfabd2b9fddU,
  0xbd66f9553d9e11d5U, 0xbc2137ea3e0f6c43U, 0x3cafc25c3d98b400U, 0xbe1a54333dba602dU,
  0xbdc09198bdeff143U, 0x3d4eac49bdd7919dU, 0xbcebc7c8bcfca4b8U, 0x3d2a8355bda104e7U,
  0xbe3283e23dd511f9U, 0xbdb7b27a3d908d1cU, 0xbe36df73be0eb9d0U, 0xbd132d213ca3e10cU,
  0x3ce2a7733d7768dbU, 0xbd98a54f3d1830aaU, 0xbd3087ccbcc4868bU, 0x3d0461d5bce86491U,
  0xbdbeb8b8bda3050aU, 0x3d92ce4e3dfcd83cU, 0xbdc93e5ebb987f34U, 0x3d19acf83df9c0e2U,
  0xbd7b2af13cbc6c5eU, 0xbdceed3abe42860eU, 0xbe6635513ddb8a30U, 0xbdcf90aa3d1c4afbU,
  0xbcd81c2d3db1b201U, 0xbd1ead01bd5344b2U, 0xbdc8f73fbdb43618U, 0x3b0403173cb529c4U,
  0xbcbb6978bd12fc73U, 0x3d22b563bdb08bcbU, 0x3c0f2885bde7aaefU, 0xbdb127a0bc0a8cb0U,
  0xbd2c35833dcc2849U, 0xbdcd162a3e0a9bcfU, 0x3e08f0203d934890U, 0x3d8d9a5a3e24205aU,
  0xbc574c85bd66a224U, 0xbe3b46cc3dbb28bcU, 0x3d83526dbd83e575U, 0x3d782778bdd133d2U,
  0xbe4c0d93bdb31dcfU, 0x3dfd80263dc82e04U, 0x3c83832f3d0dbfd8U, 0xbe49f97ebd74a495U,
  0x3d56d738be6a22adU, 0xbe0e314dba8bbcbbU, 0x3e5042eebddba027U, 0x3d8d7487bd2f791eU,
  0xbd9a4f1dbd5317adU, 0xbda059f13cae6620U, 0xbd8b07d1bd493e21U, 0xbe4e5c383c4c2266U,
  0x3dd0a55d3d843b1eU, 0xbd74eadb3e12188aU, 0x3dc051753c6639b7U, 0xbb6d31aebe376da1U,
  0x3d9453e63dac413eU, 0x3dcf77d03dc50636U, 0x3d97508f3daaf993U, 0xbcaae0953d6753beU,
  0x3d8fc114bdd867aaU, 0x3d9e1947bcf6a763U, 0xbb81c3bc3d078222U, 0xbdbe1dda3d5419f8U,
  0x3db230edbe02bbf7U, 0xbdcb3ff83e00beb1U, 0x3e039272bdbbb03aU, 0xbc38776ebddfcafcU,
  0x3d9eb9f63dbd5006U, 0x3df04b63bdd7ad40U, 0x3c09500d3cc1aaf7U, 0x3d3c4e713d034363U,
  0xbcce960fb6af023bU, 0x3be62c36bd81cb72U, 0xbd742748bce13a20U, 0xbe2ff70a3d4cd793U,
  0xba982cd8bd99f772U, 0x3de8eb15bde74971U, 0x3d3606b8bd979e00U, 0x3d472d62bd32f8c0U,
  0xbd00419a3c95b832U, 0xbc0f2b69be153740U, 0x3e6603afbe183259U, 0xbcc1f4e3bddbd525U,
  0x3e041b81bbae6364U, 0xbe2cf9f73ca2efacU, 0xbdcd4119be000901U, 0xbcea08793cfb5f01U,
  0xbb6899f63dc77291U, 0xbe5d5807be59966eU, 0x3dd36852be04c4fdU, 0x3dab2c83be0a1ed8U,
  0xbd3fec8dbd0f6bbfU, 0xbca97424bd85be16U, 0x3dcea780bb2455d7U, 0xbe15acaa3d91280eU,
  0xbe5861e7bb9d1254U, 0xbba1471c3c807385U, 0x3e8bc7eb3d3454d8U, 0x3d0a0e3e3dadad73U,
  0xbdcbec173e6651eeU, 0xbd96630f3e421516U, 0x3d8c5d8fbe1c7667U, 0x3d1e1fe5bd171967U,
  0xbdece3ef3acfedfbU, 0x3bfb58c03e5dff48U, 0xbda168a73e561a43U, 0xbe2e6a743e51c1c8U,
  0x3dadd58bbb4fc772U, 0x3cda6b143c681e3aU, 0x3d0bef86bd49ce37U, 0xbd979e92bc11b791U,
  0x3d93f711bd473a50U, 0xbd9d42093cf9ef35U, 0x3e119ee63c4c1df3U, 0xbe5be7523e2e9603U,
  0x3d6d90e13c826777U, 0x3dc44a8abde5def0U, 0x3cf11736bd874cb2U, 0xbdf78be1bdc4a4b7U,
  0xbdfdca34bdaed43dU, 0x3de7d9fd3cb7ee4cU, 0x3e44eed9bc9a73fbU, 0xbd9c9781bb8c1fd2U,
  0x3d8ecaba3da88ab7U, 0xbd7751743d6d2e39U, 0x3d676ecabcc7c6aaU, 0xbd91919a3db24aa9U,
  0xbdfe1785be00ef7eU, 0xbcfce7b23e11d138U, 0xbe5c0c6cbdb27377U, 0xbdfb2bba3c5adc0dU,
  0x3de2b29c3d1c2b7dU, 0xbe0cefe03d148787U, 0x3c4cdf443d04725eU, 0xbd57049f3ccf90cdU,
  0x3c20937d3d07f87bU, 0x3de11faf3cc954e2U, 0xbc749bc1bda13eafU, 0xbd96dae33cf825d4U,
  0x3ab8a098bd93c30fU, 0x3cae3164bda92a54U, 0xbdd11eb4bb9c0f24U, 0x3d3857de3e2617caU,
  0xbd6c7d963d478689U, 0xbd1ce0ce3e271adcU, 0xbe093dd2bc3667e6U, 0x3d7afbd93dbfbcebU,
  0x3da837d93d4f74a8U, 0x3b09fe84ba5ed764U, 0xbdf2fd153d9c7b83U, 0x3baba272ba87f5a8U,
  0xbe2b712a3d2a07beU, 0xbd6791913e2132ebU, 0x3d00097e3d9d4dc1U, 0xbd4ac6213d1d7350U,
  0x3cc1b9163e1bf2daU, 0xbda254dc3b675af0U, 0xbcba76f0bb129df5U, 0xbd604966bda6eaacU,
  0xbe2f3ffa3d8ff44cU, 0x3d94004b3db8430eU, 0x3d48dc73bd7264d4U, 0xbce887893d217e1cU,
  0xbd669caabc271c9bU, 0xbba7bdccbbfff15aU, 0xbe0a7533b8d4dac9U, 0xbd9ea03dbcaf2802U,
  0xbe24c6babb944c7bU, 0xbde33eed3e1959a3U, 0xbdbd5fafbdd19b12U, 0xbcfbfca83d967107U,
  0xbe2744703caa0203U, 0xbc069f49bdbe740bU, 0xbce06f7abe0fb3eaU, 0x3db772df3c9e8917U,
  0xbd8bef62bd6d610dU, 0x3d6d5ce13d6fdc60U, 0xbde533723d46dbbaU, 0x3acab253bcd6d26dU,
  0xbd8d9fd33d50e19bU, 0xbd0b44ffbe4c37f0U, 0x3d96ee33bce93f92U, 0xbe09a07fbe10d0c5U,
  0x3beb75213c4c34f3U, 0xbdfe7afbbde34a1dU, 0x3e05c888bd407101U, 0xbd076dfe3e0c7ebdU,
  0xbd0497c1bd7e7e45U, 0xbe342735bb82e1ecU, 0xbd40c7543d909c7fU, 0x3caf3f1ebced2572U,
  0xbce3765f3dde5723U, 0xbd3f74f03d84fd65U, 0xbe12488c3dbe38b5U, 0xbe06fe293d84572cU,
  0x3b6a0da83d6f9f27U, 0x3c1f0353be39341eU, 0xbde72e2dbe28642eU, 0xbd35d5af3d8b014dU,
  0x3c8b96b83d90c2efU, 0x3c5da6633dbd0a96U, 0xbd99ee5dbd827e37U, 0xbdc38a2d3e15d053U,
  0x3d29b16ebc03fba9U, 0xbce209d43b36d425U, 0x3d018b30bcb5c812U, 0x3c66483a3c05d1d2U,
  0x3d7b18053cac5575U, 0xbdb4098d399185dbU, 0x3d9c6712bde16d5aU, 0xbd7c61cf3cfcd607U,
  0xbd0ece9dbd7fabe5U, 0xbd9b66113b0e7d4bU, 0x3df1dc7e3ba6f342U, 0x3cc907cf3d3e6991U,
  0xbd60927abac8c6a3U, 0xbcd78f513d32327eU, 0xbd21c6323d758239U, 0xbe242563bd129d68U,
  0xbdc2ea60bd9789e3U, 0x3d8aa8fe3d03dca9U, 0x3df04cccbe24412bU, 0xbcf0639dbdb88de1U,
  0xbe66a4a03c8389d9U, 0x3d912cba3e561db7U, 0xbe972d933d37d14bU, 0xbb1b7c7f3e366237U,
  0x3d3b121d3dab8aefU, 0xbd2429f23c37887bU, 0xbc842b633dbdabd4U, 0x3e380c7dbd75b038U,
  0x3e5b8d923d5b84d9U, 0x3e19816d3e154568U, 0xbc7f5d7e3d79c863U, 0xbe0257d4bd4fb6ecU,
  0x3d3cb258bd599df5U, 0x3dccdf0ebdaa1589U, 0x3c3fa443bcfe677cU, 0x3e079a463c72709fU,
  0x3cee0966bd5bca9eU, 0xbcda7328bdb98decU, 0x3deacb57be171c26U, 0x3d48bd94bdce02ecU,
  0x3c7cae243d0a9f2aU, 0x3de553e7bdee07b3U, 0x3ddaff79bdb7ce3fU, 0x3dbd70aa3d9ccd90U,
  0xbc3070ce3d8e51c7U, 0xbe01bdf0bdd7f384U, 0x3d3d44f83d9f68d6U, 0xbd56bf6a3d60c88aU,
  0xbdac88353d9eac05U, 0x3c7680b9bc5b22faU, 0xbd5d9fb4be1b1d8fU, 0xbd0f0476bd9f02bdU,
  0xbdf84a0d3d23072dU, 0xbdc2e790be79c94dU, 0xbba57fe83cce243fU, 0x3d830e9cbcb076d6U,
  0xbbfabdf03df271edU, 0x3d0a47e3be13c96eU, 0x3ddbdfd03dee31fcU, 0x3dd04ab5bdd04a8dU,
  0x3dda4df2bd168702U, 0xbdda1623bd8dbda1U, 0x3c1cf0cc3d8aaf79U, 0xbaa6a729be42dc22U,
  0xbbe5f98cbe1cb23cU, 0x3cbe5b15bdad9e61U, 0x3da1c8ddbdca97dfU, 0x3d9ce38dbe25c200U,
  0x3d84e7d13e05cda0U, 0xbd4711f83c826cf3U, 0x3d5796b6bd892876U, 0x3dba8773be3569d1U,
  0x3d26ec4cbcf34dd7U, 0xbe0383c1bd8146ecU, 0x3cdbb273be1049c7U, 0xbd244daebe1670c3U,
  0x3dcd7bfb3dc2967dU, 0xbd4c1261bd8f68dbU, 0xbc99dfddbd8de80cU, 0x3a213f6ebdecf91bU,
  0xbe16239bbe0682dcU, 0xbb6d4f87bd5796afU, 0xbdfc073dbdafd433U, 0x3d28190fbd741146U,
  0xbd328de53dd36685U, 0xbe159ed23d919e53U, 0x3cec3b18bd845a04U, 0xbd147f69bd9e5cefU,
  0x3dcb504abd74ae73U, 0xbde70e26bc62e2acU, 0xbcce0545bdc2f7ebU, 0x3cce7e74bd7288a1U,
  0xbda95fd5bd39bc4bU, 0x3d104abcbb0d1b14U, 0xbc8cdf5e3d817cbfU, 0x3cc2f8a8bddd23e5U,
  0x3e2f53e63dbcbed6U, 0x3dbcd1f5bd9014f8U, 0xbd8ca985bdb79fc1U, 0x3de25a283c92399fU,
  0xbe1cc0873e2b3f7aU, 0xbdc4502c3d9b09f1U, 0x3dc05334bdca6e21U, 0x3bbfa453be454d47U,
  0xbbd7365f3d82202eU, 0x3e38074b3afb2090U, 0x3e1067413cdf6255U, 0xbddd8ec4bd92f1a1U,
  0x3e1ae1f63cc605cdU, 0xbd5bcfb2be4bb433U, 0x3e1ad4d3bcb00748U, 0x3d022d3fbd88f8e8U,
  0x3d0abd7b3d4f7445U, 0x3de33da0bbd278c7U, 0x3d4ae98ebba27103U, 0xbcf92ae1bdab19cdU,
  0x3c4b06593d8e6ae7U, 0xbe001ce9bd4e7dcfU, 0xbc8755aa3d8845adU, 0xbe0b42debd7cc73dU,
  0x3dd08da2be17610eU, 0x3b60054abca1107cU, 0x3dc54028bdcc5b85U, 0xbc3f546fbe28d10bU,
  0x3df42a153bc13df9U, 0xbdd862aabdba9c74U, 0x3e013db9bc5513f0U, 0xbcbcb5363cbdeb64U,
  0xbd7160833dc94b77U, 0xbd762aa43bd932fdU, 0x3d3cfe20be2e569fU, 0xbb9ab8a4bd5f1840U,
  0x3e2c8c95bc5c5e1cU, 0xbdb3159dbd3476d8U, 0x3e0939fe3b6bf60bU, 0xbe24081abe26c759U,
  0x3d1a2535bc19a630U, 0x3beaa025bdc6d63eU, 0xbdfd7bdfbc06c04cU, 0x3d4f9650be1401b7U,
  0xbcd24db1bcd11397U, 0xbd9dec18bc899f40U, 0x3df0568c3d141f83U, 0xbdabe103be6140b9U,
  0xbde5511c3d47a79aU, 0xbd921b67be0b4c84U, 0x3dfb972cbd30e5c3U, 0xbca6e74cbe0e161bU,
  0x3d5cd59b3bcf7f7bU, 0xbe2b08dcbc967f78U, 0x3ddd1eb4bd7d466cU, 0xbd6a5358be1938d0U,
  0x3d377a823d92db61U, 0xbd4e777e3da43d9bU, 0x3a0d7818b90a768bU, 0xb95faff93c7fdf8fU,
  0x3e0b3d013d833cd1U, 0xbe77d5bebc379b48U, 0x3e21571c3dce3fa7U, 0xbe1eaabe3aebf30aU,
  0x3ce5ec673e31fc32U, 0xbdd19e7b3dc6eff7U, 0xbd0765523caa2fd7U, 0x3d0f9111be16a797U,
  0xbd1a98dfbd4173d7U, 0xbe48ac8abd65c6e5U, 0x3e38a84b3da7cd3dU, 0x3d5a2f933cde7c29U,
  0xbe5d95df3e0c684aU, 0x3d469f82bd0fa154U, 0xbd64a0a23bf7801cU, 0xbcfa2cf4bd8ab586U,
  0xbd50d1063adc9bbfU, 0xbb9551d8bd443ac9U, 0x3e0557403ddbb2e1U, 0x3d927f21bd370bb8U,
  0xbd77aacabd0a0e8dU, 0xbb1ee7a53cb43aaaU, 0x3d858028bdd295c4U, 0xbdca6769be02ca96U,
  0xbcae32923d2aac76U, 0x3cf1019bbceffc80U, 0xbda3ab363cf86cdfU, 0x3d2e6b3f3d28e211U,
  0xbd78299bbd0c52dbU, 0xbde01a523dc0e084U, 0x3d82cdc0bd5e6b84U, 0xbd036096be14e3e0U,
  0x3d59e036bcf12256U, 0x3db8421cbbba6ae1U, 0xbd92a730bc6c2bcaU, 0xbe243583bd8dbd5fU,
  0x3d821630bda6302aU, 0xbdc03416bd58d1b5U, 0xbd43ee67bd414905U, 0x3d963f463d6fa789U,
  0xbd4d70f83daffc61U, 0xbdcc7cdf3dd9e685U, 0x3df7929ebd62e045U, 0xbe22e3a6bd7c8a77U,
  0x3d7ab9233d09c8b3U, 0xbe13b2c53dbb0228U, 0xbde73857bd4987beU, 0xbe0dbd7b3e1b1875U,
  0xbda014ea3dd40a52U, 0xbe1be7cf3de1ec2cU, 0x3d7ce04fbd0e311aU, 0xbe01cb123d7e818eU,
  0x3e3fa4c5bd6791cfU, 0x3d757c023e1e8410U, 0xbd0493ad3e1d7984U, 0xbdd21285bdabe2c2U,
  0x3e38915f3e30c763U, 0x3ce22850bdf7f396U, 0x3deaf83ebd8b49d1U, 0x3d62d5eabe118c08U,
  0x3cc487cf3d90ca0aU, 0x3d2d5646be05081fU, 0x3d831c4fbc877a09U, 0xbca00f64be3f37a6U,
  0x3db2b49c3e1a9579U, 0xbd83e15d3dfb86fdU, 0x3dc24a10bda0999dU, 0x3d4ef9b2bd958ce0U,
  0x3d7fe8f13caf7cbfU, 0x3ced535ebd8be36dU, 0xbb843c52bdc11947U, 0x3d2248a6bddf1a5fU,
  0xbddb9f0bbc6cb320U, 0x3d65748cbe157f66U, 0x3dc4fcb03e10082aU, 0xbceb57f93dc4cb7bU,
  0x3e5f04b83e3a8176U, 0xbd1eba9c3df62f57U, 0x3e70d94abdfc3b88U, 0xbcd590503cc05b2cU,
  0xbb959acc3dbd8f81U, 0x3d6fee04bc2ee6faU, 0x3d08c7643b0de57eU, 0x3daead7f3e1a7dfdU,
  0x3d1fb4b83e425a01U, 0xbd9d923fbc26445fU, 0xbb339b763bfe6a89U, 0xbde0fb90bd53a78cU,
  0x3e21e544bdbc50bbU, 0x3d7c0d473d42af1fU, 0x3e3128a33e240b24U, 0xbdff59c23e31e951U,
  0xbd34cc9f3db608c1U, 0xbadb0dba3d6eb118U, 0x3db237cabde4c13bU, 0xbdca4f1e3cfd0606U,
  0x3d15054d3d0e4981U, 0x3b7c071b3d966e41U, 0x3cc0d10a3d5669bbU, 0x3cf5aca73e877282U,
  0xbd942b4f3e16ddb1U, 0xbb0c0a3d3da53924U, 0x3cd9c317bddff0faU, 0xbe1cfaf73d817cbcU,
  0x3e0dc666bd6566baU, 0x3ce2e8813db48122U, 0xbd9fb95e3dabd69aU, 0xbccf87543d6a7015U,
  0x3d71f69fbb4a64d2U, 0x3d6050ccbda9f614U, 0xbc04aff73db1392cU, 0x3bd47637bde423f6U,
  0xbd14ad85bd539f47U, 0x3b00a5203e5f2b82U, 0x3e09680ebc9b7b60U, 0xbbdddae53d2c6f0eU,
  0x3d629fc9bde09a15U, 0xbd1137b93cc57bbeU, 0xbb0d6429bdded0c6U, 0xbcd891623d7ec782U,
  0x3c59036d3d5dce79U, 0xbd8786793d25467dU, 0xbd9cad96bd37752eU, 0x3da65e903d8c5dc9U,
  0x3db14af53d995756U, 0xbdb58df0bd7743c8U, 0xbd6df0fd3ce25596U, 0x3df65ec83d843312U,
  0xbe27bf62bd46bbbfU, 0x3da0b8023e86cfd9U, 0xbde39f1a3c3655f2U, 0xbb3aacbb3d45b110U,
  0xbe3077d83d6ebfd9U, 0xbdbe92bfbc91371fU, 0xbcfcfdcabdcd300eU, 0xbe07a1313c9add94U,
  0xbca584573d628a89U, 0xbc05c3483e1e23a1U, 0xbe1495cfbd4844d2U, 0xbca2d37e3c0dc245U,
  0x3b6ba04abcbafe29U, 0xbd9997d4be3d9503U, 0x3d380990bd0b9cecU, 0xbd7d8e0f3e0eac59U,
  0xbd275271bcae8475U, 0xbddd7b563df53258U, 0x3dda1840be1257bfU, 0xbcab033a3cbe6d25U,
  0x3d2358bd3b877bd4U, 0xbc3b86de3de57713U, 0x3cc3c942bcddf2d5U, 0x3d3e6c483da8a39bU,
  0xbe3c46d43c9ba498U, 0x3d8a0e113b8dc2fbU, 0x3d9394fb3db3f59fU, 0xbc2138023cbb335bU,
  0xbcf5eae8bb86662aU, 0xbe06d91cbe0144feU, 0xbd73e5c23d8ffdf6U, 0x3dcbfdeebb50cc5dU,
  0xbd4ea7673ca7a76cU, 0x3cc5d3f0bc9a761eU, 0xbe01c5ec3c30a124U, 0xbd9007cc3b01d96eU,
  0xbddd915a3d88bc2cU, 0xbdc61f86bdd594aaU, 0xbc624273bc91a2d0U, 0x3c6e72d53d197065U,
  0xbdf60c6e3d897441U, 0xbdd79d09bd7bba89U, 0xbd8110333c918e07U, 0xbd0701893d003a9eU,
  0x3dfc13dcbd9fc1eaU, 0xbdfa323bbde83682U, 0xbe16ce3ebc2a206bU, 0x3e10afa33e03863bU,
  0xbe21d4e93c0da376U, 0xbd06c90e3e12329aU, 0xbe10605abe28cf59U, 0xbdbfd9553e30ffe0U,
  0x3de122513d5fdc4bU, 0x3c936bc23d0b753bU, 0x3c20675d3d83cc85U, 0xbcd37dcebd9d273cU,
  0xbd7d2291bd9e039cU, 0xbd8ed0b2be25480cU, 0xbd692caa3c95bdaaU, 0xbd192a583e29a590U,
  0xbc34cb52bd2f5be6U, 0xbd225320be162ceeU, 0xbe2dfdddbe13007cU, 0xbdd6ab97bce5ea1cU,
  0xbdf132e13dddd761U, 0xbe1844133c0d0243U, 0x3d3ee9a2bbe0b8a8U, 0xbc81e6fabc9f5ef5U,
  0xbd613a2bbdd3d770U, 0xbb808aacbd0d5eebU, 0x3b8d0221bc7ea41bU, 0xbd3f58b4bda28124U,
  0x3ac4ea7cbd38ceefU, 0xbd00b6883dc6968cU, 0x3da1e186bca1a1e1U, 0xbc026f2c3c9c86a1U,
  0xbdf70fa4bd89cd90U, 0x3d783f193e2cfda3U, 0x3da377edbdf4c28cU, 0xbd95ab21bdd1199aU,
  0xbe0f5be1bd04e198U, 0x3b1b0acf3d2377adU, 0x3b1c22e0bdeb7e3eU, 0xbe2df1aa3dd1b712U,
  0xbcc1b131bdd484ecU, 0x3e032ff73c9672eeU, 0x3ddeb4703d978780U, 0xbc309c87bddcf3c5U,
  0xbdcc2fc13c36240dU, 0x3d7dbb923ca08240U, 0xbd9305ffbdd4e340U, 0xbd8e827c3e3afb80U,
  0xbd01a43b3e1008eaU, 0x3dffdc4a3e516191U, 0xbd5151d0bd99534aU, 0xbd9718e23d22b628U,
  0x3e1160913dbb782bU, 0xbc5d59263db89c45U, 0x3ca959c13e066265U, 0xbdd034d4bba88060U,
  0xbdb6398abd9f31c8U, 0xbd257879bd854445U, 0x3e0c7b21bc6d9d8bU, 0x3d9bf35fbd804408U,
  0xbd6ea40fbe01e344U, 0x3d47a0dcbd168d2fU, 0x3d881e133d837260U, 0x3d2278413d329533U,
  0xbdbce10abd8d7b2bU, 0x3d5b30823c4746edU, 0x3daa05a83d7604b6U, 0x3d8b1f31bd38161fU,
  0x3d321a6f3da05ec2U, 0xbcd3a1dfbe214e15U, 0x3dce4b633bedf937U, 0xbe3e8aa1be36a6b9U,
  0x3d2a9e3dbdeec9d1U, 0x3c0a05463d80b642U, 0x3e391a69bd58f880U, 0xbca12cd6bd6971a7U,
  0x3ccb110a3cb2befdU, 0xbe0dc729be1965deU, 0x3e067745bdb45dfbU, 0xbdd115d3bda329a2U,
  0xbda587c6bda5e435U, 0x3be5236cbdbfd57cU, 0x3da326ffbdc0d7b5U, 0x3d7fc03a3d9d2805U,
  0x3deef959bdbceedaU, 0xbd3d6d20be7bd16aU, 0x3c01f0fe3d5203acU, 0xb9fccd063d395c96U,
  0x3d9839853df0a2c7U, 0x3d60cc7c3d9ce78eU, 0x3c8908efbddf8394U, 0xbe027587bd841365U,
  0x3d7b8b80bdb5974bU, 0xbe034a443dfe0582U, 0x3dcb8978bd866cb0U, 0xbd70d064bc8f2a1cU,
  0xbb45ed563acff691U, 0x3d264c4a3de1fcdaU, 0xbe0e4c1f3c403f7aU, 0xbd84ffa9bd172d86U,
  0xbd8ba11dbdffd125U, 0xbcba45a83d4b8231U, 0x3d8815dc3da1b819U, 0x3d8a51ed3d686dc4U,
  0xbd9d1c66bdfb86f2U, 0xbe0ca3333d923890U, 0x3dc60877bdd62120U, 0xbd3149c7bcd30ad0U,
  0xbd2074543d95265aU, 0xbdd26a2bbd9208b2U, 0xbd0549d63b245f13U, 0xbb62f567bd945cceU,
  0xbde8aaedbd5a07f7U, 0x3c4eb1713d94b024U, 0xbd9b95c9bcfa82a5U, 0x3d75e2b4bde10f9cU,
  0x3d34e709bd6bfa1aU, 0xbd8493cbba9c499aU, 0xbca09dabbd5b6812U, 0xbc69b8663dce26b6U,
  0x3d7f13efbd7402d5U, 0xbd18be8cbde25853U, 0xbd2455bbbcbb5329U, 0xbe006a92bd144a86U,
  0xbdfda97bbd8ba2b8U, 0x3d285b2b3d1b196aU, 0xbd815a1a3d39a428U, 0x3d0e12e73cd8c56eU,
  0x3dcfaf1fbd8c0bb4U, 0xbd84fb79be056d68U, 0xbd3060b43c3406e7U, 0xbde0d69dbc524265U,
  0xbe0440a5bdec05ebU, 0x3d52c45e3cd2c1f0U, 0x3a64e6b6bd0940cdU, 0xbc8970ad3d8c77d4U,
  0xbdf61175bcedc0d1U, 0xbdb77cc33d8790fcU, 0xbb008a953d94c2bbU, 0xbcce8908bc218fb4U,
  0xbd4a9c9d3dd02deaU, 0xbcab2dd9bd8415b7U, 0x3d27209fbd9c5335U, 0xbd1f6f9cbe03ac7aU,
  0x3dc46448be0cb11eU, 0xbdde9718bdb88cf4U, 0x3d285de33cd2e6d4U, 0xbbde59943cbf3289U,
  0xbd830432bd40d9b8U, 0xbe0afb3e3d0de5a1U, 0xbdab68d43d84aa74U, 0xbb5fd2433d22deb0U,
  0xbda568683bc56faeU, 0x3d5a82d83cece32bU, 0xbd217f6cbd338350U, 0x3d03d868bdf24573U,
  0x3d123469be032bd3U, 0xbd113904bd6feeb1U, 0xbd3e86e8bc21f8ceU, 0xbd89d976bceb1359U,
  0xbdf5658d3dae1146U, 0xbe03577fbd8de108U, 0x3c9e528f3d34f65dU, 0x3d401be0bddeb2deU,
  0x3cab72e13c91bca0U, 0x3bca63a93c0160edU, 0x3d247bf33d1c4207U, 0xbd0e29b13d37aa22U,
  0xbdfa22f73d7c5ea2U, 0xbcf956003d2cd878U, 0x3db8bb9a3d9cbec0U, 0xbddf2c383c106931U,
  0x3ca47e7bbe0c5aa5U, 0x3d1ad47abd5490ccU, 0x3db3cc72bd65871eU, 0x3d4063453d0804d5U,
  0x3d9eb220bdbf6e60U, 0xbbb8e1fbbd20eedcU, 0xbdf6de5fbdbafbd3U, 0xbce34ff2bccc7b91U,
  0x3d0b4789bcd83287U, 0x3db605fdbd69e747U, 0x3bc7d3973d62fc50U, 0x3d7af0dbbc8b339dU,
  0xbdf5468cbd3b488fU, 0xbe08242cbde88562U, 0xbd9fee993d97201aU, 0xbd17607cb9eb42c8U,
  0x3ccf4fad3d35d52eU, 0xbda7917fbcd760f9U, 0x3cb0891bbdb6e401U, 0xbcef2ebc3d7ad448U,
  0x3d19fa10bcef90e4U, 0xbd3981c23dc373d6U, 0xbdfd4ee0bdfdfb64U, 0xbdd80cdfbd1b1881U,
  0x3d631eee3bee1061U, 0xbe0f04d23cd17b2fU, 0xbdd0a4a8bd77f1d8U, 0xbd156c9dbc741abbU,
  0xbde49e1cbdb6bc2bU, 0xbe015b0fbdf995e1U, 0xbe00fbdebd9bfbb0U, 0xbda33141bcf406d5U,
  0xbdc6d4febdd74ac4U, 0xbdeedc62bda450bfU, 0x3d2bcf3a3ca8da31U, 0xbda5e84d3c6627d0U,
  0xbe0488683d79dafeU, 0xbdf85317bd5472baU, 0xbd1294543de6a1e1U, 0xbdff1e36bcc39ce0U,
  0xbbcf7b60be0dd727U, 0x3cf6bf203dea23c7U, 0x3cfcc2f4bd15a2acU, 0xbd3a5102bc804294U,
  0x3bd97916be05cb6fU, 0xbdf181b73d3d2224U, 0xbc887b88bda0666dU, 0xbd30d627be029cfeU,
  0x3de1106ebe255d3fU, 0xbe0705b7bd9c7c73U, 0xbdabf1e73cd5c4d8U, 0xbd274f723d48f60cU,
  0x3d0d8a3b3d9eedccU, 0xbdbbf4dbbdc04afcU, 0xbc99f724bdda5357U, 0xbe1d43013dc50b5aU,
  0x3a3599003cea3301U, 0xbd9fbe33bd147a61U, 0xbdbb2e1f3ddfb6fcU, 0xbda55b8a3e026aabU,
  0xbdc0778fbda4e82cU, 0x3dd7b474be117159U, 0xbbc84fb0be077a97U, 0xbda9a310bd8182bbU,
  0x3cf60df0bd16cdafU, 0x3cd14e253da7ea5bU, 0xbe3a19cfbd03f202U, 0xbdb934023d26c3d8U,
  0x3d742bb0be03b3c5U, 0xbcc46fa13d771f34U, 0x3d59d53cbd6df8f6U, 0xbe1e26563db90108U,
  0xbdf8b139bd73d73dU, 0xbc52263d3def1353U, 0xbdced5ff3d5eacf4U, 0xbd32633ebdc0accdU,
  0x3ca04f39bd3994c6U, 0xbdfd924bbe1db897U, 0x3d11115c3d9017cdU, 0x3a3a2fa5bc839240U,
  0xbdbb6d32bdb5b075U, 0xbdea6ad43cbd5dd2U, 0xbe28eb0abda595feU, 0x3cffd150bc37a310U,
  0xbe0f9681bd3f9cd8U, 0xbc707092bddb52caU, 0xbdc2c990bd95e027U, 0x3d1b975fbb9d4010U,
  0xbc2492f0be267f8fU, 0x3db745603d93b2c9U, 0xbd8e558dbdd763f5U, 0x3d85aee8bda57faeU,
  0x3d80b4003da885ebU, 0x3d12aa7c3dd03e23U, 0xbe3f68343d9b4901U, 0x3dd82f86bdea2a40U,
  0xbdf5e6f5be3dd3adU, 0x3d7ac3c6be0500f6U, 0x3c1f2b9bbe17d995U, 0xbd3945fe3cb8f315U,
  0x3c496cf2bc8a56dbU, 0x3c6d8d33be0a19ccU, 0xbe2839a2bdb16602U, 0xbdc644a23d0ffda1U,
  0xbd4569d3bdced0f8U, 0x3cbc59713d945b8dU, 0x3c7b4666be023cecU, 0xbd8ae2d7bddce3fbU,
  0xbb8355a2bde41030U, 0xbd312bf6bd7d9fc8U, 0xbd94bb1c3d961722U, 0x3e0333c63ccb80c3U,
  0xbbfd9a6fbe2107edU, 0xbe07423fbd02af96U, 0xbd4cac0b3bcec69fU, 0x3dd757c6bd74b70bU,
  0x3d8c477ebd82f36fU, 0xbc53b1c5bd9f85ebU, 0xbc00cd5f3cce4c8aU, 0xbd81cccc3ce27c78U,
  0xbcb9fa10bdf736f0U, 0xbdb8c878bdb9a8c1U, 0xbd1e31643d3a54e6U, 0x3d3997cebdce3964U,
  0x3d806c2ebddfb4abU, 0xbca93e783cbc47e5U, 0x3d60fccb3dec018dU, 0xbda839b9bd12b865U,
  0xbc7765e4bd93da7fU, 0xbd1d7cc5bda85976U, 0xbe1b1a803d31fb3bU, 0x3d9255f8bd6213ffU,
  0x3ab2089cbd6ef73cU, 0xbe032d0f3e083c42U, 0xbdec568b3e2c70e4U, 0xbd76388a3ce68d8aU,
  0xbdcde963bdc82f5dU, 0x3da58c663ccff737U, 0xbe2c71183dd25f69U, 0x3d4dd0843c3edc4fU,
  0x3d92948fbc91dfecU, 0x3dd25abb3ce5c54aU, 0xbd94f29a3de1c830U, 0x3b284d65bde1ad07U,
  0x3df1bdf5be39c0a6U, 0xbc7b2afbbdbac6a2U, 0x3c0fc9abbdabfc2eU, 0xbdc8f23c3d2eb916U,
  0x3db31f093c835cbaU, 0xbc94734ebd74c90bU, 0x3bb5d2a03e0a305bU, 0x3d9d5cb0bccf9471U,
  0x3d800b91be1857e0U, 0xbd850abe3df2be1aU, 0xbcfd63da3d48b493U, 0x3dbe9f92bd0455a9U,
  0xbd3205713bf30f70U, 0x3c79552bbbfb0ad9U, 0xbd76cfcf3dcf69e1U, 0x3dd32788be0617deU,
  0x3e3f0647bd3855a4U, 0xbd3a9f923d209b95U, 0xbdeaafe9bdf9d4f6U, 0x3e6880933b8140e7U,
  0x3c9730393d5f13f5U, 0xbb9865c33c9a3271U, 0x3d9439113d2ed07cU, 0x3ddb77723b941e23U,
  0x3e6acf683b2298afU, 0xbd30c335bd3e259aU, 0x3cbd6f4abca15a78U, 0x3d4da471bde8d6b8U,
  0x3dbbe3a6bd465efbU, 0xbd9bd7283d442f15U, 0xbc8e7de23da106caU, 0xbd754e173d8479f1U,
  0x3d76d38b3c94ed28U, 0x3e1e20f8bd67cf01U, 0x3d97a1a63d0d04d5U, 0x3e3d2d8d3dfceb8dU,
  0x3dfa55eabdc9f5b3U, 0x3e247f273e1702d9U, 0x3c7967ac3d05b7bcU, 0x3cd8257d3c86d1e1U,
  0xbce3c2943c2e4793U, 0xbc8cfa0d3d7f938fU, 0xbe28271e3d6ba284U, 0xbccbf605bde1c2daU,
  0x3e12c9b83d3eb4c8U, 0x3c5fc63d3dee66f3U, 0xbe130bd9bccd50aeU, 0xbbc73e9b3deb43ebU,
  0x3e12fa32bdedafb4U, 0x3dc88b553c75bd27U, 0x3d59d1253dcc2a7aU, 0x3e0da5a83ccbcd4fU,
  0x3e0818b43d324213U, 0x3e4b0a813dc7a412U, 0xbbc4b3c5bd2c4b86U, 0x3e0651983db6af21U,
  0x3de494e6bd9e145bU, 0xbd86215e3d7fbe43U, 0xbd3b96dbbcb4d39eU, 0xbd5726b2bdb171e2U,
  0xbca241283c2d0a8dU, 0x3dd787ac3d5ce632U, 0xbded93983da35046U, 0xbc9f5ebe3def57a9U,
  0x3d8025e4be22699eU, 0x3ccc7c053a6b3cebU, 0xbd7aee3bbdd6dd3cU, 0xbd99d6c4bdc61568U,
  0xbb0ac9a0bdc83281U, 0xbd0ac20c3ce59d47U, 0x3c51c27a3de933d4U, 0x3d6d15723e31ca78U,
  0x3e0b23a2be1ea929U, 0x3cc82946be2de3d9U, 0xbe1eed44bd6f62a2U, 0xbd0803e93c78a501U,
  0x3b8df286bd6eef65U, 0xbcc63a32bd9555ffU, 0xbdf0cc603cd98bfdU, 0xbc445ad13df85fefU,
  0x3daf90d7bd92467dU, 0x3db2bf99bda84a36U, 0xbd8a0e94bd98e4a4U, 0x3dd4203c3d00cc82U,
  0xbbde3d0e3cf29fd9U, 0xbdb8d1913cc4d308U, 0xbe08ffe63cc36a0eU, 0xbd90733e3dc9641fU,
  0xbdb63a93bd73e3f2U, 0x3d50cb0bbe5784b6U, 0x3b9e3c8d3dd4c327U, 0xbdda2005bd122481U,
  0x3db120013d89232bU, 0x3cff43eebe13d14cU, 0xbe39f91d3db6289aU, 0xbd04bf73bdb2513fU,
  0xbe41f6f1bd34bd79U, 0xbc56d1c4bd770358U, 0xbd54dae23d838ad2U, 0x3d5e67ffbdbf2a03U,
  0x3d95304ebdf848b6U, 0x3e0c95873dbfb02dU, 0xbdfcc1a7bdb49381U, 0x3d9a7fe13d54f199U,
  0x3d067af8bd8d2d1fU, 0x3cd79c44bd91ca20U, 0xbdbc8bf83bc15321U, 0xbdc28231be46ff74U,
  0xbdb274a9be1256f0U, 0xbd2ec97a3d168c35U, 0xbe1e512d3d966e1bU, 0xbe2193713de27bf4U,
  0x3d9bf759bdf30433U, 0xbd50f80ebca31bf2U, 0x3c6b5cb7bd2b69f3U, 0xbcbada1dbe01fae3U,
  0xbd255307bd89affeU, 0xbe2cb5853d19958aU, 0xbd8ad8fabe274eefU, 0xbc0b410e3c1fef5fU,
  0xbd484a99bd380e0aU, 0x3c8b378d3de7c9b8U, 0x3b2421d5be599e7eU, 0x3c7fc3b5bd77b1f1U,
  0x3cc6ac703e817aaeU, 0xbdd6d327bdae1e5eU, 0xbccf3cc03cda3bb3U, 0xbe0037fa3dbe3a56U,
  0xbbcdabd8bcc1de79U, 0x3e160e7a3c96b95cU, 0x3d78cab03e100d27U, 0xbc6dfd093e049152U,
  0x3d30cb263d09a694U, 0x3dbae6063e0917fdU, 0x3da41ac8bbf850a9U, 0xbe162806bd0cf112U,
  0xbd82794cbe0df8d2U, 0x3da35facbd771a4eU, 0xbdb43844bc887c78U, 0xbe4356513dfe2ce0U,
  0x3dc35050bceb587fU, 0x3d7eb3103d3358f7U, 0x3e0201ddbdd29af2U, 0xbd04909bbbe48253U,
  0x3d4dd43d3d230297U, 0xbdd5c0003da3ce6fU, 0x3dbac76b3df03d25U, 0xbe484b423d9ba88eU,
  0x3d6393ac3d035619U, 0xbd7d9462bc27b9deU, 0x3d9c1b4cbcd72a44U, 0xbdd606f8bdb83341U,
  0x3d8fe0e73c881619U, 0x3dbbe3053db32157U, 0x3def558d3dc552cbU, 0x3bb5f83fbc1b20faU,
  0x3d9265a0bdbd0b25U, 0x3bb3d5a73e002355U, 0x3c90ca163bf58381U, 0xbe05e1ac3d6af4b6U,
  0xbd64b46f3c25e721U, 0x3d9fa5c23e7bb31dU, 0xbd84d78ebc33f334U, 0xbd5aec9f3db6a242U,
  0x3c63506ebc8c3d3bU, 0xbe09a2d4bd27923dU, 0x3d5c6bc1ba347b9eU, 0x3c0e89b9bd8fdabdU,
  0xbde1582c3ccfc22eU, 0x3d73e7f23d6691e1U, 0x3c00136e3b4c8c5cU, 0xbb83b4613d21f883U,
  0xbd9fbc313c6b862cU, 0xbd8bb0a1be0ac2e2U, 0xbd58b887bb32e027U, 0x3dd9bd6b3e2a786bU,
  0xbe4d99143e18acd3U, 0x3ca0aded3d8666afU, 0x3ac769e33cf9269cU, 0xbd4e8d983daed9e1U,
  0x3d72e5fa3dcb5a34U, 0xbda5180bbccd4f54U, 0xbc09bcf6bda2eaccU, 0x3dd392433e0db83bU,
  0x3c85e575bdaede8eU, 0xbcf401423d4171e0U, 0x3de624073d96298cU, 0xbd97db6d3d4e6d1cU,
  0x3bb5e266bd6a6dadU, 0x3d8ad8123e06702dU, 0x3d4e43f0bdc6258dU, 0xbcbabab8bb6d923aU,
  0xbda78de83de92ac4U, 0xbd14599f3d1d6ed3U, 0x3d2b9cae3d3b0454U, 0xbabca0423daed09aU,
  0xbdc1ee9dbe05c01eU, 0xbe2311ca3d9a1cf0U, 0x3c1d0d82bce08ff5U, 0xbd97b360bda06b44U,
  0xbd119f3dbd97a3e1U, 0x3d8246603e39a6deU, 0x3de03e14bb3ef270U, 0xbd93b7b1bd0b95afU,
  0xbd932b75bdbf794aU, 0xbcdf20a93b4739d4U, 0x3dace0f4bdd9997aU, 0xbdc936aabd8871bcU,
  0xbd89f2783df9a71cU, 0x3d97b3033ce8623bU, 0xbc51e5f6bd5cb732U, 0xbc8ecd013d38988bU,
  0xbc821290bd7565b0U, 0x3d7105bbbc5ca4d6U, 0xbdf473203d52e755U, 0x3d8f8bfc3df8c445U,
  0xbdef65493d8037abU, 0x3d9cb79d3c89c9c0U, 0xbdf15f3dbcaeca9bU, 0xbc443c523c57e372U,
  0xbdc622103d01d68aU, 0xbe16a4853b27cc46U, 0x3cc1aecc3dcc6273U, 0xbda1db3abd2f904fU,
  0xbdc58f873ca97a12U, 0xbdd1a683bddbdccbU, 0xbe4b50463df9ee8dU, 0xbd8ec5163da88346U,
  0x3c02b6b13ccc7ab5U, 0x3ce818fdbde1e543U, 0xbda8ced53cf90043U, 0xbe00c8123c6d7260U,
  0x3bea77983da7903dU, 0xbdea9ce6bcc96ed6U, 0xbdd809acbd4fc800U, 0x3d143e983e48afaaU,
  0x3daabbd23dcaf32eU, 0x3a4a6ad7bd3e0f1bU, 0x3da417fe3d0bb172U, 0xbd324f5bbdd30a4aU,
  0x3b8fa36c3c764716U, 0x3da169f73d13de8aU, 0x3d1e650cbd2d009aU, 0xbcbb24f9bd7757c5U,
  0xbc9999e9bd417c7cU, 0xbc5ec164be131a02U, 0xbd963863bdb10160U, 0xbdb09fc3bdfbdcd3U,
  0xbe0f7421bd826d9fU, 0xbdb15e1f3c09f71eU, 0xbdf56caf3c868863U, 0x3cb24862be070ed4U,
  0x3d849618be84433dU, 0xbe132aa8bca67a72U, 0x3b69d096bd18595cU, 0x3e02a0ed3db3d790U,
  0xbe066546bd858bffU, 0x3b0032ae3dcaa5c6U, 0xbe4b802d3db6785aU, 0xbe4e2449bc953ebeU,
  0xbc9c24993e120bc6U, 0xbde81a373d2c77c1U, 0xbb09bb013d997ff9U, 0xbbd1a90ebdf5620fU,
  0xbd396c3c3d7581f5U, 0xbda692f53dc9e7e6U, 0xbe0317c0bcc6a84fU, 0xbd0b65d33e06111cU,
  0x3e0cb7cebdcaac59U, 0x3e0a1e9e3daea03aU, 0x3e398c5abd38fe71U, 0x3d9d1d11bd18ac78U,
  0x3b879c59bce1e85dU, 0x3d5475763dc8e678U, 0x3d4dfbcebb8f7eceU, 0xbd6f1ed1bdb11605U,
  0xbdeecc1c3b3db125U, 0xbb84ed14bc438379U, 0xbc15bcf73c9795b7U, 0xbd513854bdb34246U,
  0xbd8fe5173dd76ed3U, 0x3d1319c2bd922a76U, 0x3dcbd53f3c14d842U, 0xbd855976bd6c0cc4U,
  0xbb24f0363e1d6a8cU, 0xbc83d147be3c0f79U, 0x3d8caa81bd3d3d59U, 0x3e0d5b00bc5450c9U,
  0x3e2873143da97988U, 0x3b7b1d3cbcf524cfU, 0x3db01428be4c09c0U, 0xbe124f9abe61cd5aU,
  0x3dd642123b24e953U, 0x3d0f0fa5be07c7a0U, 0xbd17e6b0baf9029aU, 0x3e1288bdbd4b4913U,
  0x3d8562093d1bf061U, 0xbd12a8c2bd91b1d2U, 0x3d0ee3f4bd7e6b42U, 0x3de2153d3c501e51U,
  0x3e25a398bd4d11eeU, 0x3e0afd263d0d26e3U, 0xbe618a143e3b363eU, 0x3df69b53bdd4145bU,
  0x3dd638e4bcf0515aU, 0xbe13c043bde743b8U, 0xbdbdd849bcf56260U, 0xbd45ce49bd427768U,
  0xbdea8289bdfb725bU, 0x3d751cafbe50297eU, 0x3c60f3023dcab3f8U, 0xbde0909a3d05310fU,
  0xbe46366dbe250d94U, 0xbdcad3bcbdae933cU, 0xbe56328fbd89cb73U, 0x3d2b2405bde90a67U,
  0x3e46aee5bdbbf949U, 0x3dbf7416bd4b9639U, 0xbdd1ca023d4147ecU, 0x3db458813de89112U,
  0xbd2e1e4bbda0d2c6U, 0xbca1065ebc51e7dcU, 0xbc29a3383bf5b88bU, 0xbcca050abe5951e2U,
  0x3dae648d3cee80edU, 0xbd8c39fb3c41b613U, 0xbe0cd00f3d874417U, 0xbcad00b83d325604U,
  0xbe0bbea53d3a9934U, 0xbd822996bdb26b57U, 0x3c5d05133d467d4fU, 0x3decbae0bda0a4e0U,
  0x3d4ee2403c1cc2d2U, 0x3c2194253ca53099U, 0xbe153a533e2ebef2U, 0x3daf70743d2919c2U,
  0x3e60b839bde4d64eU, 0x3e12f046be93a679U, 0x3e0cbc91bd5a7040U, 0x3e252752bd0f9a3bU,
  0xbda94b423e730675U, 0xbd6eae94bbcf7620U, 0xbdde32cd3cba1eceU, 0xbd9dcef2bd45114bU,
  0xbaab97b2be1f6587U, 0x3c9bc01cbe43ecf2U, 0xbd8772863c47e588U, 0x3dbe4d8f3d1240aaU,
  0xbd95248bbcd802a8U, 0x3c7a8df0bcc1852fU, 0xbd4bd0c23d7c9a1eU, 0x3e0703c13b825711U,
  0x3c9a73f6bd61a2bfU, 0x3da74a923d657553U, 0xbd384da53c6c43b1U, 0xbda4ba193cad837fU,
  0x3d81fb823e0c6582U, 0x3e0d65d23db64b2dU, 0xbd0d21813d502c8dU, 0x3dbc2d2ebe68059dU,
  0xbe0fe2eabd8d1457U, 0x3d8a283fbdd17179U, 0xbddbfb6c3e4d6e7cU, 0x3c0a4344bd8c064bU,
  0x3d66d4c13bf66fbfU, 0x3dce8c9b3e086274U, 0xbe33faef3d325417U, 0x3dfb8f41bc82b4b4U,
  0x3df938b1bd4648deU, 0x3c3e891abe40fa93U, 0xbcd63d21bde363f2U, 0x3dfad71ebe11e702U,
  0x3a11b067bdcacdb9U, 0xbda714573d982e7eU, 0x3dee85063e834c78U, 0xbbac82933bd79655U,
  0x3e408063bd3ebe5bU, 0x3d8ce340beac36c8U, 0x3d92fdd1be145372U, 0x3de38f6bbe306b93U,
  0xbcb1302abd852fd9U, 0xbc541f433e285f64U, 0xbdce395d3e0cfdafU, 0xbc9421bf3db56046U,
  0x3d91fc36bce8f616U, 0x3cdb252f3e2a2c76U, 0xbdbcea033d61d979U, 0x3e61110a3c065d3eU,
  0xbd073257bdf63853U, 0x3d1239dc3db33f96U, 0xbcc38b41bc286c6fU, 0x3da18e833c77bb8dU,
  0xbc7c847cbc9095b2U, 0xbe02fb423e475abdU, 0xbc19d1c93c92e437U, 0x3e1dc604bc5de2fdU,
  0x3e121bb8be0bffbcU, 0x3de8ee233bd9e082U, 0xbe30bfe53e11b597U, 0xbbc6edb2bd141d40U,
  0x3da3ad7e3c051663U, 0xbd23a4fd3cf4681dU, 0xbe12ad0a3defec10U, 0x3e3bde3fbd72c4c8U,
  0x3e1c5e48bdf960ddU, 0xbd283fa53dd16106U, 0xbe20c8a43e223bdaU, 0xbd729fef3cf31d00U,
  0x3dc8678ebd7ec6b1U, 0x3df29c0d3c2942f5U, 0xbe20abfcbbbe4528U, 0x3d0899a9bcaa332cU,
  0x3df924fcbd278c4cU, 0x3e2450533d24065bU, 0xbdf58c9c3d476d92U, 0xbbc405f53e81bfcbU,
  0x3db1bf43be2aef5aU, 0x3d835592baf8aa92U, 0xbd56af083df93720U, 0x3df73b143d843a05U,
  0x3d486dd2bdbf3a46U, 0x3d47f3e53dd24f81U, 0xbddca9163e43f832U, 0x3d38c9e43db5c6e5U,
  0x3e42fbb4be02e7f3U, 0xbcfd699a3dbb0423U, 0xbe7ea31ebde8a8e6U, 0x3dfcc2373d0a6da9U,
  0x3cdeed41bd5b4c56U, 0x3dd866e8bdbe7277U, 0x3d5a74c73d9f3f0eU, 0x3cbffd0c3d913d79U,
  0xbaf34953bd8edc68U, 0x3dc0dfcc3cbb597cU, 0x3e10cd6dbdbcf2a3U, 0x3e6c2e7fbde5e53eU,
  0xbc68b9363c1e9b71U, 0x3dc085bdbe014cc2U, 0x3cf336b33ce4bdc7U, 0x3deb46de3d466c6aU,
  0x3dbe5a33bde998dbU, 0x3d73871ebe981f85U, 0x3d8312b4bdc9e1ddU, 0xbdb25997bddb6924U,
  0x3dabca9bbd80a535U, 0xbdaad06dbd7531c8U, 0x3cbedc703db9d992U, 0x3d8eed6f3cd9dbaaU,
  0xbe19c2b8bdbf5646U, 0xbcc3b038bde543a3U, 0xbe413837be138891U, 0x3d65845fbd36b965U,
  0x3d7db301be0e0e79U, 0x3de25e553ddd6532U, 0xbd95ea553d84e1f2U, 0xbd7d5ce43e19d35bU,
  0xbb8f5317bd879761U, 0x3db3a9e73deceb69U, 0xbe00b6e03e2965d1U, 0x3ddaf233bd29b4e8U,
  0x3e1ef397bcd56d12U, 0xbd49a36ebca463daU, 0xbd46dcc4bd2237c9U, 0xbd90a2a13e3479ecU,
  0xbd422bd5bd86dbc0U, 0x3d3912a53e31c7fcU, 0xbe91c73ebdbcabc5U, 0xbd776c2e3bf89e87U,
  0xbdc32662bea0a02bU, 0xbb91478bbe4a1860U, 0xbe0edafe3e4169d0U, 0xbe4372b7bd0363e3U,
  0x3b96115ebe4647f8U, 0x3d9fae87bd1d0d64U, 0xbe710d38be44db9aU, 0xbe525b623d89955eU,
  0x3d8b1dc7be1f00faU, 0xbd2c0f473b5b8d0aU, 0xbdcbc053bd15e122U, 0x3da57151bdf1dd51U,
  0xbcbb4797bcc433a0U, 0x3cfb7e14bc9813d4U, 0xbdf282bcbde0a599U, 0xbd8fe7c6be0ab848U,
  0xbcd89295be34e549U, 0xbdd2cfe6bd9196f8U, 0xbdec01cfbdf570f5U, 0xbe068fd43d31f6c4U,
  0x3cfe2228be082286U, 0xbd222a53bdc5dcc0U, 0xbe0c5aa0bc34f9b8U, 0xbcff4315bd8e68ccU,
  0xbbd99203bd4d7850U, 0x3bb713573d30b6eaU, 0x3bd5f3b63b3bbbacU, 0xbd8d4f07be00bf26U,
  0x3db9ade2be073e5aU, 0xbe127cd9bd95faaaU, 0xbba9f6743cb7bdb3U, 0xbd1e2a3dbdf1428eU,
  0xbd2d64c7be043d77U, 0x3d5d0576bd9aee38U, 0x3d8b5674bcc6ab1cU, 0xbde6b569bd946666U,
  0xbd9c977b3daddebaU, 0xbdd8ca78bdcc931fU, 0x3d87ea77bc31c876U, 0x3cab917a3d936415U,
  0xbd0e1ab9ba1d50d1U, 0x3d30f18d3b77e96cU, 0xbce047383d22e807U, 0xbe0d0e413d8a2ff1U,
  0x3d697d6b3d145b0bU, 0x3d5ac5953db2064bU, 0x3c09a249bdacb144U, 0xbd305ebabe096e35U,
  0x3d1e4f91bdb95445U, 0xbd21f0393d390773U, 0x3dced4adbdc9b224U, 0xbde6a6663caf16b2U,
  0xbcf44957bbdde3aeU, 0x3bc0b9bebdb66dfdU, 0x3de808c3bd01fb91U, 0xbdccba6a3d332796U,
  0xbdc73b7d3cb26d12U, 0x3b9d33abbe0c1bccU, 0x3dde1d003d842d89U, 0x3c8e3b3fbc1daa7fU,
  0x3d807bfd3d30b173U, 0x3d4bfdcc3d1af4c5U, 0x3cd0f5b63dcdd065U, 0xbd7e49c7bd148874U,
  0xbd1d6efdbdad3d45U, 0xbd73c0c2bc3d4712U, 0xbe0c2163bd8f51e9U, 0xbdfcef9e3dac4fefU,
  0xbd2baf74bda8bfbcU, 0xbdefc9d6be4e7de3U, 0xbd90b557bd757165U, 0xbda073723d45d9e1U,
  0x3c062eb43d09c1d5U, 0xbd0e59f23d930f34U, 0xbe0da3103c8a2706U, 0xbe19e124bdabece9U,
  0xbc5b16cb3d425289U, 0xbdaca1a1bd6acb29U, 0xbd8a87993dc642c8U, 0x3cc33328bb2063f5U,
  0x3d2997cdbdfec8a9U, 0xbda0a8b03d887d05U, 0x3de85f6fbda4a25eU, 0xbd40dd17bdfdab91U,
  0x3d9ba7563ded7743U, 0xbc34003e3d65efdeU, 0xbc7d4851bdcf8bdeU, 0x3d1dd9bf3cbd552eU,
  0xbbe487a2bc6527a2U, 0xbdae60eebde64dcaU, 0xbdcd77c43d10ca54U, 0xbe0a2dd13d4efb29U,
  0xbddf3d57bd7ae660U, 0xbe0c8506bd8a3bbbU, 0x3d4bbe5dbd8ba6fdU, 0xbe1c826cbd97861eU,
  0x3c73df88bcb22468U, 0xbdf482f7bd74c4ddU, 0x3d6ee7f93baf494fU, 0x3c480350bc487fbfU,
  0x3c6816e43d516c0bU, 0xbde10c49bc59baa1U, 0xbdeabff23c8d4ef9U, 0x3cbad4b33d1eed99U,
  0xbc96dcf73deba5ebU, 0x3d85fd5a3d9145f8U, 0xbd73f5f4bd5f5cdaU, 0xbdac6dedbd60600dU,
  0xbda96d2f3d931903U, 0xbd7cb0f1bdb6bfc6U, 0xbd18f506bb842446U, 0x3dba2ce63d0d4f22U,
  0xbe0034ee3da82f75U, 0x3d09cd60bdf14eecU, 0x3d0729913deac2e4U, 0x3c298ef23cbffd84U,
  0x3d9bd91bbdc51fa0U, 0xbdb52ce1bda260faU, 0xbded5b30bda49ab0U, 0xbc43757fbdd5754cU,
  0xbd07d3413d9973f6U, 0xbd4483b43d048fc8U, 0x3c9d3a59bdff0db4U, 0xbdf2afd0bbd2098eU,
  0x3db1f6c7be233ff4U, 0xbe0c37aebda1f824U, 0xbe1a27cc3d0cda2cU, 0x3beaba893ca3bc82U,
  0xbe06747ebe1f40ecU, 0xbdd6dd39be37daacU, 0xbe017688bd000c25U, 0x3cbf02cd3dfa9a9eU,
  0x3d33548dbd481962U, 0x3d5618563b304b62U, 0xbe0437933b197c34U, 0xbd700e56bdbac95cU,
  0x3d5bb8f5be0ebf1fU, 0xbbe38d04bd3e4a67U, 0xbd46f416bd47c0ceU, 0x3d89534abc503fc0U,
  0xbc2c9010bcc0161bU, 0xbd6d10613bdfda73U, 0xbe26dc53bcb1ec96U, 0xbc32db3abd0af157U,
  0xbd1534d4bdf0d4d5U, 0xbdeeda75bdf9171cU, 0x3d137d89bd2249b5U, 0x3d07708bbd0b4707U,
  0x3d7c1927be0838d5U, 0x3d3d9519bda81dc3U, 0xbc84add5bdf50d3dU, 0x3cbe04a9bd42fda3U,
  0xbd30d4a7bb4691acU, 0xbd5b7b4bbe1cb141U, 0xbd38f070bda87c9cU, 0xbc9a84dbbdcfecabU,
  0xbb0d4bf0bdef7a97U, 0x3d8857dfbd64f005U, 0x3d2aa8e13dbe5e1aU, 0x3dc774393ddc1776U,
  0xbdb419273b5fc888U, 0xbd732aafbd099c27U, 0x3bd81b613dd24241U, 0xbd78ecbebcf10a74U,
  0x3d00d156bb5129d5U, 0x3db02d3ebcc5aebeU, 0x3d6a723ebe08417fU, 0xbde2057fbdbe1e62U,
  0xbd87f2043d949d77U, 0xbc10ab493cdaffcbU, 0x3d91d8913d5ae4fbU, 0xbdcadca0bd3803c7U,
  0x3d31a9aebe0780a8U, 0x3dbd669cbddcc1b0U, 0xbdec69ff3d827decU, 0xbdbbb7b1bdaf2b72U,
  0xbcc77fc6be14beadU, 0xbc82c83bbde044e7U, 0xbd76c6c9bcc1b6f8U, 0x3ce3d0a5bb54a282U,
  0xbd4b91b83d86df21U, 0xbe0736373da341dbU, 0xbe02796cbd927575U, 0xbdf3a5e13d25be46U,
  0xbe0589dc3d57e5deU, 0x3dfd26db3e247b18U, 0x3e055f4ebe0b2d9aU, 0xbda6fe06bd8611c3U,
  0x3e148975bd4ce449U, 0xbcf9d7a0bdafd73dU, 0xbdb36dedbdcb03e1U, 0xbd966459bdf3aa3dU,
  0xbd9c9db43c80acccU, 0x3e7f19483ef7e302U, 0x3e2b22b7be48ed38U, 0x3e5c84073d883597U,
  0x3ef43882be581397U, 0xbecb76e2be34e212U, 0xbe87701abebf0737U, 0x3dbb21963ed70a6cU,
  0xbe378228bec538acU, 0xbec04b9b3eac064bU, 0xbd03d8c83e51aef7U, 0x3ef0ee6fbe81868aU,
  0xbeabdf47bbeaa96bU, 0x3d3729c53edb1f30U, 0x3e660b0b3da3e122U, 0x3e146f9b3eb0c99dU,
  0x3e0688f53d518290U, 0xbe85cacabe758eceU, 0xbe6a0cae3e7f02e7U, 0x3e9aa4843e73dcf6U,
  0xbd96de58bec531a6U, 0xbe946ad13cf0f207U, 0xbdbe88093ed72f40U, 0xbe9e40fa3f23136eU,
  0x3f1c92be3df6d788U, 0xbf3919deU,
};


ai_handle g_network_weights_table[1 + 2] = {
  AI_HANDLE_PTR(AI_MAGIC_MARKER),
  AI_HANDLE_PTR(s_network_weights_array_u64),
  AI_HANDLE_PTR(AI_MAGIC_MARKER),
};

