/**
  ******************************************************************************
  * @file    network_data_params.c
  * @author  AST Embedded Analytics Research Platform
  * @date    2026-04-10T21:08:55+0200
  * @brief   AI Tool Automatic Code Generator for Embedded NN computing
  ******************************************************************************
  * Copyright (c) 2026 STMicroelectronics.
  * All rights reserved.
  *
  * This software is licensed under terms that can be found in the LICENSE file
  * in the root directory of this software component.
  * If no LICENSE file comes with this software, it is provided AS-IS.
  ******************************************************************************
  */

#include "network_data_params.h"


/**  Activations Section  ****************************************************/
ai_handle g_network_activations_table[1 + 2] = {
  AI_HANDLE_PTR(AI_MAGIC_MARKER),
  AI_HANDLE_PTR(NULL),
  AI_HANDLE_PTR(AI_MAGIC_MARKER),
};




/**  Weights Section  ********************************************************/
AI_ALIGNED(32)
const ai_u64 s_network_weights_array_u64[3938] = {
  0x3c681a953de3660bU, 0xbd5b92393d5a3f2eU, 0xbdac60c73d844540U, 0x3d779fd23d4cc16fU,
  0xbc13fa703e52e900U, 0xbe60122c3cb36339U, 0xbe2817243dc54d5dU, 0x3bc9ee3d3ccc6c85U,
  0xbcaefd963dcfc3acU, 0xbe87e71b3dd0db02U, 0x3e1fb285bdd6d491U, 0xbe1518713d9c1216U,
  0xbd57b2373d2545bcU, 0xbdb61f873d866941U, 0xbdc2df93bd07c7fcU, 0x3d91c8303c8ea25fU,
  0x3dcd68aabd818fa5U, 0x3e47af4fbd3c801aU, 0x3d516ce23d11f79cU, 0xbe1f1b09beee4eb3U,
  0x3cf39e12be8e827bU, 0x3b74f0963e73c662U, 0xbdcdd89abea49115U, 0x3df00dd33daf7006U,
  0x3d89c8943de07c4eU, 0xbd11901bbdb06ea0U, 0x3e08d0633d7a759dU, 0x3e4be940be080c9fU,
  0xbe1566c6bef66524U, 0x3e2012a23ca2e8faU, 0x3e0156303daf37eaU, 0x3e074c67bef72e08U,
  0xbe1452c33a879e0dU, 0xbe1d77723ddf57c5U, 0x3d6a50b2bef8d175U, 0xbdd4ee313df9256cU,
  0x3e137c14be96154aU, 0x3e0b41233e706dc3U, 0xbde487453d9e11adU, 0xbde1243bbce098f8U,
  0x3bfb611a3e598631U, 0x3dfb82683e0cb1c0U, 0x3ddcc2ecbe560ab9U, 0xbe114083bdc6fa6bU,
  0xbdcd9121bcd3c4bdU, 0xbd1f3a87be5cf1e9U, 0x3e24994d3db65df1U, 0xbd8c2dd2be25ff99U,
  0x3d18c42dbe04a9d2U, 0x3dd33a83bd60854bU, 0xbe3cffa43d98fb17U, 0xbea845cebdd02043U,
  0xbe0a3e93b9e5eee7U, 0x3db9048d3e036315U, 0x3df5dcaf3ebb66a7U, 0xbd366c203e02857eU,
  0xbe49378ebd8b2c96U, 0xbd8d047b3eb20df0U, 0x3e49aa133d166db8U, 0xbe02ef503d9a12d8U,
  0x3e6543b03e779733U, 0xbe32f68ebde0c1a4U, 0xbaedb2443e527544U, 0x3dd21cf83e92d6b8U,
  0xbcc04323be1b4839U, 0x3d41950dbcad25b2U, 0xbdc9db733ea280beU, 0x3da95c1ebd100fb0U,
  0x3dddd08c3e7b9e2fU, 0x3c22c42f3e1e3adeU, 0x3e3dd502bd8d85c6U, 0xbce0d7cdbe4efd95U,
  0xbdb427bb3d0155b0U, 0x3e136705bedf56a1U, 0x3dc5212cbe28262bU, 0x3dcb8ab23c5adc46U,
  0x3c8973d0bf081bb1U, 0x3cf9ef3fbe44f2dbU, 0x3d8bb773be0ff7f9U, 0xbe237691bed27b32U,
  0x3e132dfe3e9e4ac8U, 0x3d6ebe053a88970aU, 0x3c77a0fc3e71978fU, 0x3d79cedfbe1e7d0aU,
  0xbe040f78beadbb8aU, 0x3e81473b3d7fdedfU, 0x3e334276be58954eU, 0x3d202111beae8b67U,
  0xbde351a13ea70eabU, 0x3db0919fbddfbb5eU, 0xbe43f10d3e8e1682U, 0x3e2ed8ddbf0c4826U,
  0xbd505bf4be0e1ccaU, 0x3e4a391b3e282d7dU, 0x3dd09e65be07d956U, 0x3c959f6ebe214ddeU,
  0x3c5a23993e303737U, 0xbdfb0261be99678aU, 0xbe3c115c3e64f9bdU, 0xbd1b463a3e931b4aU,
  0xbd44aa92bd11469fU, 0x3e0cde6bbd819ce4U, 0x3d1988123e851c8eU, 0x3d3d800abe7f1acbU,
  0xbe27ceed3e6a07a1U, 0xbc9845a83d1eff85U, 0xbc0e28403d8a5784U, 0xbe58c98c3e8a3998U,
  0x3ecd8fd83d255e5fU, 0xbdf9c97a3e7121d7U, 0xbe1c1fc53e5d5936U, 0x3d75ea7b3e8391e8U,
  0xbdf34aa53d51324eU, 0xbe09f5d1be260a47U, 0x3e2f5fbc3ecaade8U, 0x3d7534fb3ea813d7U,
  0x3b00fdd83d960dbaU, 0x3c83ea69bf148dccU, 0x3db4dee33e826399U, 0xbb966ed33df19fefU,
  0xbe33c601bf0a4747U, 0x3e2d62063e8035eaU, 0xbda254fbbdfea7c5U, 0xbba77863bed9fbe6U,
  0xbdf707083efa37f2U, 0xbe2b469bbe51ca4aU, 0xbe10103c3ea6195dU, 0x3d89c55fbeb18db3U,
  0xbe3bb52b3d8aaae8U, 0xbe8df4af3e334166U, 0xbe1480ebbd82e565U, 0xbe2fea523dd811ccU,
  0xbeb7467d3d78f2e2U, 0xbd94adcfbd6370b2U, 0xbe21a6f0bc60137dU, 0x3e11379fbebb2a75U,
  0xbda06bbb3e738b1cU, 0x3e01aff6be5015d0U, 0x3e6da4c4bede1991U, 0x3d18c3403e1d8c77U,
  0xbe1644393e23126cU, 0xbdd78571beaca5cbU, 0x3bf24f113e2f1ea4U, 0x3d714b45bca589c7U,
  0x3e37aaaa3e5de1daU, 0xbe3ee434bdbecdd4U, 0xbe5c5a03be13c11bU, 0xbe24926b3c88ce7fU,
  0xbcf69be4bd7e9980U, 0xbd90a3f13e5744e2U, 0xbdffe7f23eae4cd4U, 0x3e2c3110bd3cb2caU,
  0xbde5ea9dbd910720U, 0x3d25b2fb3e7f3c14U, 0x3d45ed70bf177476U, 0x3e664d3b3deddb1cU,
  0x3d01e01a3df2bd36U, 0x3e1cf05bbef96a29U, 0x3e2a6037bd9e0562U, 0x3d88546c3d7c6b58U,
  0x3d5a088bbeb34962U, 0xbe4ac6013e066acbU, 0x3e8dea613e128450U, 0x3d5f796e3e84421bU,
  0xbdd49d59bdc5000bU, 0xbc8a21733d315ef2U, 0xbdbbc3913eb87012U, 0xbbcbee093e226cc6U,
  0x3ea08b7c3d0aeb7eU, 0xbd9e97f43e2326edU, 0xbd9853d83e634615U, 0x3e2771b13e1ded8bU,
  0xbe0c78afbd54b072U, 0xbe2bc4713e232060U, 0xbd5a9a2e3e2595dcU, 0xbe463063be7f8c9bU,
  0xbe260fe1be1dbeafU, 0x39849178bdf40946U, 0xbdd88de23db2b6f4U, 0x3d828f98bdd76016U,
  0x3dac73f63e07f373U, 0x3e302f803d8b1171U, 0xbe3781083e1c6846U, 0x3ec2115b3e2694d6U,
  0x3dee0b573e22908dU, 0xbbc93be83e4c7466U, 0x3e5f10793ed6e6a7U, 0xbe1f3a3d3ceb01d1U,
  0xbe1ed555bd791771U, 0xbe3e3959bdc5bc55U, 0x3da5f66fbeccad11U, 0xbd3151d13e7ff590U,
  0x3e1a6c113e71850cU, 0xbe070833beb02c84U, 0x3d53fa543e20b8e6U, 0x3d8dde54bd9fdc6eU,
  0x3cfd3f59bdb34c9dU, 0xbdb5a34bbd18dd2fU, 0x3e4a3f89be977a62U, 0x3ea3cacf3f0baf55U,
  0xbdd93effbe1d3433U, 0x3c7c35eabeab2104U, 0xbcddf6353e9b4ae5U, 0xbe51717abe36bc29U,
  0x3e29784cbe9dae92U, 0xbd84f8963eae2943U, 0x3e5d0dde3d16bbc4U, 0xbe0066223f157025U,
  0x3e1dce2d3d08bbc7U, 0x3da6f3df3e3d08acU, 0x3dcbf3843e9bc729U, 0x3bb5d9acbe166e67U,
  0xbe0334d53d872d1eU, 0x3d9644763ef736f9U, 0x3e79f93cbe71df87U, 0xbc870e33ba96d3f4U,
  0x3e303d603ddecae5U, 0x3e67376bbe806913U, 0x3e0c52b33dbc1b89U, 0x3e1d8fe33e8210c9U,
  0xbdeb0facbe4e33e5U, 0xbe0a99b3bdeeba9eU, 0xbdc88f5f3e02ba30U, 0xbdf37866be4c8481U,
  0xbe23e8033defb3bdU, 0xbaf19309beaac7dcU, 0x3e06da2b3e92efbfU, 0xbdf21013be5680b7U,
  0x3e0bb64abe8b48ddU, 0xbdb8e18e3ea5d2caU, 0xbdb768b1be5a5cc1U, 0x3e4cdf51be62361dU,
  0x3e4da8fe3e390496U, 0xbdae1d343de914d7U, 0xbe463fc03cecfb20U, 0xbd8e736ebeb76862U,
  0x3e3c34413e62c166U, 0x3de08474bc84e542U, 0xbe496062bdb6a56eU, 0x3e0cf16c3e2f943eU,
  0x3d94844e3dca4422U, 0x3b243f95bed3edfbU, 0x3e8f9e563e95fbbcU, 0x3e3110f43ee3f5feU,
  0x3e094bd9bd2bc9bdU, 0xbdf72ae03c132a3dU, 0x3dafbb543e13b9ccU, 0xbdf9fd2abeae46cdU,
  0xbe1e7e97bda94646U, 0x3d1d4abc3d8764e7U, 0x3e0cad05beb09395U, 0x3d1c507f3e62c4a6U,
  0xbdcad193bdc47fe3U, 0x3e17b5a7beb26396U, 0x3d269616bd91b4e7U, 0xbd3a98b6bda48bbbU,
  0x3c7e8dd2bea3d30cU, 0x3b0a54b33d9183c9U, 0x3e0a3be23d610310U, 0xbe6ad1b5beca71d3U,
  0x3e3cf285be49e286U, 0xbe7b03abbe5a8a16U, 0x3d8459823efe78a9U, 0xbdcd8543be6409e9U,
  0xbd74c461be55c3a0U, 0xbdd2910a3e2dbfd7U, 0x3d839a76be6671edU, 0x3da0dd6fbf20a6fcU,
  0x3dd69aaf3ee6fc81U, 0xbe325b7b3ced7943U, 0xbe7a4513becdc719U, 0xbd010fb4bd6743b2U,
  0x3deb3af6bd43e03cU, 0x3e269302be829db6U, 0x3df8a4cebd8dbddfU, 0x3e43f1ffbe86797fU,
  0xbe15bc8cbed1930bU, 0x3e48fea53e62ac6cU, 0x3d9435e7bd84b96eU, 0x3e494988be8c0351U,
  0xbd0f1a0e3f063e88U, 0xbd608ba0bdab0776U, 0x3e8972b1bed7c5ccU, 0xbd11ff743f2b7bb0U,
  0x3c1bc6363dcd634fU, 0x3e251a2ebe59d86aU, 0xbdd8bbb93ed8050dU, 0xbe72ff3fbe3599a4U,
  0xbdaf642e3d9642d3U, 0xbe7394a8bdfe3d71U, 0x3bf7ef71ba68f031U, 0xbd9b0c503d636d13U,
  0xbbb97aa2be746a32U, 0x3d8fc8b2be6f2ba2U, 0x3e8f8f0c3e37887aU, 0x3cb0cd7abe52861eU,
  0xbe4eabd83e0e7ec4U, 0xbc1ca65c3e8fc387U, 0xbe73fc62bcc7aa5bU, 0xbdc4d6583e227b43U,
  0x3df60ec7be04bdedU, 0xbd291124bdfb294dU, 0x3d7c9246be2aa771U, 0x3e7e1c4e3b8713b4U,
  0xbd6ec0763d864105U, 0x3d597d203d93ac9cU, 0xbe064c3f3db2f757U, 0xbdecccaa3e2de6c6U,
  0x3cf614febe12b121U, 0x3e266342bd0b3495U, 0xbe17c85b3e1f9017U, 0xbd42c4363dc8d770U,
  0x3e659969bdd71d21U, 0x3d7ddc293df9bfc1U, 0xbd1622d63e14f3d2U, 0xbd8087cc3e2c52f8U,
  0x3dde29133e735ce7U, 0xbdc4f0583e204fa8U, 0xbe168ce9be7052d0U, 0x3e085cb2baa6136cU,
  0x3cc10a65bd193240U, 0xbda58b42be41ca9aU, 0x3df9b8f03e3295dbU, 0x3c75df1cbd8e10fdU,
  0xbdd27f283e028c55U, 0x3b9494583d40bfe9U, 0x3d322b683e09f5e5U, 0xbccf7d36bde438abU,
  0x3e542c38bd27383fU, 0xbdc7cc11bddd9d22U, 0xbe1f7f0cbdd6495cU, 0x3d809033be03673fU,
  0x3e121a96be23ee98U, 0x3ddb47083da26731U, 0x3cd3aa56be118ddfU, 0x3d95fd0e3d68cd31U,
  0xbc01aa003e220ec5U, 0x3d3f3bedbe6d9b87U, 0x3cf79a183e38e986U, 0xbdf6fe263ddf9b09U,
  0xbe080b64bd537b6bU, 0xbe361a373cf1d955U, 0xbe25802d3e36cfd5U, 0xbdf9502c3da388bdU,
  0x3cf3cd963e163326U, 0xbc2973a93d639678U, 0x3e5099813e10f22cU, 0xbdf6d66fbd96e67cU,
  0xbdd729b1bd926e18U, 0x3e253d9dbb3bec9bU, 0x3bf5937bbdd38e0eU, 0x3e0a8b4cbe21e0e1U,
  0x3de09590be0fe064U, 0xbe0d85aa3e01ac0aU, 0x3d973f6b3cdae767U, 0x3da1006abdb4fab2U,
  0x3d7f339c3dbb14bfU, 0xbc5d02eabc3dcb90U, 0x3c7442b9be2ade62U, 0xbdd4a905be811d72U,
  0xbe7edfc0bdff0535U, 0x3e453f163e2dd4f7U, 0xbdff76ec3e23b261U, 0xbe7993583e2a88d1U,
  0x3e062391bd312d3bU, 0xbda4b73d3dedec0fU, 0x3e0bda04be04c1fbU, 0x3e0b63413e05c7e3U,
  0xbddbae46be3a5b89U, 0xbe3787703e37dba2U, 0x3db80037bd6ffae3U, 0xbbeba2b8be7cb8a0U,
  0xbd42e96f3d2a589bU, 0xbe262cffbdc20890U, 0x3e43fe97bd7dd159U, 0x3e20f374bd6cd890U,
  0xbdcfc15f3e029f09U, 0xbdee930a3dee482cU, 0x3e2a844ebe1385a0U, 0xbe15cf723e200e1eU,
  0x3e2c1b23bde68da7U, 0xbe76c9bbbe203a01U, 0xbba0d78d3ca8b870U, 0x3e22fdecbd07a182U,
  0x3dd97172bd1918a0U, 0x3e073e0abe07def3U, 0xbe26f57c3df4eee5U, 0x3d524a173e280af5U,
  0xbdd96f1fbe1d39e2U, 0xbd23fabc3deade44U, 0x3e6973103d4beff4U, 0x3e085ae0bc1d1801U,
  0xbd3c9e823d2ece15U, 0x3d3a5f79bd294213U, 0xbe15da47be1ba4ccU, 0x3d8dee1f3d931bedU,
  0xbceb81603dee5bb9U, 0x3e39b4f9be3b7eb5U, 0xbd8216fabe10035dU, 0x3e55d67ebcb12ab9U,
  0x3d9be212bdb53326U, 0x3d9e47a1bdcf2788U, 0xbe76b695bcc435eaU, 0xbd39e36ebd71e3aeU,
  0x3e0c8c2dbe06b317U, 0x3d6912d13e018b09U, 0x3dcde6f93d82fd62U, 0x3e4f6e533dd53570U,
  0x3d8780b3be489b3fU, 0xbe1a437ebe72b2faU, 0x3cefb54b3d90fa1eU, 0xbca5c776be6cc860U,
  0xbd90053fbd2e8608U, 0xbdfa91503d255035U, 0xbe7557b1be43d4dfU, 0xbe5c411cbe019197U,
  0xbd9225e73dab682eU, 0x3e0b622d3dd95653U, 0x3db3a4d9bd9098f9U, 0xbe375894be1130c8U,
  0x3e40fdb4bcee3fa4U, 0x3d9c16fc3d04e8c9U, 0xbd9138cabdbb9debU, 0xbdddcde73d83f6f5U,
  0x3e2125813d7025bfU, 0xbb5f8629be051529U, 0x3d5b73e5bd988008U, 0xbded804f3de48c80U,
  0xbe35b4673e0ca8ccU, 0xbe377fc4bdbe3bbcU, 0x3e0f48f83de7441fU, 0xbcbd40ae3e346739U,
  0x3d807290bdc5c8e8U, 0xbdf9ceee3e22730cU, 0xbe09fe733c860329U, 0x3dcc2c8a3cd46286U,
  0xbe3870b6bca37163U, 0x3d1e00d53df64d1fU, 0xbe199fc6bcce787bU, 0xbdfaf6b9bdd4c2e4U,
  0x3d8af24a3e1f7766U, 0x3dd7c8fb3d3ce3b7U, 0x3e3e749ebcf774a6U, 0xbcab5614be4d99e4U,
  0xbe3540d2bdc0a850U, 0xbe2f088abdddc855U, 0xbc1f4a363e3684fcU, 0xbdb52dc73cca88f0U,
  0xbe63d4be3c9a618aU, 0x3d241204be5ade78U, 0xbdd2b41dbdb683e1U, 0x3e02d63d3d04735aU,
  0xbe073042bcbcb884U, 0x3d89f89bbe6fa1f1U, 0xbde15c763e022dfaU, 0xbe3551033dc04d1fU,
  0x3e7c29f43e3fc7a4U, 0x3da7b22f3d9d802bU, 0x3e1389463db5b804U, 0x3cf8dce63da1a935U,
  0xbdd8df173e1b4165U, 0x3bafc0d13bffb611U, 0x3d4cf1dcbd693e1cU, 0xbe51a675bc1e7527U,
  0x3cdeb3b73dc44c64U, 0x3df402263d6df6c6U, 0xbdd4c34fbda01d81U, 0xbe1843f73cacc169U,
  0xbe5cd3823de464f7U, 0x3e40518fbd7e62eeU, 0xbcb51165be1ae5aeU, 0xbe2d96b2be166013U,
  0x3d9c6e1a3e112a32U, 0x3d994ab9bd3cc3bbU, 0xbe118bd63dde4314U, 0x3dd387afbc996e63U,
  0xbe7f49acbe30817cU, 0xbd1ad61b3d60e585U, 0xbe7162e83de3a63bU, 0xbe41ef463d0f63e0U,
  0xbe2ff8823e3cb264U, 0xbe12904ebdfa8ee6U, 0x3dfa6fa63e0d5833U, 0x3df78cb4be1a2902U,
  0xbdc608a5bc37032aU, 0x3b3f549ebe2aa76dU, 0xbe266b363e02b344U, 0xbce64610bd18a4dfU,
  0x3e0831dbbdaceeeeU, 0x3d0e7efe3e1e4269U, 0x3d6400d2bd9ec9b9U, 0xbc8f7df9bd9883cfU,
  0xbde804a63e449672U, 0xbdd26f3ebdb34f45U, 0xbdfd9d0d3df816c3U, 0x3c98addcbe07299dU,
  0x3e0348f2bdff4503U, 0xbd132e763e164d8cU, 0x3db1d124bd6a10e3U, 0xbe7e0262bdd969e1U,
  0x3d47f096be2efc6bU, 0xbdfe27423da0f3b5U, 0x3decf14dbdd87f36U, 0xbdb789d5bc8fb52bU,
  0xbe4710cd3e36d3c3U, 0x3ccf367abe157c2fU, 0xbe1ba3773db9b1c0U, 0xbb70ed983d9e4030U,
  0xbde48eb63de71a36U, 0x3df53f793e019b13U, 0xbe3586433d198a28U, 0x3e2f86bf3dacd95eU,
  0xbe029686bdab5bf3U, 0x3d8275c4bcb3c734U, 0x3da7cb2eba77bef2U, 0x3d6cebe8bd8726e1U,
  0x3d229f97be355c82U, 0xbdd03e043e4489dbU, 0x3e28a10e3c93003bU, 0xbd0b1cddbd3e9a3aU,
  0x3c490d1fbd65ccdeU, 0x3d42e61ebd9ddf65U, 0xbdda9f493e243eb1U, 0x3dd2737dbdf71844U,
  0xbe125aa83e29c6dbU, 0x3d806d0fbd823baeU, 0xbd5721d13cd2b6ddU, 0xbe340e25be58a59dU,
  0xbe41e48b3d92923fU, 0xbe3429633ce57954U, 0x3e29e200be1a7c59U, 0x3d3dbbfb3d0c423aU,
  0x3d8646e3be13a180U, 0xbd9d48313d91e546U, 0x3db0702dbe3ec5f8U, 0xbe58a61cbe1b9467U,
  0xbd7f5e2abdb1478eU, 0xbde16ec9bda9e281U, 0xbc1cd9893c8f07feU, 0xbd79d350be27309eU,
  0xba9377f83db92d2aU, 0x3dbaec24bda2ca37U, 0x3e008571bc9fa087U, 0xbe28ed533cc742b8U,
  0x3dfd084dbe409003U, 0xbdd90b503cfc757fU, 0xbd68f1133d81ba78U, 0x3de987de3e113e95U,
  0x3e2c06ba3e460011U, 0xbcf765bd3d89c080U, 0x3cd2d397bd15fdecU, 0xbd3bb70ebe2cc6e2U,
  0x3d9211e73e0ac040U, 0x3e1df74b3dab3f61U, 0xbce90205be048236U, 0xbd68bb2b3e04b00bU,
  0x3de321f23d26a853U, 0xbd9f27153c9d252dU, 0x3e373621bdac1229U, 0xbbf53a6ebd967414U,
  0xbd24b7db3d45cc87U, 0xbdf4893dbe09651dU, 0xbdfde946bd2d8236U, 0xbdfb39653e23acb0U,
  0x3dfb0c60be1b108fU, 0xbd2141d1bde4efc9U, 0x3d1066ad3d4fb4efU, 0x3e1f3db43d5d07c3U,
  0xbe05547fbe1605feU, 0xbdfcac683dabcadcU, 0x3e1f211fbd7fd171U, 0x3e7efb88bdd5ce86U,
  0xbe112bdbbd95081dU, 0xbe1da0b5be7efa3dU, 0x3e306e7d3d115a75U, 0xbdb394fd3c3880abU,
  0xbe02813d3dcea733U, 0x3dbdfa02bdae4ef8U, 0x3da1d8a93e034528U, 0xbde524ccbaeb2f94U,
  0x3e2ab2e83dd94aa3U, 0x3db5c0a4be29b910U, 0xbe03ce98bc8df50bU, 0x3db78b73bd2befeeU,
  0x3d8e54ea3cada3cbU, 0x3e1676e6be2a1fbcU, 0xbe2c9955bdc6b325U, 0x3d1cb5883dfb2249U,
  0xbcd7b0f3bcdddad5U, 0xbe5127f7be029140U, 0x3e474de23e16b197U, 0x3e4b1f993d2c13d9U,
  0x3e4f14ea3e32e174U, 0xbe14484c3d889a22U, 0x3e14a5733cf38b90U, 0xbe1106493dadb108U,
  0xbce58a1cbd4c0212U, 0xbc83ce51bc7eef9aU, 0xbd265397bd2f1c5fU, 0xbdc75ee83e04aef7U,
  0xbe04ea413e40a82cU, 0x3cea13383d16d95dU, 0x3de52b27bdcf7d98U, 0xbdb8af35bcb01d40U,
  0x3e6d6232bb654d0bU, 0x3e1d3e1b3d73172fU, 0x3c0d623abe470954U, 0x3cd7ac19be2cd29eU,
  0x3e527e00bdd20b88U, 0xbd737267be0a8cedU, 0xbdd92bb9be0a5e41U, 0xbe310e5abcecd24eU,
  0xbc8a27c53d50aab3U, 0xbdd6fa9e3e432a58U, 0x3e33bdd4be187568U, 0xbe1a9ae4be00b4e5U,
  0xbe6644e13cf5bed4U, 0x3cc198e1bdc3d343U, 0x3d89cdddbd9aa4eaU, 0x3d8d2c97bc819875U,
  0x3e23df35bd376b91U, 0x3e554b8fbea262d2U, 0x3c29b19d3df6c536U, 0xbd4e43f9bdc0b24eU,
  0x3b721e1cbd2e4191U, 0x3d40a5a2bdcb3795U, 0x3dc57ee3be2e4f89U, 0xbdcda23fbe8b3682U,
  0xbd553642be07f639U, 0xbe904e96bdf3aff0U, 0xbe488457bdfee321U, 0xbdfe861ebb3d1131U,
  0xbd132b5c3dd45fd8U, 0x3dbd58d5bd997eb6U, 0xbe407da7bd1e886aU, 0x3dcb46203e085042U,
  0xbe02a114be9bfbebU, 0xbe3b3e55be941ad8U, 0xbdedbd213d81c819U, 0xbd7ab3ea3e919ef1U,
  0xbe26f013bd2c630fU, 0x3d197414bd77ccc4U, 0xbc6dfab0bc13dc3cU, 0xbdf012343d398be8U,
  0xbe6f7d87bd637b83U, 0x3dcea324be364c70U, 0xbdadd2a63e46449bU, 0xbe2ff8b83d1e876fU,
  0x3e5504c13cd1bcf7U, 0x3d740bac3dd98ea1U, 0xbb588a62bd89853aU, 0x3cb4af25be77ab71U,
  0x3de610fdbdffdb68U, 0x3d431adc3e234eb6U, 0x3cd2e8ba3c48f17fU, 0x3e45fb63be174345U,
  0xbc02078fbb5ab872U, 0xbcd1bc8cbe075969U, 0x3cef86c2bd9e2194U, 0xbd8df9ad3def1819U,
  0xbe6cbb23bdea59adU, 0x3e3caddabe1e8953U, 0x3c769f0e3cccff35U, 0x3d9e02f3be4010bdU,
  0x3ceee8203df0fbf0U, 0xbd5bcbb93d4029f1U, 0x3d135c74be2a990dU, 0x3e169ecbbdc7bf16U,
  0x3dbbd1253dd7313eU, 0x3e19007d3e4d9b82U, 0xbca4b4d5bc28af77U, 0xbe528c42be27cd21U,
  0x3d70b3b73cace93fU, 0xbc67bca03debc6f7U, 0xbe4e9f12bd31baf1U, 0xbdcec0283e2a4bcdU,
  0x3d1d8ac8bd203161U, 0x3e2465033dedaae0U, 0xbe72786f3dcd9a9cU, 0xbd35140a3d90e1f5U,
  0xbd9b10dc3e25aa9aU, 0xbd9d00503c9a9cdaU, 0x3e3ffcddbddb56c9U, 0xbd980bc9be87438bU,
  0xbe31a509bc8614fdU, 0x3d93603cbdb5be4fU, 0xbea264be3e61636cU, 0x3d1cc913be168f60U,
  0x3e166906be0c13c3U, 0x3e575b4f3e48175aU, 0x3ca00a51be3ce993U, 0xbe353452be2a78e3U,
  0x3c666216bcaeb712U, 0xbe456ac13c8c416aU, 0xb9f30e773de52b10U, 0xbe35476d3d380ba6U,
  0x3e58ad4a3ce1de34U, 0x3e29f56e3d18f01bU, 0x3e0d6ef6bd1efbffU, 0x3d56a6883dc312faU,
  0x3d6402f0bd36cde7U, 0xbd8d7dfc3e146f31U, 0xbe3dec7c3de4073bU, 0xbe0b96fa3d7d2279U,
  0x3e114632bdd4d11dU, 0x3dfa80db3e2f4dddU, 0xbd7375863db079b0U, 0xbe1cb515bda51670U,
  0x3e30e23b3d75f293U, 0xbe0d04cf3c386f2fU, 0xbc870857bc0c31a6U, 0x3e33fb75be3af623U,
  0x39c00fdc3df81ea7U, 0xbc459cc5bd2ab45cU, 0xbd9f2371be38a02dU, 0xbd249644bd755428U,
  0x3d93b3583e29ba92U, 0x3dd44c3abe67950eU, 0xbd179bc8bdaa14fcU, 0xbd519cdfbd2d78c9U,
  0x3e277894bd546521U, 0x3e3b51c2bbf6b6a0U, 0x3e41afb7bdb5f813U, 0xbdf9a7853dc7e5e4U,
  0xbe68ceed3bb7db9fU, 0x3e2e4e6abe238d0cU, 0xbcc560b43e5370cfU, 0x3e0185e83ba36b1cU,
  0xbd5c26a0bd31ede1U, 0xbdbb3a353e137831U, 0xbdf9b8543d0cd696U, 0xbcad09fc3cfab87bU,
  0x3ce02c75bc39e97aU, 0x3e01108cbd906f63U, 0xbe37ad32be7a45d0U, 0x3dbfb98bbdb0c655U,
  0x3da47e6cbe2b1453U, 0xbe2785e1bc373a2cU, 0xbdc53bc23d17290fU, 0xbe1f4edebe130ae3U,
  0x3e1e95ca3df0f191U, 0xbe3545f53da201b3U, 0x3d0b6be43d651129U, 0xbd780faebe438e28U,
  0xbdc0ab6cbddac02cU, 0x3e190f9bbe10ad0bU, 0x3c8df2adbd58c81cU, 0xbe0c098dbdeccd3bU,
  0x3de92c733e30dc6eU, 0x3d2406463d3b88a2U, 0xbd0f7705bdcf0320U, 0xbe0ae9a23e30cec7U,
  0xbda318353c0a797dU, 0x3db25fba3d9da15bU, 0x3e03399fbbfe9a85U, 0xbcc8fb9bbdaea6d2U,
  0xbdae6fa73c464294U, 0x3cab103d3d15a7ffU, 0x3d33e209be0fe57eU, 0x3e0555573e41bc16U,
  0x3dd5a3653e2af170U, 0xbceaae31be19d047U, 0xbd4d8946bdd7aafcU, 0xbb8f3fdcbdef8e80U,
  0x3e4181b1be09d2f4U, 0xbcb381da3de36f6fU, 0x3e14d6dabde602efU, 0xbe506b6c3c95efdcU,
  0x3e35162bbd0c7e38U, 0x3e5696ba3cd9a634U, 0xbdb74ee2bc5b5646U, 0x3e199d693de51d7dU,
  0x3c994e2d3dd0d564U, 0xbcc776db3d2238f1U, 0x3de17522bdb5912dU, 0x3e2c94edbe013236U,
  0x3cf0baae3e06339eU, 0xbe477474bddd2a5fU, 0xbc073be53ddd6635U, 0xbe11b8e53e0fc79bU,
  0x3e17b56bbe273f86U, 0x3de4e9bb3e56285fU, 0x3cd868113d962f0cU, 0xbdca121bbda3e38bU,
  0xbe1ae17b3ca73942U, 0x3e257145bde1044cU, 0x3e145b2d3e0db385U, 0xbe2e5705be2aca7aU,
  0x3db26fa5bded47f7U, 0x3e250d39be14cc04U, 0x3e8b71393d97c24aU, 0x3c65d1fd3d817ab0U,
  0x3d3a1cb93cf7d9c2U, 0xbe6672bb3e0d0754U, 0xbe4e37b6be280d45U, 0xbe54abf53e25cc08U,
  0x3e148b4bbe239fc6U, 0xbe349807bd534ab8U, 0xbdb4eb7bbdfd770eU, 0xbe14864fbd806ec9U,
  0x3e4209863d75096dU, 0x3dc94ef0be45cbefU, 0xbe04e2a7be248935U, 0xbe2d9461be055490U,
  0x3e29a4a43dd85f96U, 0xbe2c571cbc21dc7cU, 0x3d553ba3be35b828U, 0x3e2aa7b73e0930f5U,
  0xbdb7715bbe2f71cdU, 0x3d87a6dbbe74be24U, 0x3e2f4540be41f58aU, 0xbd0c9ba73cbf7d11U,
  0x3e03eb57be11ea3aU, 0x3c9c71e9be034e36U, 0x3c658f83bc5ff46dU, 0x3db39f933e25b0a0U,
  0xbd1ac52cbb7ec58aU, 0xbde2ecf4bdc0c1ebU, 0xbe2716b03e184cb6U, 0xbe2915e53c83e755U,
  0x3e1d5591bdf2fcc7U, 0x3e10139fbda96637U, 0x3e55087d3dc9e55eU, 0x3d8855e33e091119U,
  0xbe325b34be585a1fU, 0xbe2624e1be499c9eU, 0xbc834d253df3701eU, 0xbe39e8ec3e111a1fU,
  0x3de2bb823e17b67cU, 0xbe3c0ce9bd150ef3U, 0x3da9677b3de14c95U, 0x3e4f3f7e3e03feddU,
  0xbd37a1463bf95f35U, 0xbe313fb8bcbdf4f6U, 0xbda6632abd2435c0U, 0x3db3bf78be7b31ebU,
  0x3dd22f813e4839b3U, 0xbe2d786dbccb7ee8U, 0xbca7a8633d65d7ccU, 0xbd964a053dc516f0U,
  0x3d732f563da25721U, 0x3e03ce1ebe27edefU, 0x3c7f27b3be43128aU, 0x3e5af01dbe5cec42U,
  0xbdefdc323e0b23a3U, 0xbdcbf260bd710dc4U, 0x3de1ecf8be2c5736U, 0x3deabefd3df2e695U,
  0xbddea46d3d37d403U, 0x3becc2023cb164f8U, 0x3de6ec413e12cd49U, 0x3e2829e8be71abecU,
  0x3de641b9bd66ddb5U, 0x3d8087dabd8335c6U, 0x3e23be213e15a1ddU, 0xbcac767c3c52a728U,
  0xbe511d31bcf07553U, 0xbda05a9abd9bf120U, 0x3c98fa81bcc4c0dbU, 0x3e3d8c493e1df826U,
  0x3e47903a3e2ffdd4U, 0xbdd5cc5c39f10eb1U, 0x3dc5eff6be26efbaU, 0xbe4531e9be2b3065U,
  0xbda64c16be161011U, 0xbe533ab33e300419U, 0xbe223100be0860e3U, 0x3dde4489bda4df9eU,
  0x3e49f75abd2e15f5U, 0x3d534f1cbdaaa39aU, 0x3de5d9d93c4a9459U, 0x3e4bc729bd582c7cU,
  0xbd9d4a97bdc6a93aU, 0x3d81cd1bbe43d49cU, 0x3dc75871bdf81ed8U, 0x3df3d2633db38b54U,
  0xbdf73e56bdd8c3f7U, 0xbe07221f3e813b8fU, 0x3d278b64bda7ab47U, 0x3db0c6563d0a5142U,
  0x3def76c4be613e68U, 0xbe2a3cadbe1ef75eU, 0x3da2f712be341c53U, 0xbdc00866be1a4dcdU,
  0x3d9f52d43d8e48c5U, 0xbe77a106be8bd75aU, 0x3e63686f3daaa055U, 0xbe2413afbd8e6a79U,
  0xbe2bf041be5e10aeU, 0xbbf7738d3de3c25cU, 0x3dd5e2ddbe66d057U, 0xbdab7b3dbe954fccU,
  0xbca72efbbdf018e3U, 0xbd78ec2a3b7f9dc7U, 0xbdb006a43e1d93d4U, 0x3e11fbbb3df5c3f9U,
  0xbdcc1d163c5b5d5bU, 0x3dc952de3da53a40U, 0x3dc0ca1f3db167f1U, 0xbc8d8c523e2182d3U,
  0xbe3d7732be60e837U, 0x3ac34f91bb84a1e2U, 0x3e232ee53c8f2651U, 0xbe29bcf83dc7b940U,
  0x3ddf2e583dedb875U, 0xbdec636cbe1e6ab2U, 0xbe3aa20dbe396b10U, 0xbe576bf53df8b17cU,
  0xbd6ef1333d42c6aaU, 0x3b800fb73cfdf186U, 0x3cb03cf73da3cfa5U, 0x3d7b4e2dbc398661U,
  0xbb0434703d8b096fU, 0x3cb759d4bd43af5bU, 0x3e296099be124910U, 0x3e373c063bbe62eeU,
  0xbe134a4b3e21546dU, 0x3e1b68c2bdf88c4bU, 0x3db8e3a63e363d99U, 0xbc064b5a3c92c808U,
  0xbd8fb8473e0c102aU, 0x3e503368bc8288f4U, 0xbe729fc2bdefacf0U, 0x3e1115db3d92827eU,
  0xbd0580963e27b627U, 0xbd03d055be91c519U, 0xbdaa1508bc73c56aU, 0x3dc9ff67be378c1aU,
  0x3c2a51cbbdeac4daU, 0x3e3e22c8bdb2843bU, 0xbd7c07023cb22ef6U, 0xbe4c24643e3fbf61U,
  0xbdd4f02dbe5817d5U, 0xbe1232eb3d1f7f95U, 0xbe423720bcbcda32U, 0xbe04531c3c4b43f6U,
  0xbd80da503db88eb8U, 0x3e0b173f3e2142d4U, 0xbdc371683e335360U, 0x3dbab32c3dc6fb0eU,
  0x3d6e94c23ca96aa4U, 0xbdaf7dd2bdb7c178U, 0xbd35576abd8505c7U, 0xbe369e533e25d75bU,
  0x3df55139bcf2a7c8U, 0xbe58df883d8ff725U, 0xbe5e9dc3be0bf232U, 0xbe2a059ebdabb4faU,
  0xbe4bfdbb3dcf45ecU, 0xbe022ddc3e2b826aU, 0xbd50b5ab3c0405b2U, 0x3deacd5c3e301515U,
  0xbdf3bafbbd57262bU, 0x3d56b54d3e0a0523U, 0x3e01e686be21fa74U, 0x3e28d4af3cffd0c5U,
  0xbe0f3f4f3c8c54d9U, 0xbd0fbb3e3dc6f258U, 0xbe6423a4be662564U, 0x3def94efbe2d30f8U,
  0xbd5371673c2201f4U, 0xbdabcda73cf10431U, 0xbe63230a3c9db5d5U, 0x3d6a04723d158626U,
  0xbc6197f4be3e3be2U, 0x3e0f07653e13e74bU, 0xbd2eacfebdc1b17dU, 0xbe027253bdeae16fU,
  0xbe1b1ae3bdaaed9aU, 0xbe0501e0bde01155U, 0xbe1ea55b3db4d1f4U, 0x3b4bd6b53dc75cbcU,
  0x3db2264c3e2199efU, 0xbba8e03a3d1c7253U, 0xbc61cf703cb398d7U, 0xbdad5d18bd38dafeU,
  0xbdab47333d31bccdU, 0xbe228b313dceaa82U, 0x3e2d7e11bcb665ddU, 0xbe272911bd8999beU,
  0x3e3bd093bc33545bU, 0x3e766812bb5dcbedU, 0xbe3f03bdbde6b0abU, 0xbd0c7e1e3e1309d7U,
  0x3ddf2e40be2883bdU, 0x3dac477a3dec2202U, 0x3e4fc1993d8fee83U, 0x3cb12ef13e31a0dcU,
  0x3bbaa9fa3d2b3affU, 0x3e5c0d7c3e7d287cU, 0xbd8917bf3e139037U, 0xbd0d1a20bce64b7cU,
  0x3e52106ebdc52133U, 0x3d237f2ebe16b7a7U, 0xbda9a3e9bd83d3fcU, 0x3e2f030b3dc9697eU,
  0xbdab229dbe2ad28cU, 0xbe29b3f73ce3a6b8U, 0x3e5fc7473e0ea00bU, 0xbce8d673bb735abaU,
  0xbdb13fffbe09fad1U, 0x3e0dc45b3d89965cU, 0x3e0adbf7bdb0c519U, 0x3d956d173a853c22U,
  0xbd9aa24fbc8a11b1U, 0xbc638c72be021b50U, 0xbdfec02bbe2e6976U, 0x3e03e774bc326190U,
  0x3e141105be02cc51U, 0x3d044274be29e3b6U, 0x3e49569fbc63a953U, 0xbe1c9b3ebd94cbd3U,
  0x3de2cc833b99a900U, 0xbda948043e685018U, 0xbd493c723c288efbU, 0x3d06ae44be3de59dU,
  0xbd78b4b73d8c8061U, 0x3d51842cbd9d5718U, 0xbd00215cbe62eebbU, 0xbdd0dc173e53b14bU,
  0xbcde51663e10bb26U, 0xbe03bafdbe8fca89U, 0xbe2712c6be7893e8U, 0xbd83da57be2bff8aU,
  0xbe13d9293e3e361cU, 0xbaa6f5433cc81eb1U, 0x3d907e393df361a3U, 0x3ddb85613d839c60U,
  0x3dc8db303dd2e597U, 0x3d681d9a3d4f5aa8U, 0xbe479710be22fc89U, 0xbe3ce8fc3d103bebU,
  0x3e396f343d91ee5cU, 0xbe5daba7bda33d8aU, 0x3d71203bbe81dd57U, 0xbe5502e93d43aad0U,
  0x3e2a7fb3bd8fba91U, 0x3e4ff6f2bc20c910U, 0xbdabdc50bd90eb6bU, 0x3d651bcdbe1c71b6U,
  0xbd270b25bd7efe48U, 0x3e163f253dc9aff8U, 0xbe4027833cdf3120U, 0x3df4cf0e3c0244f8U,
  0x3db9b1903e280ed1U, 0x3e216fba3e419136U, 0xbe2ee230bd860622U, 0x3d5e1ebebd14276bU,
  0x3db24bcabd8cbe8bU, 0x3e0480c6bdcf4548U, 0x3deeeeb2bc944964U, 0x3d96a7efbe2943e4U,
  0xbe32d6dc3de1e3c9U, 0x3e2c17883daa4788U, 0xbd9d0def3e1fe384U, 0xbd8dd41d3d3f06e4U,
  0x3dea8393be19cffcU, 0x3dd31f9abd4dcc85U, 0x3e5e0bb13caf1396U, 0x3cbc3dc03cece25aU,
  0xbdc34a3f3e5a18c4U, 0xbcd9e42e3dcab276U, 0xbd44065ebd06e089U, 0x3c32dc12bd7582a4U,
  0x3e31bce13d5a245aU, 0xbc3315e73de0d9b9U, 0x3b40725abd6d561fU, 0x3e0df560bd386457U,
  0xbdebbc7c3df30ce3U, 0x3d9936513e677597U, 0xbe43de193e69be79U, 0xbe92d3d83e1c5ec5U,
  0x3e9686193dd5fe6bU, 0x3e264e5cbd4deae7U, 0x3d9412f2bc9f6c28U, 0x3e41ad623d0c6a67U,
  0xbde942e7be01e75fU, 0x3cf236c33dd8676fU, 0xbcdc280c3dded4eaU, 0xbeb81317be535c78U,
  0x3d157ad2bd1c7b9dU, 0xbe12beaebd8efbfaU, 0x3e161060bd8cf718U, 0x3d8a9e4fbc4a0d89U,
  0xbd6095203de5abbeU, 0x3d9515df3da724f0U, 0x3d2c4a813da088ceU, 0xbd252328bdeea760U,
  0x3e421eabbd987d67U, 0x3d9c65f03d92864bU, 0x3dabf5993cc28020U, 0xbd593fd4be2eac90U,
  0x3d82e9ae3d48557aU, 0xbdf2874e3e065e46U, 0x3d615211bdbc5054U, 0xbdb4fb423c995489U,
  0xbc83b371bdc0bae2U, 0x3d7074acbdc2335fU, 0xbbba1be73d5e2ac4U, 0x3c0e13a1be1a7f3bU,
  0x3d025bb03c13a053U, 0x3cf84feb3e14546cU, 0x3cefaa3c3ca72274U, 0xbd3f2628bd386e96U,
  0x3e3e385cbbfc48c6U, 0x3dd514cc3dad58acU, 0xbcfc8e68bd955831U, 0xbd1d3c543d7034e4U,
  0xbda7a00ebd515cb1U, 0xbd1099343da82a94U, 0xbc6b485a3df02e12U, 0x3d1dd37c3cd285dfU,
  0x3cf873263db90572U, 0x3d8c7005bb050f94U, 0xbd269ddfbcbce4a5U, 0xbdbd907c3d91efeeU,
  0xbd066675be1c851bU, 0x3d6d3ec93e6acf90U, 0x39083c6f3c3ad3f9U, 0x3b275db63df597d1U,
  0x3d9884bc3cd606dfU, 0xbdbe7676bc200ac5U, 0xbd2646eabde13a18U, 0x3d6f40f3bd5bce27U,
  0xbd992ac83dac4a97U, 0x3d1541d93cca775aU, 0xbdca7cffbd59f8ddU, 0xbd5f816e3da62de5U,
  0x3e4951dfbdb9c5d5U, 0xbc43778a3d9bd2deU, 0x3d40490b3cc5d414U, 0xbc2abece3cc9c7f4U,
  0x3d007e76bd92a165U, 0xbda9361ebd4a2eb9U, 0xbd4c2f073d3d4e84U, 0x3c996683be0a1224U,
  0xbdc7d662bdcab07aU, 0x3dc333fcbd02eb18U, 0x3ccc35823d22bb3dU, 0x3c9db7123d4625b2U,
  0xbc77fd4c3d532f2dU, 0x3d21e71d3e092b14U, 0x3d9050f63db022e4U, 0xbe56aaeebd3440d1U,
  0x3c05c0e9be0901c8U, 0xbd047c883dbf1794U, 0xbdcef65ebd2d8553U, 0x3d9a10ab3d022b67U,
  0xbdcb4d98be106eddU, 0xbd0eeafa3d135d01U, 0x3d40aaa13b251388U, 0xbdf9eaabbd145dcdU,
  0xbd861461baeb34daU, 0xbd17539bbdabecd0U, 0xbdafe1a8bd1adaebU, 0xbd73bda63c8ee093U,
  0xbe04b7dabe24c5c3U, 0xbd0f191f3d90823dU, 0xbd9b85b93c4e3973U, 0x3d20c99d3d14eba2U,
  0x3d0cc48bbdad8f44U, 0xbe23b65ebd5e83d4U, 0xbc0512bc3cef151fU, 0xbe1c53393e098b26U,
  0x3d58e9a6bd43f5baU, 0xbc183ccbbdcdc537U, 0xbcfe3555bd7ab0d2U, 0xbdb5fdc2be6ce62fU,
  0xbd96c8423cd576aaU, 0xbcf0bc023d741ed9U, 0xbd930048bdc9c150U, 0x3cfa63513d9433c1U,
  0xbc174ce83d31098eU, 0xbe2163bc3d62cea0U, 0x3a42b423bd58beadU, 0xbe3f939bbe042e3eU,
  0x3d77ddf73c2cb4b5U, 0x3cfd38a43de90ba9U, 0xbd6da3033d002bddU, 0xbe2782713c55a25cU,
  0xbd067ee53d897785U, 0xbd1e0b9a3c420bedU, 0xbdce79943dd0b8adU, 0xbd336d873daa6a23U,
  0xbe093dadbc9134c3U, 0xbd3e9c553b300324U, 0xbd9c7c6c3c214d52U, 0xbd18b75a3dffc6c9U,
  0xbd2c632d3da650ddU, 0x3d4af8ccbdf7ca5fU, 0xbdf72e353e020db3U, 0xbd5477febdbef03aU,
  0xbda44ed63d039c9bU, 0x3d33bfc1bda016b5U, 0xbcb38bd0bcfbf951U, 0xbd1aa7fc3d8dd7c3U,
  0xbdea89f3be39135dU, 0xbd9b2f95bda144cfU, 0xbc1d91ee3d799949U, 0x3d24bd4ebc3af0d7U,
  0x3d8026243d84c7edU, 0xbdd0e9303dff13d5U, 0x3d6ab4693d0fa945U, 0xbbc773ef3d4fb305U,
  0xbd54d20d3db820abU, 0x3c35a25fbdccb72dU, 0x3ddd96ce3d78178dU, 0x3a0e84d13b853274U,
  0x3d0b3b08bd5e305bU, 0xbdb5a3463d02a638U, 0x3d2938a9bdb2f6a0U, 0x3ddb69573d29be1bU,
  0xbe076967bd8527c6U, 0xbd8f0321bc8664b8U, 0x3dc9e973bdedf499U, 0x3b3a43733deb6443U,
  0xbe39cb83bced536fU, 0xbd96b7503d910df6U, 0x3c9755423d1e9ceeU, 0xbcea4fe33d84c61dU,
  0xbd892220bd04a8d3U, 0x3d7373de3cf1a583U, 0x3b97e14dbd422a7cU, 0xbde863983d8f966dU,
  0x3c9b0d053dca2b11U, 0x3dec6125be00f52fU, 0x3ad5bd22bdd16754U, 0x3d325f0dbdaa208dU,
  0xbbec75a8bd91d474U, 0x3d873387bdc27cc0U, 0xbd919797be0c7afaU, 0x3dac5ca73e00ff6bU,
  0x3d569fbe3d8c4722U, 0x3ce0cc76bd6510e6U, 0xbdc3b679bd05ebc1U, 0x3d0705a03cb25aecU,
  0x3d365077bd9ce774U, 0x3ca9ebd4bcb72c07U, 0x3df3d853bd9f35d8U, 0xbc97bf113d995d42U,
  0xbe1793493b6f5027U, 0xbd94361cbe0ec8aeU, 0xbd9d2c22bd9bbe6bU, 0x3d13ecab3dd7d9c8U,
  0x3cb671f3bcd61f98U, 0xbe293310bc1725b7U, 0xbd91cbbdbd19d798U, 0x3dbd34fbbda36f85U,
  0xbe1eb3c4bc19fc0cU, 0x3cae6a97bd08696cU, 0xbe25b4e1bd37f6a1U, 0x3e0d173bbcd1b9a0U,
  0xbd4c47673b0894aeU, 0x3d7bab77bdf65498U, 0xbd422922bd44f393U, 0x3db380b53d2dc33cU,
  0xbe2d1e7f3e08488aU, 0xbd91a14a3d8e0b70U, 0xbd4be1b7bd4ff800U, 0x3dc51485bd02f00dU,
  0xbdaba2593d846f52U, 0xbda23191bd85e911U, 0xbcb4eb213d988509U, 0xbca4ea75bcca5e21U,
  0xbe5944aabc6311dbU, 0x3db9b32b3ca103c7U, 0xbd941aa1bd0c55a2U, 0x3e230f533e01f31cU,
  0xbdd3967fbcd2f846U, 0xbe27bd613dbe9474U, 0x3dda2b90bd29cc97U, 0x3cd4ee6e3d1fb38fU,
  0x3cf0a651bd156517U, 0x3da8c9d13c6c7487U, 0x3da2010bbbcf71a7U, 0x3e1ce79d3b8137d2U,
  0xbe4629283b3ec9faU, 0xbc50d6723d21af8fU, 0x3dd21743be401feeU, 0xbd864320bdac4dfaU,
  0xbdb62cd03d749969U, 0x3e3df7e7bd50cae0U, 0x3cb7d19d3d145e92U, 0x3d95e8f23d8add0fU,
  0xbde8c1a5bb985eaaU, 0xbc9f16efbda492d1U, 0x3df65074be0a3355U, 0x3df97fd03d964895U,
  0x3d1e6204bda99242U, 0xbc86e3793ccc0bc5U, 0xbdcb15d43d9fbd81U, 0xbd598aea3e10dc07U,
  0x3d4fadb6bde825a0U, 0x3c96fc44bdf62220U, 0xbdbe3fb5bc818474U, 0x3a7e977c3d35ee97U,
  0x3db6024c3d477728U, 0x3c25e2803e0f80dcU, 0x3ba3206abd9cd11bU, 0xbc076acc3d59beb5U,
  0xbd8a761b3e15079dU, 0x3d1e5f723d72f29aU, 0x3da486e03bad0c31U, 0x3d3aec573d0f6d6cU,
  0xbdc96eac3c8ecfafU, 0xbdbbd269bd2b1eb2U, 0xbc7235943c92bfabU, 0xbda7b8863d3030b2U,
  0xbd8ef5de3be54241U, 0x3d4e0dc7bd5c9e82U, 0x3cc44850be2e214fU, 0xbe240fe3bd1345e9U,
  0x3b4fb1e8bdd6377dU, 0x3d331bf83dbf8079U, 0x3cdfa5fcbddeb6a8U, 0xbda3e6db3dec1652U,
  0x3d785327bd1e6915U, 0xbdc75ba6bd83db0aU, 0x390fe6f4be2082c6U, 0xbdd004d4bc2be5d1U,
  0xbdadfbfe3caaa88bU, 0x3c1b6b18bd6eb0baU, 0x3d8d9ae53dd174b3U, 0x3d722a50bd272235U,
  0xbbe9eee7bdcbb743U, 0xbdc8a7e8bc8043c5U, 0x3da3c9b3bdd1d8c7U, 0xbdae28e5bb33da95U,
  0x3cd200fdbd2d13c5U, 0x3d6fc0653bc24d7fU, 0x3ddc39bcbd90727dU, 0x3dd393c83c7b1bd8U,
  0x3dc84ac73a21a984U, 0x3d81e5713da1f951U, 0x3d213454bdaf66abU, 0xbdbeef43bca7116aU,
  0x3c9b244ebe237343U, 0x3dbcececbcd7862eU, 0x39262cb6bdae2953U, 0xbdd0f4613dfc7e2fU,
  0x3db0c506bd59b868U, 0xbdba8907bdc86452U, 0x3dc8ffa73d8b2ca0U, 0xbc9b7f983e07930cU,
  0xbe03a8a6bdc303e9U, 0xbe03b2b83c3439d9U, 0xbc2ce092bc639f2bU, 0xbd45ba733def03e6U,
  0x3d8e090dbd63dd54U, 0x3e02df04bd11f3abU, 0x3cc2a307bc426249U, 0xbd157bc4bd1de265U,
  0xbe0d75f13c1d2f97U, 0xbcffc1d4bcac18b3U, 0x3e0ccda8bccd7549U, 0x3d74e6ffbdd2e6d5U,
  0xbd0e4bf13cb3c5dcU, 0x3ce1b254bd2d4072U, 0xbdb32f57bda946e6U, 0xbd723bcdbd9a8372U,
  0x3d2c04afbcc3f7e8U, 0x3dafc1053db92a67U, 0xbd0d6ad43be209deU, 0xbd354b753ce1ad45U,
  0xbb029206be1ca024U, 0x3dc76e723e2edb07U, 0x3995df673cc1dd4eU, 0x3d14bc1f3dd0fc62U,
  0xba240104bd80b207U, 0xbdc73354be13d7d6U, 0x3e14e795bdbc5a7fU, 0xbbe9631cbe2170beU,
  0xbd635dc63cb486f8U, 0x3dc4192b3cfd00f0U, 0x3c556cb73bbe065cU, 0xbd41b8fd3cf37acdU,
  0x3e07757abd49db08U, 0xbd81ca1f3de8468eU, 0xbd9a6fc43d4daa16U, 0x3d661431be301386U,
  0xbc30b9d8bd521c9dU, 0x3c8da11dbc90bf5dU, 0x38d6fae23e290f10U, 0xbd7faad63d9c7bd1U,
  0xbbec435cbdcbf6afU, 0x3cb570b93cad1ceaU, 0xbd0d3d3e3d882cd5U, 0x3c0b9ccbbdb04835U,
  0xbdac0e493dd388baU, 0x3da9b8c6bd6c3081U, 0xbdaa5b20bd195563U, 0xbd64bce9bc110050U,
  0xbbd1962d3bed1642U, 0xbbe244833d61fbbfU, 0xbd82418c3dc0f377U, 0xbc988223bd2457edU,
  0x3d0eee733d5d5f12U, 0x3d995e15bc0f024bU, 0x3c431f88bbe2f5ffU, 0xbcb5ad68be1c3d00U,
  0x3de4544ebd54bc10U, 0x3c0fc9b9be0d5f0fU, 0xbc91517bbdb9a141U, 0x3ca91256bd81c460U,
  0xbdd914ebbd1cfbbeU, 0xbd95c93bbca3f652U, 0xbbb66e373d8f7920U, 0xbdddb95ebd7d614fU,
  0x3e095da23d4b48d1U, 0xbd06691c3d7d5dbeU, 0xbda5ebe93d312ffbU, 0xbd37650e3de02977U,
  0x3ddec8103d952cfcU, 0x3d4449053de36845U, 0xbd4fcfe73d2110baU, 0xbd0391933d11ae3bU,
  0x3d8e5b7cbe080f69U, 0xbe10cb113ddf948dU, 0x3d2ec477bcddd511U, 0xbe0ffdb23d9bc79cU,
  0xbd9d488e3dbe50baU, 0xbdc6446dbd021268U, 0xbdb3a66bbd728971U, 0x3cd06b7cbcbca393U,
  0xbd669093be214a55U, 0x3d7b946cbdc0c868U, 0xbe0909e33dafc0d2U, 0xbcab267dbc477ce9U,
  0xbc581ed6bdad9162U, 0x3de3d8bdbd8149e4U, 0x3cb1341dbe2a7a1dU, 0x3d7ff53d3d496addU,
  0xbe6fc69c3d1d3831U, 0x3da130093d3be8c2U, 0xbdcf7a643d95d248U, 0x3dc0f32f3dbd35b6U,
  0x3cf36f34bdb360d4U, 0x3cc59cd6bc94f281U, 0xbd34bed93dbf5736U, 0xbd5e8c3ebd4195cfU,
  0xbe65f2d93d157ffbU, 0x3d804a8bbcb5c5abU, 0xbcd5fcdbbdb96e97U, 0x3e19b2b7bdb1944eU,
  0xbd39fd0f3d878dcaU, 0xbe20f6ffbd8668e5U, 0x3dfd478ebde6a4f8U, 0x3dc494293e13497dU,
  0xbdc202563d80c4c7U, 0x3e3bbe83bd2590acU, 0xbdf6582fbccf2085U, 0x3e1383a63d91b1b7U,
  0xbdddacfbbde90ea6U, 0x3d69e1f33d769985U, 0x3d2aaa393cf369b4U, 0x3ced00bc3da44e2aU,
  0xbe3de710bdad77c7U, 0x3d79c78cbdd731bbU, 0xbdb3ed053de0427fU, 0x3d68f3f13dc3f4b6U,
  0xbdc38df33cfe9343U, 0xbd04431abd7ed7a2U, 0x3d119692bbb57da2U, 0x3c145f723dabfd7eU,
  0x3c1ad5883cc50ab5U, 0x3d8fe2f43df60038U, 0xbdfe8caebd0db0e1U, 0x3cb9f72c3d92afe4U,
  0xbe0a5807be3aed65U, 0x3dfd6678bdfd2e49U, 0xbba03d9bbd1a3d59U, 0x3dd072203d3af760U,
  0xbbbcc783bc817464U, 0xbd870bb73dcbd2d7U, 0xbd2044523db02645U, 0x3cc996d03d21f89eU,
  0x3dbbbe74bdc99b13U, 0x3e021b153d1c6e4dU, 0xbcf8e0fcbbda2367U, 0xbd97bc843d9d68a2U,
  0xbcd75d393d0fa349U, 0xbd1d43e2bd341c36U, 0x3d9f3d35bd1e6f86U, 0xbd4821343bb9e8afU,
  0xbc16ef593d14a20cU, 0x3c40f6be3e01f950U, 0x3dadbe913d814970U, 0x3d9b2dd0bdad1d49U,
  0xbd892a0b3dd27fe5U, 0xbd82f5c33d00f997U, 0xbd8990b03de16915U, 0x3e13b8b13de2c954U,
  0xbd7fedbbbd1cf560U, 0x3cfb45f93add4408U, 0xbd1ebd70bd01e7f7U, 0xbe05688cbddf0acdU,
  0xbdc87d1ebc478385U, 0x3d1b017f3d9399bfU, 0x3d8c01b4bd3370daU, 0xbd28c5083db230baU,
  0xbdc07868bd20ed78U, 0x3c06f327bd892636U, 0x3d6f640e3de1780dU, 0xbdaf8bb7be1c0844U,
  0x3d8a1eabbdbaadd4U, 0x3d803b6ebdf49acaU, 0x3d174639bd5dd1c3U, 0xbd5cd0d2bd0cb2d0U,
  0xbd13539b3be96da4U, 0x3da30e073db28812U, 0xbd6517e53da09dcdU, 0xbe064a87be19c32dU,
  0xbd60447abc007c4aU, 0x3ddd81093deded7dU, 0xbd38292e3d453dbfU, 0xbc4bb75d3d14b7ebU,
  0x3d115a4e3c47112fU, 0xbd828d813ddbb606U, 0xbd91e77d3db1661aU, 0xbceebd67bd0364d3U,
  0x3d177497bd4e4837U, 0xbcfe94893d40ba27U, 0xbdc9d726bd45b845U, 0xbd973953bd1ecabaU,
  0xbdbad3dcbc792b8bU, 0x3d4e75a4bd3ced9bU, 0xbdb5f720bd862eb3U, 0xbcbb4e913dbcd790U,
  0xbdf9b1f5be1e221bU, 0x3d10c1663d278479U, 0x3aa77ca2bcfa6c00U, 0xbe0b53383e77450aU,
  0xbbe2a67abd973ed9U, 0x3db9ef6f3d7f411eU, 0xbcd5731e39609f34U, 0x3c8ad5d33db3e2d3U,
  0x3dbc4e82be05de3dU, 0x3d84b94f3a1097dcU, 0x3cbb196d3d72ee3cU, 0xbd57253b3dc5e747U,
  0xbd71b9cc3ba2d076U, 0x3d3a118d3e017da0U, 0x3da50ca4bdc4e9a5U, 0xbd2b2ff13ce91817U,
  0x3de1054dbdc2e5f2U, 0x3dad19fabcbed9edU, 0xbda68cc83d27ec79U, 0xbdae4f273e499aa7U,
  0x3d6bca7dbdd2b08fU, 0xbdd8c6313d0a07a0U, 0x3cb204debd39f7a3U, 0xbd0241a4bd897d1dU,
  0xbca0da90bd938fb9U, 0xbdf243c93df4b22eU, 0x3dd0e7433e2d06a3U, 0xbd671d45bd2678feU,
  0xbde71d033e1002abU, 0x3e09c03b3dd9ddf3U, 0x3de0de1c3dec06eeU, 0xbd9047803dcb462dU,
  0xbe09be9dbcf1d032U, 0x3dbfd117bab808ecU, 0x3bbc620c3b39ab59U, 0xbcadad0a3a7ffd85U,
  0x3c9441d6bc7475f5U, 0xbca0ec303dcdf8a0U, 0x3d53c5f13c8eb799U, 0xbd8f46293dc70a86U,
  0xbd913b433d9ff15fU, 0x3db58dcdbe068e37U, 0x3d94c004be0ff368U, 0xbd2be1243caf9bcaU,
  0xbdb0fe83bd189e97U, 0xbdb758903dd14182U, 0xbcbbf9d3bcfc80fcU, 0xbd9a51013a604b35U,
  0x3e0494e1bdf23805U, 0xbd2bd064bdd51865U, 0xbc87e2223c3701d5U, 0x3d4906883d86ad68U,
  0xbc269872bd247a3bU, 0x3e11c233bdb4caa0U, 0x3e2cc2d33da6676cU, 0x3ca2480e3e2e0a2bU,
  0x3e18370dbe294540U, 0x3cbd6ced3cfb4601U, 0x3b8f37df3e08f6c1U, 0xbe2aefe837b3ab5bU,
  0x3d377bf13df94a7fU, 0x3dc8fc0cbcd8b821U, 0xbb571b5c3d9615d3U, 0x3da5b90b3e584667U,
  0x3dcc14e0bd25f937U, 0xbcbafe8ebd1418dcU, 0xbd8f0f193cd7f983U, 0xbc0cc0583dad3214U,
  0xbcbd90aebd80c80bU, 0x3d788c78be3c98a1U, 0xbda4a415bd56b972U, 0x3dba52a73d840356U,
  0xbc903e46be0ebb00U, 0xbd172b43bcbeb510U, 0x3da59288bdea4e0dU, 0x3d22c0103d98b067U,
  0x3e147e713dc5bba1U, 0xbdfaf0643c922b26U, 0x3ccf66ce3c6160eeU, 0x39a979583c6aedc1U,
  0x3cb98239bdb3d92fU, 0xbe2a9c133db6e294U, 0x3e22b0af3c99f9beU, 0xbd5ce579bde3ad50U,
  0xbc630ff83be3dc9aU, 0x3df88f4cbdc7fb39U, 0x3dcd96e5bdafe594U, 0xbd4f16c33e18297eU,
  0x3c9fb6dbbd3ba2efU, 0xbd8adc253d93a440U, 0xbd014f043d294bc1U, 0xbddf1a83be71a545U,
  0xbcc8649dbbe842eeU, 0x3dea2baf3d5aa4d5U, 0xbd6fc103bcd8439bU, 0x3c9d554d3cf9d815U,
  0xbd558eb23d570122U, 0xbc7ec342bcf09df0U, 0x3c1131cabd8a22f2U, 0xbd803b983c70441fU,
  0x3e5cc40cbd8a4075U, 0x3da4bf973d24c3d0U, 0x3cd8bf373d1653e6U, 0xbd8308ef3d74e806U,
  0x3dd75d233d30f8d1U, 0xbe4c422abdbd853bU, 0x3d9c12a13ce28146U, 0xbe75b1aabe077d56U,
  0x3cd09a2f3d3c7d07U, 0xbe0d40523da5f4bcU, 0x3d3be0a8bd5886ffU, 0x3d00f3823e05f0e1U,
  0xbd0a29443c9830a4U, 0xbe09a268bdcffcfeU, 0x3bd5b555be040c11U, 0xbd3cd4c73d5eaf9cU,
  0x3ded037c3d8e4ae6U, 0xbd995fa83d727436U, 0xbded56d3bd6d25a2U, 0x3c64c1f93e275c9cU,
  0xbd5fe06dbd92c642U, 0x3da0f855bdab46e9U, 0x3c992092bd6f6d0fU, 0x3cc7e427bdb2008eU,
  0xbdd4d5bd3e8f10afU, 0xbd1b7fe43cb45b9bU, 0x3d405857bd96ac28U, 0xbd8cbd7c3d99218cU,
  0xbcb890c4bcd13aaeU, 0xbcb5ee63bd041a46U, 0x3d50bdbf3d6219adU, 0xbdc76bf83ddd8b23U,
  0x3b5e5c093e0e4091U, 0x3cb47c2fbe0d19e1U, 0x3d023a75bda60a0aU, 0x3de6bb213e1fbab8U,
  0x3d1377d2bcdd8a7bU, 0x3d2498523e1d22e3U, 0x3d1b3925bc80725cU, 0x3dbb4c8dbcc51b78U,
  0xbddcce8abd10221fU, 0xbc814489bca241b4U, 0x3e3216aa3dc2d24fU, 0xbdce47213eb026f1U,
  0x3d89cb1ebd228a0cU, 0xbd2224713e14a8cbU, 0xbd59d100bc233dfbU, 0xbd13e515bc4e5ca4U,
  0x3d245feb3e51ca49U, 0xbd49f37e3d75f1d3U, 0x3d8c70163ba3a756U, 0x3cebd14e3ea876d2U,
  0x3d0e240a3ca5981dU, 0xbdde70c9bd2ac791U, 0x3db01ff3bda5c4ddU, 0x3c2da61b3dc61cf6U,
  0x3d76c1133e3deae3U, 0xbdbb1dc53c30bb4aU, 0xbe2e5515bc9a23dfU, 0x3dfb884f3eaa5c97U,
  0xbc26b853bc20602aU, 0xbc9f3b5d3e268801U, 0xbe0891c4be29831cU, 0x3d05de98bdbc50e6U,
  0x3e1e32703e888a0cU, 0xbb195612be368c24U, 0x3d64b7913de975f7U, 0xbbc3b7d33e470745U,
  0xbb74ecfd3d8543e3U, 0x3c2e57ac3da2ce9cU, 0x3cf2c40abe0e9a41U, 0xbc69cbdf3dc10a06U,
  0xbe0cd5f33e06e9e1U, 0xbd4964cd3c5ede69U, 0xbd0a2f3bbd2484f0U, 0xbd9c83c73d48789dU,
  0x3d9feb50bdaea1a4U, 0x3d08d9e93e3414c9U, 0x3d0f8e7a3b036dbaU, 0xbe813e5e3d83829aU,
  0xbd2972fa3e20d568U, 0xbde6277fbe32651cU, 0x3d77e9f73cdbad29U, 0xbd3db80b3e12737cU,
  0x3cb451763d843ae2U, 0xbd2471fe3dafefcaU, 0x3d31fbd6bdc53f87U, 0xbd5c3e66bdefc9ddU,
  0x3e05fa3c3dc82e45U, 0x3d6e979fbded55daU, 0x3cecb1283bd0dae1U, 0x3cbfda2d3e7cae4eU,
  0xbc8b2cd4bd47f239U, 0xbdcb787ebd88968eU, 0xbd6dfa7b3d320de3U, 0xbdb1a219bbdb5108U,
  0x3e0889db3dec83d6U, 0x3d8a9b42bdcdc20cU, 0x3df1cabfbd914f22U, 0x3d982dd63dba45d0U,
  0xbdbfd856be21b683U, 0xbe4a786fbdafc1eaU, 0x3d20c33fbd39e98dU, 0xbe37da783db2e2b1U,
  0x3caa4eb83e004f4fU, 0x3d4ccc73be30e1d5U, 0xbcf452ea3c2863e8U, 0xbd40b3343e138c6cU,
  0xbdee99f5bd8f40f2U, 0x3c7425ddbc671999U, 0xbd0d84ee3d9ed6bdU, 0xbdbd8e5e3cda3648U,
  0x3dfbf8c13da17c03U, 0xbe3c8005bb4c71e4U, 0xbda6609fbdc01b42U, 0x3db723b73d5cdbe9U,
  0x3d09177d3cf00de8U, 0xbc8a89283d0410d1U, 0x3d641271bc9a5daeU, 0xbd55a3c63bec162fU,
  0xbdc2dd943cc6d549U, 0xbe3a78e73c93bc13U, 0xbe0154b5bcdd63e7U, 0x3e0037963d56c352U,
  0xbe05c343bd5a720cU, 0xbd3cddebbde83aa0U, 0x3d518f9a3caa999eU, 0xbd8bf334bce04fd7U,
  0xbcbe93083e0f4313U, 0xbe25a6d53d54f4efU, 0xbe1369ed3d49819aU, 0x3db4b7553dbe5584U,
  0xbd7bef36bd23db12U, 0xbd85d960bd29cd7eU, 0x3d1182283d035c2bU, 0x3e71c4973cd40a74U,
  0xbde53f773dda54f8U, 0xbe04d3a6bd0fd07eU, 0xbd26c38dbd1daf2bU, 0xbda037363da9a5ecU,
  0x3d060e473d3a6dedU, 0x3c59b3d7bd3e45dfU, 0xbd2ee78bbd8e9440U, 0x3e46e8613dfc9c86U,
  0xbe143e233e02b634U, 0xbdeda517bdb532e3U, 0xbde136833db5b543U, 0xbd1920873e96ea95U,
  0xbde215f3bc8f3b14U, 0x3d4ce55b3de7f2d8U, 0xbdfd84e9bdf10f83U, 0xbc4cfc193dc224a7U,
  0xbd8f77c33c72e88fU, 0xbd37e66dbe09a075U, 0x3de6a2003e4f235cU, 0xbd0142d23de515c0U,
  0xbc029ba63d52270aU, 0xbba04c9ebd07b360U, 0x3d8f2050bdc91414U, 0xbdb2e436bb998611U,
  0x3e06baf23d8d7b75U, 0x3d58ec103d43788aU, 0xbc50bed93e5dfb62U, 0xbe144f35bd816737U,
  0x3daa8bc0bdb02ebfU, 0xbda60f1d3d33f588U, 0x3bf86be53d0fae0bU, 0xbe141bf4be15c014U,
  0xbd559d873d815f69U, 0x3dbba9593d8d093fU, 0xbbeb86873df7178fU, 0xbd6cc5983baff88dU,
  0xbca5a679bd4fb1b5U, 0x3d0c3360bcbeb0f7U, 0x3d51ba8cbdf8ff83U, 0xbdb5bcc83c871d21U,
  0xbd2aa99e3d029c81U, 0x3dd76bdb3e03ca83U, 0x3debeece3d93b368U, 0x3d2861febdb32141U,
  0xbd2b38debdfd5c42U, 0x3d07ff34bdb94a6cU, 0xbd6212183d926433U, 0xbb5943053de55135U,
  0x3c33cc23bd5f4333U, 0xbd40d2a73d0a130cU, 0x3dc251be3dd87f71U, 0x3cedce133e0f4723U,
  0x3dbd76a53d1e245aU, 0x3d73211b3dc89892U, 0x3dc339a3bdfeec29U, 0x3d49f1b2bc45bf52U,
  0xbdcde7103d743fc0U, 0xbd735fb23e03c3c5U, 0x3d0912cc3df6a025U, 0xbdbe434f3d4a599bU,
  0x3db104db3db51bedU, 0xbdcf941e3db91681U, 0x3daed33e3cad3b9fU, 0xbe045d253e0ab557U,
  0xbda61348be00f69bU, 0x3d345dd83e2ea75eU, 0x397da3bd3dcab5d5U, 0xbc06dacfbca82985U,
  0xbdb8cea23b09e26bU, 0x3c6e475f3d4589e7U, 0xbd6bf8e1bbf98fe3U, 0xbe0db17b3da38c23U,
  0xbdf5f1003d880b07U, 0xbe1055af3cac7db8U, 0x3d82f1733e0805f4U, 0xbb4617aebcb2df88U,
  0xbd7809b3be1c74f2U, 0xbc9b6435bde5d604U, 0x3e0bf9e63d6bfbd0U, 0xbca5e3103d8250cfU,
  0x3c9151613be578b5U, 0xb9d0a8923d4393f3U, 0x3c6384cd3dba50c3U, 0xbdc9ea9bbda3a96dU,
  0xbd92a72e3cc48ae1U, 0xbddc608ebbe0e5b5U, 0xbd7c089abde70131U, 0xbd5c40203beaf121U,
  0x3c8d46c03d91a820U, 0xbe0ff913bd90b0dcU, 0x3d91cf093d345c5bU, 0xbcda6b03be28009dU,
  0xbd1505abbcc24149U, 0x3b968cc83d313a3dU, 0xbd89199e3d57dc8cU, 0x3d72fde93c652ac3U,
  0xbe3129063dbfc3adU, 0xbd516b203de336afU, 0xbd0e0f523da60a56U, 0xbe2573a63c081c25U,
  0x3ca4bf21bd0256ffU, 0xbdd85557be09b8fcU, 0xbcff139dbd8a3177U, 0xbca4ef823dfab51bU,
  0xbd0881353cf409b8U, 0xbe223e1f3d8684a4U, 0xbc29ab483cf206c6U, 0xbda93e763bc5ad32U,
  0x3c0591e4bd9876acU, 0x3cdb4c343db4a32bU, 0x3d95484bbdf2e1ffU, 0x3d0d47ff3e0997e4U,
  0xbb5ef7d63dabc874U, 0x3c46e15e3c7b686cU, 0xbda86661bdc1a213U, 0x3c7914573d86f578U,
  0x3b89b4493d828836U, 0xbde62af4bdaa8c32U, 0xbd575c37bda8cc73U, 0xbda9e041bc927f91U,
  0xbdb85b3ebd7ea034U, 0x3d0e72ee3cbb8ff5U, 0xbd4cb18e3c8c7280U, 0xbddfabd03b417c44U,
  0x3d84a1333db23493U, 0xbd8af50dbd330e2aU, 0xbda6e60ebd0f79c3U, 0x3dd141683e345a41U,
  0xbd969a423d77d8b2U, 0x3ca6374ebd7c06e2U, 0x3df304123cddbbbcU, 0xbd7b82abbdd50558U,
  0x3dc102b13d43d5d2U, 0x3d15a3df3c1072cfU, 0x3dd4e35fbe030a0cU, 0xbd70e5bebd1a6c5dU,
  0xbdc675bfbc3ef66aU, 0xbd4a61973da956caU, 0xbd87f521bcd8840cU, 0xbd9ea10dbc671388U,
  0xbdac2cb73de7f485U, 0x3df2c69c3dc82ef8U, 0x3de85c9dbd81f76aU, 0x3be17b1b3dc4dc61U,
  0x3d9a0cdbbc967107U, 0xbd174962bdb541feU, 0x3dbc9508bdeb9b85U, 0xbd5d44c23dcdca43U,
  0xbdb6a81bbd9ea832U, 0x3d8b24c13d5e1ab7U, 0x3dd00e3f3cc15e79U, 0x3d8a97443d37fa59U,
  0x3dad227d3d5d22e3U, 0x3cd1998a3d70c490U, 0x3dbd333f3dbb0af6U, 0xbd937ef23e846f1cU,
  0xbe2f8b79bd50cb35U, 0xbda287753cf02651U, 0xbdca24e93df1486bU, 0x3d7e3405bda435d2U,
  0xbd3faf16bdd804b0U, 0x3d60e3bfbd380211U, 0xbc67b6d4be060dd0U, 0x3bd5b0c5bd7f4d17U,
  0xbd3ae2a9bdb81525U, 0x3cf66b103ce93af9U, 0xbd0286ca3b3d771fU, 0x3c9a23c7bdb906b1U,
  0x3da8c6323d6be8b0U, 0x3d948711bd177e71U, 0x3d72be97bd7983c7U, 0xbd7fc65c3e1562d6U,
  0xbe51a4ebbdffa443U, 0xbbeab2a83d068b5cU, 0xbd8460fb3dba5136U, 0x3da1d921bc3caf4bU,
  0xbdfdfb1e3d3766d5U, 0x3d104b3cbde7ca0aU, 0xbd05a7e7be0b10a0U, 0xbda3af8ab9f3c82dU,
  0xbe0b5229be1e6d18U, 0x3de1139bbd7b8200U, 0x3d455327bd9f5d03U, 0x3dd8a00abdb312a6U,
  0x3d7e6296bcb8a198U, 0xbdfbab6b3d14975fU, 0x3dd0c2a33d877021U, 0x3cb8061d3dff6d1cU,
  0xbb8dc65fbe2b604aU, 0x3e1bc2e83d9645e5U, 0xbe1d1cadbd873ca3U, 0xbdadf58cbc47465dU,
  0xbac738143e49b85fU, 0x3d4d3ee7bcb9cdc9U, 0x3d91282a3da63bc6U, 0xbd6712abbd05bd5bU,
  0xbcf1c2413e2c0fc1U, 0xbd3c991bbd87908cU, 0xbe21d0853cfb1478U, 0x3e0c1f35bd1aa94eU,
  0xbd7d6880bd93aa81U, 0xbdb5f0753d83cd24U, 0x3dab93413e813b7fU, 0xbc183f19bdbb95c4U,
  0xbe2b1a513d6a856bU, 0xbc221df53d432a9bU, 0x3da2bb9c3b94b710U, 0x3e562f223c6b4ae2U,
  0xbc8e1bbfbcb8fe82U, 0x3c1d10393d27325eU, 0xbcbde1033de54744U, 0x3b8844a63c4b0a83U,
  0xbe4361023d9e58b5U, 0x3d06774abd661b26U, 0xbe0cf10abd579006U, 0x3dbb6408be09cd22U,
  0xbe1b73ac3cd4b215U, 0xbd486281bdc84af8U, 0xbcb89ced3cb86910U, 0x3cc83fe43bdf9d28U,
  0x3c34d702bd607cb9U, 0x3da803093d58a308U, 0xbd6d022dbd65205bU, 0x3d32996a3d809539U,
  0xbdd39660bdb358e9U, 0xbd3d2150bd400204U, 0x3e0a66e6bd9c9839U, 0xbd8e5386bd58f571U,
  0xbd979059bde750beU, 0x3d09f0e3bd15ea12U, 0xbc0d7a73bdfae8e0U, 0x3e13df3cba8a8ebcU,
  0xbdd11babbc214946U, 0x3e0f11a83d027b91U, 0xbda86ff0bd31732fU, 0x3e0175c2bdfc681cU,
  0xbdc5833b3d9eef77U, 0x3d753013bd737345U, 0xbdb56d3e3d2be9f2U, 0xbd0b5c813d8c88e4U,
  0x3d0f0af4be1a88f4U, 0x3d105e2dbdab5e4cU, 0xbdb011ad3c4ec068U, 0xbcf592d0be198626U,
  0x3d578fcc3ce87b74U, 0x3e295ae23d9e5f3dU, 0xbd00a6bb3b4605deU, 0xbc7827fe3d4139f0U,
  0x3c568745bb9ba060U, 0x3db98da13d109d9dU, 0x3d8173a83cb26fddU, 0xbd4d4f923d05fa78U,
  0xbe0d12643ce4e957U, 0xbd6efafcbdbe3dcdU, 0x3d76a8323db4bfc7U, 0x3e4c0c883d9c0aa2U,
  0xbd8c643f3d30a40aU, 0x3d6cf0513d0a3216U, 0x3cefdb133ceb6f31U, 0xbd887742be1b7836U,
  0x3d13d1523cadbe61U, 0xbdadf6a9bdb8723aU, 0x3d136717bd47ee60U, 0xbcbd37003da8ae44U,
  0xbb00e1c63d928aa5U, 0xbd8041c3bd80f3d3U, 0x3ddf3bdebd9b3fe0U, 0x3ccc9655be073630U,
  0x3cbadfcf3d21b270U, 0xbdb3ff483d23fe2cU, 0x3cf1bd6a3c3f0effU, 0xbd3027ccbd74b983U,
  0xbd1b656c3ce45931U, 0x3c4f13debbe8c2d3U, 0xbdbd4a49bd469e5cU, 0xbd8fa341bd448887U,
  0x3d08266a3afce1e3U, 0xbc7ca6133cbdbec3U, 0x3dc5d3883da62758U, 0xbd999c94bce6866eU,
  0xbd68683fbbb6c34fU, 0x3d695d24bc99ed93U, 0xbdea85bbbdc6bebbU, 0x3cfe9dd5be1b3278U,
  0xbcd3b62fbd1e0f43U, 0xbb9f3de6be158a56U, 0x3d9480f4bbf19164U, 0x3cdb28153d6b7961U,
  0xbd0a360ebd3af3b5U, 0x3d0957823cde593fU, 0xbdfd6153bd760647U, 0xbd768320bc6d9c0fU,
  0x3d8f8349be018552U, 0xbd69a41bbdbadb23U, 0xbd53c249bdb2a545U, 0xbd3924273e2e3c44U,
  0x3d66c8fcbe1efc9fU, 0xbd703975bdbabdc2U, 0xbda52b92be166b45U, 0xbbfb87fabdc8ff7bU,
  0x3d2ebe3cbd863e29U, 0x3d6b97f13bdade19U, 0xbca350223c2710daU, 0xbd849fd03e35f0a9U,
  0x3d59ee033d03455fU, 0xbdad247e3dad138bU, 0xbd8787e3bd84464fU, 0x3d4ec3383de1f3e7U,
  0x3c3fc1ebbda919f2U, 0x3d2ac7813df03f08U, 0x3e18d2863dfa65b1U, 0xbdacaf333e7e5e69U,
  0xbe060ca83bef8106U, 0xbdb43e173e2f1aecU, 0x3cea5587bd9e4627U, 0xbd81414dbe1439f3U,
  0x3d9eb4743b9e3467U, 0xbe171ba9be03333eU, 0x3dc127ba3c8c4326U, 0x3d30f83fbce523a5U,
  0x3dd5d5d23d8f5d08U, 0x3dadcf8c3dba0ff1U, 0x3dd375acbda85ceaU, 0xbdcc3d89bd74e5a4U,
  0x3b4c33f6bc370ab9U, 0xbb80282abbc7f9bcU, 0xbc8f46633dd48cf9U, 0xbe10ced4be12ec80U,
  0xbca59339bddf3d98U, 0x3db686093d88c9eeU, 0x3da984c93d46afc6U, 0x3cbf3063bacf7912U,
  0x3d8e07d4bd28c714U, 0x3a2c551cbe0a6586U, 0xbd3508f5bc7f4053U, 0xbd17a83cbbf1b511U,
  0xbd3d4d7cbd8b3493U, 0x3e01785c3e180b5dU, 0x3cc737d7bd2122bfU, 0xbdd8df3abd58b855U,
  0x3db2fd71bd80a46aU, 0xbc895ab8bd90a060U, 0xbda1b0b03dd4d938U, 0xbdf942fe3dde2296U,
  0x3affa398be0aedb4U, 0xbd8c67c13da195f3U, 0x3dbb79e93e52c537U, 0x3d3ded583e4a68e8U,
  0xbd90104fbd870e0fU, 0xbd85b1133ddcbcd3U, 0x3dba2b763ce7447bU, 0xbe82e1073db6bf5dU,
  0x3dccd9a8bd4bb38fU, 0x3c60a83fbddffc33U, 0x3a86e7ab3e2d58d8U, 0xbe1290b6bcb4792dU,
  0xbe01a0bfbd8b9e3bU, 0x3b9312313e09676fU, 0xbe0a5c133df81251U, 0xbe0df41c3c9455d3U,
  0xbd802d373b90daadU, 0xbd59bfb3ba15eadeU, 0xbcb8e60abd9bfdbbU, 0xbdc3ff883dfc422dU,
  0xbda9549dbe0dc88aU, 0xbc5151f13e1410abU, 0xbd282111bd794bb1U, 0xbda5e86b3d45f428U,
  0xbce9bc613cb8e666U, 0x3cffbcb3be824681U, 0x3c4abb963d05d0aaU, 0xbd260cb83d9dde27U,
  0x3df03460bda9c9f6U, 0x3d5ca2f8bd00a0daU, 0x3d8df3603c00529dU, 0x3c87d3b5be1b8b44U,
  0xbd2e5e403d8861c0U, 0x3e00e4be3d0ca099U, 0xbe24f8f43e1ae5f5U, 0xbdcdb037be0eae40U,
  0x3e4fe655bd443c3bU, 0x3d966b0fbddaa263U, 0x3da32155bd37045cU, 0xbdc0e18bbe095190U,
  0x3dcf60433d9cba1aU, 0x3d0f66b5bcc59a6aU, 0xbdd93a83bd928a56U, 0xbb9006df3c51d44cU,
  0x3d6a7ad13a5f91d3U, 0xbca7be1a3d8428d4U, 0x3dee2164bb23dacaU, 0xbb067f93bdde0040U,
  0xbd24686abdea9a73U, 0x3ca241de3c18e83cU, 0x3dd19f5cbcbbc3d8U, 0xbc6f333a3d87e0f4U,
  0x3e36cb41be02e5ceU, 0x3d74ee47bd98790fU, 0xbc3621433d82f99aU, 0x3d27dbe8bdb6770eU,
  0xbd0a1cf33bd2aa10U, 0x3d08eea73db251f7U, 0xbccabbc63e05468fU, 0xbdf68714bca27a2cU,
  0xbc9e82cf3d2ac2f2U, 0xbdfebcc73c560153U, 0x3dc0e1233d95edc0U, 0x3c1bcd4b3d6559c8U,
  0xbd2c12533daceb6eU, 0x3cd600cf3e1c6e7fU, 0x3db097ffbcb75573U, 0xbdb2fe153d546934U,
  0xbd61c5b0bd37dd11U, 0x3dcd57fd3dc5d418U, 0x3dc7d96d3d245c1bU, 0xbca09c63bd1041cbU,
  0x3db26d73bbf0a369U, 0xbd6d6c783d085e9fU, 0xbb7f01aebd1682a8U, 0xbe237724bd1a07f5U,
  0x3ccff8723d8d0da0U, 0xbe03f80d3d99c42dU, 0x3d5386903d270bd6U, 0xbc63cbda3da7d20dU,
  0xbd9fe79dbdc86819U, 0x3dcef6af3ddc1550U, 0xbcc40e95bca050a7U, 0xbceff65a3db337e4U,
  0x3d8b0f00be04e94aU, 0x3d5dd31a3db3e672U, 0x3d8785debd88ede0U, 0x3d80c8d9bb965ef4U,
  0xbdd005c1bd0e5fd1U, 0xbcc930a63d027092U, 0xbbe85217ba8cfb50U, 0xbcdde62fbdbab80dU,
  0xbd8fbcf83d5d78d4U, 0xbdd01f033d9fc647U, 0xbc87690b3d9f80cbU, 0x3ce5a5303dbb6b6cU,
  0xbdb2662bbd8a5a31U, 0xbd142d943ddb3969U, 0xbded146b3dd753e7U, 0xbcd38aa13d80e3feU,
  0xbc82773e3dcc1fc8U, 0xbd1c1c0cbd036daaU, 0xbd1719673cc8f97eU, 0xbd6b24873dbea110U,
  0xbc97ea973d211d3bU, 0xbdd902113d540a4cU, 0x3d3e0d3a3dbdb986U, 0xbbf48ad4bcd789d5U,
  0xbd0488aabdcbc472U, 0x3ca2ef683d89893fU, 0x3cd8097c3d5c98a9U, 0xbdf5b98a3cac4a9aU,
  0xbdbc8bbfbe134642U, 0xbdf94155bdb8ba6cU, 0x3dcd2b7bbc4ecd9aU, 0xbd32b4aebd0efa11U,
  0x3d2b6377bd434765U, 0xbdd70155be0dad75U, 0x3ccdda43be0a1056U, 0xbe06ded53e080c6aU,
  0xbe0f6cce3c8f036cU, 0xbda3e6e0bd06458eU, 0xbda1747e3dad2da0U, 0x3d4ce68dbdab582aU,
  0x3cbe4ecf3cde3adbU, 0xbd350855bb91e0a8U, 0xbdce95e0bdb864ccU, 0xbc9ea1403dee140cU,
  0xbd0b7ea6be06913dU, 0xbc5457ae3d35ebefU, 0x3db2bdb3bd8ad39bU, 0xbe0e30b03dae79c0U,
  0x3d1852073d888fb7U, 0x3d345236bddd1e37U, 0x3c8cd86cbd478a10U, 0xbd8a8c94bd12c6cdU,
  0xbd12f0f7bd9264a1U, 0xbda78e413c0a0b58U, 0xbddce4c43da87bd8U, 0xbe0f74c7bc87f6c8U,
  0x3d1b6885bdeda84eU, 0xbcd858d93dc2015cU, 0xbd825ba6bc8e2e11U, 0xbd7496453bf83827U,
  0xbde516eebe0e1c51U, 0xbccb89b53d77837aU, 0x3c52aa3ebe21e659U, 0xbcf5ca3abc2406e4U,
  0xbd60326cbd1133daU, 0xbd4251233c24fc96U, 0xbbb6d6543dbba429U, 0x3b97bd273def4660U,
  0x3dc326cbbd8302b4U, 0x3d5ac016bd3bb9f9U, 0x3da9db373d6dbccbU, 0x3d876a713de89f65U,
  0xbbfa7eeb3d3518a5U, 0x3dc46a04bd922f4bU, 0xbc0e2a743dc030ccU, 0x3cb1b641bc17000dU,
  0xbd5f34543e0b92f0U, 0xbe172ae8bd6845f5U, 0xbda236b3bcf49502U, 0xbb5d9dc53c0a2531U,
  0xbdba30ad3e0d9dbbU, 0x3d6039bfbd7f1d22U, 0xbdf42a49bd8b6079U, 0x3e1c21d73db17560U,
  0xbd3b4cabbd9bfd00U, 0x3dc6a7debbe4c014U, 0x3cb78ecbbdc21afbU, 0xbde7ae813d763aa9U,
  0xbdb33b343c2c0532U, 0x3dee4fe2be029852U, 0x3d9af2703cc19e27U, 0x3df9906a3dd4ddbaU,
  0x3d0de9403d8fcf02U, 0x3db2d565be32cf03U, 0x3dbb9a67be4cfa58U, 0x3d99caaa3cdfe982U,
  0xbdf114ee3deb8909U, 0xbd9f7cd8bb22ffeeU, 0xbdca6aab3ce57f61U, 0x3d69f8963d0c5825U,
  0x3aeb6a5f3d321571U, 0x3c41179dbe36ebdcU, 0xbb894b26bde542d5U, 0x3da245483dbb9eb2U,
  0xbe07c19fbe28ff36U, 0x3c64d03dbd580feaU, 0x3ce36ae3bd08cd59U, 0x3cd8b73dbd8c86e1U,
  0xbe1c8f65be0f2dadU, 0x3d6bb3babe89f49cU, 0xbd659232bdcc2e86U, 0xbd91150fbd32343dU,
  0xbdfbeea1be568ec8U, 0x3d7814fa3d29e530U, 0x3d070394bbe62654U, 0x3d65c2793d39f02aU,
  0xbe1d13853d434ab1U, 0xbc5fdd63bdf33561U, 0x3e33ebeebe55b117U, 0xbdd0176ebde6ae61U,
  0xbd7688f73e17152fU, 0x3e02e03fbdd542f2U, 0x3cadde41bdd86858U, 0x3e2c71f63c6d8f00U,
  0xbd4e8b14be1cccb8U, 0xbc499f85bde89becU, 0xbd3741d63e5cbb57U, 0xbcb7b3e6be6262f6U,
  0xbe4596c63dfdf200U, 0x3e00d5a8bdd27415U, 0xb9a580cabda58ae8U, 0x3d12a3533de718f8U,
  0xbd3c46b7bceaf1abU, 0xbcfa024a3d254419U, 0x3e02297d3da272a3U, 0xbcf7b2b43d83427bU,
  0xbcb433253dcda7abU, 0xbd024e93bdf2941dU, 0x3d18d30fbded6ab3U, 0x3d65b58bbe029025U,
  0xbd386fcb3c5a3040U, 0x3c3db423bdc17eabU, 0x3cc22ea3bd8e829cU, 0x3d18a0e73de4ec8bU,
  0xbd95799fbd281c82U, 0x3dbdf7a93cfdbccbU, 0xbda89e3fbd374749U, 0x3e24796a3bad070bU,
  0xbcef3dd4bd686e74U, 0x3c20ca3bbe1f24dcU, 0x3d49b6d2bdaebb32U, 0xbc0e29d0bd5ac4e6U,
  0xbde810a0ba1fa982U, 0xbcaa84e5bc5b124eU, 0x3c99f34ebd12be3eU, 0x3ce9f39a3d9d5cd3U,
  0x3c73eaf1be371f7dU, 0x3d9d2095bd77a08cU, 0x3c866561bd356f32U, 0xbcc375dabb467922U,
  0xbdf745293da38ce6U, 0xbd0383873df8e27bU, 0xbd94029e3d3aa220U, 0xbbf09607bd997f72U,
  0x3d853cd7bcfb15adU, 0x3e108ec6bcdbb9cfU, 0x3d085944be074dbfU, 0xbd1353d0bde841deU,
  0xbcb4c9c8bba1147eU, 0x3d12e6713c9e2e43U, 0x3d188f893d03f296U, 0x3dcda38a3d8c9c1dU,
  0xbd0f9176be33957fU, 0x3daa171a3d2b9c2cU, 0xbd69eb31be53fe71U, 0x3c9731c5bd9d23f4U,
  0x3d9311623c81cf28U, 0x3d0f334dbdee7224U, 0xbd096bf4bd247761U, 0xbbe6dee13d7210ccU,
  0xbc6ff683be161225U, 0xbe0248213c2b0a26U, 0xbd2e81de3dd1435bU, 0x3ca4917bbbd36d6dU,
  0xbc5bd6033d536c5cU, 0xb9c14197bd0fc2a3U, 0xbdc7cb883e052bf5U, 0xbd162640bcd42ddcU,
  0xbdf557833d4bfa44U, 0x3d79ade63d022aefU, 0xbcc3ba7ebdd590a1U, 0xbde39e8dbe2fb5eaU,
  0xbc4ad2173d537065U, 0x3d8475da3dd9be46U, 0x3e0618783dd08acaU, 0x3da018703b52e5afU,
  0x3d1f8682bde0d16eU, 0x3b1edb8a3cd428ceU, 0xbd91d4b2be01387eU, 0xbd559cb1bd5f7a43U,
  0x3b44af933d051bfbU, 0xbd2c2ccdbe0d9c30U, 0xbc7f60363e024585U, 0xbc0632c83e60ecdcU,
  0xbd33ffb1bd83823fU, 0x3c95bdd83db9965dU, 0x3e0358043d46894dU, 0x3d015b813d8e6d27U,
  0x3d2c4cafbdc4a20aU, 0xbdbee8b6bd6c5d04U, 0xbdc2cbdfbdbe305eU, 0x3d27c8133da0151cU,
  0xbdb55a493c39bd9bU, 0x3e17bd573d8825bdU, 0xbb190db33da1e2c6U, 0x3d764406bbb70954U,
  0xbd3b3eb7bdf11019U, 0x3d90d28fbe3ef531U, 0xbdda4d94bd8f6f51U, 0x3d1172973e1f831fU,
  0x3d62a294bd385e6fU, 0x3e02452dbd61af9eU, 0xbe05f9efbe771378U, 0xbce6bfc7be0dc6a9U,
  0x3d9ffd56be1a597cU, 0x3d561674bd6ab9e9U, 0x3c268d18bd9e34ddU, 0xbdeb36123e56eaa0U,
  0xbd1fba0bbdb415bdU, 0xbda596303c00778cU, 0xbaf02eff3d1981a3U, 0x3c659d543d1dff74U,
  0x3df3729bbe16b6a1U, 0xbce5f8183e11d95aU, 0x3d98c4a33e73f46eU, 0x3de1e1c73e7fac3cU,
  0xbd464866bd72c657U, 0xbcf0c2213e3174b2U, 0xbc2132373d896d96U, 0xbe11da34bdf0b495U,
  0xbd64e60fbe03b737U, 0xbc114b50bd97650fU, 0xbcd405c2bcea75f9U, 0xbc6224a03d0fc995U,
  0xbdd74a163da9f90bU, 0xbda38a1c3e821c7dU, 0xbdce9dbb3d8ed5b0U, 0xbddf259ebdfd1eebU,
  0xbdbbe5dcbcaa4b6dU, 0xbdf94583be2d3f29U, 0xb98cc284be2cfa75U, 0xbbf061a0be0bf1fdU,
  0x3cf192ea3b854fb7U, 0x3d8fb08b3e4a15e8U, 0xbd52ac013c988780U, 0x3d4b178b3e144deeU,
  0x3de8f016bd20af69U, 0x3da34d58bcbd4a85U, 0x3c6c8f94bc0d15b1U, 0xbdc041103e0a8ac1U,
  0xbdd0e4ac3d503d43U, 0x3e101832bc4c1f9aU, 0xbd857dc1bd7743c7U, 0x3c9b487a3cdc04dbU,
  0xbd2124353d3008efU, 0xbc052e813d5b9a8aU, 0x3e1c11313d6f9ab0U, 0xbd3d551fbd699045U,
  0xbcccb0e73daee308U, 0xbbfcca853e179082U, 0x3d7776093d81ee95U, 0x3d1ae9853e3bbeddU,
  0xbd7c07e0be5271f9U, 0xbe0a7acd3dd62942U, 0xbd8f9284bd80abedU, 0xbd93de153d2b6c03U,
  0x3dfd6b843c7a7d2fU, 0xbe014ffcbe16ff91U, 0xbd8208c63d67330eU, 0xbd299e9ebd820573U,
  0xbd64948abd50ebf4U, 0xbd50b4893d793879U, 0xbdf12641bda3ef53U, 0xbce86a403d2079c9U,
  0xbc2df07dbe1135c3U, 0xbd092c59be1f03a7U, 0xbe02bc17bd0c735fU, 0xbd9012e53d254831U,
  0x3d858280bcf5b79aU, 0x3d98d47bbd319010U, 0xbd73e37abcd0302aU, 0xbe3a18a03dad0bddU,
  0xbddf95b23d99ceceU, 0x3cb5ce85be0d7d14U, 0xbdef6f023c321e55U, 0x3df17049bb57548dU,
  0xbd242701bd18e150U, 0x3d533d3d3b059bfcU, 0xbb051001bd558f41U, 0xbdd3035b3da06338U,
  0xbdde62b1be4b97f2U, 0xbdde0416bdeb9cbbU, 0xbdb0c409be181c06U, 0x3da4c69c3d0fa8a5U,
  0xbda0ebfd3ced6f97U, 0xbd927097bd4b67f5U, 0x3d3ee7f33d8c1e28U, 0xbd70d33dbd331608U,
  0xbdd06960bdcc2b7dU, 0xbc8d9dbb3bd60750U, 0x3d38154b3d35864bU, 0x3dacbd4bbe2ac431U,
  0x3da53d1abd136501U, 0xb9fe2301bd8c8d18U, 0x3d7ce8003dd05194U, 0xbca28158be07084dU,
  0x3d9a6178bdb5228dU, 0xbd8909f63cdc6175U, 0xbbb17f54bd959f31U, 0x3ccd025ebdbdf17eU,
  0x3cbd7d9abe0d4efeU, 0xbdc46ffc3d45bc18U, 0xbddf09ac3dcf4aaeU, 0xbd88a9b9b987480dU,
  0x3cd416823d96c93cU, 0x3e02b08a3db5c2b3U, 0x3d33b59cbcfc60bdU, 0xbd5a909cbd90edcdU,
  0x3bb4cae5be1102efU, 0xbd84c76fbdb1a4deU, 0xbdeb9be6bd12c325U, 0x3caf682fbddd42c4U,
  0x3c82a11abe087682U, 0xbd8537a4bdcc09e6U, 0xbcfde395bce57349U, 0xbddbea41bd898078U,
  0xbd8f1341be298c10U, 0x3d2d4e4f3cffb788U, 0x3ceb565dbc1acf85U, 0x3b4309cbbd7cadbaU,
  0x3a038eb53da7e9b5U, 0xbcc1bbe5be0bdd40U, 0x3d004b19bdb0b50fU, 0xbd84eccfbe02636eU,
  0xbe09b8d1be212e09U, 0xbd650ce93d982b18U, 0xbd7f3a593d698e75U, 0xbe0587fabe07a007U,
  0xbdff333d3e005f1aU, 0x3d1891db3da5554cU, 0x3d4f87683c49a6b0U, 0x3d40db78bda6a66dU,
  0x3d9a8db0be063634U, 0xbde560ebbd956fbdU, 0x3d46df99bda6f593U, 0xbd30e3eabc7b6983U,
  0x3b1121dfbc18f08eU, 0xbd0275bcbdc915e8U, 0xbd88849dbdd25e86U, 0x3dcf5cb3be31be44U,
  0xbd8d3dccbe36350bU, 0xbe0701703d86b5e8U, 0xbda6de053d438c97U, 0xbdbc9e813d88de50U,
  0xbde6ffb53c909bcaU, 0xbd2a1900bd2ea299U, 0x3de17df13dda3bfdU, 0xbddf61f1bd601de8U,
  0x3b821120bd8f08f7U, 0xbd4e7bb4be0748dcU, 0x3d0df3043dbb6515U, 0xbe244cecbdafb5d7U,
  0x3d6c5d60bcdb6db9U, 0xbd83c4cdbd4ba816U, 0xbdadd7473d94c06fU, 0x3d8d0a1cbdd9e2f1U,
  0x3d92e93dbdb13855U, 0x3d418fafbd43db1aU, 0xbd7ee09c3d939c48U, 0xbd775df5bdf91995U,
  0xbd23eb933bb2cc22U, 0x3d6f3dd4bde0364bU, 0xba7a92d6be206bbeU, 0xbd46650fbcccef4bU,
  0xbc00a880be14344aU, 0xbe53b1253d045f5aU, 0xbcce6b4f3bf43865U, 0x3b048dedbd4b36f7U,
  0x3c6bd7c33d6212daU, 0xbce4faaa3d84db68U, 0xbdfcdf713cbb2802U, 0x3cab21253d471de3U,
  0xbddf34f5be2099f5U, 0x3c503cec3d3ece5fU, 0x3db229733cbd5c58U, 0xbae86bf0bdd590d4U,
  0x3dd060213ca00f06U, 0x3d105dc8bd6c549fU, 0x37b73f34bd64824eU, 0x3d5bddd2bd3ecc15U,
  0xbc57864dbc201357U, 0x3db2c1b9bd3088d2U, 0xbd56e45b3d204e69U, 0x3d5bd092bd3abf1aU,
  0xbde8607dbccd8fd1U, 0xbcdfe8ae3d8da575U, 0x3dbfa971bd9f09cfU, 0x3db09bfbbd98f568U,
  0xbd92b253bddd6939U, 0xbda405fc3cf97b27U, 0xbdb7859ebb8e4959U, 0x3d847845bcc23acdU,
  0x3d6b1caa3d5d9b00U, 0x3ddcd23b3e079440U, 0xbd844650be2b9b4bU, 0x3d1350d7bd0ddb23U,
  0x3d22f0853d627d87U, 0x3b8ef2d1be09d6eeU, 0x3dda6d433d930239U, 0xbcfe975cbd34a899U,
  0x3dd3dd76bcf16f95U, 0x3e26ecacbe2375b8U, 0x3d2ea3bf3d2261aaU, 0x3d2c3fad3e33b1c3U,
  0xbd32f014bcd26f02U, 0xbdbd43b13d09bf55U, 0x3da8677abd932ce5U, 0x3d9c0cafbdc311c9U,
  0xbddc64f4bdfe6aaaU, 0x3d7de2133dbf681cU, 0xbcc5ac723e00bbaaU, 0xbdb5ea20be08e810U,
  0x3c5a85abbd52ef68U, 0x3c67c0803d8258b3U, 0x3dbb754a3d170753U, 0x3d1dafccbac4b2caU,
  0x3d703fb5bd57f859U, 0xbc050d96bc2eee44U, 0x3d3e28303d94064dU, 0xbd59f1b2bcc2e154U,
  0xbd1a0483be4553e9U, 0x3d58f285bd319ff4U, 0x3c730d5e3dc6f30dU, 0xbdf207f7bbc822eeU,
  0xbc0032ee3d41b0c4U, 0x3da6cda63d72cba1U, 0xbe1aba63be040442U, 0x3e2427253c871fa1U,
  0x3d44edfdbe151acdU, 0x3d8408b23d924e0fU, 0xbc9c22a83d303eddU, 0xbe2c986bbdf41210U,
  0x3e3ae127395ac074U, 0x3e156ec03e2b3989U, 0xbe3f1e453e3b2566U, 0x3b2ce01abcace7c4U,
  0x3e1c1f8e3c250eb4U, 0xbc073ed6b819820fU, 0x3da43af63cfeb59eU, 0xbdcf1fd1bd6637cdU,
  0x3cd47703be1f1d03U, 0x3e32356d3e78af8eU, 0xbd6ed1c23cfe1797U, 0x3e002dfcbe484618U,
  0x3e1c7ecebda7f53dU, 0xbda04e5e3c632e49U, 0x3e122b293c493708U, 0x3b094aee3cd9bd4fU,
  0x3e760485bd98d9a9U, 0x3dc3288d3eaef076U, 0xbdf1a0f4be19b0a6U, 0x3d2dd745bca3f924U,
  0x3d8d0421be047e30U, 0xbd6388fd3d8f2685U, 0xbdb63e80bc951f8dU, 0x3d4a42d9bdb7a531U,
  0xbdcafbbdbd51c452U, 0xbe0e2a22bdac08b9U, 0x3d05d2313d99cf86U, 0xbe0cc0c3bde51659U,
  0xbdddefa33d55871dU, 0x3c8e9b04bd82c70eU, 0xbd16cdb43d9c99b8U, 0xbc68a189bdbd24daU,
  0x3d00d169bdc437c3U, 0x3d59a71f3d174b0fU, 0xbc76bb2ebdcda0f2U, 0x3d8e1cacbdd535ccU,
  0x3b99396ebdbe620eU, 0xbdb9a0c33d296867U, 0x3b957a963dba008aU, 0xbd53bd66bdb44a5eU,
  0xbc878c20bbf9266eU, 0xbbbabbefbdaea835U, 0xbe03cdbe3a9b5e8cU, 0x3bb1b903bd1c27faU,
  0xbe0cd2913dadde85U, 0x3d48429dbe07504cU, 0xbd429b173d91fa48U, 0x3c093acfbe0cd02bU,
  0x3d8aa8b0bde3a20eU, 0x3d3b50dabbba9801U, 0x3d377c72bdfbb63bU, 0xbdbd10adbd2567ffU,
  0xbdd7d62bbd308fe3U, 0x3ce7eef03cf6a4d4U, 0x3dc79044bd272029U, 0xbd8c5809bdebfb1aU,
  0x3dc121f93d1b070bU, 0xbda1e4933d3dee6dU, 0x3ce3fa963db75b1eU, 0xbd86ba13bbd88b93U,
  0x3dd2bd24bcacde7eU, 0x3d2c3234bdeac276U, 0xbd078d503b2294d4U, 0x3dbfc1d83d6c0cc0U,
  0x3c6de8693d6df9f8U, 0xbde9cc81bdc91bc2U, 0x3da4f54a3d57f52eU, 0x3db3c455bbd5d19cU,
  0x3dc3d2eebdd2865eU, 0xbc81f8fd3d495a7cU, 0xbd9802b7bdcb21feU, 0x3d63d65bbcf8b833U,
  0xbdd59a0d3b5d969cU, 0x3db5bf753cb3ba57U, 0xbcb2953abd4a40deU, 0xbd72925d3d7cd95dU,
  0xbc8f7dbd3d4785b1U, 0xbd416fbdbdef86d0U, 0x3dd24fe93db1c9a1U, 0x3ddaf1953d2777ddU,
  0x3d0f4f8cbdbe8878U, 0xbdcb10593c2c4e15U, 0x3bedc1343dda659bU, 0xbd5a63bb3c50759cU,
  0x3da4d200bdecbc70U, 0xbd83de703c38cc75U, 0xbc91f0a23d8ad2a4U, 0x3dca52313c7a6ae3U,
  0xbd723991bd33b9b0U, 0xbd93fecb3be75afdU, 0x3d698f073c1159f6U, 0x3de596ef3d35d781U,
  0x3dc5a6e7bdd60215U, 0xbdff84ab3dad9c99U, 0xbdd6cc323dd8aad1U, 0xbdca254dbb22cf90U,
  0xbda6abb13ce771eeU, 0xbdec1d413d129cc5U, 0x3d8df3353c95da70U, 0x3dd4d25e3dc96205U,
  0x3d206c623db9ef9eU, 0x3d394a2fbd5d02a3U, 0x3c8fd4efbdc7a1efU, 0xbe0ab63dbd2c620bU,
  0xbd3afbaabd920817U, 0x3d607b6fbc9ad1e1U, 0x3dbbfdaf3bce61f2U, 0xbd4536bdbd38af5eU,
  0xbdaf4b48bdf802f8U, 0xbc74f4423db10f84U, 0x3cb241193d3f1f64U, 0x3d521f523daaaf09U,
  0xbddd9a51badec4a0U, 0x3dbe8dd33cea6c17U, 0x3db8e971bd0d085cU, 0xbd705863bbd51043U,
  0xbb8af1a23d2360dcU, 0xbd927166bdaa7484U, 0x3c7323fabd582ffbU, 0x3d32be253daf221aU,
  0x3d9c52223d97f55dU, 0xbdee6f733d44de45U, 0x3d445f9e3da1d4e6U, 0x3d258d59bda38ca2U,
  0xbdaf613cbdabe2d1U, 0x3d706fc23cef3fe7U, 0x3c944ced3aab6448U, 0xbe06ba0dbd295672U,
  0xbd88734dbde244f2U, 0xbdf6e9a2bd972026U, 0x3dc9bab1bd13ea54U, 0x3dce185bbc3a9e50U,
  0xbc5d782fbd721b15U, 0xbc4fe182be063bc3U, 0xbd81f6493dce1972U, 0xbd9cbe2c3d9cebfdU,
  0x3d0772543da90f38U, 0xbd3266f23dd58f9eU, 0xbdc19c78bdc93f50U, 0xbd01d3683d845613U,
  0xbc9b27f93ce77112U, 0xbcb210223d94dc6fU, 0x3dcca19438ebe31eU, 0xbd5093aa3d2d6c16U,
  0xbd9ad1f03b8ddc03U, 0xbd76037dbdb54c35U, 0xbd560b123d8c6f5aU, 0xbc9a8a623daa43bbU,
  0xbe0b8935bd4beaebU, 0x3de74cc9bd7ab618U, 0x3d17bef1bbc5a4cfU, 0xbdc04f99bd60bbbeU,
  0xbd58fe3cbd31804aU, 0xbd00dc7a3d10206dU, 0xbdb86e2ebd39fd56U, 0xbd7416b5be0f233aU,
  0xbdfef015bdd1eb79U, 0x3dba866abd2a8e1bU, 0x3bfd260d3dc46271U, 0xbd13ea093d8ac776U,
  0xbdbf36edbc88330aU, 0x3db87443bd911089U, 0x3dc16ba83de2a12cU, 0x3d9e2dd0bb8d962aU,
  0xbd7a11e7bd08328dU, 0xbd700e653d808f72U, 0xbd897ab73d8597ccU, 0x3d723526bd1683d6U,
  0xbd599786bdb0337bU, 0xbe026ed7bdd261f2U, 0xbda435fcbe26a40cU, 0xbdaffe953da7cea6U,
  0x3dc9a4a13b9ab99eU, 0x3dc20744bd676238U, 0x3d9959d63d237914U, 0x3d10afe23d8e25c6U,
  0xbdbce248bdaf0676U, 0xbced55a1bd258324U, 0x3bcbb0a83d119bb8U, 0xbd0a6b44bd3e4638U,
  0xbcb92dfe3d9cce88U, 0x3d899c16bd04753fU, 0x3cfb09f4bd90037aU, 0x3b1121ab3dd10695U,
  0xbccebec5bd807ea5U, 0xbd18f8573de69befU, 0xbcc681e2bcce285bU, 0xbdb1a623bda53a74U,
  0xbdd9d8643d4e52a4U, 0x3c85c3363c070dc1U, 0xbd15d5933d1dc43fU, 0x3d2452efbe048ad6U,
  0x3dda66a6bdae8e46U, 0xbe02e8e63e01414dU, 0x3d6f8a5b3ddc56edU, 0x3c94da01bca4b080U,
  0xbd98479a3ddde238U, 0xbd275d63be35853aU, 0xbd5349253ce55ad5U, 0x3e07d1debdbba6eeU,
  0xbc814732bd7666fbU, 0x3d346afe3e0c9702U, 0x3ddea4ba3e987b0bU, 0x3d0b1135bd0dcb9fU,
  0x3daf1c413d961419U, 0x3e074f60bccc764aU, 0xbd21a20e3a52c182U, 0x3e8e8cc03eb2015bU,
  0xbd9c9d1f3cde8795U, 0x3c9f10923daf2595U, 0x3c72a17fbdf0f5a7U, 0xbd1a190abe34eedfU,
  0x3dbe62af3e1068c4U, 0x3dc48e3bbddb05e2U, 0x3d9cf93d3d478ddbU, 0x3e4979fd3e16eba0U,
  0xbc36424bbdf42deaU, 0x3c0c9c85be07f963U, 0xbd9b0c373d05bbddU, 0xbd5885793d158bd6U,
  0xbc8dd6b7bd98050bU, 0x3d9823c9bd88eebfU, 0x3daf2bee3d3abfb8U, 0x3e7d039c3e12fa97U,
  0xbc66784e3c36c293U, 0x3cfd22373db0db8dU, 0x3c83edcfbd9b1234U, 0xbddbf388bd56e664U,
  0x3bb3646b3c9376cdU, 0x3d4458343ddbf688U, 0x3e1334083c806c20U, 0xbd56d4a5be2aac54U,
  0xbd4806f3bdcf4822U, 0x3d2cb1e93d46163eU, 0x3dbb8d073d61d2feU, 0x3d1b325bbc2d3808U,
  0x3d1c94fa3c0a2df8U, 0xbc29dce6bdab534bU, 0xbb39a4aa3c19d5cfU, 0x3d78622b3d8fc62cU,
  0x3d9b1b253c58011aU, 0xbbdb73293c7f8331U, 0x3e2074743aaa201cU, 0x3db4062abd13248fU,
  0x3dd7fd71bdc2c4dcU, 0xbdb97f4abde48610U, 0xbd22f41f3d75f81fU, 0x3be120153e42adedU,
  0x3dd65eac3c5a0d1dU, 0xbc4693153dbc440eU, 0x3e323be23dd296a1U, 0xbdc678e1bdbc849dU,
  0x3d9425203cd05af4U, 0xbd89244cbd922b8dU, 0xbc644347bdbc5eeeU, 0x3c1052093e171fafU,
  0xbdc7b844be4c70ddU, 0xbcf2471fbdd5c55cU, 0x3caecbacbda58f68U, 0x3c79b58bbd9d6712U,
  0xbe172e01bcb18559U, 0xbdc6cf1cbe6cd1a7U, 0x3d47ed9c3d63a292U, 0xbd1d0c993e1daf9eU,
  0x3dcfac14bd9c1d8eU, 0x3d2b52103dc0e9d1U, 0x3d34ac48bbd12dd1U, 0x3c673954be1236d1U,
  0xbd6d8907bd5ede26U, 0x3d777fac3c139fcbU, 0xbd6727f73dc2b4c9U, 0x3bdb3601bc8b4d5dU,
  0xbc6db8a5be446b2dU, 0x3bf0d0853ced8befU, 0x3d863fe93dc19de7U, 0xbd8cfe58be5861e7U,
  0xbb486e3a3cf4c0b0U, 0xbdaef842bb416e45U, 0xbdcae2af3e045f1eU, 0x3c3492d7bd9f3ee2U,
  0xbcbb6b13bd9314abU, 0x3d759841bd07b6c3U, 0xbd8d0b483c1c8897U, 0xbe04027bbdb106c1U,
  0xbe1d5b31bd83c596U, 0x3e0f5dc43c53b7abU, 0xbde3cd42be1b64dcU, 0x3dd14ddd3de7e56cU,
  0x3d76cd71be49837aU, 0xbba359343d6253d1U, 0x3d17b24b3c9dcb15U, 0x3d905bb4bbcc0f43U,
  0x3d7082db3d90aa67U, 0xbdde83ba3cff3219U, 0x3e196932bdd4e85bU, 0xbdb1da1a3c882983U,
  0xbddf2047bd197daaU, 0x3cfda45e3d50310dU, 0xbe1320dabe6a9816U, 0x3d370ab8bddd9242U,
  0x3cba6608be123d31U, 0x3dd96cedbe06d086U, 0x3d6bf6713daa299fU, 0xbdab68323b9f25f3U,
  0xbd9fdfc9be1aeb89U, 0xbd4a6b013e163b02U, 0x3b8cc31d3da006cbU, 0xbe04edf73d8b1f2eU,
  0xbc8e47dabd9b9a3cU, 0xbc1a48d03b1c5875U, 0x3e18a7bfbda46fd4U, 0x3de29fb13d61e5bfU,
  0xbc8bf4ae3da83651U, 0x3deba0213da4f835U, 0xbd9f5505bc8fe660U, 0xbcff70b4bd82f74aU,
  0x3d058ace3c877acdU, 0x3c970daebdee844aU, 0x3d429ab33ab53721U, 0x3d2dc1713ca5d0d4U,
  0x3c20ac95bdac6863U, 0xbd2e8540bdaabdfaU, 0x3e17362ebd92efd2U, 0xbd713b66bc238b20U,
  0x3d427144bd5b15ccU, 0xbba922513d398891U, 0xbdab79bcbd8bed45U, 0x3d5d715ebbd0ca25U,
  0x3d70d70c3dd570f1U, 0xbde365afbdceb848U, 0xbd0b3d1abd9846b2U, 0xbdbdbcf83e6aa639U,
  0xbd8a8f5ebdb19ed7U, 0x3db43f633dae52cfU, 0xbe225dc53cdc7af2U, 0xbdc51e04bdda684aU,
  0x3ccb5dfa3a1f71f5U, 0x3e093eb4be6d458eU, 0x3de0b117bbbcf392U, 0x3c5d534c3c87df1bU,
  0xbdf3fafdbd24ccceU, 0x3c8f5c4cbdcb7b9aU, 0xbe14d230bc8ab7e3U, 0xbe1c0051bc01022eU,
  0xbcae324f3e0e566fU, 0x3c863833bda7353dU, 0x3e04dbb33dda0f07U, 0xbdcb1cdb3e87517eU,
  0xbe665589bc8f5672U, 0xbe1be3e93c8313e7U, 0xbc312b0abe0b36d6U, 0xbdeac6aa3d04e05bU,
  0xbe38ac8dbc203a76U, 0xbc2f59c6be948bbdU, 0xbde1151abe08f7a4U, 0x3b532d0fbccc73feU,
  0xbd5c2e31be72c319U, 0xbda6a74b3e509dc5U, 0xbdb238fd3dfd87c9U, 0xbcd47d65bc8a8357U,
  0xbd37a93fbd5782faU, 0xbd39b47cbda94d43U, 0x3d084924bcf4c823U, 0x3d965714bda71279U,
  0xbe0022fb3bc340dbU, 0xbdd0b197bd911b98U, 0xbe06c409bd892e40U, 0xbd8d47ccbe1d0b78U,
  0xbdd97cfc3e21b23dU, 0xbe6c7dd4bdf776d2U, 0x3ddef783bdcc829aU, 0xbd5713e33c98d1e1U,
  0xbc04f8d4bd917966U, 0xbe1ced813d4c43a9U, 0x3dbbfc0bbda7e26bU, 0xbd90ee3c3e4db239U,
  0xbd67c02f3e1c1adcU, 0xbc1160eabe28e83dU, 0x3c37f3c8be5f222fU, 0xbce446393e71cabeU,
  0xbcd88be0bdd5350dU, 0xbc903dff3e0472d2U, 0xbd93d1b4bd9f3769U, 0xbcf148c1bda09446U,
  0xbcb3fee33db4af22U, 0xbc97e29fbd943a65U, 0xbd1b9735bc9b11ffU, 0xbc8181e8bd43f182U,
  0xbcde76653c74134fU, 0xbc1bd587bd6a6925U, 0xbdf3b047bdc53d78U, 0xbdda41fabdf2f8a2U,
  0x3dbccd9abb5c59c1U, 0x3d3900ddbe2c090eU, 0x3c3bb665bcb09cdaU, 0x3c4ef72d3cd5a7caU,
  0xbde868533ccfea5aU, 0xbd134e273cc74166U, 0x3c807509bc0aef7aU, 0xbe531559bc6d1089U,
  0x3d82d58d3d96da58U, 0xbba173d3bd5f2aafU, 0xbd112a5ebe174f89U, 0x3c98308e3e66e0edU,
  0xbcd0aa0ebd3b35f2U, 0xbc3efbf8bde6f2c6U, 0xbe2fc6853cefb099U, 0xbc031f163d88a44dU,
  0x3db2ac8c3d597c05U, 0xbd0c0f8fbe3f3752U, 0x3da8a3623b9d3e8bU, 0xbd4f0848bca60edfU,
  0xbc8925813ddf383aU, 0xbd7566a23d60b6e7U, 0xbce2d385bd8c5ac3U, 0xbce72db9bde93f6bU,
  0x3e0247693ccc103fU, 0xbe1885ddbdcb6a18U, 0xbdee7625bc784eb4U, 0x3d2ba6bebc8eee31U,
  0x3cecbe19bb1cf380U, 0x3af4241fbc97a638U, 0xbd945bf0bd848c40U, 0xbd80ee8f3a2dac83U,
  0x3dc1a3aabda198d5U, 0xba38a3bfbc137ec2U, 0x3d8d2fa0bd9dc160U, 0x3d83cefe3e364906U,
  0xbda704753d1ca353U, 0xbdf2c84d3dd53c19U, 0xbd5163b3bd1e4eabU, 0x3c973484be0a0780U,
  0xbdb89d69bc4cc305U, 0xbce253d83d16c58dU, 0xbc0fdc983da197b3U, 0x3d7f50473e346089U,
  0x3d8fd73abd7ad758U, 0xbd8f85813e45e0d6U, 0xbc3008453d8fd50aU, 0xbd81f54dbd13ffd1U,
  0xbcd88edd3e2dfeafU, 0x3db76af33be5ebfeU, 0xbc39e58ebd436cbcU, 0xbd8281463ead4084U,
  0x3de6cd6fbc840ca3U, 0xbe180df83e071368U, 0x3c53c013be00186bU, 0xbb8cb44fbe16d412U,
  0xbd5b9a9e3dc3657bU, 0x3d9ff110bd57f45bU, 0xbe0eb979bd450aa6U, 0x3d94267b3ea330b5U,
  0xbd4217dd3de8e648U, 0x3d381cf73dcd7462U, 0xbd6c44d53d924ae5U, 0xbd9aa8c6bda8411fU,
  0x3db897d13e6dc9eaU, 0xbdbcf0abbd8707c2U, 0x3d13fc43bdca1032U, 0x3e08b1a23d995e07U,
  0xbe0e990abd08fc93U, 0xbe2307a93e7f4feeU, 0x3e1097b6bdbb7c32U, 0x3c4547fe3cba77afU,
  0xbd2a114e3d7a99a7U, 0xbdf8c3013dda713bU, 0x3d553ec9bc599b61U, 0xbcb4ad273d80ca59U,
  0x3cfca8173d9357e3U, 0x3d96f171bda2d85aU, 0x3cb928cdbd644991U, 0x3d1250a9bc205415U,
  0x3d5b86ea3de41f81U, 0x3cf3a93dbd1c052cU, 0xbd299778bdc1d396U, 0xbcfe45db3e573bd3U,
  0xbdb240e33d2f53b0U, 0xbdf28c73bb8dd283U, 0xbd170b8e3c908c78U, 0xbcbc6b143d31cf3dU,
  0xbd8ed8ccbcf0d0e3U, 0xbdc38ca5bd3609f4U, 0xbdc272663d296dc5U, 0x3d1bad7c3e283d2cU,
  0xbc7febb93d25be76U, 0x3daae128bda940b8U, 0xbc2ac6dfbdba42c6U, 0x3c7b6632bdc377bdU,
  0xbd943c823daa02a5U, 0x3dc24b01bd907a55U, 0xbdc03a4d3e0214c4U, 0x3d91766b3df12dbaU,
  0x3d143b2bbd64363aU, 0x3d5d3e8abde81971U, 0xbbce443cbe04f5f6U, 0xbe0a82d2bc425a47U,
  0xbdc47cf43de6d782U, 0xbdc57140bdace833U, 0xbe17b462bd864707U, 0x3db22852bcce3800U,
  0xbd70e74e3cd2f567U, 0xbd167e48bcb23ad8U, 0xbdf3d783bb197bf7U, 0xbd2bb349bdbc5d60U,
  0x3dc77f2b3d8b3ad8U, 0xbc5fe16cbc55cfb9U, 0xbdcc0dcfbe305bfeU, 0x3d6194b33ddb20dfU,
  0x3d5c3b79bd8bac7cU, 0x3d1f5acfbdf439c6U, 0xbc9e4b2b3d9c1332U, 0xbd590a633cc4d9deU,
  0x3d6320dd3d9c6d28U, 0xbd4ae739bd89261bU, 0x3d2d29863d41090aU, 0x3d837a2e3dd2bfa3U,
  0x3cf1ea273d33c7aaU, 0x3aa91396bc5f2af6U, 0xbd2480b5bd53201fU, 0xbc354fefbdc73463U,
  0xbdc4e8553e088dafU, 0xbc749218be0b780fU, 0xbd7f4820be28ed89U, 0x3dee47b1bde8f8ddU,
  0x3cd0ee8cbd96100bU, 0xbd7d22ae3dbd5d8eU, 0x3d6a13f83d9bd1b7U, 0x3e04aafabc03e573U,
  0xbdee5e353d000b4aU, 0xbe8b13b9bd959a4bU, 0x3d8f72a2be1b9ebbU, 0x3d2d38103e3ccbfdU,
  0xbe0ab84dbda584ecU, 0x3d02656e3d8c5989U, 0xbcca7e0b3e0fb4e3U, 0x3e122c29bd89ec3aU,
  0xbe7169053e492458U, 0xbe86ed233d2a7828U, 0x3d8eae7dbc5d9f17U, 0xbddd8cf73e22a951U,
  0xbc6e68153d829383U, 0x3d1e0ebebd920cd6U, 0xbd11be5f3de8139dU, 0xbc4f1b7ebd3a9716U,
  0xbdfbdc513dfe2b69U, 0xbda6184bbc176656U, 0xbc24241dbdde64e4U, 0xbe42744f3e26bca0U,
  0x3d32df7fbd603b11U, 0x3c881f363cdb3d9cU, 0x3d737a46bd3bdb56U, 0xbdac309fbdc39f61U,
  0xbd64f73f3ca79a64U, 0x3d804690bd9f55c1U, 0xbd7a62e7be8b4e98U, 0x3e059fbe3d67c691U,
  0xbd3265cabd70ac54U, 0xbbe073633d85a1c3U, 0xbb22fe4abd7f29eeU, 0xbdb02afdbe198b25U,
  0x3a9dcf423da62810U, 0x3ce328f9be2b21e7U, 0x3d81ba793d44dde6U, 0x3bff24ccbcf121ccU,
  0xbcebee9cbd561a32U, 0x3ce3a2723c9dd57dU, 0xbcbbbaaa3d782170U, 0xbe0a81263d55dc7fU,
  0xbcf4bbd5bddbad66U, 0xbd33c294bdcdf8c4U, 0x3db5b810be12bafaU, 0x3d0177dabdfc3b28U,
  0xb9f8f3bd3c53e814U, 0xbe2f8ac7bd5b23c9U, 0xbde791ee3b250738U, 0xbd8d836abd8b7013U,
  0x3d881670bce89320U, 0xbd13af32be060269U, 0x3dbe40b0bcb65832U, 0x3d663a513da3f9faU,
  0x3c7815a8bdb0ef42U, 0xbe3d27e73c8dad28U, 0xbe108ab0bdce51e8U, 0xbdb92c663d906c6eU,
  0xbb09ae593c19e276U, 0xbe0572da3d8c7076U, 0x3d1b0cdabe2e1c26U, 0x3ac7e4ec3dca0c43U,
  0xbd9564dd3d836f4cU, 0xbc060fc0bd8f408aU, 0xbb28eecdbcf8b850U, 0xbc4627adbd8a71ecU,
  0x3dca334ebd363e84U, 0xbe2d6e82bd9d2d92U, 0x3e02228cbe02880bU, 0x3d672498bd58716bU,
  0x3d3f1999bd13b099U, 0x3c531c273d9e59d9U, 0x3ca82a773d5dbc58U, 0x3d17b889bcef0435U,
  0xbc0259943deb4b83U, 0xbd367d1bbe1924ccU, 0xbd5a0d9939020d36U, 0x3d81d09f3e00828dU,
  0xbdec0dc33be421bcU, 0x3d943ecf3cccf69dU, 0x3ccff6e4bd38342bU, 0xbe2cc6b9bdc22fb7U,
  0xbde3e7c0bb14baa8U, 0x3d841d3d3d800470U, 0x3b2618f13d31ff9bU, 0x3dc949d33d8500e7U,
  0x3bc5e916bcb5f943U, 0xbc6184cabc0dd713U, 0xbd218f043d5ae470U, 0x3ca32fb6bd265387U,
  0x3d710c973dac1349U, 0x3d9f2a90be0db69bU, 0xbd3e3e5abd3293afU, 0x3b9981d93e46b960U,
  0xbca5a3a6bd962a20U, 0xbe331ad13e1311b4U, 0x3db5a0d3bd873713U, 0xbd9349c8bd5f079aU,
  0x3dacadf23818e8f6U, 0xbd867044bccfa221U, 0xbd8c4cdabd6e84efU, 0xbb8eb1273e4be1b6U,
  0xbd74f05b3cdd3aeeU, 0x3dc6002c3e76fbb5U, 0x3d54711c3d8617c9U, 0x3d52c9003d04f666U,
  0x3d9fa2e33e9136bcU, 0xbdd6b3b4bde72adcU, 0x3b9acbedbd098f15U, 0xbccfb4a43defa35fU,
  0xbdbbe2a73e230e1cU, 0xbc86f7f73e4ca8e6U, 0xbe19609ebd2a0eb5U, 0xbd8adc33bcf15712U,
  0xbd2109ccbd97f553U, 0xbdc778ff3d7a82d2U, 0xbdf5c6e33dea7bb0U, 0x3da6560d3e51ab70U,
  0x3dfaf36abdad50c5U, 0x3d4d5c01bce7b61aU, 0x3d702a513cf474b6U, 0x3d128347bca74522U,
  0x3cefa41a3dd95521U, 0x3d194d14be34ea75U, 0xbda363aa3d26bd4bU, 0x3e0d73f53dc3448cU,
  0x3cd146ba3d7e5fafU, 0xbd95f9bc3d764e9aU, 0x3c832916bdcf35c7U, 0x3c0f06f0be311df8U,
  0x3c3a30843e1e35d0U, 0xbc31b6af3de8812dU, 0x3db11b63bcd12921U, 0xbd89ca703e5984d6U,
  0x3d46cafd3d9c8a63U, 0x3ce8a2ee3d0b50f4U, 0x3a99add6bd189db4U, 0xbd4e036bbe5b048fU,
  0xbcfd6b763e1eb56eU, 0xbbcd8e5f3db090afU, 0x3d7e4484bcb6f3e7U, 0x3d9ef0a53ccd9b56U,
  0xbe0ce4aabdc2a6caU, 0xbd95f7173d26b289U, 0xbd4ffaa2bdc94834U, 0xbe001bd8bdd2b5d4U,
  0x3e20900a3d75686aU, 0xbde9fa54bdbcaf46U, 0x3d008165bdb5b451U, 0x3ba1cd383dcb42aaU,
  0xbe39bea6bde7ddbeU, 0xbdcf3fc9be00abd2U, 0xbd80782cbdbcd207U, 0xbe20852bbe01cd3dU,
  0x3d73a127bc3c1dd8U, 0xbd83a89cbe3d0110U, 0x3cb4a3b0be5626aeU, 0x3dafa7b23e5dacc9U,
  0xbc6e77dabe0fbf3eU, 0xbcd209f0bd30b2a8U, 0x3d8ffd893d483148U, 0xbe497d8abd20a038U,
  0xbd2bf665bdaec6f9U, 0x3df05853bd1a6e41U, 0x3e04ce5bbe4f817dU, 0x3e0a3b763d0d0d76U,
  0xbd54bcb5bdfae404U, 0x3de7624fbe3d49eeU, 0x3dfde5b43d136e77U, 0xbcda213dbda45803U,
  0xbdd1981d3d4a6a30U, 0xbc883a99bd4651d7U, 0x3d540486bd6a909fU, 0xbd0b4b6e3c85beb1U,
  0x3dd908c3bddccd85U, 0xbd122851be708f28U, 0xbd1063ff3e13eba7U, 0xbd058fa9bc8816eaU,
  0xbcab75ce3d87f6edU, 0xbe7dd3b139621c25U, 0x3db64d79be27be68U, 0xbe0ea865bd46c208U,
  0x3dbc64b5bce79de4U, 0x3cb16bd03d9cddebU, 0x3d6198b13ca40572U, 0x3e3d945d3cee4434U,
  0xbd424a8c3e8782ebU, 0xbe8006fd3cbc9f36U, 0xbdd61324be9fb867U, 0xbdb0643c3e0d2cd1U,
  0xbc9c11e73cc441dbU, 0xbbddc2373bf9cc44U, 0xbe08151d3dd92ebcU, 0xbdaa24213dc25bd1U,
  0xbddc32903e067101U, 0xbe97035abdc4abeaU, 0xbd589b25be93afe7U, 0xbe52ac2c3ce682edU,
  0x3dab8553bdefc882U, 0x3dd77fb9bc90baacU, 0x3d0f67d83dcb197fU, 0xbe0448c4be4541faU,
  0x3e02d2bf3daa3133U, 0x3dc01d433d8ec2fcU, 0xbdce155c3e02e94bU, 0xbe1338f1bc89ed96U,
  0x3c5b413abe1e9895U, 0xbe05c496bde35324U, 0x3e46b7fdbca56f01U, 0xbce570a2be03d951U,
  0x3dd2a861be1a93d7U, 0x3dc0796c3e00285aU, 0xbce247f6bc3d8e0fU, 0xbd6a9399bc8afff4U,
  0x3ddf2ab53c39268dU, 0xbdc409bc3e22de39U, 0xbd279567bd06f2c6U, 0xbdc2d1653b3f96ffU,
  0xbd7c805e3e22734dU, 0x3d167a333dc5d655U, 0xbdc2bb9e3cf5a604U, 0xbe07cf2e3d729e41U,
  0x3c628d903cb91a02U, 0x3d1c80b7bcc03159U, 0x3dfa18403dbec5fcU, 0x3ca17010bdd22eb0U,
  0xbd6529093c45c5f6U, 0x3d9695d63cd497a0U, 0x3d7e6a463ca4f8a2U, 0xbc68d6723c65ca95U,
  0xbd0f5aa63d8dacb5U, 0x3dec17ce3d23b4adU, 0x3e36da703ca2aba0U, 0xbd25736ebb481342U,
  0xbd0b4411bd536d6fU, 0x3cf702743df01883U, 0xbd829399bd83b5d1U, 0xbe3081c43d8660adU,
  0x3d8301763c9cab96U, 0x3c22c9583de730a2U, 0x3e054ba93be7a0e3U, 0xbd967b5a3e0143ebU,
  0xbe14f3803d8d9fbeU, 0xbd314a1d3dc423c7U, 0xbc708188bdefc0dbU, 0xbda27fe8bda460bdU,
  0x3dcbf96abde7bb60U, 0x3d79d3c7bdc2f1a0U, 0xbcd4f3913d879279U, 0xbd178d913cd9f55eU,
  0xbd6a2ab33ded6551U, 0x3d56b6683e1686afU, 0x3daacbdfbe23f436U, 0xbe3592e5bce3a9edU,
  0x3d56b4923dee6b76U, 0x3d83a8ab3d334d85U, 0x3d84abacbc8c0365U, 0x3de8f1c83d4ffd14U,
  0xbd15620a3e50696eU, 0xbdec0882bdba973fU, 0xbc1b46fe3e1a54fdU, 0xbc6202023d7e6d08U,
  0x3d96e8a43dc2d676U, 0xbc9241f33d961c4bU, 0x3cec0510bd2f904dU, 0xbd2d4a353dca7e36U,
  0x3cac5882bde3f8f1U, 0xbd45764b3d8c7298U, 0x3c80bb3ebe281dbaU, 0xbc2dd4773d7abebdU,
  0xbd847dfbbdbbcd20U, 0x3dcb2dedbcd4c3ebU, 0x3d01ed07bce96084U, 0x3d8a1d57bc17e9d0U,
  0xbceccb21bd38b74dU, 0xbcd49d5fbcbd7336U, 0x3c192fe13d603f93U, 0xbde90d4bbcf5409cU,
  0x3cea5f33bdc1c57dU, 0xbe062f48bdf90decU, 0xbdc5ce71bdac3f5eU, 0x3d56e708bcc3b74bU,
  0x3c5fc657be4cc2b5U, 0xbd7e2aa23a980605U, 0xbe0770f03dc2092dU, 0xbd83c7fabd80ef8dU,
  0xbaf2522fbd49fcc1U, 0x3b065290bd81b794U, 0xbcb2571a3a865657U, 0xbddba8033dbc13b7U,
  0xbd89daffbd5618b3U, 0xbc97fc143d6b9834U, 0xbd652b503dd128cbU, 0xbca5e1ecbd049717U,
  0xbb8727253df1d6a3U, 0xbde2ecd03df095f1U, 0xbcabe883bdde5d33U, 0x3e07345a3d858222U,
  0xbccddeafbd19b5bbU, 0xbdba13e43e1b7384U, 0xbd9ad8c3bdef8372U, 0xbe52a272bdd866bbU,
  0x3cf66a5fbdc8ff95U, 0x3ddcffec3db50a14U, 0xbe01bf66bd9402e1U, 0xbdef21f43db5c1e9U,
  0xbdb4a8483cd77712U, 0xbd5bed383d426b60U, 0x3dcba3893e1f93cbU, 0xbe38df4abdfe4e7bU,
  0x3da63de03c638203U, 0xbd19e409be474b3eU, 0x3d2a08643dd8e927U, 0x3e0c54e33dbf2efaU,
  0xbdda4c9ebce9ab90U, 0xbd379205bbd7b6f3U, 0x3d4955e6bd81eac7U, 0x3d28949e3c7bdae7U,
  0xbe0c35893daacf4bU, 0x3cbfa2473e1b5ca0U, 0xbe0e253a3d88af70U, 0xbcbfae8b3dce3ab8U,
  0xbe262668bc698efcU, 0xbdca3c1ebcc751c5U, 0xbc860ccabca030a1U, 0x3d945bcdbd1c1665U,
  0x3db127f5bdcb6964U, 0x3d6a152f3d31c646U, 0xbd3f00c5bb838935U, 0xbb0504ae3dd1caa1U,
  0x3cf8d0cfbd20d939U, 0xbd8dc301bdb05cc3U, 0x3c2ec6323dde4bc3U, 0xbe02ae813debcdb6U,
  0x3cdaab6b3cc605cbU, 0xbdb5f4b5be27ad9cU, 0xbdf7c61bbd9c7fafU, 0x3e20347fbdd689cbU,
  0xbda5645b3db93409U, 0x3de292bbbe12aea1U, 0x3c2c462bbb4ac154U, 0x3db04fedbd89ebc2U,
  0x3d00f7033d554bf5U, 0x3c63b2a8bd8677d2U, 0x3dd0db5bbc59d7e4U, 0x3b64cfe8bd8ac0ecU,
  0x3c804f34bcf1741aU, 0x3e1df95cbdc40091U, 0xba1dfbc43d3b99c5U, 0xbc19c3fa3bfa6e83U,
  0xbe2b8812bd96c659U, 0x3d389a4abdb21102U, 0x3d88951e3d50eb23U, 0x3db214e93c45d49bU,
  0xbd5857bc3c18b7f2U, 0xbddb922ebe158588U, 0x3e0dfa9bbe7f2852U, 0xbd6688b93d27e91eU,
  0xbdfa8c1dbd5a3cacU, 0x3de9956abcee7ebaU, 0xbdaf8af5bdf1e3adU, 0x3d0bca633d24451fU,
  0xbe26bb74bce85fd5U, 0xbe252cfcbe21b523U, 0x3bcc1a46be4873d7U, 0x3e1381383de8b0dfU,
  0xbdfa1585bd07dcacU, 0x3dab82cfbc6b2df5U, 0xbd9058f33d1e203fU, 0xbd3ff902bceef5d4U,
  0xbe55c8023d8de070U, 0xbe59c9a3be0cf1ecU, 0x3e418c1b3e112a63U, 0xbceaa3923e35d9eeU,
  0x3b148e0f3df67777U, 0x3de6cdfabdf519c7U, 0x3de7466e3d93bdb8U, 0xbd32dbbfbdbe3e3aU,
  0xbe121c56bd1ba857U, 0xbdac00c03d7b0c73U, 0x3c97aad9bd53e33cU, 0xbe0cef873d7bcb2dU,
  0x3ccabb52bd1afef5U, 0x3d8a515fbd9f7581U, 0xbd35cd403dc436dfU, 0xbd69f553bd97601dU,
  0x3cac58693d4061a6U, 0xbdc4fa3b3c721b41U, 0xbdc2b0673ba9ddbcU, 0xbe453184bcc30207U,
  0x3ddf03a1bc09c6feU, 0xbdf055453dcbd2fbU, 0x3d3e1d6fbda78085U, 0x3d1ac5143c42a705U,
  0xbdae61a3bd97e987U, 0x3d7cd53c3c0419d3U, 0xbd93df73bd8536c1U, 0xbccca9d23d601632U,
  0x3dc956a93dda3564U, 0xbc09c5e73ca79dcdU, 0x3b9b0dc6bd79da87U, 0xbc19e71b3be6a1c0U,
  0xbce597c23b2de4f6U, 0xbdf71e053d8862edU, 0xbcf4b034bca9353bU, 0xbe13a3843e0b968cU,
  0x3dd21bdb3e1bdf54U, 0x3d543b28bc8b38faU, 0x3d9520383deab076U, 0xbd3030873dbe7824U,
  0xbdf1b3aa3c217cd3U, 0xbdd9a7af3dc282d3U, 0x3bbf35fa3aee6b9bU, 0xbdcc1bb23e546c36U,
  0x3dd48f0abdfe12cbU, 0xbd8e2aeebd075a5bU, 0xbc9daac7bdea6e67U, 0x3cbeccc6bddf73a5U,
  0xbdc29b523d9849feU, 0xbdf71a403ce4f459U, 0x3db349b8bd6cb40fU, 0xbd28b4053cc41dbeU,
  0x3e388a823c861370U, 0xbdec5111bda668feU, 0x3d775e543cc36204U, 0xbca797b03def4bc3U,
  0xbd92d798bd6d0fe6U, 0xbd9bbb50be104895U, 0x3dad45d33d59b93eU, 0xbdb15b753c0db0dcU,
  0x3db8a2713dc5fe8aU, 0xbd194524be030f2eU, 0x3d5a1a263d8d8b82U, 0x3cfffd503dd0b11cU,
  0xbd6d3e1bbd991b00U, 0xbdcd7f243cdb0bddU, 0xbddb81203db89b29U, 0x3ba0d6d8bd707cc6U,
  0x3c613b913dc6925dU, 0x3d1856753cf6d90aU, 0x3c36a033bbb09a50U, 0xbe114df2bcb2468fU,
  0xbe29f3dcbd5f3cfbU, 0xbdfed401bcac8e63U, 0xbe4199303d26e7edU, 0x3ba512aabc965efaU,
  0x3e43af9c3dfc0931U, 0x3d0b9d6ebe2116bfU, 0xbda4c4c8bdf42a0eU, 0x3c77c775bdaa6329U,
  0xbc999f633d31734bU, 0xbd998b333bb7b0dfU, 0xbc8b82443cd9dd8cU, 0xbd74674bbd75cc08U,
  0x3e177535bd1106bcU, 0xbcab88bfbe2ce06dU, 0x3d4e1a62bd8f694aU, 0xbbaade323b019824U,
  0xbdabbd88bd9c5b9dU, 0xbe0ce521be2b50abU, 0x3dbb155cbd960eecU, 0xbdf760f13d3776c8U,
  0x3d3fe5813dca9d4cU, 0x3dce0546bdf71b7bU, 0xbe0fdf6ebd754bd3U, 0x3d80f0a9bc9c93a3U,
  0xbe054871bdbba26eU, 0xbdefe25f3cbaa4ccU, 0xbd76cd13bcedd523U, 0xbdc80dd93da2e366U,
  0x3da5dc813ca27da6U, 0xbdaa3362be324d51U, 0x3d964e77bdfa4904U, 0xbde64044bd7704f0U,
  0xbe45e882be04726eU, 0x3d6dfbe43e0a945bU, 0x3d71de173e51d961U, 0xbe4f5bf23d35b50cU,
  0x3e0ee4e53d8ffa69U, 0xbd9b4ebebdbdabdfU, 0xbd13ac783d588ec3U, 0xbe09f6a23cc0023aU,
  0xbda90de5bc6bf520U, 0xbc8f6ac8bdb1b71bU, 0xbda079853d6c1c31U, 0xbdff0749bd3c440dU,
  0x3e3d9cc3bcb15fdcU, 0x3dde4c71bdc1a18eU, 0xbcd522063d589929U, 0x3d225cf7bdad1393U,
  0xbdae71a6bd24e802U, 0x3cf5c4a93d463fe2U, 0xbdfd69d0bdcedbfcU, 0xbdec8b8a3e125decU,
  0x3e10e519bc11dbf2U, 0x3da4793dbce04f73U, 0xbd874fc33d590f6cU, 0x3d801620bd1556bbU,
  0xbe131802bd93755bU, 0x3d77e035bde4676bU, 0x3cd2c4bbbdbabb2cU, 0xbe156ff8bd37cbfdU,
  0x3e0df1aa3dcacf67U, 0x3d94923b3de84dfeU, 0xbcb19575bc02309cU, 0x3e3961f9bc50327aU,
  0xbd09e817bcc4c702U, 0x3a1d9a14bbd76350U, 0x3c9de5c33c89bdcbU, 0xbdd2d51b3d8625a2U,
  0xbd63c0c03d9dea7bU, 0x3e2074bfbe30b391U, 0xbe00f14abd81c38eU, 0x3e526db33b08eb68U,
  0xbc8ca2e2bd1ac297U, 0xbe30f4bc3e000356U, 0x3db1a5ca3cb27c85U, 0x3d153b1d3d634cd7U,
  0xbd07b5e33e34163eU, 0xbbf0d82ebda5ff4aU, 0x3c308d0fbd39d17eU, 0x3df519cabe40ec41U,
  0xbd98cda0be09cbebU, 0xbd66f6453e10cda7U, 0x3cdb12e0bcc2edd5U, 0xbe51879dbe099781U,
  0x3e0290993e5520bbU, 0x3d8dee46be00f23cU, 0xbd08a11f3d9cd35eU, 0x3e560ce5bc532d2cU,
  0xbdf7adb93d725f44U, 0x3de8ca193e7fde83U, 0xbe51da073d89c8b2U, 0xbce68afa3d8eb522U,
  0x3e49561f3e1eee1aU, 0x3e887400be1ae28bU, 0x3dbbf29dbd4a7d1dU, 0x3eb817b3bdd155a5U,
  0x3cc390223cd984cfU, 0xbcacbaa43efb1f5dU, 0x3cc57ef43ea0e250U, 0xbe0d0d843e103c48U,
  0x3e9388393e8bea65U, 0x3e2ac66abe2691aeU, 0xbc484bc43d1795c5U, 0x3e85229fbd9790bfU,
  0x3d8bb28d3c7ee0c3U, 0x3df4f58a3ec27c80U, 0xbe1252813e925e29U, 0x3cd0b0e0be4eced0U,
  0x3dab86e2bd001a07U, 0xbdd6710b3bb854c0U, 0x3e2e66ed3d5fdf37U, 0x3c96c5a8bdcdf991U,
  0x3d14c2b83e0115b2U, 0xbb6cf5633bdbd296U, 0xbdc5ec133c394632U, 0xbe462827bcee19f9U,
  0x3e00f0693d8223eaU, 0xbdb0c4d6bdc35734U, 0x3db9b6abbc1f6184U, 0x3c864873be42e2b6U,
  0x3d254643bc371081U, 0x3da546a83e116306U, 0xbc8e9df7be0f4f44U, 0x3d12e431bd0c2069U,
  0x3e07e729bd9b3a0cU, 0xbd542d213ba8a2caU, 0x3dd1e929bdb8e86fU, 0x3d1c738abd70c28dU,
  0x3d7711cbbdc457d7U, 0x3d81aa7e3e09d25cU, 0x3b902a2f3cf2ecfdU, 0xbe22e0fd3c15b7dfU,
  0x3bf61365bdbe1d57U, 0x3d7345a5bdc0af83U, 0xbdc58ab5bd2fa4d9U, 0xbce70ca9bc442ab2U,
  0xbd08d1113dcdc24aU, 0xbd68a4663d167dcdU, 0xbc15f41d3d7c55c6U, 0x3d021d8d3d6cabb6U,
  0x3de3ca81bdc62210U, 0x3e1ac7e83d2e5e13U, 0xbd2b3961bd845707U, 0x3dcc8a6a3d3780feU,
  0xbe1aa89c3b7f9e34U, 0xbde5d2e33dc3ab68U, 0x3d409be5bd64eb9bU, 0xbe1614a23cf23227U,
  0xbc486b573d263a7dU, 0x3c0f35213dca7834U, 0x3db0beddbdb1cc99U, 0x3d5218513da71bb4U,
  0x3d9253c4bc44b7bcU, 0xbdff6ade3d9aff7bU, 0x3bd482fc3b0f1d86U, 0xbe1d10e0ba7f0504U,
  0x3dc9c84c3d009d6eU, 0x3d579a2cbdb536f6U, 0x3df0ac9d3d8feef3U, 0x3d540f9b3e0cae14U,
  0x3d548e0dbd97627eU, 0xbe0d0385bc9d0036U, 0xbd5dd73bb8815bfbU, 0xbcb7c719bd097908U,
  0x3d39184abc116525U, 0xbe1383673dbf2736U, 0xbd747e46bd9a9b08U, 0xbdd738233dfbb882U,
  0xbdb580e93d9e0a83U, 0xbb230cae3b6dca22U, 0xbbb2a30bbd5297f2U, 0x3d1ee9fbbda3ef58U,
  0xbc099105bca56b3cU, 0xbdadb05e3d38dc75U, 0x3dc1ac633bd2af5eU, 0xbde45405bd20c89cU,
  0xbe32c98d3d89c272U, 0xbc6dee14bd061165U, 0x3cddf2233d1bb66bU, 0xbd153de8bdbbf8d7U,
  0x3e252492bd23855fU, 0x3d9726573d068ae8U, 0xbd94e8463c1e4026U, 0xbd886c8a3dcc1ec2U,
  0xbda84c8bbdd3a6dbU, 0xbb774b743d27cb46U, 0xba9f3d6d3dcfbfa5U, 0xbd42b9303bced4daU,
  0x3c9358843d908c6bU, 0xbe4683b5bd72c3daU, 0xbb24107c3b499685U, 0xbdf0c46b3da48e36U,
  0xbd4f9c1d3d52cc3aU, 0xbe0ddf18bda06099U, 0x3bca928c3da47a7aU, 0xbcaad95bbe8a3698U,
  0x3ccdfd57bd4fcc47U, 0xbce169913dc32999U, 0x3c8bf3bb3d9c4e11U, 0x3c97ac2d3dc5b886U,
  0xbdafa1b7bd039036U, 0xbc9bfa56bd90d8c2U, 0x3dbceaecbc6fa41bU, 0xbe1f18c3bb618713U,
  0xbb8e4ca03e098d3aU, 0xbb9c4e55bd5771a9U, 0x3d8063dd3d8142c1U, 0xbded8e5ebcb14347U,
  0x3cd2ea66bdb3f966U, 0x3da837f7bda068deU, 0xbd8d62e63d6e47e3U, 0xbce12716bdba7a38U,
  0xbdeabf12bd0a4824U, 0xbda4c0ac3d11f468U, 0x3db74bddbc220230U, 0x3db6ecf93dffe43aU,
  0xbd6addb2bd8d9f2bU, 0xbd7c06883c719573U, 0xbd91b08e3db519b0U, 0xbdfa11a5be472ff2U,
  0xbd3110ce3de3dafdU, 0x3d7ba6343dcba6e0U, 0x3da6d1b8bc15d9a8U, 0x3da2069ebd6682afU,
  0xbe29edaebd70c65dU, 0x3dabf757bd6a9e9fU, 0x3d414a013cc6f81fU, 0xbd869e34be0c400eU,
  0xbd2dd362bdc0be50U, 0xbdd7f98dbd8b74cfU, 0x3db7d4ef3d24d063U, 0xbdf247033e03d68bU,
  0xbe199b643de06ed5U, 0xbda20b463dbdcc03U, 0xbd3c87853e009b83U, 0x3cec63b7bda436f1U,
  0xbd6d4b0f3e01f892U, 0xbbeec1a23dc86d66U, 0xbde57d553d50dd01U, 0xbddbad6fbd26076fU,
  0x3d879b343e0b70ccU, 0xbc90faeabcde0e8dU, 0xbcc1da793e044dacU, 0xbde3f921bd99021fU,
  0xbdeecf07bd0b7a1eU, 0xbda2707cbcb0149cU, 0xbdc79229bdb2fbd4U, 0x3cfcb638be0c2184U,
  0xbd08d620bd8ec5a2U, 0x3d879c9abd59a4d1U, 0xbde2a2043e040280U, 0xbd89e0783ad54340U,
  0x3d0055c83dd7a918U, 0x3e15f1bf3d2118d3U, 0x3d8515a03c179dc6U, 0x3d3b176cbd5dd108U,
  0xbd7e8b153d9dd59dU, 0x3dcbb747bdda50a6U, 0x3cf28a6ebe6fc752U, 0xbd155e863bd28353U,
  0x3cdd7d65be1d0ad8U, 0x3e146ab9bdcd7cfeU, 0xbd90a42cbcc45431U, 0x3d840ecbbd44247dU,
  0xbc83217c3cc8fb73U, 0x3dd47b66be38bcfbU, 0x3e1018e3bdbfd04aU, 0x3dc63ead3e1c5fcbU,
  0xbe6f05493b9d3ffaU, 0xbc9424f5bc89f693U, 0x3cb34c05bd829544U, 0xbd8b7d49bddc0c4eU,
  0xbd091006bb9efa73U, 0xbd8a6303bd1b11f8U, 0xbde77930be07b393U, 0xbe07dc443def1045U,
  0xbe09356abe768956U, 0xbd9251023d0e320dU, 0x3dbd7d7cbe06dafcU, 0xbd57bf49bda4a958U,
  0xbd3111233b0d57f9U, 0x3d613705bc27d76fU, 0x3de9fc25be64d0e9U, 0xbdb4c083bc0298d7U,
  0xbd7797ed3d79e98aU, 0xbde220d0bd468387U, 0xbd1cf5d13da02beaU, 0xbd77df5c3dbb8915U,
  0xbcbaf6133e045f9cU, 0xbe4c6ff4bbe1a9aeU, 0x3df17f61be0b81a0U, 0x3dae38753f0af960U,
  0xbed1001b3ea76a27U, 0xbd99192ebee32d70U, 0x3d84b4b23eadc2b7U, 0x3d0af9033ecdb001U,
  0xbe9dee22be7433a4U, 0xbecb09613e8763ffU, 0xbdf21887be57859cU, 0x3eaec21e3ea7d039U,
  0x3e75172bbdf46392U, 0xbe8dd1ad3e5c42d4U, 0x3e49bba3be466ce6U, 0x3e5ffded3d9fcf4eU,
  0x3db48fa73d107d66U, 0xbe0e37953e986b80U, 0xbf0e8400be2074deU, 0xbe55be43bce36ba1U,
  0xbc91f5f43d9815c8U, 0xbd42e458beeb81b4U, 0xbd5759f2beecf51eU, 0xbe2eba66be659c10U,
  0xbf01bcb43e050a6fU, 0x3da3677f3c935d1dU, 0xbec8d4163da14e31U, 0x3d54fefe3d43afc4U,
  0xbebaa3b1bed1759fU, 0xbf1ab604bd3cc8edU, 0xbedc9fbf3c4f3550U, 0xbf0439bb3db5273eU,
  0x3f02387c3ece8e8fU, 0xbe86aa0bbe9793a8U, 0xbf138417be6f7910U, 0x3daa6a9b3ebdf4c2U,
  0x3e8db8cbbf6d745dU, 0x3e52d4943ea493e5U,
};


ai_handle g_network_weights_table[1 + 2] = {
  AI_HANDLE_PTR(AI_MAGIC_MARKER),
  AI_HANDLE_PTR(s_network_weights_array_u64),
  AI_HANDLE_PTR(AI_MAGIC_MARKER),
};

