/**
  ******************************************************************************
  * @file    network_data_params.c
  * @author  AST Embedded Analytics Research Platform
  * @date    2026-04-20T18:28:44+0200
  * @brief   AI Tool Automatic Code Generator for Embedded NN computing
  ******************************************************************************
  * Copyright (c) 2026 STMicroelectronics.
  * All rights reserved.
  *
  * This software is licensed under terms that can be found in the LICENSE file
  * in the root directory of this software component.
  * If no LICENSE file comes with this software, it is provided AS-IS.
  ******************************************************************************
  */

#include "network_data_params.h"


/**  Activations Section  ****************************************************/
ai_handle g_network_activations_table[1 + 2] = {
  AI_HANDLE_PTR(AI_MAGIC_MARKER),
  AI_HANDLE_PTR(NULL),
  AI_HANDLE_PTR(AI_MAGIC_MARKER),
};




/**  Weights Section  ********************************************************/
AI_ALIGNED(32)
const ai_u64 s_network_weights_array_u64[29042] = {
  0x3caa7219be28c935U, 0x3d041f2e3dfba581U, 0xbd4ea7e9be732ff8U, 0xbd51f6533d3cfe02U,
  0xbd389ad03de52b17U, 0xbcc97ff8be339671U, 0x3d1b6a753d90d3c9U, 0x3d1993493a83d551U,
  0x3deb6c77bdfe309aU, 0x3c59d656be00e261U, 0x3cbf4828bcba66faU, 0xbd301726bdae4147U,
  0xbd9aa3713dd1df17U, 0xbd02bdee3dcc89e3U, 0x3df11cc2be48b5f5U, 0x3d8da20f3d66c777U,
  0x3d6ad575bde9406cU, 0x3b6db0153ccb606eU, 0xbc2cf2a13cb585c2U, 0xbdf8a861bc53857bU,
  0xbe0ddeb93de804a9U, 0x3c98936e3da678aaU, 0xbe0fb964be12097dU, 0xbd4e9cc53d36424eU,
  0x3e210d8a3da4b9efU, 0x3dc7cae7be4cd3f4U, 0xbe0ac0cb3dd24cf3U, 0xbbdf87b03ba5269fU,
  0x3d2a1f7bbe2ad4f3U, 0x3d51ff463c7b3ec2U, 0xbd75de513da09e4cU, 0xbd7ba4723e09c8c4U,
  0xbe433362be518fb7U, 0x3d9bf506bd260abeU, 0xbdad483bbd808758U, 0xbe2b1209be2d71f8U,
  0x3d1bba3bbd94a3acU, 0x3d93eb5abc83c1b4U, 0xbde36d53bd489821U, 0x3d9092953d2d52fcU,
  0xbc06a7623d11b13eU, 0xbda51499be5d46e7U, 0xbc613ac5bd8eede8U, 0x3d91f7a6bca36b1cU,
  0xbe5f8d0dbe71974fU, 0xbdb500a93d9a96eeU, 0xbd15fcf03e28d0d2U, 0x3e70bff93e288d3aU,
  0x3dd737eb3c38f944U, 0xbe40cebbbbefe255U, 0x3c7218f0bb1bf771U, 0xbd8a3e47ba1e57d9U,
  0xbd5610093e0b2d0fU, 0x3e4de1f0bd362d6eU, 0xbd9ce733bdbf36e7U, 0xbd83d67b3e17f35bU,
  0x3de29cd53d8207b1U, 0xbd74f928bc07bce3U, 0xbcbe2750bdaa0205U, 0x3e22e1af3dd95809U,
  0x3da8c2b1bd7a0e03U, 0x3d755a4dbde4d4e7U, 0x3d7463563e502c99U, 0xbddce3e33dfa518eU,
  0xbe0dc5933daedfe2U, 0x3cf6683f3e455331U, 0x3d868e76bd12f895U, 0x3ddfc4643ce7505dU,
  0x3cc7493e3e52e459U, 0xbde0c34fbd23caeeU, 0xbc65685e3d8a2378U, 0x3e0ffd6f3d575250U,
  0xbc904e3a3d969760U, 0x3d3524203dd4865fU, 0x3e27f0993e7de10fU, 0x3df43627bcdd9ef3U,
  0xbda8d8b6bca90e65U, 0x3e4b3af3bd917f92U, 0x3dce0fdbbd7f7eceU, 0xbc67188fbc599425U,
  0xbd225cfebdfd6e87U, 0x3d2068993da672c6U, 0xbe0851693d4a161eU, 0x3e10f4ffbc3f7a7fU,
  0xbcb250583c4bc986U, 0xbc9ef7d13e078d63U, 0x3e101130bbfecc19U, 0xbc909616bd20e998U,
  0xbc881eab3e003565U, 0xbd7808c63da029bcU, 0x3d8ff6443addf5edU, 0xbdf4ebd2be0f4f84U,
  0x3c754965bd6b72bfU, 0xbe14b511be105ac3U, 0xbe150d7fbe3fb3d1U, 0x3cf8e4753d83f59bU,
  0xbdbc94d93d7615c9U, 0x3e0204efbe0ed93eU, 0x3e1dd8fe3d997b96U, 0xbe1473e03c93f189U,
  0xbd8e92b3bd2a6550U, 0x3da64b143df2e29eU, 0xbc4af8e53db4b089U, 0x3e244f68be1a8cf7U,
  0xbd7d251abd12a6f2U, 0xbb7f41cc3dcc6c5eU, 0xbdc53544be5a2be1U, 0xbb396307bd0fcbf9U,
  0xbd7fbd62bdb025faU, 0xbd31450abe037056U, 0xbcaa45f53e099677U, 0x3e04afd33e0fca5dU,
  0xbd907454bddf6a46U, 0xbd59b721be18a086U, 0x3dd8aed93b9a1b76U, 0x3dc01ec83d80b23fU,
  0x3e08fc05be0ef6f1U, 0x3cc928183e285e4eU, 0xbd829991bd3b09ebU, 0xbd572090be578892U,
  0x3c07b5663e081d38U, 0x3dfed206be2c53bcU, 0x3c764c0b3d8db787U, 0xbdf625013d84114bU,
  0x3c51ef2bbe4eb419U, 0xbe0eec0dbc3ab2d8U, 0xbd5964513d8619f9U, 0x3da3ed89bc814ff4U,
  0x3d8afd933d914ce8U, 0xbda69b46bce1870fU, 0x3b7cb97bbe161696U, 0xbd578676be0b26bbU,
  0xbce739853e435510U, 0xbe1f70aabcf3e43cU, 0x3dd676c3bd790d6bU, 0x3d1a0b03bd573b91U,
  0x3e4886d13d81c94dU, 0x3c0d32a73c2df270U, 0x3d738fb83e106465U, 0x3e3b0992be3bda52U,
  0xbe045ad5bca41322U, 0x3dc89c26bbf8a48dU, 0x3d9b261c3ca12efcU, 0x3d1791813dec9031U,
  0x3daaecc3bcad1767U, 0x3d20c0bbbe3b9278U, 0xbe083a76bbb3d6b3U, 0x3dd9cdbdbc7aefabU,
  0x3e1b2dafbe41a231U, 0x3cfb6fcabb08d9f9U, 0x3d68064a3d578567U, 0x3ca60a7bbd6815c2U,
  0x3e41ee953e4cf1e8U, 0xbdf2ee7cbbd36006U, 0x3c8b7d9abd93ae1dU, 0x3e57c5343df0ec61U,
  0x3d99752bbd0b1814U, 0xbdbb480c3dd18a08U, 0x3d4296dabd760a74U, 0x3d8ef9183dc9fe4eU,
  0xbbbb7a943d373a5eU, 0x3e6113f33df52c0cU, 0x3cf575743d2a73fcU, 0xbc82d9103d0552faU,
  0x3e5872ef3d5507abU, 0xbe0658013d808751U, 0xbb9a6efcbdcadb4eU, 0xbe18a3f33ce2c887U,
  0xbe01d3713d58b450U, 0xbe27a3c9bdd8e8d2U, 0xbd9219953e135208U, 0x3c6557223cc09816U,
  0xbdfb0323bd935fa7U, 0xbc9c39bebd9ecb52U, 0x3c55c3db3c5601c7U, 0x3c43590a3d343bc5U,
  0xbc933df13dafcbe1U, 0xbe00b3a1bd4a9845U, 0xbe0f95acbd90d164U, 0xbc5c357f3c9715a2U,
  0xbb55813cbe0d26e0U, 0xbe0bff17bdc4813bU, 0x3d99c7eb3d9a196fU, 0xbd7ad410bdba6623U,
  0xbe19836abd806547U, 0xbdd2dba33dab65a2U, 0xbd437ff3be0b95cdU, 0xbd7be6223d8d7418U,
  0xbdfba4513d67defdU, 0x3c39b9b8bdf8a0a5U, 0xbe366609bca69c70U, 0xbd9d686e3dc7f505U,
  0x3df4a746bd1a9203U, 0xbb8f963f3d81b6b4U, 0xbde139813e06a1c0U, 0x3cff61ac3c597099U,
  0x3c567c713e01bd2aU, 0x3d1e1075bd63cb0dU, 0xbdca0e103b8ddfd7U, 0xbd5864673d8e2440U,
  0xbd82e17c3c0553f4U, 0x3c19dc0ebda44251U, 0x3c80d94fbd120c46U, 0x3dc662e63db80353U,
  0x3ccc8f41be1ce10dU, 0xbdb2d3ffbdc48d51U, 0x3dd39d43bddec735U, 0x3c3d04fbbe0df15aU,
  0x3da4233cbce1d8a2U, 0x3d0fda7fbdef8c83U, 0xbddf56fc3b73ab10U, 0x3dd0ec79bdddf0a9U,
  0xbde11b2fbd95748cU, 0x3dadc1113d75d1ccU, 0x3dd6aa26baadb5d5U, 0x3df28862bbef07d5U,
  0x3c5a4adb3dd64fd3U, 0x39138f063da97c9aU, 0x3acecf58bdd3a672U, 0xbd33a0a0bd44ef9cU,
  0x3e47c081be03d973U, 0x3deb4d7a3d3589d9U, 0x3d949a503e195fbdU, 0x3e47b233bc99e802U,
  0x3e0f6df4bda8b4a6U, 0xbdfc47cf3df85873U, 0xbe05e65f3d9a6b6fU, 0x3d97cd4cbe12c5e3U,
  0x3c6309ec3e2816dcU, 0xbc8149e7ba922a46U, 0x3d5e976f3cabd900U, 0xbd9622d63d4399edU,
  0x3b23fddb3e10b54bU, 0x3d4dad90bdea52e5U, 0xbdb2bb933d71d66fU, 0xbde0ccff3d29ebc0U,
  0xbe1f4cc33dbfcad0U, 0x3cba07273e377f64U, 0xbe1de663bce76e01U, 0xbe2ee69dbd585aadU,
  0xbddb48243d438c13U, 0x3e06a6733e020c98U, 0xbe1867123e2a9e0bU, 0x3deb23d83d6897acU,
  0x3d909eb83cc095daU, 0xbd27a951bca8dc05U, 0x3d024ed5be04bdfbU, 0x3dc59f123d063861U,
  0xbe24adc23cef2763U, 0x3d4ca289bda1a33cU, 0x3df624a0bddefbf6U, 0xbdd67a1e3e216c96U,
  0x3d9e98a5bd9c9b5dU, 0x3da9f9d7bdaaa44bU, 0xbe33fb563e3f5a92U, 0xbd842f5dbdb8a477U,
  0x3db9cd44bce8daacU, 0xbd5b05883c5ffeb8U, 0xbe05b6a5be1452b5U, 0x3df85dc7bce95670U,
  0xbdaa98d5bd724719U, 0x3d4d850cbdac928bU, 0x3dc802123cb98d4dU, 0x3dad88ebbdeff521U,
  0x3df20ceb3dc336d8U, 0x3e5c80123dd23575U, 0x3e00b614bcf60ef7U, 0x3da966b839bd91b5U,
  0x3e3a6872bdd3e00dU, 0x3e27d2f1be0de78bU, 0x3e46be443d898eceU, 0x3e033e6e3bd0aa26U,
  0xbd1a9ce3bc8ecf74U, 0x3e07818c3cc38827U, 0xbc698f453dc9a333U, 0xbcf52a27bd5df259U,
  0xbc90d1c43d986803U, 0x3cd52177bd28ee43U, 0x3da5adbe3b31c716U, 0x3e10acf6be0f5293U,
  0xbe1c24163d9125c5U, 0xbdcfec5dbce0ebd4U, 0x3e5515613c788a2bU, 0xbdf5b5603df02027U,
  0x3e2fb5a33de28521U, 0x3d8720e53d27027eU, 0x3e5d9ab2bd55ffb9U, 0x3c882549bd83d782U,
  0xbd9a8dc63daf57ceU, 0x3e59b960bc0a34efU, 0xbc9571f03d41bad2U, 0x3cf039943d458fd2U,
  0x3e7763903d693f5aU, 0x3cc2c7a2bbba4d75U, 0xbd5ccfc73e02595dU, 0xbb3099b63cd9c71cU,
  0xbdc9e821bce46e44U, 0x3db059fa3dff160eU, 0xbdc1ea453e06ddffU, 0xbd4a25f33d2f6d28U,
  0xbcf931bcbc0c6421U, 0x3d6e374ebd93e873U, 0x3d7de986be6e37e5U, 0x3e26c9073d29a1b5U,
  0x3c7c325c3d85ddc2U, 0xbdab7a27be6ce69cU, 0xbc38c1ebbd3524d0U, 0x3d96ed2e3e1818b5U,
  0xbe023c43be3a70efU, 0xbc2818ec3dc4db3fU, 0x3d930d953dfc4c49U, 0xbdfda5adbc40a9b8U,
  0xbd2bcf87bc89d2a8U, 0x3d7baafa3e0c14d4U, 0xbd03dbc03c56f744U, 0xbd44be53bdcf159aU,
  0xbd3be0e03d594741U, 0xbdb89ab23e085793U, 0xbd9115033af317b4U, 0xbe45677fbdcf4123U,
  0x3dd2ce06bcc7efc3U, 0x3d9e554fbe39770bU, 0xbdf995e4bbf056b6U, 0x3df2cda33ddcaeebU,
  0x3dd58da8bdee09c8U, 0xba5f10f03da731caU, 0xbd8baa7a3d2fa91cU, 0x3d1ad20a3d4653edU,
  0xbd7bfd92be07a529U, 0xbe3ae5d13d12d249U, 0x3c8ce8843b0d2fe2U, 0x3d0469493d994afdU,
  0x3db9c643bd41f4c9U, 0xbb948dfbbd81d899U, 0xbde6e9753dc84771U, 0x3dd2220dbdc40b37U,
  0x3cf47be1bd7b0ca3U, 0x3dce90733de2bddfU, 0xbd4613c9be074953U, 0x3cb5761ebd8f89d8U,
  0xbde378e33c2607f3U, 0x3da8d684bdee63d4U, 0x3dc0bf993db32761U, 0x3db9cac4bcd55270U,
  0x3d0f2b9dbe629f39U, 0xbd181c15bd47101aU, 0x3dd1bf233dcea5a5U, 0xbcc27a4bbdf4fa6bU,
  0x3d9f7207be124b50U, 0xbbd6c92e3b232961U, 0xbcd8f418bdc60ac7U, 0x3ddad5dfbdc79fb4U,
  0xbd85068abd21dc06U, 0x3e06deba3d9762d3U, 0xbd9ed7e8be1165feU, 0xbd8761443dbf2060U,
  0x3d8a0c53bdcc8999U, 0x3cf5b8c1bd36a30bU, 0x3e00b7c23e152330U, 0x3dcb5b85bdf53b07U,
  0xbddfaf7bbb427cd6U, 0xbd8e3c283b75f088U, 0xbe1ece1d3d67ce10U, 0x3dcfbab13dbae360U,
  0x3df72d40bdc2fe55U, 0xbe187a67bdb94cf1U, 0x3dc3f53ebdb99450U, 0x3d702af4bd8be098U,
  0x3d49d63cbd96ba94U, 0xbdd76504bd028f83U, 0xbdbe5d88bcb0ca50U, 0x3d2caa0fbd77efd3U,
  0xbdef05c7bdb59491U, 0xbdb38f533cb2c13cU, 0x3e00af7c3e06a890U, 0x3d93e983bd22a4b5U,
  0xbdc27eda3db276c0U, 0xbc99ba12bdf63becU, 0xbd71b727be0c20d3U, 0xbd74da203ca61f06U,
  0x3c905f21bdd3768aU, 0x3d48d99cbcb97b99U, 0xbd4b5d603dc7b529U, 0x3daf9a3bbcd2baaaU,
  0x3e123ee93d78f576U, 0x3c90e8043e1e435bU, 0x3ccd45473e013a86U, 0x3d46ff9fbdc638f2U,
  0x3ce380b4bc2f164cU, 0x3d35e03c3dcd75c1U, 0xbddb393e3d4da9cbU, 0xbe283b533d5b5507U,
  0xbc4fe8063da93404U, 0xbcad97203d109453U, 0xbda2695b3c0786ecU, 0xbb59a9f93cf528ceU,
  0x3ca2e7583db4b823U, 0xbdab3465bdb7526dU, 0xbe24c316bda468b6U, 0xbe21f8a03d80e713U,
  0xbdb5f2e7bd1d3c6fU, 0xbdbe13d03d031959U, 0xbe205f7c3d2d1495U, 0xbd6afeb3bd3e13deU,
  0xbd4d87e0bd861d2dU, 0xbd53f672bd64165aU, 0xbdaed77c3d454e0dU, 0xbd6f2e483d7ba462U,
  0x3dbbd593bd80afe8U, 0xbca2cc30bdf33e57U, 0x3d5d32d43d8ec5a1U, 0x3d64b7823d40108cU,
  0x3d4a8befbe087124U, 0xbd2dc65dbb9b106eU, 0xbcec419f3d561a40U, 0xbc4a7327be2f799eU,
  0x3dbcd0673cc35491U, 0x3d8bfc72bdb21f4aU, 0xbd1376f1be282eecU, 0x3ddd48d73d65bde2U,
  0x3d9e11683dbcf29eU, 0x3e06bf2a3dd93d31U, 0x3e37fdd2bd78c968U, 0x3c33d2f03d0c876dU,
  0xbd2dc35bbda9b233U, 0x3d9ce4bfbd127f2eU, 0xbd8c038abcbaf927U, 0x3e159278bdbdc0efU,
  0x3dc407f0be0754e1U, 0x3b957e4fbd66b3a6U, 0x3d411401bded935dU, 0x3e0d141e3dbb7b77U,
  0x3e091966bbbaa151U, 0x3cc6336cbcb1a601U, 0x3df749ef3d983a17U, 0xbca03d56be029e3aU,
  0x3d6fc8e4bd756dbeU, 0xbdf1e39abda7d851U, 0xbd4cc20cbe191f7dU, 0x3d877f413d39afbaU,
  0xbc1a266abcf656afU, 0x3d83c8b03d112f81U, 0xbd908860bc934207U, 0x3ce05b7d3dceafb6U,
  0xbdb20895bd3b6bb5U, 0x3cfec35bbd6f28aeU, 0x3e02fce73d79356fU, 0x3df63f1abe4ef84fU,
  0x3e17bd7bbe015750U, 0x3dabfedd3ddf995aU, 0xbdef0580bd7d8a67U, 0xbdd5acc03dad0d56U,
  0x3d857a1c3ddd2e87U, 0xbd655cff3d70a8baU, 0xbdf527183c378ddeU, 0x3d8c91953e34588bU,
  0x3d7590623d3b98c4U, 0x3d2fd9efbbcefb48U, 0x3e2bdd1a3e54cb2dU, 0xbc7821c0bd1c424eU,
  0xbd33dcd4bd264e7aU, 0x3e46c6d83e19663bU, 0x3de11ff63d8b06f3U, 0xbda812c1bd1486c1U,
  0x3dbdd78b3e2656f7U, 0xbde029ecbe3325f8U, 0xbda3ae923d68bc43U, 0x3e70d1c7bdba1f57U,
  0xbdb1feb83d71a6b6U, 0x3db622613dd409ebU, 0x3c923bd5bdcf1ee4U, 0x3de98c35bd00d822U,
  0xbcd40ababce877e3U, 0xbd594b6abbddf84fU, 0x3dc9d19c3d9faad0U, 0x3e1762da3be98f3bU,
  0x3d4fc272bd84da99U, 0xbd1aeea63b8efe59U, 0x3dc609cfbb80f78eU, 0xbe644ee33d9e1783U,
  0x3d05b52ebd21ff34U, 0x3d8d36fe3d5f696eU, 0xbe18a50b3d3c389dU, 0x3da9cf213d352505U,
  0xbdce78fc3e124ff7U, 0x3dc4894d3e14846dU, 0x3da6891fbd910d96U, 0xbdf56caf3d660e00U,
  0xbdb289dbbd9e4bbbU, 0x3ded5d793d596596U, 0x3da53b38bdd82919U, 0xbe2c54523be50da6U,
  0x3c8a0657bd835721U, 0x3df9e8c03dd67441U, 0xbd7c2d9ebd8bc96bU, 0xbe238f0abdd56bbaU,
  0xbe21ebc53d8a9cc8U, 0xbd46bb753e44d91dU, 0xbe2c77fbbdad0df3U, 0xbda19c5abdc57e4cU,
  0xbdcc32da3c2bd4c5U, 0xbdea56563dbf25b5U, 0xbdb1c3f63dc01fe8U, 0x3db573f03d8bcef6U,
  0xbd9bed223d0da6e1U, 0xbdac6d193d9bb20cU, 0x3db06e833d71600cU, 0xbe43132cbe1db045U,
  0xbdd0ff94bdc7e7aeU, 0x3d28c2f03bafc8e4U, 0x3d1d86a23de144e9U, 0xbdf14ab23d748d5fU,
  0xbd97aff13e1c12fbU, 0x39a6d91cbda4605cU, 0x3d3bb2d6bd4ef647U, 0xbcf72bf93bc6fe4eU,
  0xbda829ac3c72f1e7U, 0x3d8f10a6bce57dc5U, 0xbd5c8befbe33708aU, 0x3da103c9bd8b935dU,
  0xbb863a193dbf147cU, 0xbd1a0bcfbe493816U, 0x3ce07013be464632U, 0xbe01c7ae3de2a969U,
  0x3cbf6506bd9b320dU, 0x3d8e76abbe1d5007U, 0xbd3498833df04e27U, 0xbdd49aef3d8b49eaU,
  0xbd85a9033b9a4ecdU, 0x3d3223a5bd18dc31U, 0xbdc9302bbd6f7c0bU, 0x3d7851dbbd950a9dU,
  0xbdc4869dbcfcddc3U, 0x3dffd80fbe4a9207U, 0xbcafc9193cea72d7U, 0x3d4f8f843d06e50aU,
  0xbd927e15be808496U, 0xbd6c23c53dc172acU, 0xbde68d013da258f3U, 0x3d84289cbe4300edU,
  0x3d965dff3b8907a7U, 0xbde928263c945157U, 0xbd07d8b2be6c6fa7U, 0x3cd4f564bd73ef63U,
  0xbcfb3c27bd70d537U, 0x3ced2955be7e57e9U, 0x3dadb5ad3c431aa4U, 0xbde486313cbba670U,
  0x3d8b95bcbe8522bbU, 0xbe1b36903d3938e8U, 0xbacfa60c3bb0ec59U, 0xbd5bb37abda073dcU,
  0x3d4c73f8bdeb57dcU, 0xbde0d5113df42c3bU, 0xbdbca7943d64d903U, 0xbda3186a3db76ce8U,
  0x3c4e1c373cb5ff3dU, 0xbd74f23ebe5dcaa5U, 0x3d185dd2bd6aac7fU, 0x3c61a0b13dce4a3dU,
  0x3c4bcbd1be456bc2U, 0x3cb4c7f53e09bca8U, 0xbdcfe9e03ba19a26U, 0x3ab160d83e09cd8bU,
  0x3e0955c6be177dffU, 0xbd3c3ecc3d93a073U, 0x3e0e5dbd3e01ad27U, 0xbbc0e56cbd9b7c5dU,
  0x3c8de5eb3cdcd010U, 0x3e24eac2bcc1fed0U, 0xbe046915bd88e390U, 0x3e38d7f53dd4932fU,
  0xbca822d03d840d38U, 0xbc340cc8bb1e44e9U, 0x3e227d9fbd532979U, 0x3b9558c23db33669U,
  0xbb30fa113db309b2U, 0x3e08f82c3cd5b457U, 0xbd2595ddbd0bf3f7U, 0xbcd95f94bdc8d0a0U,
  0x3d9fabe83dd67fd6U, 0x3e455c833db077baU, 0x3e04a158bc2e730eU, 0xb978dc63bd161becU,
  0x3e261f2d3e2d882dU, 0xbd7acd43bdbd4b81U, 0x3c7ce762bd465499U, 0x3d0a110bbcde2a51U,
  0x3cf163a6bcfed5caU, 0xbdb47a713da76d24U, 0x3e0e2fdabd6722a5U, 0x3bb67493bb292232U,
  0xbd872e193e00880cU, 0xbc70ddc8be28f12bU, 0xbdf2ab7dbdc96a22U, 0x3d8a024cbdd5cf37U,
  0xbe1b3953bdeb28b7U, 0x3d300548be38ae9eU, 0x3d28c5a03d8a316dU, 0xbe3b97cb3d00d05dU,
  0xbd718ee73ded2a56U, 0x3d267a2fbd264e6fU, 0xbc06a9d5bd76054dU, 0xbc3bddf13dbfd9d8U,
  0xbd76de29bddca7b0U, 0x3da4f6e5bd256c6aU, 0xbd1a79a6bd52718dU, 0x3e359f98bdeb3cbaU,
  0x3dfa6563bd112355U, 0x3bc012e43d093e9dU, 0x3e1052253d919ec9U, 0x3e04f2bdbc8be505U,
  0xbe0868a5bdb97abbU, 0x3e129735bd13b66dU, 0x3de4c9f03d54bb24U, 0x3e111e903d7e3a05U,
  0xbe0697ce3d76ad35U, 0xbe2e37df3e343367U, 0xbd84d7943d0a6e29U, 0xbe03af72be0417e5U,
  0x3cbde245bd00c97aU, 0x3de324dabda23440U, 0xbd766705bde35b1bU, 0xbda8adf93ccbee98U,
  0x3d20290ebd56792bU, 0xbc9278e5bdd55077U, 0xbdcdec8e3e15016aU, 0xbe15ceaebc921034U,
  0xbd89449f3de3665dU, 0x3ca081dc3d8226c6U, 0x3da49d643dd765a7U, 0x3bc33894be14588eU,
  0xbd5f83f83da21fe2U, 0x3b664bc53d3320c9U, 0x3db617ebbd894e88U, 0xbe0d70b0bd94f3c0U,
  0xbdadbd80bb98058cU, 0xbdb5b25dbe0e620cU, 0xbd24eb88be03359fU, 0x3da436163e0341f3U,
  0x3d3b82d2bce6e41bU, 0xbe2caa01bdef221aU, 0x3c0a5b1abd29eb22U, 0xbdbc7e133dd42766U,
  0xbc8cbf3c3c8a33f5U, 0x3cadbc573ced2c11U, 0x3e1d9a1abde304bdU, 0xbdbbb06f3e02a420U,
  0x3d153a45bd584339U, 0xbde1b97b3da0da5fU, 0xbb36bcb53dbd26e6U, 0xbda31fc93d49d139U,
  0x3e06e635be06b4a1U, 0x3cd64e7b3dc49d99U, 0xbd389fd23b83b1edU, 0xbdd84fecbd2ded6aU,
  0x3cc15ea63dc4dba0U, 0xbde62b56be0ae2f5U, 0x3d6138eebddce2fcU, 0x3dc890f03da7e34aU,
  0xbdaca1bb3d8ce615U, 0x3ceff20bbdb89d1dU, 0xbe28fbe13dc16f8bU, 0xbdf559893e1164f9U,
  0xbe277261bce41236U, 0xbda7f9d33c075e1dU, 0x3afedaffbd20ee3fU, 0xbdb63a56bd98376dU,
  0x3d49b0013dc67a8dU, 0x3d14da00bcbd111cU, 0xbdf188a43d7b81f5U, 0x3c6883b2bd8975f1U,
  0xbe0f8dcebdb50d70U, 0xbc52f33ebd210d45U, 0xbcb78cb73d46dfd4U, 0xbc94661ebdbfac65U,
  0xbe07dea93d5409ffU, 0x3e0c3cb2bd1a201aU, 0x3d91b38d3c9e1548U, 0x3df6d80a3cfe174cU,
  0xbdb1801d3d2e5a0bU, 0xbd9c55443d7b81ceU, 0xbdc1c68abd2f21fbU, 0x3dba3306be5cd5ffU,
  0xbc250b6fbdd8c0ccU, 0xbdc1975e3cca26c8U, 0xbdef71dabd4937b2U, 0x3d6b6c523ddd5d8cU,
  0xbdb5a9483d3013fbU, 0xbe246ba0be8183e4U, 0x3ceae984be39690fU, 0x3e055b963e0642beU,
  0x3e27cada3e413e53U, 0x3d875c51bdd5b172U, 0xbd8ce338bd0254e9U, 0x3dbc4edd3e2d67cfU,
  0xbdb0393bbda79b92U, 0xbe093bf83d2eca3bU, 0x3e0ea4703cd0a9a6U, 0xbd6d78103d34b069U,
  0x3d5881db3dbb09b6U, 0x3dbcf3adbcd79d47U, 0x3d405184bd198085U, 0x3ca70c2dbccb058cU,
  0x3dbfb319bcf95f22U, 0x3da35ec53da36445U, 0x3d02f8c83d8060bdU, 0x3e8166b03dc43c0cU,
  0x3cca28313d4fba75U, 0x3cf63e613da3b2eeU, 0x3e3852a5bd8f7e65U, 0x3c92762e3ccad877U,
  0x3daec7d13d658acdU, 0x3e86b2633c2b561bU, 0x3c1f14b6bd0f5f50U, 0xbdc5d0c63d970a2bU,
  0x3d7e419ebcf34ec9U, 0xbda4aefa3d3d3a00U, 0xbe1188cfbbe7849bU, 0x3e32064dbd968c07U,
  0xbb957763be00e508U, 0x3e0ecb40bdc90ae3U, 0xbe0240853d013ee3U, 0x3e03a364be018473U,
  0x3de416debdadb223U, 0x3dfbbc6d3d6912edU, 0xbc88619cbdec6e74U, 0xbe0aef9d3da2e540U,
  0xbbf37df03d2a8d32U, 0xbdde37dcbe51f4d1U, 0x3c09cbdf3cfe1e3bU, 0xbc9623b53da53516U,
  0x3c3daee2bd6b68cdU, 0x3de0288fbdfc4b79U, 0x3e13de51bd84800cU, 0xbd8bc68c3d01262bU,
  0xbb2ef5b33d9cc35aU, 0xbd6e5afe3dd03e52U, 0xbded68b23d9b3e44U, 0x3e41ae52bd3c3726U,
  0xbe0913bfbde7603bU, 0x3c820d54bd875081U, 0x3dcc92923debc275U, 0xbe2569823dabd303U,
  0x3d8954663de45221U, 0x3e5de5f3bd901a01U, 0xbd8ae38a3dc78808U, 0xbd1ffaff3d751c25U,
  0x3c91b6ebbd27a56fU, 0xbe35927d3e24ba15U, 0x3c0c6f8fbe0c37eaU, 0x3cc2ad033d411f0fU,
  0x3c9d1f093d92db61U, 0x3dcc89d0bd2a08b8U, 0xbd816ae13e0adea1U, 0xbd360a523e3e5624U,
  0xbc7473783d9b2390U, 0x3d3d361dbd928671U, 0x3d8933293e4e2ce8U, 0xbd03d18abb2668c2U,
  0x3e0326a1bd6be355U, 0x3de6a6453e8036a5U, 0xbd0e1abe3c144bd8U, 0x3dab19cbbd8d488fU,
  0xbb96d80d3da9b337U, 0xbdd701a2bdd7c97bU, 0xbe231d233d992d0aU, 0x3e7859a5bca9d7dcU,
  0xbd9cde4c3dda32fdU, 0x3d806d623df48f6dU, 0x3e41b6a5be08ada7U, 0x3d850b4e3db3d706U,
  0xbd65cb333d1afdaeU, 0x3c875092be0fbaf2U, 0xbe166c003db6d6c6U, 0xbdf988babe0381a9U,
  0x3db86aacbba02950U, 0xbdd471643db071f1U, 0xbdabb9423d33070dU, 0xbd7a0b253d05e25eU,
  0xbd15927b3e05956eU, 0x3e6d064bbdc0f0b5U, 0x3de924e9bc96ef87U, 0x3d934974bd95c1e5U,
  0x3e29efa1bcbbd986U, 0x3db5dea1bd140ddeU, 0x3cf7ea903e1e3898U, 0x3e3428643dccf7f7U,
  0x3b6fb6c53d016ba5U, 0xbd5c4c163db0ce4cU, 0x3e59ab33bbe7683cU, 0x3d1363643dc4c364U,
  0xbd9059783e4d2a78U, 0x3d96b7a03d5e57b0U, 0xbd19d5983b600684U, 0x3ddd8e3abdafec06U,
  0xbe309d4f3d842a84U, 0x3e0f5f733c3e2671U, 0x3d7f81bd3d70bd95U, 0xbe0e4e78bd7253b2U,
  0xbda920013d78fc14U, 0xbc6739e0bd09d4e3U, 0xbdde56983df68a8bU, 0xbdb92ffabc8615f1U,
  0xbe0165663e026fd9U, 0xbd7bd665bcd03df0U, 0xbe5495713d777d04U, 0x3d61862fbdc2c0a2U,
  0xbd3c974d3d95a1c0U, 0xbd6f7f4c3e3389f5U, 0xbdf5001cbe22edc0U, 0xbcca44cabe09a31cU,
  0xbe1b48233cb092a9U, 0xbdaefd96bd622143U, 0xbc96c75a3cdf082bU, 0xbd5b39e73d7abda8U,
  0x3dad1e983d07c462U, 0x3dbbb7f2bdd47a23U, 0xbd264f99bd007c4fU, 0xbe0221b1bdf859e7U,
  0x3dec2d05bc9a33cbU, 0xbe0a70033bad9188U, 0x3dfbd8e5be38c4f0U, 0xbd3bf3cf3d1389c6U,
  0x3e01e11ebd035649U, 0xbdae39f63e2dc391U, 0x3e26f7d2be3afacfU, 0xbd5e9cd0bd337ac4U,
  0x3dc29fd03cbf12daU, 0x3bfda5febe12210cU, 0xbd479872be031ef3U, 0xbdbcf252bcc96cb8U,
  0xbd18fac5bd9d10d9U, 0xbd930a7fbe1b7bddU, 0xbd1ba4e03d64d1bcU, 0xbe4b481f3d2073a3U,
  0x3da85b0dbbeb545eU, 0x3ddea3d9bdd3755cU, 0xbca65f2f3db407b2U, 0x3d42fab83dd63445U,
  0x3d5b276cbb15e7cfU, 0xbe043a6c3db66072U, 0x3db90dc4bc9c777cU, 0x3db40220bca83e40U,
  0xbce0241c3d89ad0dU, 0x3e11c79e3d83240fU, 0xbc01d7663d5bbce6U, 0xbe0730c9bd5a0001U,
  0x3e3d96423e1d867cU, 0xbdae26013d3f18eaU, 0xba7e94b63d221784U, 0x3d4da1833e1c5ac1U,
  0x3df23ad13c7c9efdU, 0xbdd196c63db3bccfU, 0x3e4eaecd3e063622U, 0x3d615bf5bdbf9cabU,
  0xbc583b8d3dc3fe97U, 0xbd8bb6a9be577545U, 0xbd9ac0ab3c08fe04U, 0x3d400f58bd9a0309U,
  0xbda230babe845bbaU, 0xbdb6698e3d75304eU, 0xbd7557503d266cbaU, 0xbdcca313bc6f9102U,
  0x3dc49adabe09336bU, 0x3c809bde3d948a82U, 0xbcbedbb2be58428bU, 0xbdc8c2a73d79b895U,
  0x3ccfd9a23ca5b745U, 0xbd75aa75be461939U, 0xbdb689853d68d5c6U, 0x3d5be95b3dce8357U,
  0xbce2e6ea3da89b13U, 0xbcbb9fe63d3a2294U, 0xbe2724c63dd16e01U, 0x3e12b8a13dc0da7dU,
  0xbe02249ebd00e7ebU, 0xbe1dd97f3dab32b2U, 0xbd6e9bd03cc67294U, 0xbd0e310b3cec7e54U,
  0xbe13603ebd3c21fdU, 0x3ddaa332be2c7375U, 0xbda39fd6bdaa17b0U, 0xbdcb4538bdb913f9U,
  0xbd6f2f13be390b08U, 0xbd6777a7bd4459f1U, 0x3dd5556f3d240239U, 0xbc8d889b3cbc6aecU,
  0x3d5a93353cf6699cU, 0x3e53b9b9bd99a431U, 0x3dc609e1bc97d8efU, 0xbe0ade52bd06a000U,
  0x3c7f83dcbd497030U, 0xbd07b9773dcc1c12U, 0x3d7707123d8a608dU, 0x3e5becc5bd272aa6U,
  0xbd1e70fd3daf18faU, 0x3e0869b43c8c9828U, 0x3e177fb93d8098b4U, 0x3e0f4212bd4dd684U,
  0x3d9b4e243df85a75U, 0x3c93af79bdfcee91U, 0x3e38c995bda9de5cU, 0xbd29291f3c6c859bU,
  0xbddf3e21bda445e2U, 0xbd172f983d9b4e9bU, 0x3da8a31a3e30d236U, 0xbe01959cbcddcca3U,
  0x3c67cc443da43de7U, 0x3d0d3a0fbcef7176U, 0x3d153ee83d998071U, 0x3e1974c9bdf6945dU,
  0x3e2a3bb03e09086fU, 0x3dbcd3babded006cU, 0x3d890a693baa08f7U, 0x3df3b03dbd605744U,
  0x3d690c14bd81c6a1U, 0x3d467a95bdbdbbbcU, 0xbded6d043d981630U, 0x3e064a09bdd9893aU,
  0x3d20d1aebe1ac6e6U, 0xbd87de9b3df21f56U, 0x3dc2f957bd14fc79U, 0x3e10f94e3d867b76U,
  0xbdd0992dbc7ea8a1U, 0x3db57aeb3c8d074fU, 0x3db408293c25fa72U, 0x3dbdce313cf6e541U,
  0x3d5b9d47bd52c08cU, 0xbd0f9897bdda09a3U, 0x3c90824a3cff860dU, 0xbc9a888db993ba7eU,
  0x3e02b2d9bd938c78U, 0x3d808fb5bd96c5c5U, 0x3e3526e4bdec7e72U, 0xbdf2e2f4bdf9e6afU,
  0xbe09c5e0be08c78aU, 0x3e5382723c40f67bU, 0xbdb31cadbd003357U, 0xbcaa0dacbdb40333U,
  0x3e27ba9d3cbc0049U, 0xbd17fd23bdc93236U, 0x3d3239febd346e37U, 0x3e179989bd37bd75U,
  0xbd81a1fabdfc5fbcU, 0x3d43b189bdbed151U, 0xbd9175f13d57d0a3U, 0x3de84022be92518bU,
  0x3c1534eabe017092U, 0x3d7420d43cfa1e33U, 0xba799d3bbe6e7fd0U, 0x3d1fbe6bbe00a22bU,
  0xbdc6df743b8e3883U, 0x3c5fd76cbe648977U, 0x3d45e0783bc0980bU, 0x3da0878ebdb45b6aU,
  0x3dd1fb93be721531U, 0xbdacae203d3419d7U, 0x3d859833bd9ef6dfU, 0xbd37dd53bd7cffaeU,
  0x3d032cfe3c8c7f20U, 0x3c3581b4bce8138aU, 0x3c4614a9bd111488U, 0xbccf560ebcc66dc6U,
  0xbd578aab3c6c5852U, 0xbda800cabc042275U, 0x3b218d04bc8334c6U, 0x3d338fbbbd2fd946U,
  0xbb760145bc445634U, 0x3c55ceb9bd3e9612U, 0xbbae4057bd42c0d7U, 0x3cb0f5f2bd29d0bbU,
  0xbd5efe00bd56f02fU, 0xbd32debcbd23e3c1U, 0xbc529320bda357f8U, 0x3db52bb1bcaa5d00U,
  0xbd07262ebd76fdd3U, 0x3d1bced1bd8fdc86U, 0xbd09e5b93d7d475eU, 0xbbda3aebbcd2463dU,
  0xbd7b9803bd3f0da0U, 0xbd99ca75bc8f818aU, 0x3d8e79d0bdb46208U, 0x3cfcf4dbbb8e7cb2U,
  0xbc9e8a22bd70c558U, 0xbd83fa673a46e5feU, 0x3d5f84853c0849c9U, 0xbcb1bcc93c262d31U,
  0x3c1ef8413ce5cf2eU, 0xbd5982a2bd8d1f62U, 0x3cbf50f5bd63238eU, 0x3d5ec814bbde8ae2U,
  0x418bd54140d055d9U, 0x40c5d85240af40d3U, 0x40ae994340f3e31bU, 0x4160819441d34596U,
  0x4127e69f41dd686eU, 0x41cdd4cc40bf600aU, 0x413500ee4110cc8eU, 0x411d7115419587fbU,
  0x4114fbf940a09a3dU, 0x4107733d40dfa557U, 0x41268e4f40a83560U, 0x40fc10f840da976cU,
  0x40f98c9841cdfa34U, 0x418e934541beed06U, 0x4146574641688bb2U, 0x412e11c840d3da4aU,
  0x4114eb1e4101ab71U, 0x40d9e47b412fae03U, 0x4119857240b153e8U, 0x41338cec410dec20U,
  0x416fcff441b55018U, 0x418b4df4415af550U, 0x40fa198541cf1768U, 0x4098272840f056edU,
  0x40d17ab041564008U, 0x410ebb0240dbac58U, 0x410166034138a8e8U, 0x41a545354132c3f5U,
  0x40c6ab3b40a688e1U, 0x4154339341541eecU, 0x4191d662414e5c1aU, 0x40aa864540eb5ba7U,
  0xbd9d26a2bf93029dU, 0xbf626ecdbf2ce9cbU, 0xbf73a55cbf077989U, 0xbe52c1c53df1e6f6U,
  0xbe41c898bd48fdfdU, 0x3cc928c8bef73139U, 0xbf3e6057bf50c856U, 0xbf048cca3d228988U,
  0xbf116e12bf0dde14U, 0xbeec4348bf89612fU, 0xbf1cc0d1bf620843U, 0xbff9d850bf6d719eU,
  0xbfaa7c043c68a268U, 0xbdc33ff8bc81afbcU, 0xbf066c16be252b43U, 0xbfc3bd89bf03200dU,
  0xbede1c0abf63b781U, 0xbf78cb7abf515306U, 0xbf6688fbbf774953U, 0xbfa0db57bf0eaa23U,
  0xbe1432f83d149066U, 0xbddd5c97bdf72dc8U, 0xbf85f21f3c12a910U, 0xbf18ea03bf8ef6b5U,
  0xbea76147bf1d0fe8U, 0xbe51552ebef5bc6eU, 0xbf8c6d8ebe4cc839U, 0xbe254e85bf1b4467U,
  0xbf4e60cebf289256U, 0xbe2b858cbe90ba02U, 0xbcf3fab0bdcdac58U, 0xbf4fa434beb35a14U,
  0x3e3aef983d718614U, 0xbda0f0cb3dce4bc7U, 0x3af07e763b77e82dU, 0x3d240ffbbd99c8fcU,
  0x3de376cc3b72e9d8U, 0xbdd324dd3dc9e506U, 0x3d1a1d1dbc9794edU, 0xbd59b5febe162c1aU,
  0xbd11c3653d919b18U, 0xbd8e3e863d275405U, 0xbdab34003c65b80bU, 0xbdf6076e3da98990U,
  0xbc8c873d3cb94974U, 0xbc09ca9ebe11c46dU, 0xbde510f33d4bba8dU, 0xbdcb797c3da7f5e3U,
  0x3c769291bd79ca19U, 0xbd462894bdd46c9eU, 0xbcc7a8b03d78d936U, 0xbdb5f07ebe1e0bc1U,
  0xbd8ca9d4be0eb6bcU, 0x3b8c6911bc7c94d0U, 0xbc82eff0bd141dc0U, 0x3de39d78bcb30222U,
  0x3dc81d313d965865U, 0x3ca1ce9b3d0f25a9U, 0xbca8a6c3be0a3dceU, 0x3c1c502f3dae2762U,
  0x3d95410e3d3dc0fcU, 0x3c7bbef0398799d3U, 0xbd131cf93d2aec33U, 0xbc22e6733d39dda0U,
  0x3c0f9b233cfa9c69U, 0x3d4719be3c8bfaeeU, 0xbda8de6ebb501cc5U, 0x3e03078bbd3393b8U,
  0x3dd20755bd43a950U, 0xbe02e4b53de8ece9U, 0xbd9d3740bdf1662cU, 0xbdab0c783c2c7da0U,
  0x3c8f0e843d96a69aU, 0xbd3d1704be0477edU, 0xbda2c39c3d08be2fU, 0xbcae0d18bd9cb97eU,
  0xbd28f77dbd26456dU, 0xbd99d128bd691914U, 0xbdedf8fe3b567e2bU, 0xbdd053053d0daeb6U,
  0xbaa56f073db229afU, 0x3d61454a3c8e62d5U, 0xbdd3d1b4bcefbcccU, 0x3d0494b8be331901U,
  0xbc73c898bdec8531U, 0xbceea7673bee5630U, 0x3d0fc1e2bbe96151U, 0xbd9d7b21bd4f3489U,
  0x3dd50fedbb20c3e4U, 0x3d97d91fbe50a114U, 0x3c3270e6bdc2ce2cU, 0xbd50a714bdadff33U,
  0xbcfa93303bfd44f3U, 0xbd8f0996bd8c51ddU, 0xbc04351c3db4a5f8U, 0xbda5e2063d084324U,
  0x3ddb739dbd685ff2U, 0x3c4496223bfdd3b4U, 0xbb8232cdbe1f4206U, 0x3d9a0764be08af65U,
  0x3d927c413d58bfc3U, 0xbdf362553cce268aU, 0xbd593159bd829bc1U, 0x3d849c4abdad2270U,
  0xbc5401d73db1723cU, 0xbc43e4b83d034f72U, 0xbbf1b740bc1cecf2U, 0xbde1153e3d20b94aU,
  0xbda8db963da4a838U, 0xbd8b6ce83cd153c2U, 0xbc75e50abd1fbb9bU, 0xbdae94d33d83e734U,
  0xbdbdc37d3d931187U, 0xbd63d4cb3c5b3b9cU, 0xbc9454b73db5331aU, 0xbdddb0d4be2453b8U,
  0x3c8865bdbce42355U, 0x3c7b99dc3d913970U, 0x3c7b2516bd2fbea9U, 0x3d3e4f4b3cd8fe03U,
  0xbd8b33dabde96265U, 0x3d539fdbbe13011cU, 0xbddb264bbde6492fU, 0xbcaa0e14bb44e89aU,
  0xbc9a6dc4b97e68b7U, 0xbd754d07bca011cbU, 0xbdb252223dee7b76U, 0xbbb87dd3bd4693deU,
  0x3ca27d4ebc76cdc9U, 0xbcca119dbd4ab8f8U, 0xbc09dadfbc134035U, 0xbdfbea2abe1466fdU,
  0x3c998ea33d91a4f9U, 0xbdec4d8bbda3d186U, 0x3cf99172be1e4801U, 0x3e300250bcf3c50cU,
  0xbe0b1aedbe186d24U, 0x3d1420c0bd3d420fU, 0xbd96d6953d5f0afdU, 0x3bfff8f13dacf9edU,
  0x3db2276abdc37f68U, 0x3da702ddbd2eb345U, 0x3d9c96df3d33a9a4U, 0xbd1a84eebcdedadfU,
  0x3d52f488bd9e1412U, 0x3cde62be3d875953U, 0x3cd8700fbd4aa966U, 0xbe033c773d8a6b46U,
  0x3caa4a79bd65fdbcU, 0xbd95e28e3b52cf9bU, 0x3ddaff60bddfd9fcU, 0x3dd0be7fbb79bd24U,
  0xbd7c919c3dda08ecU, 0x3d0b3ab7bd74a095U, 0x36bda7bd3da9a6b5U, 0xbd32ae61bdfda886U,
  0xbe1eb165bd32145dU, 0xbda30b27bce18975U, 0xbd45eda73d89b644U, 0xbe6b8ecabe50c170U,
  0xbd1132493b562d94U, 0xbda4bd7fbbcea1f2U, 0x3d6612e23b570ae8U, 0x3d973547bda8b52aU,
  0xbd7132ac3d1cf0d5U, 0x3cb0bcc63d631671U, 0xbc4115acbd6c812cU, 0x3e33868c3d945ac4U,
  0xbdaa7d163b5337f8U, 0xbd133c7ebd5ecb9dU, 0xbd0ee4f2bcf6ce49U, 0xbbc82b003d55c239U,
  0xbd7b9a623db76746U, 0xbce0e0c4bde7a548U, 0xbe01d479be13a21cU, 0xbc11e57ebe2767bfU,
  0xbd0217ad3d17c0abU, 0xbd66cdcfbd47dfb3U, 0x3cd829a73cf22f14U, 0xbd1cd26fbe048274U,
  0xbe08d9e7bd736f82U, 0x3d58987cbd48dc42U, 0xbcdafcf3bc46d5a4U, 0xbac588b1bd4ad6c1U,
  0xbcc59c683dc7b0e9U, 0xbcbc94103c0f19ceU, 0xbcd20bb0bd8429b5U, 0x3ca04be43d9e8572U,
  0xbe1816b2bd9bbcd3U, 0x3d6e5e4bbdaee5f8U, 0xbe393cdf3df30028U, 0xbe10cd46bd44fd9dU,
  0x3d6e7612bd10b63cU, 0x3d4e8ffabe287410U, 0xbceb6fdcbe23ed8eU, 0xbc30c368bbbc8c38U,
  0x3e0cb17abda3d702U, 0xbc213953be0f365bU, 0xbdc57e37bd495148U, 0x3d5ddeb8be04e7c6U,
  0xba4aad193d94cf24U, 0x3e1af7c43e071259U, 0xbcd296353d7d841aU, 0xbd9d6eca3da07cbdU,
  0xbd4aace9bbdeed11U, 0x3d9c6bc9bdac5766U, 0x3c80e62abd561726U, 0x3d13cb65be20000dU,
  0xbe0f14e83dc6967dU, 0xbcab4066bc4e6a15U, 0xbd48d1603d22b9a3U, 0x3d80b6b2bd94785bU,
  0xbde491aabdf57e1aU, 0x3c9259153b8d756eU, 0xbc729010be4f73d5U, 0x3d523dca3d31c01bU,
  0xbd1ae5cd3d53055cU, 0xbc14f9b7bd67300eU, 0x3d16220d3d83d874U, 0xbd9ac26b3d99623fU,
  0xbddf33f63afd39a0U, 0xbd21cada3cd4eb2cU, 0xbb9cb06a3db82e29U, 0xbe08bc9d3d615c06U,
  0x3dbf5c7cbd8d5d0aU, 0x3d61e0023d5d6772U, 0x3d9e39b3bd1d9e85U, 0x3dc5367fbe20a469U,
  0x3dcffe163b35aff7U, 0xbe288629bdabe4eaU, 0x3cffb85abe2dde41U, 0xbd3a7595be0a9cb1U,
  0xbc3d1ceabc9652e1U, 0xbdfefd4ebceede90U, 0x3b2415b5bd4e4607U, 0xbd77587cbd66d894U,
  0x3d923a133d114918U, 0xbdad08243d376230U, 0x3db53be83d03fa23U, 0xbd0341b0bd5ac42dU,
  0xbd7d4474bda76ca8U, 0x3d447ed93b00057eU, 0x3bb8c2783d86249dU, 0xbd7cbe01bcb610e9U,
  0xbe055182bdaafad3U, 0x3c83684d3e0122e0U, 0xbd85c78cbdddf245U, 0xbd29626bbd2d0c6cU,
  0xbc921c2c3ddec8dfU, 0x3d55aa15bd0df98dU, 0x3b586427bde1e6c8U, 0x3dfeb87bbd302fa7U,
  0xbc913d3b3d271d6bU, 0xbced3a43be21baf7U, 0xbd2bfe1c3d898534U, 0x3c148f2e3d73301cU,
  0x3ce2b8cebbd383b3U, 0xbd30b5703c9a2b59U, 0x3d740bcf3d6f733fU, 0x3de9e522bba221e6U,
  0x3db509ab3c8bf248U, 0xbd445cdebdb57fd3U, 0x3da3a092be083344U, 0xbc8549f6bb7d3151U,
  0xbd090190bd0b16caU, 0xbce8833bbcc1a939U, 0xbc2176cdbda24394U, 0x3aa205e5bda25e50U,
  0x3d05dac53bb504c4U, 0x3d8e87f8bced9ec2U, 0x3dd3cf463d265731U, 0xbdc5dbed3cd8ea36U,
  0x3c3a5a14be19fee6U, 0x3dcb4b6abdefcda1U, 0x3cf750ca3d93c7a6U, 0xbd2503643b54b39eU,
  0x3d03fce5bc7189dfU, 0x3d6085ae3dba4ac0U, 0x3d1c8c62bdae8a59U, 0xbccdac083d59d0c2U,
  0xbd7c24a1bda9cc92U, 0xbd6d21e13dacc3c3U, 0xbdd6025cbe2d0efeU, 0x3e098d66bcc0a207U,
  0x3c745ef3bd6050c5U, 0xbc0cbb74bdf9e4a5U, 0x3db5f9b53dba321dU, 0x3e1a2ee33c9c2f47U,
  0x3d8c28b13dc5d102U, 0xbd8a5eea3cec4ba4U, 0x3cf690553be9a1ddU, 0x3dc86532be318a67U,
  0x3d8ad4f33db01c90U, 0xbcf3fdd73e0c6899U, 0x3d8bf758bd2596bfU, 0xbc8df1f6bb8459bdU,
  0xbd26e407bc593570U, 0xbdfb9b0dbc90183cU, 0xbddb0f5fbce22db5U, 0xbd35e1ac3de1c5c8U,
  0xbd8e0754bd4f7c91U, 0x3dc0af413c5da0b4U, 0xbc60c0723d0c2907U, 0xbd3c5a693d1cf265U,
  0x3d18c53cb7317469U, 0x3e1be689bd09c0a7U, 0xbdb2ee133daada2eU, 0xbdfc7a063d04b893U,
  0xbd93a09dbcb6bb3aU, 0x3d950e0dbc2839ddU, 0x3d0aed9ebd886feeU, 0x3d8695a6bd10cd79U,
  0xbdc88a483d5305f8U, 0xbdbe8a90bb51c1bcU, 0xbe089889be22709cU, 0x3e2c912ebd8fbe1bU,
  0x3bf628afbd71acadU, 0xbd85c4f6bd936f86U, 0x3d1c74623dad2e68U, 0x3ce3ac5fbdcbecb4U,
  0xbda5febabddbad35U, 0xbd538762bd4ba5ecU, 0xbd2dce6f3dce5301U, 0x3d79f2733c7ec839U,
  0x3d927d8d3e26e785U, 0xbc1e765fbe223dd3U, 0x3c4546463daaf088U, 0x3d786908bd1e2052U,
  0x3d8096353dddef24U, 0x3c967dc83c84f8a7U, 0xbde37ed7bdf4a85eU, 0x3d931475bdd63f51U,
  0x3d1eb73abc34d41fU, 0xbcad11543d4ce938U, 0x3d23d8e2bb38c44eU, 0xbd6083debe13eb70U,
  0xbd2677b93d883945U, 0xbd574e2abdb29107U, 0xbe0a51f83c8d2e56U, 0x3ddd2a233d8d1df4U,
  0x3d6aafeabdbec0a6U, 0xbdc3d1fd3de06dc1U, 0xbc7d277d3da4746aU, 0xbe20e3dbbc325949U,
  0x3c99a7be3e1259acU, 0x3c8d3f8f3d53e317U, 0xbc3eb46a3d09b0c9U, 0x3b3117bc3d86fa96U,
  0xbdd314bcbd09dd11U, 0x3d6ef2533d64c77eU, 0xbbfe2718bd4bb1fbU, 0x3cb937c03dc5180aU,
  0xbcef0118bda0c518U, 0xbde241213d5ba33cU, 0xbdc88b9d3d312722U, 0x3d44ece7bdd50e20U,
  0xbda5d039bddf018cU, 0x3e07f871bc796a92U, 0xbd969d8d3dd96b79U, 0x3d5bcffb3c5a96adU,
  0x3bde7a21bc1086fdU, 0xbc61b1db3dff57d4U, 0xbcd801c13ae77a42U, 0x3d95ee4d3d9eb99fU,
  0xbd325af83c204e54U, 0x3d3f55923da4e509U, 0x3d988b5fbe2fc936U, 0xbe1166043d15ff85U,
  0x3d782af7bc8c8f01U, 0xbdc126623db37b8dU, 0xbe17bd7fbe1cb79fU, 0xbd44bcd43d60824bU,
  0x3d2c78bebae6ab2fU, 0x3d0fc477bccfb68cU, 0xbe29cc3a3d8e434aU, 0xbe1cc400be03cabfU,
  0x3c1fdba23d0eeff3U, 0xbdcb3dcb3d0b0d0bU, 0x3c4ef8b53c6c6c80U, 0xbd4e2ef23d779522U,
  0xbdc139b93d21c65dU, 0xbd28e926bccac70bU, 0xbdfa56ccbd757b08U, 0xbca071823d15e54cU,
  0xbe46c393be09d685U, 0x3c0c7f4cbd939c75U, 0xbdae47b63d3711afU, 0xbd2e357e3b98720cU,
  0xbda95975bd4e7f7bU, 0x3d9ab274bcbe83ecU, 0xbdc8be703dc063c2U, 0x3c175576bde05575U,
  0x3dad9ad7bd98a210U, 0xbd3501bebbfb749dU, 0x3dd6fd503cb20723U, 0x3dedbe7c3d856469U,
  0xbd896d693dccb481U, 0x3cf0fbc53d07efbfU, 0x3cb70903bd9ce129U, 0xbcaed495bd7887d8U,
  0x3dc9638f3d1124b8U, 0xbe081f8a3db22bfdU, 0x3c5d79fe3d1dd20fU, 0x3d9d4c733e12a91dU,
  0x3d556435bdb40725U, 0xbceb845bbe2268d7U, 0xbdd19bb83db41fb4U, 0xbe1d6f66bcc0127cU,
  0x3d6fafe93e06a0c5U, 0x3ca7d2c63d35e16cU, 0xbe0a8e1a3dac746dU, 0x3b862b593d7d9418U,
  0xbd955652bde326c3U, 0x3ab1e5f73c091c6fU, 0xbe01d873bd7bfa2eU, 0xbd6c39f03d5527eeU,
  0x3e29a319bdaa7843U, 0xbda24140bd97c61dU, 0x3d8ed0df3d49a59bU, 0x3d36a0edbd874364U,
  0x3d83393c3c2f4718U, 0xbd3bf91abde00afbU, 0xbdb0e1c23cfe5de4U, 0xbe0d50f1bd98a380U,
  0x3c9ae0bc3cc09966U, 0x3dafad00bd4ff904U, 0xbd964d863d18d19dU, 0xbcd87761bd9acaa2U,
  0xbdfe5628bcf884fcU, 0x3d038e2f3bc0d12eU, 0x3d36b5d4bdbcf979U, 0xbdbce214bc87ed22U,
  0xbc03b60a3bb97b78U, 0x3def8b863df75d79U, 0xbe1436383d852503U, 0x3d3655333d8df938U,
  0xbdf564b6bda06ba4U, 0xbcec8c513dc303a7U, 0x3d538fbbbd538ecbU, 0xbe0ccd50bd00d9a0U,
  0x3c145f8b3d6adae0U, 0xbd5cd5c7bc658076U, 0x3c92fd7fbc77c57dU, 0x3e094f623d455248U,
  0x3c491dc8bdba9af4U, 0xbb0196f6bddf4821U, 0xbd85a1b9bdd2fb16U, 0xbd708d4ebc86fb67U,
  0x3dfee4c5bd62a737U, 0xbc240f3f3d842198U, 0xbb14dc08bd918c77U, 0xbd1f54d4bd826670U,
  0x3c26933abd412ebdU, 0xbcf80fe0bd4a6448U, 0xbdb84078bdb67c8cU, 0xbd58e0e8bdfda2f8U,
  0x3d95d45cbdb19fedU, 0xbd96dfb93b8b399cU, 0xbdda67083ca53613U, 0xbda87d42be0cb275U,
  0x3d4b842f3bb3573bU, 0x3d4401fabde0b6f6U, 0x3e00d734bbd8b562U, 0xbd8647843d52d597U,
  0x3ce7b133be101465U, 0xbce5c96dbdd444b3U, 0xbbabbbfb3dd16d94U, 0x3de5c71abcd1883aU,
  0xbd3d6cba3d89c0c0U, 0x3d3132203de0ab61U, 0x3d2c8cdebd96b03eU, 0xbdb453b3bd863f89U,
  0xbda2e6b9bbe171ecU, 0xbca907423d3fb22dU, 0x3dc91df1bb4a2b9eU, 0x3de5cf0dbc214387U,
  0xbc27a6373da7f3d3U, 0x3c30add2bdd2a74dU, 0x3c5c9395bd23615dU, 0xbd7831acbd7dbeadU,
  0x3df3a433bd6c14faU, 0xbd7b4104bd0b118dU, 0xbd4d9c123c819d58U, 0xbaa9f765be029cd3U,
  0x3d4cbcfa3d925eeeU, 0xbbbe8361bca00ac7U, 0x3d626de1bca4f070U, 0x3d016981bd706e99U,
  0xbd770c0cbddc279dU, 0x3d798b06bda55556U, 0xbd51b569be00fd2dU, 0xbd976dba3cdabaeeU,
  0xbdd14317be13a118U, 0x3d94b946bdf84183U, 0xbbf5a6933d4f12daU, 0xbd5396083d07842cU,
  0xbdac0861bd73f2e7U, 0xbd67c571bd713cbeU, 0x3d6639b0bd2e2b80U, 0x3da328a3bd4c0cceU,
  0x3d273493be049196U, 0x3d957573bd9dcc96U, 0xbd6fa0763bb604eeU, 0xbdbc46553d96a2f7U,
  0xbdb135873dd39224U, 0xbe00f1503d86bf76U, 0xbdb0ff24bdbeaa87U, 0x3ccc86aa3da27abcU,
  0xbc6b669dbd894a1fU, 0x3afa6984bd3bc5b2U, 0xbd98e2fd3d890bbaU, 0x3d09fff93d9719b9U,
  0x3cec16d9bb0f17c2U, 0x3d48791fbe025ff2U, 0x3d96132c3e052716U, 0x3ce53b343df65302U,
  0x3d337c663e06a752U, 0x3e206f2f3dab03e9U, 0xbd48d0cebd6aa118U, 0xbd7f137b3cc4265aU,
  0xbd35adbabd45856dU, 0x3d99cc783d8ebaf2U, 0xbd56c740bd07a643U, 0x3c5165c6bab39deaU,
  0xbdf14a56bdcc3be3U, 0x3cc149a1bd007ba3U, 0xbd938e69bd8d9517U, 0xbd41b2393d3ef4bbU,
  0xbc0210533d86ed8bU, 0x3c36c7b33d9ced29U, 0x3d8abaebbda27d29U, 0xbdc52c44baaa598eU,
  0x3d855f9e3d1fa73fU, 0xbd6b1ba4bc210ff2U, 0xbdc590b5bc74ad7dU, 0x3d83ec6139739da8U,
  0xbd882ab13aa6b5a2U, 0x38a69b9a3e04c90dU, 0x3c9b5fd7bd52d846U, 0xbd89d308bdbbca3aU,
  0x3cd26b74bc87c604U, 0xbd6718abbc4594e3U, 0xbd3e551cbe02e496U, 0xbd43818cbe15dfa5U,
  0x3cbef8273a0c0482U, 0x3d2861723d447f47U, 0xbda2caf03e3ef254U, 0xbdb0c7713e2023d6U,
  0xbd82f2303e2208bbU, 0x3dc08ab5bc1ca0b7U, 0xbda7f3a8bd8a20d3U, 0xbdb4f88b3c9f7bc1U,
  0xbc5114b13ba7a3f2U, 0xbd5c5125bd0d2998U, 0xbd43bff6babc5ac5U, 0xbd0230743d6769b5U,
  0xbd9245cf3d088e6cU, 0xbd95f372badfefb2U, 0xbcb6b457bd5494aaU, 0xbdda5d493c4f2b8dU,
  0x3df37bcbbb349ae9U, 0x3cdb79893caa982dU, 0xbc857891be36301aU, 0xbe492d6e3dca0771U,
  0xbd42cfdabd762e24U, 0xbd1c53d43c1ec8acU, 0xbdd48e85bd599e7bU, 0x3dc123c83dff5bdeU,
  0x3d050ea2bdbce2ddU, 0xbca9edce3cdbe4baU, 0xbd2f548dbd071ea6U, 0x3d3725c6bdad27b2U,
  0xbce886783d1104ccU, 0x3cd68b393dbaa1e0U, 0x3d483c57bd9f42fdU, 0xbe097372be281aa0U,
  0xbe26118a3d27cc25U, 0x3e0776a0bda9eafdU, 0xbd4dc1a63df473abU, 0xbda537883db754feU,
  0x3c7aca13bc232093U, 0xbca752353e03807eU, 0xbd1da5ad3d3c5dd5U, 0xbd92d9ca3d969166U,
  0xbceb1a29be0a3c73U, 0xbdbabcaa3dcb026aU, 0x3cf9a51fbd4c9202U, 0xbd1c38033da2850fU,
  0xbce8c5773c997a02U, 0x3cb77567bd50476eU, 0xbd1f52f7bc7d9951U, 0xbd86a1b73ddce9e1U,
  0x3d5f3b9ebbcd61ccU, 0x3be877643c7aba23U, 0x3d92a5373d09e18fU, 0x3cad05873da187d7U,
  0xbd875fa4bd2e603fU, 0xbdf1549bbd733922U, 0x3cacea973df3215eU, 0x3d8f5c993e36a02fU,
  0x3c758119bd09e878U, 0xbc628ea73d6e9edaU, 0xbd8269a1bdb6f4fdU, 0xbdb34072bc2b74bfU,
  0xbd1934053d5a09aaU, 0xbd33d0733ccadcb7U, 0x3d1221493ce240b5U, 0x3db8e0d7bd42a937U,
  0x3dcba7e7bb8f24f7U, 0x3d0394983d679403U, 0x3db52f9e3d6de7d1U, 0xbe17767ebd419f00U,
  0xbd572da63e19eec2U, 0xbcbf683bbd8a30e0U, 0xbd7002533d960ea8U, 0x3c2c80e6bccc783dU,
  0x3c93eac73d01bd79U, 0xbba1e4ce3d408816U, 0x3cf09a2a3dc49f44U, 0xbd03d6453e0d8b60U,
  0x3df5315e3c4ac0f5U, 0xbd613cd83dc3727cU, 0xbb9f98e03d6cd45aU, 0x3c4cb61ebd905e0aU,
  0xbd9d8423bda0f6eeU, 0xbd7ce4953d524431U, 0xbc6a4bdd3bab940fU, 0x3c9664a53cdbab5aU,
  0xbd22ae133c95c687U, 0xbd830ba3be4387a4U, 0x3d8f8c24bc6849c4U, 0x3ca62353bbe14921U,
  0x3d333724bd464e00U, 0x3d13e26fbd2ffaa8U, 0x3db135d3bd2abce8U, 0xbe1e60363ddc4689U,
  0x3df4913abd9b40a1U, 0xbd3398733cf108d1U, 0xbd2677c23d8ed023U, 0x3cfbb6bf3d22a3a9U,
  0x3c8b761a3d06d742U, 0xbb9214023dcb4febU, 0x3c29bc80bd9f5b00U, 0xbe2acecb3d492a06U,
  0xbdebd9a23b41cf14U, 0x3dc22ff8bbee6452U, 0x3d4481cd3da89bbdU, 0xbda8e6a8be1262d7U,
  0x3daf79a53dd865e0U, 0xbda36f89bd6d8e9aU, 0xbd3e57fdbbf90fd7U, 0x3db78a11bb8f7a47U,
  0x3b20f498bdadf754U, 0x3df8a697bc66d815U, 0xbcd62c8b3dce53e2U, 0x3d94ccb9bd8b3b89U,
  0xbcee6600bd38c7bfU, 0x3d51d02a3dc11f3cU, 0x3d9b729e3d165d27U, 0x3ddee2bfbd6b84f8U,
  0x3e099c0cbd02c1d8U, 0xbd823e0dbe6908a4U, 0x3cb818ce3ddc6e9dU, 0x3d8b3c9bbde41b24U,
  0xbcccd5fabdedb477U, 0xbb56827d3b2bcbabU, 0x3e0f6ab1be1096a2U, 0xbdc39c45bd918c82U,
  0x3dcd6ed0bd686e28U, 0x3d3b4acdbd79bc90U, 0xbc6f9c9a3d8cd750U, 0x3dcdea023d56973eU,
  0x3def1e743dbe9808U, 0x3d1b7f32bcce92f1U, 0xbcaf5f5fbcfd3259U, 0xbe1444273d8161feU,
  0xbde8432f3e3abc1aU, 0x3e026075bd7bf05dU, 0x3bbe6574bc1f3df6U, 0xbd5bc332bd0bcca8U,
  0xbd8003773d4b7107U, 0x3cefd9503be3ed8dU, 0x3dbd2795bd0b10eeU, 0x3dd614123cfc41d7U,
  0x3d955afebc89e961U, 0x3cee59e63d6825b6U, 0xbdcc0bbabdc157a6U, 0x3db31f04bd69d9f4U,
  0x3d8a03ca3d886d4aU, 0xbd0d36303d59aaceU, 0xbcf6365fbbe38823U, 0x3e099362bcad5d41U,
  0x3d6f1b273daa1569U, 0x3db65165bd8d0fc3U, 0xbc1a17343c84594fU, 0xbd752dafbdeba931U,
  0x3d7d20363d205919U, 0x3dc3300e3d33f9b3U, 0x3cd08f58be12338dU, 0xbe168c8cbd010379U,
  0x3ca33c66bd346817U, 0xbe0108b5bd1819cdU, 0xbc702308bd81e290U, 0xbd4b5f0abdc19db5U,
  0xbd89eccc3dcac7c0U, 0x3d0d7b003def28c9U, 0x3d8ba0953dc23968U, 0x3d627684bdecea8aU,
  0xbd0eb9d0bbbcca04U, 0xbc52798fbcecb102U, 0x3d214278bdc2ba43U, 0x3d49aec0bd777c17U,
  0xbd30c4d3bd7a6569U, 0x3d81891e3d123991U, 0x3dca1074bc5f88b0U, 0x3d478734bd561ccfU,
  0xbc84e6bcbd2dde9dU, 0x3e084bc8bd26da37U, 0x3c2287093db63c6bU, 0xbd66f0d33d7de36bU,
  0xbb1b4e70bd89861eU, 0x3e1e3faf3dab0811U, 0x3c70293f3e0b79e0U, 0x3d92c463bd755084U,
  0x3dbb5bf03d26e21cU, 0x3db69f383ddde18cU, 0xbd3f45933de27aa7U, 0x3db1567d3d074b4bU,
  0x3c04a514bd47601dU, 0x3e1605333d6ae06cU, 0xbd5ca78bbda397c9U, 0x3ca87b123d7c0560U,
  0xbc96169fbc93f8beU, 0x3c9019113dd6fe5aU, 0x3c824bf1bd9aab32U, 0x3cb37108bd2946a9U,
  0xbcb16c32bc3192edU, 0x3db32177bd1d52cbU, 0x3e0dcf3a3cf2f142U, 0x3e03118bbdc9e33bU,
  0xbde279efbda48718U, 0x3c9cce10bd318a10U, 0xbc19d470bd1ce98aU, 0x3e2167f4bca535baU,
  0xbb86670abd84205aU, 0xbd8cb829bd828998U, 0x3da4d762bd4e3ba5U, 0x3c969f483dc1ca2fU,
  0x3ce851a7bd428d70U, 0x3e14ea64bd3ec16fU, 0x3c2ea6623d973293U, 0xbc7b70423d2fd1ffU,
  0xbdfc0069bd9a43d1U, 0x3c5e5e723ba42648U, 0x3d99b07ebb5a639eU, 0xbd1bad40bcbaec4cU,
  0xbd8f4fe2bc764071U, 0xbc3579ed3e0cc42cU, 0x3c99e68dbd3f2b95U, 0x3c89b1db3e168a52U,
  0xbd74ed123da6389cU, 0x3d0d525f3d17b514U, 0x3d5e9f763d04423bU, 0x3d749587bde51157U,
  0xbb6680e9bd612d37U, 0x3d21305d3dfe5736U, 0x3d73aa513d8c3724U, 0x3d743bd93d1a4b5cU,
  0xbe42ef1bbc0e2697U, 0x3d6ac51c3d8579cdU, 0x3d58caaebd7f8a30U, 0x3e14879b3c088e8bU,
  0xbda26469bd98b165U, 0x3da200d73d09e540U, 0x3cd5d6913dd5544fU, 0x3e3abc69bdbad621U,
  0x3ac1a7c63d19290fU, 0xbaa05ba1bce6917eU, 0x3e03c7973db390f4U, 0xbd77144f3e0877a2U,
  0x3e214064bd1275dbU, 0x3d748bd03d19fbc1U, 0xbdbe31d43df640a7U, 0x3d5ecaf03dbe25ffU,
  0xbd971205bcdf8d96U, 0x3e036af73cd6fcaaU, 0xbdd377ae3dc9da79U, 0x3d7a318cbdaea1e6U,
  0xbc99e99dbdf9f903U, 0xbd905a5d3c2207c3U, 0x3c4b26193dda9b02U, 0x3c0fc570bd30e85eU,
  0x3d5a32613d3bf1faU, 0x3da840a4bddf4d49U, 0x3c4fac073d244adfU, 0x3d94ac0dbbbd7bacU,
  0xbcb7e20a3e05694dU, 0xbdc00dfe3d126879U, 0xbd9088983e09ade1U, 0x3e16f4eabc657064U,
  0xbdf4bb45be0a5b59U, 0xbc253c33be164f99U, 0xbdadbfd53cd6cb62U, 0xbae6c636bcbcb5aaU,
  0xbd90b2b9bda2fab6U, 0xbd284ca6bd1c2647U, 0xbd8746cb3c428be9U, 0xbc2d5da03ce85250U,
  0x3d342d3d3d7c5150U, 0x3c10c78dbd384374U, 0xbd220129bd35a318U, 0x3b455192bd538a8aU,
  0xbd2946da3d57e15eU, 0x3df0347dbdd9be75U, 0xbd8ae009bd6fa7bfU, 0x3ca7b3533e02649aU,
  0xbcfb3b20bcdd48f0U, 0xbd0a3c09bc3386edU, 0xbd750ec33c747784U, 0xbe078524be0b0dabU,
  0x3cc2cc42bc33a51bU, 0xbdce77c3bdb9efd1U, 0xbd125839bd06fe0cU, 0x3c5b37413d0120bfU,
  0xbcd0d2de3bbfc711U, 0xbb04830dbd0879e8U, 0x3d5c0f41bafc996dU, 0xbdd8cf48be240a88U,
  0xbe42ca1d3d477d85U, 0x3d3f18943d3dea48U, 0xbd97a6943cd5a3abU, 0xbe1c96debe011363U,
  0xbbb55b40be1e611cU, 0xbd1dc1abbe3f867bU, 0x3db74b823c8f7994U, 0xbcf2a7ed3cd52f7cU,
  0x3d8db8e6bde9a517U, 0xbc63fc453de87eb6U, 0x3dcde0fa3a830c07U, 0x3d0d52ef3d6d68c4U,
  0xbd88fcbfbdb6c66aU, 0x3d8c99b23dc79adfU, 0xbd3a02acbcba0c53U, 0xbde59e0c3c6a0b34U,
  0x3d3ff0263d181c68U, 0x3d41cebcbe4f6a64U, 0x3d4ff86fbcbd9769U, 0xbc46b19cbd57ce88U,
  0xbd834717bdb371bfU, 0xbd32b39abb11c702U, 0x3c2ee6cb3d01a176U, 0xbd2ed238bda477ebU,
  0xbd758930bd173758U, 0xbdbb817fbdcae1d8U, 0x3d8a130f3d0b45e7U, 0x3dcd04c3b9aa0123U,
  0x3c5caf1d3d6c836dU, 0xbd6d8749bd8681d1U, 0x3dc5709ebdb30c4fU, 0x3d51afa33befb13dU,
  0xbe13067a3df30361U, 0xbd1abf9b3d9dac44U, 0x3d1604f4bdceeb0dU, 0xbca44a8fbe250d83U,
  0x3ce56351be01628cU, 0xbd9a3b4fbe1e007dU, 0x3d0bded23dc8a1c2U, 0x3cee21503d0187b8U,
  0x3dc311bcbdc1668aU, 0x3d0e3edebdb0cd5eU, 0xbd477d15bc87fef5U, 0x3ddb8a23bd47660aU,
  0xbcfff89cbdbb1df6U, 0x3dafb4d63dbc6416U, 0x3da23fbbbc65d20bU, 0xbd8ae31d3ca372c6U,
  0xbd158587bd7274adU, 0x3d084d0ebe33a333U, 0x3d581625bd88aca0U, 0xbe0dc2923dbb323cU,
  0xbcfae18dbd4781c9U, 0xbd498a2cbded8165U, 0x3d19d8a63c88100eU, 0xbe0fe5ae3be46910U,
  0x3d6e2c09bd132029U, 0x3cbb4088bd5972c4U, 0xbdfba5fbbd94e97dU, 0xbd84f5ee3a97523cU,
  0x3dcf6ae9bd544529U, 0xbd5bfb09bda0a22aU, 0x3c1f23c43d8d4888U, 0xbbe691dfbddda9dbU,
  0xbe1932183b9c3749U, 0x3cab83a2bde9a8a5U, 0xbe1220f0bdb2c457U, 0xbe277273bd816051U,
  0x3dfe43823d8fee64U, 0xbd49761d3dd84322U, 0x3d906b133dd90d7fU, 0x3e1a4568bd5a9a48U,
  0x3c9e11123d3aa0d7U, 0x3d881fc0bd900a6dU, 0x3c3f4e1cbdb58b07U, 0x3cb12086bdbb7495U,
  0xbd9efacebe01ace1U, 0x3cd51505bd821bafU, 0x3d1228d7bd611125U, 0x3c694e6f3d33029bU,
  0x3cd08d193c6829b0U, 0x3b6cf902bcd802c8U, 0xbdd026b6bcf4f1a9U, 0xbc77eb673de1cbfeU,
  0xbd4337793db4ef05U, 0xbc6eccc03cfe2e8fU, 0x3a8af2f63cd7fd4bU, 0xbdbb8acebd796b76U,
  0xbc8435df3cc24a0eU, 0xbaa11c393c728f0dU, 0x3ccc47153d1e3d3aU, 0xbdcfd3d53c888d01U,
  0xbe18ef313c4df9a5U, 0xbe17051c3df9a4b4U, 0xbdd36ae5bb8d4d88U, 0x3e11a73abe01da36U,
  0x3ccf904fbe060ca9U, 0x3d1cd80e3d87c09dU, 0x3da0f5173dc1e67bU, 0xbd6f9e11bd398652U,
  0x3da7cfdb3dd60bcaU, 0xbd9116423d10c390U, 0xbbef5fdc3d91ac0fU, 0x3cfaa0c8bd9d31e3U,
  0xbd7e61453debdaeaU, 0xbce32b5abd044712U, 0xbb6f8c8b3d0beb19U, 0xbd8f449f3d432b53U,
  0xbd14b9e4bdd89c0cU, 0xbd9ca0afbd883a6fU, 0xbd5c056d3c81463bU, 0x3ba114c2bcb4e5c0U,
  0xbcb19c1b3c098457U, 0xbcdc58e73d6f64d5U, 0xbce09a233d635908U, 0x3c60b1ac3d89022fU,
  0xbd8e90b23c5ad3e2U, 0x3d055e0a3df101e8U, 0x3d0676fd3cee175eU, 0x3dcd2a48bc514bd6U,
  0x3e26abd23d91e9ebU, 0x3d56d94e3d3978ccU, 0x3d33bcf73d29456fU, 0xbdc32601bdc8a19aU,
  0xbde159b3bd2e058eU, 0xbde321013a31565eU, 0x3c5817223c8815ecU, 0x3d925c3cbddc6023U,
  0xbcc40735bdddd8b1U, 0xbbfa9fb2bdf35cddU, 0x3d18aeef3da73c74U, 0xbd00cea2bd3a2a85U,
  0x3c62f5023da9ace1U, 0xbe02d44bbc17b0adU, 0xbd82b301bd03eed6U, 0x3dd32d55bd158238U,
  0xbd9a13033e309683U, 0x3e0b239bbd67a23aU, 0x3d3c85b2bdb22d35U, 0xbcc4b3ffbdc76deaU,
  0xbc89437dbde49db7U, 0x3caec8493ccec2bbU, 0xbc5a3e35bd78fc02U, 0x3dfba0c53da2bb16U,
  0xbcf6100fbb9ff194U, 0xbd2aa3bbbdf83d2aU, 0xbdc1042dbe067df1U, 0x3cdf9846b91940ceU,
  0x3d53f971bb24aed2U, 0xbb5708053dcdaf78U, 0x3dcb1c8f3d22e4b7U, 0x3dd32e27bd29d635U,
  0xbbf75ae6bc278890U, 0x3dc0453f3d85fc0dU, 0x3d9c2602bd26ced7U, 0xbb9f5311be0c03deU,
  0xbde92a7abc6578f3U, 0xbdc8bf1ebd92a229U, 0xbd9c1b7bbe081e97U, 0x3c6f8b0bbd98256eU,
  0x3b9d887b3d28cf10U, 0xbcdcc1b1bb5ed577U, 0xbcc01a27bd5eb7c9U, 0x3db21e233da38483U,
  0x3e0ae529bb1912d1U, 0xbe4036b93c97b21eU, 0xbd93b6d1bc96ed8eU, 0x3c4b0fcc3d3a228aU,
  0x3d0e0e3f3d050ab6U, 0xbdb9c1413c80ab52U, 0x3cc4253dbe142afeU, 0x3cddad28bcad79d6U,
  0x3d2679a23d685ee6U, 0xbbd920503cb7aaf7U, 0xbda53fc2bd401b98U, 0xbd30ae8dbc83c26eU,
  0xbcabce8dbcff62aaU, 0x3d6dd9723d7cc58dU, 0x3c6920e2bbb29f82U, 0xbd99184cbc2cdd1fU,
  0xbd95330d3ad58a97U, 0x3da6ca11bd269b04U, 0xbccf770c3ddbbc98U, 0xbdd1c98bbe081055U,
  0xbd201b30bda1b931U, 0x3dd0cc3abd9f6af1U, 0xbca78d42bcd56199U, 0xbd1c89e1be3d67d6U,
  0xbdad386dbe29cc24U, 0xbc0494c53d7225eeU, 0x3d2e922bbdf2aaf7U, 0x3d9e00d03d879dcbU,
  0x3df70cdc3d60bbd1U, 0xbcb354c7bd82208cU, 0x3dd5bf9dbd52dc76U, 0xbc9b17913da680ebU,
  0x3e1bf3c23b319de3U, 0xbddfbe0dbd3421cdU, 0xbdb698b8bd3e28b6U, 0x3c8cc0f4bd2a0d21U,
  0xbdb9da7b3e208a37U, 0x3dee3827bd9ee890U, 0xbc5d9bacbe102680U, 0xbe0e38eebc8c6375U,
  0x3d4f4e9c3d070da6U, 0x3b9f4fbbbe006da0U, 0xbdea352c3c40e0baU, 0x3d811367bdd581a2U,
  0x3cdf88f4bc65ca99U, 0xbd8bc4b6bb36bb71U, 0xbe27c22a3d46a858U, 0x3c3ff15a3dd1ce12U,
  0xbde2152b3d09eb83U, 0xbbb39f1d3dc5b6b4U, 0x3daae3d83d09f857U, 0x3d978333bd9a9a84U,
  0x3bd2e4ddbe0633cfU, 0xbd5cf731bd90da10U, 0xbd0f9a84bbaae8dbU, 0x3bf722d3be2a9792U,
  0xbd59a3a5be32ce16U, 0xbddf56003cef6256U, 0x3d0a8d68bdf4f2b1U, 0x3d5671e6bd2619ccU,
  0xbc532792bd7193bbU, 0x3cad591ebda78d90U, 0xbcbf10bdbd6a02faU, 0x3ddd78a0bd5befa6U,
  0x3d4e5ea93dc1bf97U, 0x3cc76481bd29575bU, 0x3dbb0b62bcb19048U, 0xbb9a6b793db26718U,
  0xbdfb8ab13da5d5daU, 0x3dbca406bd6f52adU, 0xbdb5415e3b2d435fU, 0x3d3a9e323d58e289U,
  0xbda6fd23bcae01ebU, 0xbc9a34653ceb10c2U, 0xbd5e0c653d170a0bU, 0x3df569493cb0c68dU,
  0xbdfec11d3df091e9U, 0xbcce6ca2bdde8323U, 0xbe03bd56bce21607U, 0xbde6adad3b269d7eU,
  0xbc2bc8aebd55f5bcU, 0x3dc723823c8a6089U, 0xbd097d463d9a8e77U, 0xbcd810cbbdced3acU,
  0xbc4c70c9bd8056ceU, 0x3acde4d3bd2270ccU, 0x3c9e50e7bdc8edb2U, 0x3d3a5839bc071731U,
  0xbe20b7dcbdfb5a4aU, 0xbd0fcaf9bdb3953fU, 0x3b7bc7e7bd4fcb8dU, 0x3e1088aa3d02a773U,
  0x3e011179bd0d0a89U, 0x3d3637fb3c559162U, 0x3df37da83dda9013U, 0xbb225a943cef6edeU,
  0x3c9a6a053d6af22eU, 0xbcd0d3e1bc80bc7cU, 0xbcccbc9cbc86d08cU, 0xbdbbf27ebdd24637U,
  0xbd0e70523c8a4aa8U, 0xbcd03df5bcf5da1aU, 0xbce4e3d93dcbc6ecU, 0xbd45f66c3bdd233dU,
  0x3d0d1a79bd03add7U, 0xbe1d330f3cbbb8a5U, 0x3df1348abdecab58U, 0x3e441990bce08f3cU,
  0xbb91b5823cad1588U, 0x3d26f2f93dff2d8bU, 0x3d84f4d43d34bd26U, 0x3d8ca1523d381691U,
  0xbd9c3ced3d351108U, 0x3d9c6c353bc64f6cU, 0x3d38aa253d286aa2U, 0x3e1d19dbbc97b2a8U,
  0xbc49336bbc017871U, 0x3d9cfb99bba2ec97U, 0xbd8b4eb0bd97bacdU, 0x3c28c9933e1499f3U,
  0xbdbf51ec3e126826U, 0x3d4accc1bd8baccfU, 0xbd35e2c43d9bcc92U, 0xbdcb371e3c96e5adU,
  0xbccd15f63ca8d908U, 0x3c1e01253d9cb3e2U, 0xbdc637e8bb6fd2b7U, 0x3dcf4bcb3da87c32U,
  0xbdf69e82bc9e4369U, 0xbbd0604b3d2ead42U, 0xbce97cc5bdb164bfU, 0xbde1fc8d3bf3ec16U,
  0x3d89c5ee3d8967f4U, 0x3bb83274bdcf8d8dU, 0x3d9df2f33d3eb277U, 0x3e1a26e5bd85fd51U,
  0xbded4f6d3bfeaee9U, 0xbe3b9d75bd58bdf3U, 0x3ce0529a3d90dd72U, 0x3d9da9c13da11244U,
  0x3c96b9e9bca5d671U, 0xbca3a9ff3dc5926dU, 0x3d0753abbcfba3b1U, 0x3deb56c53b263756U,
  0xbc85f4fabc1106e3U, 0xbd56873b3d936675U, 0xbd6a90a53d9106f4U, 0x3e63a74abd85e44fU,
  0xbd5f2c62bd14e528U, 0x3da715963d4a8fbaU, 0x3cb8b7893db90fb8U, 0xbd14eac83df75b67U,
  0xbd8988063b6619fbU, 0x3e0fa98b3aa1f304U, 0x3d94410abba4f641U, 0x3d55a6debd2bcbe0U,
  0x3c1ff03f3cd071e7U, 0x3d535fdd3ca48b91U, 0x3ce8f2bd3d1f0f6aU, 0x3db9b59cbd232c6aU,
  0xbd8a139cbd264fa9U, 0x3d96fc783d4376a7U, 0x3c84fd73bdf2d4ffU, 0xbc40c960bd6ae3c0U,
  0xbd992300bc916ed6U, 0x3d9602d6bd076cdbU, 0xbd968e403dfd2f9aU, 0x3c212ea7be06277bU,
  0xbdc90fdf3d55690dU, 0xbe2ff45a3b19f05fU, 0xbd05f969bdb32748U, 0xba0205bbbd9e26cbU,
  0xbd924048ba57ecfbU, 0xbd349d8d3ce771fbU, 0x3d8fe08f3b5daabfU, 0x3ce2a9e9bdc525caU,
  0xbe0ff6403c8619fdU, 0xbd994fc0bdcf09f8U, 0xbd9716623d738a32U, 0x3e0cd9453ab1273eU,
  0xbb4d75d83d01a234U, 0xbd1bf7883d8589acU, 0x3d15db21bd00df70U, 0xbd83b9e33da9e388U,
  0xbd9651203e2ce7c4U, 0x3c35a8c43cc05076U, 0x3e08f973bc9ab54fU, 0xbdaf38e03dc5b21aU,
  0x3d038f33bd9de522U, 0xbd83182bbda96acaU, 0xbd9194d1bdeeedf7U, 0xbd97a3f13d28fd4dU,
  0xbdf31347bd52b019U, 0xbbf7c816bd349543U, 0xbcc5207b3d8c6f7eU, 0xbd2a8d923cfaca45U,
  0xbd36a30cbcdbdc54U, 0xbde56ba8bc47a5f6U, 0xbcb450bd3bd83633U, 0xbdd2cee4bd6935f0U,
  0xbcec07ad3d864e8cU, 0x3ca9ddad3d01f278U, 0x3c26dba83b20ef7cU, 0x3d7d058ebdc3849eU,
  0x3d0d7c26bd62734fU, 0x3dd19065bd2c4678U, 0x3e007703bdc2d2e7U, 0x3bc349d23dd19a71U,
  0xbd5983373db38737U, 0xbd735720bddacd0aU, 0xbd37462cbe4b8b5eU, 0xbdf1dfa83a460139U,
  0x3d4693d6bdb1ed09U, 0x3da524523ccc8eb5U, 0xbdb3aee1bde993fdU, 0x3c427026ba6e6054U,
  0x3dee6d5e3dab4c25U, 0xbd99a561bbdfcba0U, 0xbc0c5db0bd3141bcU, 0xbcfe9d95bd0407fbU,
  0xbe1978c63c16cf2dU, 0xbcfcbb593cd236a9U, 0xbddd9ce13d26c67dU, 0xbe0b02cabc1bd1afU,
  0x3d6c7d61bdfc4efcU, 0x3d7cd440bdcf3966U, 0xbd3b04d43dbd286eU, 0xbd1906e5bd9e951fU,
  0x3d4694e4bdf053a7U, 0xbe236f2a3c50f93fU, 0x3d8e08033d7b2558U, 0xbd69d299bd82c7d4U,
  0xbd5c72d6bd555a5dU, 0xbd757292bccb7a0fU, 0x3d7cabf4be220756U, 0x3cbcfc603cb3369dU,
  0xbc81bddb3dcfab19U, 0x3da6038bbe05e5cfU, 0x3ce4ef98bc6df063U, 0xbdfe1f52bcb03769U,
  0xbc18bdc13d8d2417U, 0xbe2e46343d3ccdc5U, 0x3d294140bc9de4ccU, 0x3b8641cbbd1a7c05U,
  0x3ba99f78bdb066b9U, 0xbcfcca923c0b340dU, 0xbd94818cbd3a2981U, 0xbd8096263df8daecU,
  0xbcfe73d23dff8a44U, 0x3d7dc2833deccf7aU, 0xbdbec303bd74f908U, 0xbc4f6718bdeec9b8U,
  0xbddd18873d8cd120U, 0x3dc8d7a6bdba2b63U, 0xbdba67d7be12741bU, 0xbe0d5b0fbd53e0b6U,
  0xbda9f12ebdaad773U, 0x3c8fb95bbdd7b611U, 0x3beeefa73bd8cb5dU, 0xbd537c44bdd45c90U,
  0x3d3cfd37bde14b47U, 0xbdc1e390bcaca11bU, 0xbd47b3693c82185fU, 0x3c027952bdaa110bU,
  0xbc1c6f8c3958bb1cU, 0x3cca73ab3d40dc86U, 0x3dcfa5a7bdc1183cU, 0xbca31c2fbdd9e6a3U,
  0x3d178f58b85a3443U, 0x3d27bbfbbcfbe6ddU, 0x3dd74bbd3d16ab24U, 0x3cf74b013d38e2c6U,
  0xba9cf6653df996a7U, 0xbd6018133d278353U, 0xbddb628abdaf9aa3U, 0x3c2ed0f43dcd0f85U,
  0x3b9be32cbd34c89dU, 0x3c6c2bf33d53c094U, 0xbdb64a113d31bb36U, 0x3d109374bc3b85f2U,
  0xbd1693283cd64406U, 0xbd7f01bc3daad267U, 0x3cf745e3bd227b25U, 0x3cc110fdbc424be7U,
  0xbe44a919bd0ba6eaU, 0x3db6034e3d4e705fU, 0x3c2cbbf1be0412b6U, 0xbe28bfdabd06dc7aU,
  0xbe19067d3cf6a897U, 0xbae7d5043cf24759U, 0xbc76aafc3b67db4bU, 0x3d39abc7bd12d29eU,
  0x3b81a0c63de0d260U, 0xbc4ba7eebb9a5ceeU, 0x3cbb1b3c3d2c1cb5U, 0xbbb9623a3d7cb726U,
  0x3da6934d3ceb928aU, 0xbd5d85e33d00593dU, 0xbdedf3b13ce44d79U, 0xbd1539bd3df28bd4U,
  0xbdea44443d5e1829U, 0xbdd3534a3c52412aU, 0x3dea3fa63cb6a049U, 0xbd2dea69bd6146f8U,
  0x3c8ea2bbbd6aafe0U, 0x3d8609813d636719U, 0x3da097c43b529384U, 0x3c14ef013d642dc1U,
  0x3de49173bcfeeb13U, 0x3c55eed5bd34f35cU, 0xbbea56f53e167756U, 0x3da627aabd69a6beU,
  0xbd245ece3e205811U, 0x3bcd12bbbcce3ec3U, 0xbd72e632bbef2c3cU, 0xbda071a33c7c1274U,
  0xbd05ae633da99385U, 0x3e0470693d92b0aeU, 0x3d5b2849b9fcdffeU, 0xbd9b2b51bb4320ffU,
  0xbd1b2ca13e0e83acU, 0xbc03a01cbd91075bU, 0xbcc59bcd3db5177aU, 0xbb90b5823db09f3dU,
  0xbdaff8e0bc90c4d3U, 0xbb8a0c6bbd0ab639U, 0x3da0e3463dbbcc91U, 0x3cfcbfc23d6254f5U,
  0x3e02e10fbc53bc29U, 0xbbc9bcc93de0df03U, 0x3c05502dbb639dceU, 0x3cf674933d97249dU,
  0xbdc359733e0b0013U, 0x3b0c7e3bbd5bef94U, 0x3beccaa6bcfdaba0U, 0xbda61bfb3b59acdfU,
  0xbd44a7b83c8bd77fU, 0x3dc54b7e3e0ab8f0U, 0x3d8f7ee5bc166ae6U, 0x3d1ad5843db79656U,
  0xbc9e48923d93fb63U, 0x3d07afdcbd9b85c1U, 0x3dbc94c53de4706bU, 0xbb4000603cc7831dU,
  0x3d47a3713cb2597cU, 0x3d3ec57cbdaafd93U, 0xbd8ec51abbfadee2U, 0xbd9acd043daabeabU,
  0x3e13965cbdea6aacU, 0x3d7920f23dbdc340U, 0x3cb4f4e4bd888bc4U, 0x3d8caa5abd07893aU,
  0xbe321ae33d6f67eaU, 0x3d3b9638bda12507U, 0x3d51232a3c1e8121U, 0xbcaa9b593c693b20U,
  0x3d94efcd3d39e7b7U, 0x3e0e30f13c65f58dU, 0x3bb773743cbe4322U, 0x3e1f5ffa3c0a4d1dU,
  0xbdb6878a3dab8330U, 0x3cbd1be1bd895456U, 0x3d82cc35bd285a33U, 0x3dd56893bd47c098U,
  0xbbd7a076bd40175bU, 0xbe01fc973dde931aU, 0xbd6bab423d3a2c82U, 0x3d156c323d79ec5cU,
  0x3cb167933d0b5c64U, 0x3da475df3dc353baU, 0x3d599f1b3d931d57U, 0x3d0ee682bd05a952U,
  0x3d8f0ad9bd3d48d8U, 0x3d3ba0aababb44b5U, 0x3c4d6c0f3d427a72U, 0x3de706193d0c9c9eU,
  0xbe1204c63daaed36U, 0x3d88e0b53d806d4aU, 0xbdc9b99a3d74c1ddU, 0xbd4ca3713de38900U,
  0x3d415c1bbda7a95dU, 0xbdc60e823d5de70cU, 0x3d8d262a3b2541acU, 0x3d39eb6f3d85af05U,
  0x3d13cfca3b87d23dU, 0xbcedd71c3bf5b584U, 0xbdd08acabd9abaa8U, 0x3c436040bdc70257U,
  0x3d6098c8bd4cd3c3U, 0xbd5a20f9be2dfbb6U, 0xbd8dcfd7bd3f2fe8U, 0xbc2c4c3d3ce2b9ceU,
  0x3c2f1a2f3dceb760U, 0x3ddc13033d811e23U, 0xbd764bebbafd0128U, 0x3bb73675bdb57975U,
  0xbda696bebe19f9f4U, 0xbd2d22dcbe174bf1U, 0x3d93d0593b182cb7U, 0x3c163f36bd895464U,
  0x3dbbe9bc3d8cc6e1U, 0xbd9ef08dbd646731U, 0xbd508f72bd3b98eaU, 0xbd98e17f3c6df5bcU,
  0xbc599adebb315a6bU, 0xbd1a6c623acc5c40U, 0xbca18af1bc3ec8a0U, 0xbe0eee88bd07e8eeU,
  0x3e133b353d32106eU, 0xbd4a1ce0bc27a1beU, 0xbb26a6bb3e001fa1U, 0x3c4258d6bda2d7deU,
  0xbd5641cbbe2ae9d5U, 0x3ce21bf0bdaa8309U, 0xbdc77ac7bddf0936U, 0xbdfff1383a8eef99U,
  0x3d34eaadbd4cffb3U, 0x3c9282c0bd8feb9aU, 0xbcfeb466bd7be71fU, 0xbdcfe7f5be3eb5e0U,
  0xbd6abfbf3c89b4f4U, 0x3c767e6ebd980bd4U, 0xbdd6fcd5bdbb2b86U, 0x3c41bcc43cee551eU,
  0xbd8c74653d8d0beaU, 0x3e2212883dc7071fU, 0x3d12c703bd7b5700U, 0xbdbc6c8c3d9d8d0bU,
  0x3c0d23c0bde7d9c4U, 0xbd5bcdb73c6677fdU, 0x3cd956f3bd1f2e68U, 0xbd25dfd2bda6086cU,
  0xbd27fa123dbaec8eU, 0xbda768cf3d1ffa5aU, 0x3baf2e1e3c39c2aeU, 0x3d814cad3db5a79cU,
  0xbd986f5fbe11c771U, 0xbd9ff8a339ef25a6U, 0xbd8aa3bf3d03b0f9U, 0xbda6d0d9bd3ecc95U,
  0x3e220ce93d23be0eU, 0xbdd2cb903d61736dU, 0xbdbe7b5abd07e677U, 0xbd2cd2febda9c218U,
  0x3ca797a5bc70957dU, 0x3d8962eebdeedfaeU, 0xbd5af1913cb3bbcdU, 0xbdaba86b3d4e02b7U,
  0x3dbc4d003c16c583U, 0x3d098b4b3d77ebbcU, 0xbcdaae4c3daf85e3U, 0x3c845de4bdc84d08U,
  0xbccae991bdbb0bdbU, 0xbd12b01dbd78dd34U, 0xbdf931d3bdf3904aU, 0xbdc4dbd4bd4e5ee3U,
  0xbb23f048bc5bf31dU, 0x3da3ee0c3dd6dff0U, 0xbdac57773c2c0940U, 0x3955b0ddbd8169e9U,
  0xbc287c383d8a21faU, 0xbdd91b70be0b7257U, 0xbd437ae0bcb8cb77U, 0x3df84bc1bd7862b9U,
  0xbc0d0f003e0c1936U, 0xbe0c9837bbfa124fU, 0xbdbb428ebd967741U, 0x3ddb151e3d57fbe9U,
  0xbded03f7bdac0824U, 0xbd2fe8603d67ab22U, 0xbd3b347cbe09eed3U, 0xbe0967243bcd4142U,
  0x3d6c9870bbe34bffU, 0xbdacffa73c8b3aceU, 0xbbc6220d3ce57256U, 0xbda0d63a3c00987dU,
  0x3d103df8be201e7aU, 0xbce4aaddbd989c0dU, 0xbdf40560bdbc0db7U, 0xbd0b086abdabd40aU,
  0xbd5c12cc3d4b28cdU, 0x3d6581663df10cdcU, 0x3d30e1acbd23c01bU, 0xbdada8fbbe454152U,
  0xbd9e189dbdb68ff5U, 0xbd7beb0b3da6cc0eU, 0x3b9047ab3d68377fU, 0xbcb4d4ecbdc5f5deU,
  0xbd4cf5443d24e563U, 0xbbcba3bfbcc6fbf8U, 0xbd1533913d60ca83U, 0x3cdb01cc3d8707faU,
  0xbc8aa5783dcdf4feU, 0xbd893e043de82c27U, 0x3d3a295cbd39d09aU, 0x3db16967bc9289d3U,
  0xbdf9ce8e3dad2c55U, 0x3d61ce803db491f7U, 0xbddcfc123dd23242U, 0xbc1242acbd2618cdU,
  0xbdb565d3bdf97934U, 0x3c25f7c73c8c42c6U, 0x3e047e63bd40e936U, 0xbd956679bc72c9ecU,
  0xbd36348f3e1e1589U, 0xbd31e1913c3c83c6U, 0xbbc4b50fbe132ee3U, 0x3e029f033cd7a634U,
  0x3bbd5d2cbd30bac8U, 0xbc3866313cb47ec4U, 0xbe0595dd3d75c7e5U, 0xbd37e9423d943ee3U,
  0xbde8dbaf3b36a083U, 0xbd40e6e9bdae9e4cU, 0xbd5041d83d761a97U, 0x3d845a97bced1b49U,
  0x3cda6e15bd5954caU, 0xbe08832cbcf9a10aU, 0x3c2aae183bc0a8c0U, 0x3d3bf810bdae4360U,
  0xbd48fa5b3d2b44cbU, 0xbd9e18c2bd209bc9U, 0xbc9d56403d70d185U, 0xbdb81860bbf757feU,
  0x3e00f3e7bdaa9a59U, 0x3da646023d206e9fU, 0x3e2890b43db714d7U, 0xbd4ed4ee3decc9bfU,
  0x3d7ac6afbe08edf4U, 0x3e1c1aa1bd959fc2U, 0x3d6fc3603dfc57cdU, 0xbd0d8fd83cdc2e25U,
  0xbd5f6965bd9803bbU, 0x3d7e3de1bd077e24U, 0xbd8e30a43cbf04c6U, 0xbd84ad79bd0f6707U,
  0xbd0897af3dd36d4bU, 0x3d65f811bd2e070eU, 0x3dec49e2bda28ff1U, 0x3daf8ecc3d900c35U,
  0xbd9c87e8bd3d3813U, 0x3dd3fec1be0fbc4aU, 0xbc9a421f3db05f73U, 0x3db98fb5bd47a334U,
  0xbdb4862e3e124023U, 0x3ba17262be191b56U, 0xbd319154bce5f95bU, 0xbd8c4a5bbe1a82cfU,
  0x3d70592abd84409eU, 0xbcc2607a3e0bfbc4U, 0x3bf105e0bd20b147U, 0x3e041e00bdcc8765U,
  0x3d7b631b3d00b1c7U, 0x3d2288e83dc61472U, 0x3dc6d640bd96bba2U, 0x3dd6d48a3d18e506U,
  0x3d37da143db77e00U, 0x3dbc6f6e3d006839U, 0x3cbc59303d64b3b0U, 0xbcd8cb6b3ded289fU,
  0xbd635f243d39ab91U, 0xbc24d500bd97956cU, 0x3e13863c3e01850aU, 0xbb9af53f3c800b1eU,
  0xbcf769f2bdb96675U, 0x3d596a093c3b5843U, 0x3c78ee723d587b73U, 0xbb3a1e943dc47d5bU,
  0x3cafbefc3d71714dU, 0x3c11a3143d2b1d06U, 0xbceb05a03d87420cU, 0xbd10ee40bdcacdf1U,
  0xbdd822af3dab18e9U, 0x3db7c86fbc44ca22U, 0xbdcf9fc8bd49a692U, 0xbd3b4c783d1de2a7U,
  0x3d9f0cc03dff14a0U, 0xbc97924bbd3e42bdU, 0xbd732e23bddfba0aU, 0xbd92947e3d1a5b44U,
  0xbdb04c00bc968c0eU, 0x3c1dcb76bdf4d88dU, 0x3dc2b1f0bd4ed184U, 0x3c9f45093dfa07d0U,
  0x3e02641abe02e953U, 0x3d51422f388af4cfU, 0xbb05b9debd1a3a0fU, 0xbc90cb823d292e04U,
  0x3da173d8bac1aeceU, 0xbda3530d3db66f09U, 0x3ce759793c02b797U, 0xbcbd16e4bd2edb63U,
  0x3d3751373d692c7aU, 0xbd8d17793d507fa7U, 0xbda71ca83c25cc1fU, 0xbd82f6143e0a0147U,
  0xbd753d113e2e5d75U, 0xbd735cfa3d6a39faU, 0x3d5cf5353cbb103cU, 0xbe1280f63d943295U,
  0x3cb9e13a3d4fd330U, 0xbd505b05bd458eb6U, 0x3d75bbbcbcc3d4dfU, 0x3c6c45473aa034aeU,
  0xbc81b6ee3cbb581fU, 0xbcdeec133d8797f8U, 0x3d37aaf1be0cbab6U, 0xbb35bcddbdcd7df5U,
  0xbd836e3f3dc3a92aU, 0xbc8d8d79bdfedb4cU, 0xbbba91a1be1176d5U, 0x3d62e5703dba725eU,
  0xbd8b10db3cf71a70U, 0xbdf128a4be22e08dU, 0x3dbc786b3db65dfdU, 0xbda489943e2e0939U,
  0x3e1dee903a9d4670U, 0xbd16d301bdf1d04eU, 0xbcf5922cbd9fa4acU, 0x3e249eb93e098220U,
  0x3d9f51ba3b05aa5fU, 0xbdf5cd453d6e5a7cU, 0xbd8a6c9e3d3313f2U, 0x3bb8f292be147679U,
  0xbe1c3a92bdc58275U, 0x3c2caa41bd521bfbU, 0x3d3d01c33d382d6eU, 0xbd168efa3de81deaU,
  0xbdd4bb7f3e562a71U, 0x3c88e5a3bda9089dU, 0x3ba90e89bd924fd3U, 0xbdae468ebc20564dU,
  0x3ccae83a3cc41f56U, 0x3d282c8abd9b84bdU, 0x3bc73773bd8ee1ffU, 0x3da13b6ebd1cfd9eU,
  0x3d86d0f0bdf90986U, 0x3a89435bbdd224c8U, 0x3de16b15bdf9be53U, 0xbd7ec678bd057c1aU,
  0xbcff2467bc8050e0U, 0x3c8a418a3d62977aU, 0xbb50ace43d0d4dbaU, 0x3d5e50133c5541daU,
  0x3c2eb83d3da4c698U, 0x3d0d86ffbe1ac158U, 0xbdd40f74bd90ad0fU, 0xbda6f3123e2e2827U,
  0x3df942193d116cd0U, 0xbdadb36e3cb59bdcU, 0xbd6b84fd3c182a6bU, 0xbd3910123de54c69U,
  0xbd777080bdb3de0eU, 0x3d86c9ecbd82800fU, 0xbd17c52b3db78267U, 0x3e219f0dbdfad149U,
  0xbd3618c73c8ebe16U, 0x3c18f2b0bd3af0c4U, 0x3c05f7fb3dd678caU, 0x3e06c5c8bc93f2bdU,
  0xbcefdde83e20fa5aU, 0xbdf74753bcf5ad40U, 0x3c284f9fbda0971aU, 0x3ce8832c3d3112acU,
  0x3d67e59cbd86f3dbU, 0x3d71f2a93d867fa3U, 0x3d84f194bd47dd5eU, 0xbd85becbbd878027U,
  0xbdbcd1cb3d00bb41U, 0x3c876d0cbca8dad3U, 0x3d88d85dbccd8076U, 0xbbde27783cb4c6a5U,
  0xbccce24e3c0d836aU, 0xbcf8b464bd190447U, 0xbdebc35f3d5a5964U, 0x3e10032e3d0439a3U,
  0x3dc30c89bd64ab87U, 0xbdb93d703d93ff61U, 0xbd944f07bd8fcdbfU, 0x3d33aa02bd205b20U,
  0x3d45e3d2be1509efU, 0xbe2612c33bb72722U, 0x3ce8d640bda34e84U, 0xbd00cf4f3d3a39b6U,
  0xbd3b6b3ebbd47349U, 0x3d64b685bdd2bc1eU, 0xbe0fe3b1bcaadf13U, 0xbb6ebf35bbc9d625U,
  0xbdf44263be025221U, 0xbd622059bdc5c142U, 0xbdc38ceebcd0fd9dU, 0x3d5ce35dbddbd58eU,
  0x3db85061bdac0e57U, 0x3d1189583e0745a4U, 0x3d58bd993db5765bU, 0xbd281ac43cc8399aU,
  0x3bdde22cbcaa2df0U, 0xbdb911813d7e3f0cU, 0xbbb6c9e73d263dedU, 0xbcc1ecedbd479d2dU,
  0x3e003b4cbda4dcf9U, 0x3d9d80bcbda2de0aU, 0x3dcffad5bb200c32U, 0xbc132761bcecb0d4U,
  0x3c63eead3cacc55aU, 0x3d0c63b4bd1db930U, 0x3d7467023ce36bfcU, 0x3d42b8b83db32969U,
  0x3d10a7623e0b063eU, 0x3c56a5253d8312c1U, 0xbcb80640be0a6fa4U, 0xbe1af007bc674bb7U,
  0x3cd157eebd32a864U, 0xbd40cafc3b095108U, 0x3d7a61a03d595842U, 0x3da3d2143d6d19a8U,
  0xbe179e863cd778e6U, 0x3d47e8d83ca4fd97U, 0xbdb3c8d2bcb00729U, 0x3d679197bddb2c01U,
  0xbb1394af3d3522ccU, 0x3d88359c3db88b06U, 0x3d672fa738eccf6eU, 0x3c652fb6be01812cU,
  0x3d231e0ebdac012fU, 0x3ac2cfa93e12ff97U, 0x3adbbf663da0e0c5U, 0xbd4b201bbc8b0943U,
  0xbd80ba4abdc0fa9dU, 0xbd9dc86fbe087cceU, 0x3d32ae14bd2245aeU, 0x3dd945d9bd9175e3U,
  0xbd2956fabe0051aaU, 0xbdfe40dfbd36b6aeU, 0xbd644eeb3d2de7f4U, 0x3b57f846bd53d035U,
  0xbbfe4f4d3d922c51U, 0xbc3794f0bd189874U, 0x3d947cd5bda8bae0U, 0x3d50ad4c3d89b0dcU,
  0xbd208f183e023434U, 0xbda1a2553c709dd5U, 0xbcb3802cbe19ebcdU, 0xbd569c6b3db1f889U,
  0x3e02789dbe439d9fU, 0xbbc8c13ebda0f8f3U, 0x3c466e3e3dd0c003U, 0x3c8e78473db51e22U,
  0x3d2443373c46e7deU, 0xbbaa1e4b3c41fe2bU, 0xbdc9738e3e05adbfU, 0x3d08920fbd108447U,
  0x3bec85e0bdd1289eU, 0x3e0b392f3dd171aeU, 0x3d097b7e3d184436U, 0x3d9208a5bcb0776bU,
  0xbd8bba8abd8ec100U, 0xbd5289663dfaea64U, 0x3cb8d5f1bdc4022bU, 0xbc0ab91bbb6e1453U,
  0xbc77a3debe0a7eeaU, 0xbd1e35a0bda57639U, 0x3d3d5a20bc27df97U, 0x3c8956f1bd796e97U,
  0x3d9d1eec3cf99ecbU, 0xbce01bd2bcc3e101U, 0x3b5d6e55bbb0ccc1U, 0x392d8f9abc4fea7cU,
  0xbd50d5fa3d1417ccU, 0xbd8d7717bb76df34U, 0xbc645c283bceed0dU, 0xbbec21083d03c31dU,
  0x3d1e0c9dbc5b7727U, 0x3d0a29febcc70aa5U, 0xbc6909c6bd7c4776U, 0xbcdb1fbfbd063acaU,
  0xbcf5744ebdbdd43aU, 0xbd9b3dc7bd8da04aU, 0xbca4f0b8bd7285eeU, 0x3dbe6843bb5073b3U,
  0xbce97de7bc6f2c7eU, 0xbd9a09f5bdc52104U, 0xbe0bd9d3bc962678U, 0x3d0fcfa6be21540fU,
  0xbe07a865bc56925bU, 0xbd88ce6cba83bb71U, 0x3deb31dabd3ab351U, 0x3d9f6a533d4a68fbU,
  0xbdc7bceb3d8921faU, 0x3d0b19eebe1927f2U, 0xbdb3a08fbdac942cU, 0xbd0d72483c18fd4cU,
  0x3cb3ce33bdd8ac58U, 0xbddef8c2bd32d531U, 0xbb96c0fb3d987f61U, 0xbdf5bc2cbd9383e2U,
  0xbc89cac6bb28da50U, 0x3da3043bbe1921c4U, 0x3c70218ebddf3c9bU, 0xbc33ba1e3d883002U,
  0x3d01cab53dc1a96cU, 0xbc3287ed3c98ed53U, 0x3cf497c3bd10ccbdU, 0xbdd08f3b3bfe8046U,
  0x3d614b0e3d545602U, 0xbb3d20ae3ce55e86U, 0xbd13b3293ccb4891U, 0xbe1b89633cd0f6b0U,
  0x3e1163f7bd529385U, 0xbdb31113bdad1d06U, 0x3c0f751dbbe9171aU, 0x3e3925f4bb44ac03U,
  0x3d9228bdbdc82407U, 0xbdbcf7ab3c3ed22aU, 0x3ca050d93d230bbeU, 0xbd2190c2bde4bdeaU,
  0xbd4b2cc63cd7e9adU, 0xbde8718a3be8223dU, 0xbd8541af3cf298d1U, 0x3d330bfa3d0cd6f2U,
  0xbc2cc4103d7e9fa7U, 0xbd05dba8be29d09aU, 0x3db84b1cbdd7ce20U, 0xbc2025be3d79bb8fU,
  0xbd998ec43ad9ff44U, 0xbc67810abc414e25U, 0xbb80d6683b16516dU, 0x3c3b4265bd6ccfcaU,
  0x3db59de9bddb3571U, 0xbd51163abde13961U, 0x3e0c50103c8a7c9eU, 0xbd4411dfbda6d93eU,
  0xbd68c0b63e02667bU, 0xbdd48e3f3dce0b58U, 0x3d09c4d03dcdbf40U, 0xbd8df8703dba3d55U,
  0xbdf6c63d3d82e754U, 0xbd8d73ecbd420575U, 0xbd6c2c3ebd272b66U, 0xbe3e8080bcea9583U,
  0x3d86fbe13d39db13U, 0xbdb7e8fb3ca09959U, 0xbe0cef29bccf0043U, 0x3d880afb3de4642aU,
  0x3e0b1d19bdc2126fU, 0xbd1c3468bdeb0866U, 0xbc8f5c1f3de8047cU, 0x3bac69a1bdee025aU,
  0x3d243fe43d58ad64U, 0xbd4476a43d7ccb1fU, 0x3e0c22043de7b7adU, 0x3bbec2bebd6a01f3U,
  0xbd50f811bd0c39d5U, 0xbd1dc168bc19bd07U, 0xbd7a3a16bccd3d17U, 0x3c4ebc283d9d46e4U,
  0xbdd64dafbdca68a0U, 0xbdf94f1bbdb1c4f6U, 0x3b57708dbdb6a54fU, 0xbdb2bcedbd3a540bU,
  0x3d00fa27bdaa6b35U, 0x3de55a95bcc19267U, 0xbd6a5d8b3d37849eU, 0x3c57d4c0bd56791eU,
  0xbda43a183dfd6575U, 0xbe15fb34bdae78dbU, 0xbdd54fccbdbae0f2U, 0x3dc85636bc87a193U,
  0x3ac8fb313e2e753cU, 0xbd9ec421bdae449aU, 0xbd32442c3cd9b72eU, 0x3d6357ca3daa4471U,
  0x3d9fda113d066648U, 0x3d8f8fa8bdb3398eU, 0x3d13f4c93da46b6bU, 0x3ddd472abd818bcfU,
  0xbdb23796bba0e84bU, 0xbdd5aa613de94594U, 0x3d9858613da34dbbU, 0xbcd333eebe155cbbU,
  0xbd0bca0bbd985e10U, 0xbcda6cbd3c147cb9U, 0xbcb839e6bd85f5b7U, 0xbdaae00f3d556970U,
  0xbd98ffa73dd017b9U, 0x3c040d6a3ddaa0f1U, 0xbd61a25c3d38ebd2U, 0xbd55fc80bdb4cb8aU,
  0xbd2c7ecebbbdc0f0U, 0xbcc994793d6a75f6U, 0xbddd9b243e2cb229U, 0x3d27e6fbbc0cf734U,
  0x3c096e10be11a75aU, 0xbd2372d8bdc47341U, 0x3e1fe185bdbbf92fU, 0x3d9e72c4bd9a75c8U,
  0xbdeeff18bd133dd5U, 0x3d3ba4a1bd7d456aU, 0x3c9d2d58bd1a5da3U, 0x3ca2bdfe3dc11e50U,
  0xbc1e52463dbcdb64U, 0xbd252edfbdacb56fU, 0xbc93c972bdfef89fU, 0x3dc146b53dfc1af3U,
  0x3da17c17bde9c6b5U, 0x3ca643f33dc10953U, 0xbdd7dcf3bd296eb4U, 0xbcf71548bcdb5e02U,
  0x3cd5bbac3b092b36U, 0x38e1ffb43d9799acU, 0xbcc3a693bd4615adU, 0xbcf2fcb7bd5fea86U,
  0xbe092dc63d6093fbU, 0xbd6bb0ccbd54412eU, 0x3b03f567bcf27012U, 0xbd1289183de00992U,
  0xbd912f423e433948U, 0xbd71e465bd866c8eU, 0xbda27006bdaa94e5U, 0x3cb05f7dbd7402b8U,
  0xbdb059af3db31e52U, 0x3d8a78633c83bdf4U, 0xbd873417bbc4fd0bU, 0xbcca1c55bdf0493bU,
  0xbd8ffdd13c1cdb95U, 0xbd0948453c7913d5U, 0x3e0506debd92fe74U, 0x3c85395d3c33dfecU,
  0xbe1491c9bcd5f163U, 0x3c11918ebdd8cffcU, 0x3d8e14e8bdfa4dbfU, 0xbc97bad0bc6ecf46U,
  0xbcd3ef993d74b75cU, 0xbdab1ade3d5992eaU, 0xbe0a3be2bdda2e29U, 0xbce1bbe23e482da5U,
  0xbd3fa06fbda6ef23U, 0x3da8ed253d0c8429U, 0x3c1e4f17bd04d955U, 0xbc89a220bda0ab5eU,
  0x3d9058a8bd67ee7dU, 0xbd8e4fe03d895c86U, 0xbdde0994bd945e72U, 0x3dabf402bd839af9U,
  0xbd91efadbd018db1U, 0xbc6375b03cadb5caU, 0x3e0871993cf7ab1eU, 0xbbbb5624bc9aba0eU,
  0xbd8841433e22ef30U, 0x3d2c6925bc2679edU, 0xbd960ab4bdf02fa9U, 0x3d9f3d09bd5cfb8cU,
  0xbd9e954bbdec586fU, 0x3cfd8b043bee2167U, 0x3da8fce73d39612eU, 0x3d3ff6f83c6ce0e8U,
  0x3d93233bbd9a0f9eU, 0x3d580cdf3d2262e3U, 0x3c3cbf143dce9b96U, 0xbd465bfc3d84aa64U,
  0xbceae6793dc8ef61U, 0x3c0253803b9c04b4U, 0xbdaae686bddc37a9U, 0xbe0d4e633c74c5c9U,
  0x3d2806dbbdac511dU, 0xbd1a9ad7bccfc95aU, 0xbcfce052be2f628fU, 0x3e069a093d60063cU,
  0x3d04284ebe0e5ec6U, 0x3c2193593d865846U, 0xbd06dfa3ba8f58c8U, 0xbdb42fc33de077a9U,
  0xbe0e30333d4c9a49U, 0xbdb26352bd8db6b5U, 0xbd07a2183dc41cb9U, 0x3d207dda3c23d325U,
  0x3cfb388d3ca41950U, 0xbd09b17ebd2e4629U, 0x3d980c0b3db4c591U, 0xbded530a3dc392c2U,
  0xbd0074903cc23a08U, 0x3daeab2abc808ddeU, 0xbd6187eebdccb5d7U, 0x3d28a873bd4005dbU,
  0x3cc3bf86bc9849b6U, 0xbd6230c7bdf7e671U, 0xbdac8b73bc5fe4d0U, 0xbc9c501abd47d7f3U,
  0x3dc206c43cc81041U, 0x3d9f12d43cde5cc7U, 0x3dbc90003c095787U, 0xbd4baa9d3bd7c030U,
  0x3b4d71333d0f98f1U, 0x3cf20242bb832abdU, 0xbdc83988bce66551U, 0xbd9dcde33c8a38dfU,
  0x3cee15c4be0f8e4fU, 0x3dc302cabde7c7e7U, 0xbdbcf125be0bcc27U, 0x3da9400d3cc7bfb5U,
  0x3d83dee5bd006b42U, 0x3dfff86ebcacf82dU, 0xbe00e3913c984398U, 0xbe131efb3d0bc783U,
  0xbd1e93cebe14631dU, 0x3d0535ee3cbf27c8U, 0xbccda48a3d945309U, 0x3bcefe72bd3d06e5U,
  0xbc1c306cbe1391b2U, 0x3bec964e3d1e9a77U, 0x3b43ffabbd984127U, 0xbcc56c163d99fc17U,
  0xbd1ed8a03d31f040U, 0x3d1b40db3db51461U, 0x3d026bfabd26b620U, 0xbd1b42d23bd2cf2eU,
  0x3dc063b83d3cb42bU, 0x3d953caebc801252U, 0x3cd9c3f23db667d2U, 0x3c78b16abdf3a84fU,
  0xbce5ef2cbd263b7bU, 0x3e0922d73d197339U, 0x3d78224dbe128263U, 0x3c76c14e3d2af140U,
  0xbe101cf3bdb5d5ffU, 0xbcbfed50bb2d2649U, 0xbd987ec4bdd03509U, 0x3d0d7109bdddef7aU,
  0xbc93ab83bdf970f8U, 0x3d6f5f3abcdbc64fU, 0xbe125aefbdd931c8U, 0x3e05b83ebdabb59fU,
  0xbd2d610a3d85649dU, 0x3e2dcbed3d530ca7U, 0xbcb056c43df7e713U, 0xbe42be1dbc3e305fU,
  0xbe08ef24bd9b4b9eU, 0xbd840284bc9ef80eU, 0xbd9975d43de7f97cU, 0x3d18f5a73d3896aeU,
  0xbd1519c7bdae2072U, 0xbe052b8cbdf558feU, 0x3d683e6e3db56c61U, 0xbce55ec7bc8ccb2bU,
  0x3daf46b73da3a27bU, 0x3d02f82dbb41f74bU, 0xbd01541f3c1590fbU, 0x3c40e13ebcd391d8U,
  0x3d9b4facbd2ebfe6U, 0xbdda67fb3d75219eU, 0xbd3e026c3b96d5b0U, 0xbd1843633c98abe5U,
  0xbdc6754fbd0e5782U, 0x3da24e5d3d6411e7U, 0x3d848991be35f806U, 0x3c80dc97bd1004c2U,
  0x3cd3e066bd968649U, 0xbda96f88bdcc3585U, 0x3cda28f03d5d2b05U, 0xbdbed3e5bdddbfcbU,
  0xbd95d3f9bd17b9d2U, 0xbd8702e0bd2d47e8U, 0xbdbfd266bc86ee7cU, 0x3d2ded30bdbbf63cU,
  0x3c0f4e55bd553f6bU, 0xbd9624803d0e1a11U, 0xbda5acb43c190d34U, 0x3d19507ebda79e7cU,
  0x3d8c15ac3d80f184U, 0xbd32c1f9bd2062c2U, 0x3e0e7a07bdb272fbU, 0xbcbaa231bceeb33cU,
  0xbd8c4b57bd72ee5fU, 0xbdbb1039bd9a4c17U, 0x3de4a33b3ddcf1eaU, 0x3e0ec2cc3dd30b33U,
  0x3bec5aa43c09bbe6U, 0x3dfa32cf3da59ef9U, 0x3d2e051dbd64b250U, 0xbdb7806abda4167eU,
  0xbbe6cdf83e0eea9aU, 0xbc8907a9bc1c4d0fU, 0x3d6a8407bdf1e623U, 0x3dd74904bdd2a13bU,
  0xbcf0d9ebbd05ceb9U, 0x3dad42b0bdcc4a93U, 0xbdc5c15bbd9ef7f8U, 0xbd8ba8f03d703cd5U,
  0xbd87f1d6bda1f83aU, 0xbe07d838be246445U, 0xbd990ec8bc6b0abbU, 0x3d5b2f64bbcb9179U,
  0x3c840782bb28722bU, 0xbe0c9c783ceadc8cU, 0x3db8febe3c85c41cU, 0x3c34ffdabcb4eca8U,
  0xbd80d3acbca2a365U, 0xbdd7a1da3dca06d9U, 0x3cb66a9dbe03ed92U, 0x3d1f08f6bdebed80U,
  0x3c9b5160bd8f721bU, 0xbd85219fbda6c3f6U, 0x3e51174a3da31e95U, 0xbcf7e0793d66e785U,
  0x3d27c7bebdc75923U, 0xbda2bf323d9b42caU, 0xbda7406e3cbfa902U, 0xbd498e353d86e02cU,
  0xbe04f1bbbd8d4531U, 0x3e0aaf6cbdcfee36U, 0x3cba165cbc0dd9c3U, 0xbd48345b3d6bc04fU,
  0xbcbcdeb43e33efdaU, 0xbc68fb05bc4abf9eU, 0xbc50d1853c261bc3U, 0xbdded6563d8bc1d1U,
  0xbdf41e773dafaa3aU, 0xbd6827ffbcf0d774U, 0xbd88be9fbdc5f0f5U, 0x3c2d2898bdc49790U,
  0x3c7127fcbcb12fa6U, 0xbda3bcbdbde2b17bU, 0xbdcab7cd3d8db3d3U, 0xbd27adadbd6fa169U,
  0xbd0ceb463b62e57cU, 0xbca2e381bd3750bbU, 0x3c4f1d883dae9ad0U, 0x3d5c49e23d000873U,
  0x3da181ed3d0a1a45U, 0x3d5d4eeebafe311eU, 0x3d5787f13c8f51e9U, 0x3b92ad153cabda8dU,
  0x3cf868193cd9eef6U, 0x3d752f81bdd3dd6cU, 0x3e19a6c43da8c635U, 0xbdb5c8b93db45563U,
  0xbda8ef8ebceb683bU, 0x3da42ecabc9786deU, 0x3c2485ee3d946b18U, 0x3da43a513dcfec70U,
  0xbdf0f1f2bdf3b107U, 0x3dbb598dbe0f6b3cU, 0x3d0473f03c06f3f7U, 0xbd3efbf13cea38efU,
  0xbdcdd6423dc9cd58U, 0xbd4c81273b7e8153U, 0xbbf1f095be0dde02U, 0x3cec5eb03b9f86deU,
  0xbd344936bdd9bc59U, 0xbc36fefc3cbfd99bU, 0xbe1beafa3b20b5f6U, 0xbe177b6ebdc908a5U,
  0xbe16d6e8bbb4286dU, 0xbd9d83f6bd5ea09fU, 0xbc332f07bcb2c045U, 0x3d3ca3bb3bc28066U,
  0x3c261da4bde9f9dbU, 0xbd416853be1cab67U, 0xbdcea1ae3b6d6447U, 0x3d1a18c9bc106114U,
  0xbd150a783d073a6dU, 0x3d56d5c7bddae64dU, 0xbd7efb063d87b40fU, 0x3da569c5bd893406U,
  0xbd2ee0ec3cb4444fU, 0x3d933feb3cd41cfcU, 0x3d94253e3cbd663dU, 0xbcb4462b3c556778U,
  0x3d959ea13d110323U, 0x3c5d2b03bdd28970U, 0xbd84b261bc66d42aU, 0x3c750fe0bbdcf31eU,
  0xbda883703d84b55aU, 0xbca80f913db444a6U, 0xbdb3aac63db44984U, 0xbde7fde93d25175cU,
  0x3dd7e34d3e352f34U, 0xbda9fe533db06d14U, 0x3d4541933d98d210U, 0xbd6820043d949398U,
  0xbe0ddd703ce0edd0U, 0x3db7ebeb3ce035eeU, 0xbc8c5090bdac86d3U, 0xbc87ac08bd5d94f0U,
  0xbe1d5a04bd1909daU, 0xbdd0b14eba86824cU, 0x3d5023aa3dca261dU, 0x3d187db2bd92e877U,
  0x3e15cb4abd249517U, 0xbd98f43abdd6f0bbU, 0x3d5463853da0468aU, 0xbd95249ebe00ceebU,
  0x3e0bfb473e06ddbeU, 0xbc683412bd5da782U, 0xbdb98c233d975f4dU, 0xbd9cdb00bdf420e2U,
  0x3c85af0f3d2f81c9U, 0x3dc77672bd0909c0U, 0x3cfd4911bdde641dU, 0xbca2dababcd04bc3U,
  0xbdb6709ebd860507U, 0xbe1b715b3dae2cbeU, 0x3d0b055cbd00732fU, 0xbda922ed3de68474U,
  0xbccfa5e7be0f3fd1U, 0x3c37185ebcebbee9U, 0xbda3387ebdd484a1U, 0xbcbc11323da03a47U,
  0xbd928ab53ccc067eU, 0xbdee6120bc197958U, 0xbdd378d9bd2a8e1eU, 0x3d567fa83d6e4cadU,
  0xbd656944bdaa87c3U, 0x3d2279bfbd4fc2beU, 0x3d6563ca3ca3ab41U, 0xbdd3f6953db39a1fU,
  0xbe11f3f9bd9af67eU, 0x3d051b5a3cb67778U, 0xbdef66ee3de2ff49U, 0xbe18a727bba38759U,
  0xbcd305b3be053a18U, 0xbb917cea3cb7d0feU, 0xbd99263bbd37bd80U, 0xbd20a3c43cf55bf6U,
  0x3de55af03deae32fU, 0x3c7bc62f3dbae942U, 0x3db2ca3bbdc18eb8U, 0xbd1429733c831a76U,
  0xb9afbea23c9ffccfU, 0xbca2a78d3d0452e4U, 0x3d30b5b7bde1c6feU, 0x3d3f70003da0eab3U,
  0xbd7409d93dd37058U, 0xbe2097443c0f7da8U, 0xbd6350bebe32e786U, 0x3da32a7e3c2b4a5aU,
  0xbd920c78bae1dbbfU, 0xbccd8b8abdcddb3cU, 0xbe3f55e03d7f96f4U, 0xbe197104bdaa19e7U,
  0xbd9e55073e29cd7cU, 0xbda6ab0b3da81d77U, 0xbe1f9d963e0b5a0bU, 0x3bbdab763cb3a395U,
  0xbda07dfcbde8e83aU, 0x3db16977ba8dd9baU, 0xbccaaefabc9dece3U, 0xbab5cbb93def8962U,
  0xbdbc6c54be8163c6U, 0xbce9c4923c4e14c2U, 0xbd1477743c5de340U, 0x3d43c77abd2f7abaU,
  0xbda20ebf3db8e9e1U, 0xbd139ea4bd3ec864U, 0xbccd262e3d929617U, 0x3bdc305cbe18a2b9U,
  0x3d2e6cf23dce98bdU, 0xbc69137b3dd05df3U, 0x3dad024ebde59cf6U, 0x3ddf46afbe100ad1U,
  0xbae59178bdf4595aU, 0xbdeb5e0c3d966212U, 0xbcd2f247bde7d1aaU, 0xbdc8a6bfbd3c27e7U,
  0x3d9435f53cc90368U, 0xbded95afbd0df4f5U, 0xbd911307bd2b8aa9U, 0xbdc0f42c3d9bd2d8U,
  0x3d7868bcbe308484U, 0xbdb55191bd3e563bU, 0xbdbe74803d8597a9U, 0xbdf27e8dbda700a6U,
  0xbd833459bd104f2eU, 0x3cbc8029bd3c64e3U, 0xbbb0f7e3bda963c8U, 0xbd107630bda3cef9U,
  0xbe26c417bd0f1d53U, 0x3db110fabdd2f140U, 0xbd0b45a23d160e6eU, 0xbe0f5843bd2ebfa7U,
  0xbcbf5ceabe66bebfU, 0xbc80b3eabd8c573aU, 0xbd8fb7263d72d3ffU, 0x3c656803bdd7fe1eU,
  0x3db9c5b0bd876591U, 0xbd814732bdfa92a5U, 0x3c0785b63b5865feU, 0x3d355911be050735U,
  0x3e07a4b93cdeabdfU, 0xbb039b7a3dba8cf6U, 0xbd4aaa81bc77bb55U, 0x3e05c7b0bcc1af0bU,
  0x3d0bff5d3c3be778U, 0xbd880e00bd66ba10U, 0x3bc77518bd4fcc5eU, 0xbdd18d11bc5eff6cU,
  0xbd2a063c3dead076U, 0xbe12647d3d092bb7U, 0x3d4af9e8bde3f917U, 0xbd6fe5913d935997U,
  0xbc6565c2bbfd92f9U, 0x3d28e4e7b9721622U, 0xbe39903a3cff7abeU, 0xbe187e41bdcabfabU,
  0xbc1b96a83dd6e744U, 0xbc2d13aa3d82c2d6U, 0xbb6d2a613d28ebb4U, 0x3c4205bf3dcda0acU,
  0x3ccd53a0bd569167U, 0x3a8d1fd33c6e0262U, 0xbde6b06d3c546ad2U, 0xbd78c85e3dbb607dU,
  0x3bcbab04bd8e1291U, 0x3cfc1646bdc12b09U, 0xbcd26adabde3d705U, 0xbe2e4f80bde79accU,
  0x3d3c366dbc98d00aU, 0xbd0fdfc4be189bdfU, 0x3d81c40b3d4e85cdU, 0x3c9c6eb2bc1aae45U,
  0xbcfb18603d2ddd3eU, 0x3d8ab8e1bd192712U, 0x3d034c32bd738754U, 0x3db37903be083813U,
  0x3de60480bcf45ae5U, 0x3c1e47c1bcb5893aU, 0x3d88609a3baf6324U, 0x3cafa4aabd81d20aU,
  0x3d60a8ad3cc8d438U, 0xbd5fb30cbc8ed157U, 0xbcf406a5bdec2a21U, 0xbd83d412bbbc56a2U,
  0x3c52fd70bd20eb8aU, 0xbe151e183cc88b6fU, 0xbdc2d938bcc90be2U, 0xbddbb6f3bcca6b0aU,
  0x3d7668703e008d6eU, 0xbde2b8c03d6d834eU, 0x3d09d1543e1286a9U, 0x3d81eafe3d885c08U,
  0xbd22ed373d693d39U, 0xbd9bed2f3d8bd979U, 0xbb9a031a3bac5bbdU, 0xbdf18201bdd2c602U,
  0xbd84081ebd126a63U, 0x3cf911f5be12cc57U, 0x3a2a8790bd144020U, 0x3b5e0614bc63a291U,
  0xbd77a7c6be0d348cU, 0xbdd48467bd005a09U, 0x3d9eb6c5bdbff751U, 0xbcc5e6bd3d0d4ce3U,
  0xbd93d539bd8de2b2U, 0x3d87da33bde9f105U, 0xbafd1806bdc5bc79U, 0xbd8cb6e4bd821156U,
  0xbcb248fb3d7faad3U, 0x3c899f18be6fb5c2U, 0x3c575ffebdff11b2U, 0xbe1ecc6dbc47a72cU,
  0xbd8154143d5d0784U, 0x3c8f3e943c373537U, 0x3d82ad5dbd907e03U, 0xbd1737373d4c4f21U,
  0xbdb161a4bd384aaaU, 0xbdd8e246bd82fca9U, 0x3dc0a2aebdf679c1U, 0xbbb43ed43d075bfbU,
  0xbdd8cc963cc44baeU, 0x3de62514bb0be023U, 0xbd7bea61bdec7072U, 0xbd16d59ebe17c2beU,
  0xbe0461263c680edaU, 0x3d3aab6b3c5a0331U, 0xbd8d00b53c862cbaU, 0xbdaf6f343b33a53dU,
  0xbc5ae2f1bd3bd56dU, 0xbc99f1f8be4696bbU, 0x3baa0c7ebdb21991U, 0xbd89aae4bdf61b9bU,
  0xbd885628bdce3e12U, 0xbd156d0e3d8b9e1dU, 0xbcb2ff12bca5ff51U, 0xbd8b89943d01be49U,
  0x3d1ee9dd3c572273U, 0xbda2e8df3d7c3337U, 0x3d8191f0bdc0077fU, 0x3d54e9e13d8d1536U,
  0x3d890b133ceb373aU, 0x3cab2347ba518d1dU, 0x3d042ff8bd1b8a9eU, 0x3d81af3dbdcaa001U,
  0x3da91347bd1c5b36U, 0xbd541f463cb50df9U, 0xbd00e7f13d102fefU, 0xbd6a74b3bdbd95b6U,
  0xbe13f5713bd0f0b1U, 0x3c6ac1acbcf40ae0U, 0xbd6979d9bd73eddaU, 0xbc5fec153d381b05U,
  0x3c95c016bd4dca95U, 0x3d681acabd430b16U, 0x3d2bece13d83ae81U, 0x3d2cd142be029e6dU,
  0xbde225e63d37b9f3U, 0x3d2ce9f93d35acb8U, 0x3accca873d75e29eU, 0xbe03d787be04d6f2U,
  0xbdf9673bbd770809U, 0x3dbd6d70bb65ff94U, 0x3dba91bd3de9d711U, 0xbd20752abde93d04U,
  0xbdb088bebdcbe7d9U, 0xbdb0366c3b2a75e6U, 0x3c78d35bbdbd550cU, 0x3d9584d1bdf454baU,
  0xbe34ed2f3c08a3a1U, 0x3dc6c31fbcd9214eU, 0x3c0892d5bde897bfU, 0xbdbef7b0bd598611U,
  0x3da1b66cbd542b1dU, 0xbd5761ffbdbbada9U, 0xbdcc9ca6be1826c7U, 0x3c4775b4bcf708b7U,
  0x3cc79a793d411473U, 0xbd35b0483da66031U, 0x3ce0caf43df14af8U, 0x3d7f4f263d168e4bU,
  0xbcb7c3b83d2fe76bU, 0xbd3104283bd1222eU, 0x3da1a7853cbc9a64U, 0x3df5c5dc3d11f285U,
  0xbc95b3a8bda1eb3aU, 0x3e0a049cbcb33597U, 0x3b9b945a3d9a7b41U, 0x3cb7417dbdeb7fafU,
  0x3d4607d23e27eec4U, 0xbdd073c03d9cad25U, 0xbdc0d46b3b51fff7U, 0x3ce6f058be2969b6U,
  0x3e4561f63cc545abU, 0xbe256f8c3dc55806U, 0xbcc9c867bdb16b77U, 0x3cc12e95be0208baU,
  0xbd6304e93bf5df9fU, 0xbdcffbb43d1d2910U, 0x3cb88709bc869ad1U, 0xbe0cfe373cfa2276U,
  0xbcc7fc463d452009U, 0x3d21235f3d357d75U, 0xbc9b5f40bda9cec0U, 0xbd9934cc3cc0da2aU,
  0x3d1c62bc3c941c27U, 0xbd60b017be13778fU, 0xbd2e8e49bda1580fU, 0xbd677d413e0f60cfU,
  0xbd4749893e005c55U, 0xbbfda248bdab5ba6U, 0x3c5ac9403da7e7efU, 0xbd0cfdc7be192745U,
  0x3d9fba8cbdefb873U, 0x3b2794cf3d53db81U, 0x3dcd88b53d8a2634U, 0xbd35dde6bd108f44U,
  0xbd82516b3bd62894U, 0x3ca409c2bcadaa93U, 0x3c211c373c8cd3d4U, 0x3d0ff659bc98b6ffU,
  0x3d016b6b3b16babcU, 0xbdaaca95bdc998b9U, 0x3b9efdf3bd4fbc6dU, 0x3d58f30dbcb6efacU,
  0x3de312bc3cb2470bU, 0xbe3368743d43e311U, 0x3d3f4e84bd58e6d8U, 0xbcdf690f3d08bdadU,
  0xbdc612fc3e051ec9U, 0x3dbc46583c876c1fU, 0xbcdcf9bcbd958b5cU, 0xbd9f7ecc3d070e14U,
  0xbd83b620bcff026fU, 0x3d54db833d69e838U, 0xbd9e3f86bd7bfecaU, 0x3d996448bd753320U,
  0xbd84bc0fbca0fdd6U, 0xbceea155be006754U, 0xb9e1e2a4bd6a01feU, 0xbdd1c8d7b9731dfeU,
  0xbd86b480bcf7515aU, 0x3d88a45b3d7e87dfU, 0xbd3072dc3dda25d9U, 0x3d845322bd1de19eU,
  0x3d1198ebbdbfca72U, 0x3d5058053d536c42U, 0x3cbb37113d48db2fU, 0xbd3aed8fbe4c7e78U,
  0xbbfb61423b98a5b4U, 0xbe18dc5fbc9bf1feU, 0xbda17236be3613eeU, 0xbce6c3793d80a6a8U,
  0x3d5317fc397a5450U, 0xbdb985c4bd266750U, 0x3db5b2503d81f99dU, 0x3dd7abcfbd9bb0e0U,
  0xbd82337a3de39c6dU, 0xbe596e763e11f32bU, 0xbd4ec5d7bc364d6fU, 0x3e008c71bb8299baU,
  0xbdbc43d43db802b8U, 0xbbc4cb963b3b6c19U, 0xbe07e069bd1efd3bU, 0xbe1f7c20bd815e2fU,
  0x3d4a044fbd1680d0U, 0x3c8457bd3d583a3fU, 0xbe155dfb3d916020U, 0xbd0ec9903c6f05dbU,
  0x3cb127f0bd749af0U, 0xbd33f04ebd08b8d3U, 0xbdf322733c8bed7fU, 0x3d5e54babd6a9485U,
  0xbc9ac2473b323696U, 0xbc8b01753d01b1d3U, 0xbbce22063e0aa684U, 0x3df26a8cbe20aa4dU,
  0xbc611c053d614318U, 0xbdb4333b3dd31b38U, 0x3c4127373d1ce70eU, 0x3d11150ebe1845d2U,
  0x3ae6e1903ba9f1f8U, 0xbd25688ebd8ffe87U, 0x3d951f06be1b4f82U, 0xbc9524e93dc5b451U,
  0x3e23e070be257289U, 0x3ce2641abcc09aceU, 0xbcb8a8153cd98a20U, 0xbc62f8b5bce86fceU,
  0xbdace6fc3d17303dU, 0xbd84c47a3c50f974U, 0xbddce6efbbb34cdaU, 0x3cc858023cda769eU,
  0xbcb78780bcfde995U, 0xbdd1e526be09c175U, 0x3c41cf273a233b77U, 0x3cc32e0b3cbd1751U,
  0x3c42a0a7be09d42dU, 0xbe2a967b3c459fc9U, 0xbd470a36bd5f3393U, 0xbc908f4bbdb1ae04U,
  0xbd759a183d5be1e2U, 0xbd93a7923d329368U, 0x3dd7bdec3c813ddbU, 0xbd28d7c0bab87d50U,
  0xbd828c4abe1f58d4U, 0xbdbace3f3c4d5b97U, 0x3c91f7613d1ad72aU, 0xbdb1a1ac3d814e96U,
  0xbd93cf1dbe1b3a17U, 0x3df89b503d550295U, 0xbdace8e9bdae86b1U, 0xbda632853df1c770U,
  0xbe0928ff3d562693U, 0x3be9a189bd9c8e81U, 0x3c2b6e43bc90e286U, 0x3cd4c300bd63be25U,
  0xbda3309fbd8ed7adU, 0x3d588f263ccf1b91U, 0xbd980840be1b7900U, 0x3d41cfd93b7fcbffU,
  0x3ca82c42bd81d037U, 0x3c31de75be12f520U, 0xbd1e9f92bad12f90U, 0xbd1eda22bd871152U,
  0x3c1dc998bc8d5086U, 0xbd8df20abdbaac9dU, 0xbdb8483abd2f8e60U, 0x3d1e850abd9d0747U,
  0xbd351c263c87b94fU, 0xbe023bb6bd15d02aU, 0xbd93dbe9bd866db9U, 0xbe04c61e3d066922U,
  0xbd94b097bd5426d7U, 0x3d1fc5ea3d72831dU, 0x3d847bf43db5101bU, 0x3d07d5543c953185U,
  0x3db7bc15bdad99ffU, 0x3c253d58be261c84U, 0xbdf8172dbdb74d84U, 0xbb874f7dbd4b7941U,
  0xbdf9d016bd2cc43bU, 0x3d09d168bc73fbd8U, 0x3d52d0a03cf36f9dU, 0x3c66f7bc3c0c01b2U,
  0xbd738c1bbc99ce2bU, 0x3d845073bc534b5bU, 0x3c2f5984be0c8e65U, 0x3d2f3133bd6a1ba8U,
  0x3c082e16bd1ec657U, 0x3d80e2db3d994158U, 0x3d82c1473d0f7a3bU, 0xbd779f86be3a5707U,
  0x3d1274353cef08c5U, 0xbd2dfebcbae9764cU, 0xbd373526bd026bf1U, 0x3d7ff765be00a774U,
  0xba7a5dcd3acaf36fU, 0x3d573e453daf25d0U, 0x3cfdd83e3cb996b1U, 0x3c071f1ebd564627U,
  0x3b98e08cbdb7666dU, 0x3d1eee70bd1776c5U, 0x3da015c7bdf6a9fbU, 0x3d62ef9dbb782e0cU,
  0xbcc9fd76bc672b6aU, 0x3d84d18cbcf345f4U, 0x3de9a41b3c7fc1a7U, 0x3cd40d9a3dbb1bffU,
  0x3dea73bcbe4071ddU, 0xbd31fd3bbe05a08aU, 0xbdcd317cbe0145c0U, 0xbb2bcdb13daaa872U,
  0xbdb8f5aebe056b96U, 0x3da7e736bcb1228aU, 0xbddcce8cbd909978U, 0x3c2dd51b3dad0c61U,
  0x3c1cf3853dd8af99U, 0x3ca114bf3d34a8a1U, 0xbcc97b55be297535U, 0x3d70518b3d7e57afU,
  0xbd175d19bde2a0aeU, 0x3d1be4b93daa9a8cU, 0x3d33f2a2bdbe9f57U, 0xbd49a77dbdd5e938U,
  0xbca46525bd72c04fU, 0xbe0b2f6d3b8face9U, 0xbcd60b5dbd3be392U, 0xbd154dd1be5cac8fU,
  0x3daa561fbd2b8606U, 0xbd7d54343d06847aU, 0xbdfb2db33da6f5ceU, 0xbdda7cc23dea25e7U,
  0x3e0039703d4154feU, 0x3d1fffedbd867781U, 0x3d9a95bd3cc15a94U, 0xbd5a5e63bcae05f0U,
  0xbc05dc6c3d037fc9U, 0xbdda7cd13c8c8386U, 0x3d4fe0e63c739f09U, 0xbc8a7346bddc4addU,
  0xbd155b20bd0e8275U, 0xbdc060e43dd4c943U, 0xbdeabbb7be222bd5U, 0x3d355e9d3da4aab6U,
  0xbca8b4c13d8a1f73U, 0xbe0b5e5c3ded2a36U, 0xbd4af6b93db519c8U, 0xbd28318fbe13753aU,
  0x3d44b1503d16ae18U, 0xbe1cfcb13cf30fb0U, 0xbdea37383d26465aU, 0x3ddcb407bd55e776U,
  0x3c82a891bd90658bU, 0x3e184e22bc96b0fcU, 0x3d960b0a3d84e4e3U, 0x3d12d9ce3c69d84dU,
  0xbd958b13bd5611c6U, 0xbdbef2a1bdda7999U, 0x3c9e73063bbd96fbU, 0xbd694f84bdf5db82U,
  0x3dd8e1e1bd6fd6ffU, 0x3d6af48bbd9086f1U, 0xbe19bc343ce7a1efU, 0x3d32e4f7bc35f5f9U,
  0x3c4b47b43d58de36U, 0x3defc0ccbc872576U, 0x3d0be96d3c42195bU, 0xbce683b4bc32c156U,
  0x3ba59e2abcd773f7U, 0x3a58286abca32428U, 0xbd81b40fbcdb49c7U, 0xbda880b5be223b3fU,
  0x3d81f0e53d20bb68U, 0x3cf6d9cebcc476f3U, 0x3ce49c7bbe1094adU, 0xbde0bd723d775edfU,
  0xbc6678fe3d297d7fU, 0x3cd9428abdb2b875U, 0xbe1324413c0fac07U, 0x3c0bd56dbde75fc6U,
  0x3d72fe033d55bdd7U, 0xbc8ba5c3bc07588aU, 0x3c9fc7723d9ef123U, 0x3dcf38073e16c07aU,
  0xbd9e06c43d84f592U, 0xbd38148dbe1bb28cU, 0x3dc412c93ccbf95eU, 0xbc389d5d3e00b7fdU,
  0xbe086d523b269d77U, 0xbdead282be3d79a3U, 0x3d19ab523d8ed54fU, 0xbd8f85a6be1fbe7fU,
  0xbd031b0bbd9c73ceU, 0xbdcfcc153c6a8c75U, 0x3c01580e3e02a773U, 0x3d039fc53d8b1957U,
  0x3deef25ebd3d1005U, 0x3dfa6a043e25cc82U, 0xbc79ec763db7a66aU, 0xbca0c20b3d9047efU,
  0x3d8fb542bd55415aU, 0x3d85a9abbd8d1282U, 0xbd9c69be3cb49f7dU, 0xbce43324bd5264a9U,
  0x3d1ccda9bdd56c52U, 0xbc971444bd62ce61U, 0x3cd977dbbde66b28U, 0x3b8de9f43c79fa7cU,
  0x3c9531953d15dd5fU, 0xbe05c5c6bd6986e4U, 0xbe009f9dbda88a87U, 0x3dc8272e3cfc872cU,
  0xbd14af97bd9c65f9U, 0x3cf7b6cdbdd028d3U, 0x3b1c55513d8ad1b4U, 0xbc3dc02f3d084435U,
  0xbcddd9fbbc04397cU, 0x3e11a4d23cc113b7U, 0xbd8b05253d9a2826U, 0x3d2c2a71bd0b7413U,
  0x3d858bbabd1696e5U, 0xbe3526253dfb48cdU, 0xbbcb788abc93ba56U, 0xbd97be8cbd15afabU,
  0x3cc434ff3c64fa2dU, 0x3cdf10fdbd00923eU, 0x3d9ea93dbd80ecd5U, 0xbd98c20abd29c043U,
  0xbd85b160bc8c3ca1U, 0x3d90ee4dbe2cb7caU, 0xbd1f67aebd41a898U, 0x3def0346bc3f2199U,
  0xbdcbcb703d854bd0U, 0x3d5b373bbdea5e5bU, 0x3b49c5e7bd1ef138U, 0xbd8fb8d4bc6b3697U,
  0x3ccc77c33c3e1ae6U, 0xbd47ff69bc7823a3U, 0xbcfb94933d297b25U, 0xbd1f32cdbdd5365cU,
  0xbc8314c7bc92fe13U, 0x3d8205863e1f2566U, 0xbc9dc972bde8bfb9U, 0xbd8de35ebd171976U,
  0x3d8774113d4b47b1U, 0xbd6e37f83cdfc858U, 0xbe09a8d1be2629e7U, 0x3e4ddedb3e14da9cU,
  0x3e0c2b8f3c8a0e85U, 0x3e0baa0cbd7ee041U, 0x3be71d3d3da91cfdU, 0xbcc739dd3e0cb180U,
  0x3b81b9d6bd277ebcU, 0xbd91950ebc6ece28U, 0xbddbe01cbd42b53eU, 0x3c5f67d9bd76e58dU,
  0x3de165b43d6cc85bU, 0xbdec0da7bdb9b9dbU, 0xbd9243afbdcd4b67U, 0x3d10eb67bd585557U,
  0xbba85aa23d894ac1U, 0xbd841631bdbd92b5U, 0x3cbea641bc3dad4bU, 0x3d452481be1f6e76U,
  0x3c27d1393e189cbeU, 0x3db8a299bd384f24U, 0xbcb0d3903c9b87edU, 0xbde8486c3bb3e9ddU,
  0xbe0b26cabe0b8639U, 0xbd38eaff3df04ccdU, 0xbd25c5723e096a56U, 0xbcfbcab2bd960e67U,
  0xbdb004c3be38c0c9U, 0x3c81ad2c3c731f23U, 0xbd9a33a9bd985ccbU, 0xbd54e6e7bbfdaf56U,
  0xbda3c3353b885a27U, 0x3dcb7cc4bbfbbc9bU, 0xbd810d88be40c94dU, 0x3dbf3e953bef9954U,
  0xbd040ebcbdccf4a6U, 0x3beaa677bdc1007eU, 0xbdea43fb3a34d6eeU, 0x3a0c0f3bbcb816e5U,
  0xbe0163d13cbbcd3fU, 0xbdad42fc3d09c81cU, 0x3c8df0973c40bff2U, 0xbdccf218bd587420U,
  0x3cd173bc3ceda373U, 0xbdcb5f573d5612c6U, 0xbc9a02ee3d761400U, 0xbd9bb7623c8ad294U,
  0xbe03c06dbd0ec2dcU, 0xbe68ec85bc9df78cU, 0xbddfda213d0cd768U, 0x3cebc85e3d160bebU,
  0x3d8638ef3d05a088U, 0xbd18db21bd3bc92aU, 0x3e223a11bd6377baU, 0xbe093cefbd820890U,
  0xbcca54cabdb81730U, 0x3d159ebfbd822f15U, 0x3e25b0403d858c85U, 0x3d67b3e7bd27e48bU,
  0x3d7c1b44bca80e3dU, 0xbd93b1bf3d4b344fU, 0xbae267e4bdb05acaU, 0xbd2bcc18bdae88abU,
  0x3cc550913d8a2c81U, 0xbd4667703dbacec8U, 0x3d2da30fbd88f95eU, 0x3d059260bdecfc58U,
  0xbc5b2ad23d8b55b6U, 0x3d9935f53b3ea85fU, 0xbcd0c20f3dbf17d7U, 0xbd26e861bd39a4beU,
  0x3d591dc53d66ca95U, 0xbe71eadbbd5d3631U, 0x3c6045fb3aabd905U, 0xbda46a82bd3990bbU,
  0xbd9c828f3df56e8cU, 0xbdfb5c21bdf5e883U, 0xbdac04edbcfe62e9U, 0xbdd1ff26bd328d11U,
  0xbd5b77213c66c69dU, 0x3d05f4b3bd0a13d6U, 0x3cb1b030bd8ecd74U, 0xbcee0ad8bde71281U,
  0x3daace46bd94e0e4U, 0x3d313a96bde9cb78U, 0xbe01e53d3bb860eeU, 0xbcc5f954bda31d9dU,
  0xbd646e4ebb7640d8U, 0x3c92b3333d9d1bd6U, 0xbd6471403bd35ff8U, 0x3b3967b43c7f49daU,
  0x3d2ccf0b3db5d605U, 0x3d705087bd6b4822U, 0xbcfdfd85bd5331c6U, 0xbd0d77f5bdd31728U,
  0xbd9b9574bd0316fcU, 0xbe0db59d3d86d2b3U, 0xbd8345dfbd096d2dU, 0x3d03e4af3cce86d9U,
  0x3cf78d28bde3f951U, 0xbe002709be263b5dU, 0x3cbc292cbddb57bfU, 0x3d8e240bbd267972U,
  0xbdb7a336bd3a828fU, 0xbd1dcf0dbd898c97U, 0xbc88d24bbd83aaa4U, 0x3cb25df0bb8f9b6bU,
  0xbd1662cb3d08cb1bU, 0x3954d855bdd22271U, 0xbda12a253d39f969U, 0xbe334be83d844a2cU,
  0xbd94d4d4bc410da1U, 0xbdb653df3c21f393U, 0xbd8cd1493cf4b33eU, 0xbbb6b4b63dc6068aU,
  0x3d4e949c3c85aff4U, 0x3dc3e72cbb948b93U, 0xbc706c1abd5992b8U, 0xbc79a88ebcc5670cU,
  0xbb0f0f1dbd69b623U, 0xbdaa48cfbb89808aU, 0xbd0583233dcae0a3U, 0x3b7fc1ddbd5e1631U,
  0x3d0c1814bd96da9eU, 0xbdbb70f9bd65392dU, 0xbdbe36f3bd843ee4U, 0xbd671b00bc64d177U,
  0xbda8b728be185105U, 0xbdd06d22bd83f26aU, 0x3cb6aacfbcd52988U, 0xbb5d63efbd0f971cU,
  0xbda329ec3d2129c2U, 0xbdfe9bf2be0d7949U, 0x3dd96827bdbc3658U, 0xbd53590dbd5ad89fU,
  0xbdd8a030bd146be3U, 0xbe59aa273d034bbeU, 0x3cdb1219bdfd2698U, 0xbcddbc9bbd0b94e0U,
  0x3d7640b53dbfcc7dU, 0xbca03b62bd445805U, 0x3be9dd67bdad713cU, 0xbe23283bbde30f25U,
  0x3d4bacddbdd334edU, 0xbd634bef3d672a57U, 0x3d6db1443d2baee5U, 0x3dd31b853dbb4707U,
  0xbd41a361bda1872eU, 0x3bfc2d9a3b705780U, 0xbd9d452cbdac8161U, 0x3a8009683d2d19caU,
  0x3ca8fb6fbc97efa3U, 0x3b2784463de233c5U, 0x3d54ec4a3dfc71b8U, 0x3d4362a3be184f76U,
  0x3cc53d0fbdbc1f4fU, 0xbcef73453bfbacc9U, 0x3d1602013d58f76dU, 0xbe09f105bdd4696fU,
  0xbd93b8103cd73111U, 0x3ca7d08b3d63e5afU, 0x3de27d6ebcc1ba10U, 0x3da56bacbddbf047U,
  0x39ac4083bdb6f373U, 0xbdfc627abe004330U, 0xbde1b5b93c12fbbaU, 0x3d6b09503d59289bU,
  0x3c89a6dfbe08a969U, 0xbc5423ac3da9ce26U, 0x3d841912bd16d7a4U, 0x3d516f3fbd5d10e1U,
  0x3d1715813b0e485dU, 0x3d4993f03bc0a4c6U, 0xbd4fd3923afd24d6U, 0x3d0488093d11d189U,
  0xbde6754dbc323439U, 0x3d7db9ca3d5e54a8U, 0x3d61d4383ce56d75U, 0xbdee927fbdd766d6U,
  0x3d27fd44bdeae5c0U, 0xbda367ff3ce6536cU, 0xbdec2d183d4a9867U, 0x3d8a3165bd81590bU,
  0xbd6fbed23d9ab616U, 0xbd381506bd2814f7U, 0xbde5068c3d237459U, 0xbc925474bdd42f6dU,
  0xbd221a5cbdd9a6f7U, 0xbcea2abd3dbf5b74U, 0xbdd09ae93d011be8U, 0x3cca498b3b481147U,
  0xba93074dbe297257U, 0x3d84b4553d5eb21aU, 0x3ac78eb3bc0f3ebaU, 0x3b2430a8bda52db4U,
  0x3c5809aabd02ee7cU, 0xbdf21b90bb0c819fU, 0xbd36637fbd780127U, 0xbcfe7739bc3beb6eU,
  0x3dc979d0bbeb3c9aU, 0xbd2c8a773e13e63dU, 0xbe07b234bb309769U, 0x3dbbec8dbd58342bU,
  0xbcf9965b3ddf94d4U, 0x3c9a2c173d409b0eU, 0xbd2b32c3bd86888bU, 0xbdb1a933bc636f24U,
  0xbd94c1e93cce0001U, 0xbd4691c23d32d49bU, 0xbd1ffa6dbc9ce760U, 0xbd89dad9bc444171U,
  0xbbe6ceedbc7aa3d1U, 0x3dc6cf01bd960b06U, 0xbe1dc1903d11db0dU, 0x3bf5fd483d44811bU,
  0x3de6adce3d1c19efU, 0x3d2589e1bdc340acU, 0x3c6c266fbe0557afU, 0xbdb0023bbdbb917dU,
  0x3cffba56bd63c415U, 0x3c7e10e23d7f5f2eU, 0xbbbee6b2bcbf3349U, 0x3d363d06bc8a50b4U,
  0x3e0603e2bd948f87U, 0xbdd42323bceb844dU, 0x3de91618bd2e4630U, 0x3b55fbedbdc4ba2cU,
  0xbafd7b1c3ca2eea0U, 0xbe06a0e93c97bc63U, 0xbc6dd1e6bcdc2269U, 0xbd900e113d9c6ed0U,
  0x3e009a95bbc710a6U, 0x3de36c7e3e03d819U, 0xbd975bfb3de48998U, 0xbd11f0f6bd9bd2dfU,
  0x3e084188bd5230fbU, 0x3c53551f3d755a3dU, 0xbd20d0e33d962125U, 0x3d67e2b93d11fd14U,
  0xbd9e08c53d8ebac6U, 0xbde18782bcc48056U, 0x3cd4ea59bdd3f7f5U, 0xbdc512d2be0d0c25U,
  0xbb437d69bda77678U, 0x3d975ab1bdab9cebU, 0xbe1541c5bd9c4734U, 0xbcba15a53de03947U,
  0x3d4adb353dd7d351U, 0xbe0512503c254afbU, 0xbcc9e857bd2a2dd3U, 0x3be8fd1f3d3cce67U,
  0x3d31228abda845ceU, 0x3c74741e3dead847U, 0xbdb729993d9529c4U, 0xbdd52a22bd9ee339U,
  0x3e010539bd64ea20U, 0xbd890a973d144393U, 0x3db65906bd0a90a7U, 0xbd92be98bdbe889fU,
  0xbaf26d1e3d988502U, 0xbe1829223d2d1a7aU, 0xbe07c0a0bcf6b2e0U, 0x3d3583673d390c97U,
  0x3d4752413e07fe9aU, 0xbe21ee6e3e0cc015U, 0x3cee38c83c159137U, 0xbc842ab2bda17966U,
  0xbdf3729a3decd3a5U, 0x3d361d08bd4f1dc1U, 0xbdd56d7a3cee1d8fU, 0x3d48b6673d6a78d8U,
  0xbdb517e3bd93b9a7U, 0x3d57ad063d5e137fU, 0x3d72de79bb14c7d7U, 0x3c9b5648bc40b796U,
  0x3d84c3083d02dfaaU, 0x3d5962fd3d05d84cU, 0xbde7bc59bda8b4e0U, 0x3d51e389bde26c4cU,
  0xbdf324ebbdc6034cU, 0x3dca215bbd21b080U, 0x3de1d5b03d1c16f2U, 0xbe082523bd42ce63U,
  0xbdcc90153dbc11e4U, 0xbc74c9993cb72bfbU, 0x3dc281fd3db3bf60U, 0xbdb9c7793c35c82cU,
  0xbd5397a1bdd2a5c2U, 0xbe0afec9bd899758U, 0x3ca5ffcabddcf7c2U, 0x3df2d06fbde80574U,
  0x3c5f22dabd61d3d9U, 0xbcbeb65b3ce5ced4U, 0x3e0f6471bdd3bd7bU, 0x3d9f6b333ce44e95U,
  0x3cd4d8133d62da94U, 0xbd61502f3d090433U, 0x3db3328abcbe3159U, 0x3c5a75383d50c56aU,
  0xbe123f293db78778U, 0x3d3bc26a3c88e45fU, 0xbc7f6f6cbdf01a80U, 0x3d210b51bda1fb5eU,
  0x3cf4fc783d447720U, 0xbd39b1cd3d9dd5f3U, 0xbdead028bd3886fcU, 0x3cc4b85c3d270d34U,
  0xbc7f0fd5bc853d0aU, 0x3d44d49e3d841b29U, 0xbe0cbad4bd6c1118U, 0x3cf053e43d3f7a31U,
  0xbd766a273dcc30adU, 0x3d01770ebd7e7b7eU, 0x3c1101cdbd0ca0c1U, 0xbd59ae0c3ddf77c2U,
  0xbcc7dca0bd0981d3U, 0x3d2081e7bce6ae93U, 0x3d9998623d931f07U, 0xbc670f2c3c0931d2U,
  0xbd25841bbdc2c660U, 0x3d57a261bd86fe9fU, 0xbcf927703d7a42f4U, 0x3dbb93463d314f38U,
  0x3d80e80abdf28d3eU, 0xbdf95676bba34631U, 0x3d30b9753c6c6455U, 0x3dd8da4fbdb1096cU,
  0xbd841e1d3ddddf27U, 0xbbc0ac673d04700bU, 0xbda43a2a3cd5b6d5U, 0x3d9f0be93d6293a5U,
  0xbda1e75dbc29edc1U, 0xbd28caf0bdebe62cU, 0xbb7cdb0bbca77404U, 0x3c357b87bbfd1e4bU,
  0x3dced2adbe05f737U, 0xbd79b244bd4b4e65U, 0xbe063e383de70968U, 0x3d4f7f403cb85a6dU,
  0xbc71f828bd1cb5c9U, 0xbdea82e4bdce3e20U, 0xbc8037b33d83a235U, 0x3d1f19c8bd4aaefaU,
  0xbdedd48bbc8ebddeU, 0x3decfd1dbd5dd669U, 0x3e1d3e753d9e0fb0U, 0x3cc36eddbd6d1b43U,
  0xbc782b653cf3faa1U, 0xbcd7c3ffbcd70365U, 0x3dc20dbe3c8e5e06U, 0x3c59f90dbe0ba81fU,
  0xbdc0d861bc07d611U, 0xbd99036cbdb5ca14U, 0xbd9616edbdd67da4U, 0x3dbb0e49bd9c88d3U,
  0xbd14e81dbdc2f1e7U, 0x3d7bb35fbdf757b1U, 0x3ded7fb03c7c7a94U, 0x3cc2cd0d3d1d739cU,
  0x3cfac9333df947fbU, 0xbe3a73443e05a8aaU, 0x3d68add1bd8567fdU, 0xbb955e34bd3d31efU,
  0xbde62bfd3de1189cU, 0xbc267d27bcf26d5eU, 0xbe3301f0bde85e64U, 0xbdc5c951bb0ce164U,
  0x3cf6d5cb3c7ecb1aU, 0xbb7f178b3c654188U, 0xbd069b3cbd0acc5dU, 0xbd99a242bd64b38aU,
  0xbdb6fc17bd42610cU, 0xbdb113debdbceb3bU, 0xbc974c6a3d3a9facU, 0xbdd035bcbc382346U,
  0xbd4cf4d13a9f9827U, 0x3cc4f0193ded3248U, 0x3d042dbe3d84455fU, 0x3b9f289c3d1ebe0eU,
  0x3bd2a413bdeceb5eU, 0x3dc3a26dbb8286deU, 0x3d829f21bcb04272U, 0xbb913c54be562158U,
  0x3b5ccf26bd966484U, 0xbd75248ebdafa793U, 0x3d6368bdbe098af8U, 0x3d00ae15bd95c98fU,
  0x3c51d550bdcc20d4U, 0xbd5cf926bcb1e950U, 0xbca2bf943cd1f610U, 0x3d288e78bd886aeaU,
  0xbcca48f4bd845f70U, 0xbe2647443df927c8U, 0x3d66faf73dabb7a5U, 0x3da94da83d5966b8U,
  0x3cc1bcaf3dca0a6eU, 0x3daa7215bd87970cU, 0x3d2bdf133cef8508U, 0xbda85e01bb995724U,
  0x3ca0abbdbc788c42U, 0xbd5f35373dbd7a4aU, 0xbd023f663e0d171aU, 0x3d2f62603cc12ef6U,
  0xbc65e10d3d947a54U, 0x3cbb3c97bd569923U, 0x3bc250bb3a1d2920U, 0xbc696a65bbc905e8U,
  0xbc72d340bd445574U, 0x3d84bc723db6a1f4U, 0x3c39aa1cbceab366U, 0x3dc3929fbdaaa580U,
  0x3dd8213ebd5c46e2U, 0xbd4fe088bd71dc20U, 0x3d420367bda8693bU, 0xbdb9b80fbe4c660cU,
  0x3d8e7a6abdf096c1U, 0xbe20abf93d936ad0U, 0xbddc7f83be14276cU, 0x3dfc0e7b3c8dea66U,
  0x3e007b9dbcbc1e35U, 0xbd9c97eebd5cd2daU, 0xbccaeae93c3cb911U, 0x3b0ff814bb8affdcU,
  0xbd1cb7ac3d987be1U, 0xbc6c6dcf3c8b9e5cU, 0xbdf174523db20f0fU, 0xbcaed2b9bd0c1fcaU,
  0xbe2645873c85e48aU, 0xbe0571213d1289b3U, 0x3bfd11c13dd53ea6U, 0xbe1cbec4be0403c5U,
  0x3d1262c43dcb1031U, 0xbd4952a83c3db64dU, 0x3d1610f63d9974c9U, 0xbcfe32e2bcb24ff2U,
  0x3ca4a7b53d331c9bU, 0xbdf0968dbd43586fU, 0xbd8075df3ce54668U, 0xbce9a03fbd1f2a53U,
  0xbd5cccaa3dcea39dU, 0x3e0204503d8c2868U, 0xbd12d47c3d045b9aU, 0xbd451e54bd8a14dfU,
  0x3d5da77b3ca7225aU, 0xbcab24ebbdf3b013U, 0x3cd75de33c68a643U, 0xbdeb7150bd5c4eb3U,
  0xbcab1b88be1370dfU, 0xbd29122d3d5ea703U, 0xbb125277bde721a3U, 0xbd7ae995bd89db87U,
  0x3e236fbfbe1ea8daU, 0xbd5e02833ca93f47U, 0xbc724ab0bd447760U, 0xbd0fc57a3d327f1bU,
  0xbe18ea583d37ce7bU, 0x3de100debd17ca68U, 0x3dbf9d5abcaaa6e7U, 0x3daa1510bd9f19dbU,
  0x3d88df24bdcf0d20U, 0x3d667f4f3de92efeU, 0xbd9ac724bdd669f7U, 0x3e11e6b1bc84d94bU,
  0xbde47885bd55617fU, 0xbd5108e4bce8659dU, 0xb91bee073dba108cU, 0xbd056f8cbcb61f55U,
  0xbd01e91b3d2ecf79U, 0xbbd43bc9bce0b617U, 0x3d07151c3db912b8U, 0x3e06cebf3d980a5aU,
  0x3db60fc4bde9780eU, 0x3cc773393d76f3b4U, 0x3d807422bd17f8b5U, 0xbbeecf9b3d141da5U,
  0xbddc0a2d3d80ec3fU, 0x3ad218d63c0880f4U, 0x3d8fcff53d39a408U, 0xbc8c26d53d0dfbd0U,
  0x3dcf9cfcbccac629U, 0x3e20b7073dc6255fU, 0xbdb7ae9b3d09a69aU, 0xbdf45a57bd3c6c06U,
  0xbdc7183b3dbad540U, 0xbd9df42d3d8d1ba8U, 0x3c8b09123d29e5e0U, 0xbdb46ae1bdcca99eU,
  0x3d365dcc3dce6e22U, 0x3e02ee12bd43ef68U, 0xbd19e19bbd9c480bU, 0x3d88a0d9ba88efb2U,
  0xbd014180be192825U, 0x3da47cf83d066b5fU, 0xbdbaa4c7bda845a4U, 0x3e081630bce99031U,
  0xbd75d6db3d21379cU, 0x3d1b993c3dbbc5efU, 0x3c36b8f93c200308U, 0xbcc94a4abb461b97U,
  0xbc356705bd0929caU, 0xbd44df5f3b92c11aU, 0xbdf922f4bc6654e4U, 0x3e111121bd928d7dU,
  0xbdaad8be3bca98f4U, 0x3b648d03bc8acb27U, 0xbc48e942bda1ba6dU, 0x3d76f9bbbd91d178U,
  0xbce7796ebd102260U, 0xbdae86c0bd1f289aU, 0x3e01181e3d81ed46U, 0x3de40c183de11897U,
  0xbd035d25bd85a0c3U, 0x3e2be76ebd67f401U, 0xbd577a783bb34c24U, 0xbd985bfa3bc7391aU,
  0xbd6bc1e53d9f55e9U, 0xbd65ba18bc5890d5U, 0x3c585c5fbddf6179U, 0xbbb8f76dbd2fa1aeU,
  0xbb50085abcd491ecU, 0x3bcbb6a6bd790ed3U, 0x3cdaa0253d62f12eU, 0x3d966405bd64d7dbU,
  0x3a4c7135bd031930U, 0xbc2fe1a4bd89e48eU, 0x3d3c1e913d3004d7U, 0x3e1b7ef0bd8c611cU,
  0xbce36beabc959eedU, 0x3e2de61c3d48f758U, 0xbd8f5ab43e0e7033U, 0xbd3bb2453dbb20dcU,
  0xbbca7188bdc555e8U, 0x3bbe6b6a3d09b662U, 0x3d7de0c43d1c230fU, 0x3cc5d2f4bcb62859U,
  0xbd827b16bd6e7454U, 0x3e09a367bd113460U, 0x3da69dbdbd168b93U, 0xbd00078abdc556b7U,
  0x3d32e905bc4e53deU, 0x3d8fa92cbda53a63U, 0x3a1287bc3d2fd053U, 0xbbb0ffda3d4f04cfU,
  0x3c499f8cbd897181U, 0x3da011c8bdb5e34aU, 0x3cc51d26bca3db9bU, 0xbd883e44bd4873ecU,
  0xbcdb3d73bd2acc7bU, 0xbd590c9ebd20afa3U, 0xbe14b21ebc9f1200U, 0xbcf0feb6bd89ba4dU,
  0xbdba082cbe2a4c71U, 0x3d3a3b3a3cbe1ac6U, 0xbd812029bd25ef30U, 0x3ccb1502bc8a0391U,
  0xbdde8c45bb20b78bU, 0x3df8972f3d36abe0U, 0xbe0c87e0bbfca916U, 0xbdc170373d322318U,
  0xbd92386d3d223e33U, 0x3d7133a8bd911e9fU, 0x3d7ebceabdb10e26U, 0xbaf9b99dbc1947f1U,
  0x3be87aa2bd5b14f2U, 0x3d1348073dd79a08U, 0x3c84efc9bdda0287U, 0x3cdf1d2d3d95e669U,
  0x3db96f7f3ddc52c9U, 0x3d834f51bcf7131cU, 0xb9f2ce92bd1fc996U, 0xbd726c56bde6f725U,
  0x3da6362ebdf55cacU, 0xbe0697a9bde4fc07U, 0x3d94fae43df11e4aU, 0xbdb3f29ebe1442a5U,
  0x3d5db999bda6ea26U, 0xbd908ae7bd6b98a4U, 0x3b031a57be28caa2U, 0xbd5ccf743d86899aU,
  0xbc7863c93c6617d3U, 0xbd9f769f3dc2ca3fU, 0xbd4119f93a77aec1U, 0xbe0af6763d77efa3U,
  0xbd8688833c8cd9e8U, 0x3d54fa093de61ac1U, 0xbe195d583dac06a1U, 0xbdec7ff93d5d0b54U,
  0xbcd7a10c3cce71c5U, 0x3d3645b7bc82f517U, 0x3c5d9e9c3d8b86c3U, 0xbca97ef33c83304dU,
  0xbd8e3dd83cbfdf1eU, 0xbceba860bdc71ef6U, 0x3aabc96c3c6360b1U, 0xbd895274bdde6cf9U,
  0xbd83c0303d5995abU, 0xbdaf02f53ddb72cbU, 0x3d73b15bbd886050U, 0xbc5dddab3d3d8d24U,
  0x3e059446bcbd8054U, 0xbb8f1a3c3d532c37U, 0xbdce599dbd5c30c6U, 0x3db88f583be5eb32U,
  0xbd9419103b63bd7bU, 0xbc179ffb3cc3b734U, 0xbd314e9d3d442ba5U, 0xbda38732be3c2dc5U,
  0xbd9b180bbe1b4aafU, 0xbcca84873d17344cU, 0x3cc60ab3bc38d34bU, 0xbd6d15b53deb54eaU,
  0x3de0200ebdc774c5U, 0xbdfb75c7bce6829bU, 0x3c9d886a3db47a9cU, 0xbde296fdbcfcf37bU,
  0xbdb24eb03c534b17U, 0xbde2a4703cd7fdb3U, 0xbc08fdfe3d7e6f8fU, 0xbce275c93dca6c95U,
  0xbcbe41ed3d86ca74U, 0x3cdb514dbbcfbbfcU, 0xbd69fd723ca200c8U, 0xbd768968be2e3b5cU,
  0x3cbc53b0bb556fb0U, 0x3dac314c3c532ec7U, 0x3d02c2c23d9f39a3U, 0xbd34c5e3be09a0bbU,
  0xbd6d85aa3d19e02cU, 0xbd5c49a63e120bc7U, 0x3caa9493bd6b26c8U, 0x3ddbf5da3da26c97U,
  0x3db0d085bd628e4aU, 0xbd9b665a3d906287U, 0xbe11b6dcbe0cb20fU, 0xba1f2b973cbbd87eU,
  0xbe062a283d2f2adcU, 0xbe21b69cba166e65U, 0xbd8c75f8bb8a15e6U, 0xbdf78858be139e5eU,
  0x3a3e9447bdef2defU, 0xbd9a94bfbc2da1f6U, 0xbce9c245be226f88U, 0xbd1770ca3d07cdb4U,
  0x3c6bef76bd83e11dU, 0x3d8c71403c55d2e0U, 0xbdc62fa0bd4aa552U, 0xbdaeaac43c82b524U,
  0x3c001445bd89d3ddU, 0x3cf46261bdce6cd7U, 0x3cc88534bcd63890U, 0x3d7d4a443d9e4ee9U,
  0xbe1f90433daec56cU, 0x3dfc53ac3e18b70fU, 0xbd78a270bdc59007U, 0x3d9a80983dd79bddU,
  0xbca3f003be152d84U, 0x3cdd52e6bdbc7543U, 0x3d8fcbeabe000340U, 0x3d98d53d3d825c3fU,
  0xbcb92a2bbd026c04U, 0x3cbecaeb3d8165f8U, 0xbdfcb28d3df274bbU, 0x3d75142b3d5a5f7fU,
  0x3da80ecebd76e70cU, 0xbccaa45ebd130c9aU, 0x3c90b5993dea9adeU, 0xbbfd50dc3c1b5355U,
  0x3cab64c7bc91ef1bU, 0x3d80f623bd98aaa7U, 0x3d5504733dee4789U, 0x3dc800f8bc827004U,
  0xbc141b093d450eafU, 0xbc8ac2483d11329eU, 0x3be9e98e3dc3fb8fU, 0xbdf848b43d818206U,
  0x3dececec3e0813d3U, 0x3d9900c33d61d1beU, 0x3df9f4c0bd02b46dU, 0x3dff3626bb7053d9U,
  0xbcfc0d513dbd6e9eU, 0x3e130bb9bd6099edU, 0x3d96b27ebcc7d870U, 0xbde2ff99bd2624feU,
  0xbe0763db3da7a7d8U, 0xbd85cadbbca6bcd1U, 0xbe03ee6d3de8d6ebU, 0x3dfa90943d7ce13dU,
  0xbe0f3266bcc3da50U, 0x3d98b8fcbc80230cU, 0x3e06314fbc858ffbU, 0xbc525c0b3daa0806U,
  0xbdbb72cfbdcb9898U, 0xbde02eb6bc9de12bU, 0xbdbb8ba83dc7b507U, 0x3d9cf33cbd7f43fcU,
  0x3d37ec1e3cf5362eU, 0xbcf12062be17a9d4U, 0xbd6c42773e1f6213U, 0x3de12342bd7c09c1U,
  0x3d39a41dbd12d4e5U, 0x3d90b9ccbd3523a4U, 0x3e0627773da05691U, 0x3df5dc533d7dac5fU,
  0xbd83321abddaffbcU, 0xbc02c5d2bdb789b3U, 0x3da63251bd1777b9U, 0xbd46b463bd118eeeU,
  0x3decb0c33db649daU, 0x3d86cc5dbd22a48eU, 0xbd46e0ecbdc8ec78U, 0x3e00ef213c9a93f2U,
  0xbbbe1548bd4b8c84U, 0xbdb615a73d8eaa33U, 0x3ccfdf1e3df7f5a7U, 0xbd2cd9143be38a38U,
  0xbe2d954d3dbab0f4U, 0x3df84220bd246135U, 0xbdccd81e3db8fff6U, 0x3dd1b9efbd39ba77U,
  0xbcd12c2e3d0a94a2U, 0x3d0ae46abd56cf0fU, 0x3c3111aa3e186d77U, 0xbe22a1153d2fa3a5U,
  0xbc21596bbb6d9b0aU, 0x3d6627ecbc589a55U, 0xbd986a85bd9bee51U, 0x3d8c2b2ebd8e2f18U,
  0x3d90a055bdc6b207U, 0xbdadd843bbcf82d2U, 0xbdaf2a1fbb23f290U, 0xbd11446cbe004c29U,
  0x3d047f7a3cf51bcdU, 0xbdbddded3dcf3bf3U, 0x3e18263bbd713d74U, 0xbd4e3f3dbd6fdd4eU,
  0x3db613ddbd341358U, 0xbd00309d3da2e9fbU, 0x3e088ad73de8ae58U, 0x3cb9b4fc3cb2c89aU,
  0xbcf66b413c84261aU, 0xbdcc9736bd28d3c9U, 0xbda1d62e3d89fd1cU, 0x3da90170bd5e31e6U,
  0x3d425e95bddc1520U, 0x3b6cf5a0bd23c393U, 0x3dc2c2673db58114U, 0xb99192973dd36a6bU,
  0xbd6f7b1c3d20e290U, 0x3e0de4293df41c74U, 0xbddc10b7bcb17ed3U, 0xbd36ecd93e0005f5U,
  0xbc12b55cbc8d9eaaU, 0xbd3e1287bd948464U, 0xbda4853dbd85c73cU, 0x3c1bcdcebd9ae78cU,
  0xbddcfd39bdab714bU, 0x3cdea6413c931e2aU, 0xbde173d0bc1cfc62U, 0x3cb273f0bbb2c673U,
  0x3dad4a013d100816U, 0x3ccebe28be1099f6U, 0x3da9ee2c3bd6bcd2U, 0xbdc1156f3d285fbcU,
  0xbd5c485e3d42cc4fU, 0xbc560cdfbdbd87e0U, 0x3cdd1e69bc49de15U, 0xbd819eeebe06b580U,
  0xbd4016a3bde88d9dU, 0x3c8b9aae3d4c9ce3U, 0x3dc51904bd0116c3U, 0x3c3b9a2abe2d4f8bU,
  0x3d00e63abd909294U, 0xbd05a159bd2d02a9U, 0xbe10411e3d30158eU, 0xbe0a3e6ebdcb330cU,
  0xbe158d69bdce9c13U, 0x3c71ea933d36358bU, 0x3cdb46243d72b1fbU, 0x3c93be9a3d01719bU,
  0x3c7a83f13d917672U, 0xbccb88263ce550b2U, 0x3ccc874c3d0dfbeeU, 0x3d5b218f3db50937U,
  0xbdf71f783bcc9985U, 0xbb843f173df52de5U, 0x3d755e6ebd9a9537U, 0x3cfb9575bdb46770U,
  0x3dc7aadebd39b28bU, 0xbc9ef0fc3d1973aeU, 0xbe153143bdcfeb82U, 0xbdb156ae3df90f5cU,
  0x3c8544c7bcd5d47dU, 0xbdba18e1bcc89a8fU, 0x3d12401fbdb4a227U, 0xbe273b1dbd67de0cU,
  0x3ce531053cb8411cU, 0x3d6fc1073d14efd6U, 0xbdd9c56b3d86b16cU, 0x3d5860c6bda4ea5eU,
  0x3d8f105bbd120443U, 0xbd7b2882bd7b4c54U, 0x3d1a5db23d154be7U, 0x3d8d927dbdba73f7U,
  0x3cd049b6bd6b7855U, 0xbd25f43b3c8d9babU, 0x3ba83376bdd0b543U, 0xbe0b7c763c14c5a8U,
  0x3bf03a273c3a6fa0U, 0x3dad01acbe132281U, 0xbc80de943dd0db1dU, 0x3cd8bbae3c304fd9U,
  0xbe134aa13c0dd26fU, 0x3df5be463c59c9a7U, 0xbd59799c3d33f8d6U, 0x3d14e11ebd3b32e4U,
  0xbdb6ff05bd913ad7U, 0x3d57d4693c8ccd3cU, 0xbdd07c12bcd9faabU, 0x3d771d29be10252cU,
  0xba975ccfbd802d3fU, 0xbdf32ce03dd9b569U, 0xbd1b5cd03bbe1695U, 0x3d1d65db3dea86e9U,
  0x3def015dbdf58c17U, 0xbd9c7009bdc2532eU, 0x3d629c66bc95cf27U, 0xbc23857a3c0f043bU,
