/**
  ******************************************************************************
  * @file    network_data_params.c
  * @author  AST Embedded Analytics Research Platform
  * @date    2026-04-16T20:57:10+0200
  * @brief   AI Tool Automatic Code Generator for Embedded NN computing
  ******************************************************************************
  * Copyright (c) 2026 STMicroelectronics.
  * All rights reserved.
  *
  * This software is licensed under terms that can be found in the LICENSE file
  * in the root directory of this software component.
  * If no LICENSE file comes with this software, it is provided AS-IS.
  ******************************************************************************
  */

#include "network_data_params.h"


/**  Activations Section  ****************************************************/
ai_handle g_network_activations_table[1 + 2] = {
  AI_HANDLE_PTR(AI_MAGIC_MARKER),
  AI_HANDLE_PTR(NULL),
  AI_HANDLE_PTR(AI_MAGIC_MARKER),
};




/**  Weights Section  ********************************************************/
AI_ALIGNED(32)
const ai_u64 s_network_weights_array_u64[4578] = {
  0xbdff39643d7b8ae3U, 0x3dcdadbc39684ae3U, 0x3d9e4ebb3cbb4e84U, 0x3da29f4b3bb93f9aU,
  0x3d4bed0e3e87d9adU, 0x3e6388afbdfefc3aU, 0xbd88a3853de506e8U, 0xbd6446943dd02a01U,
  0x3e3c611cbe876480U, 0x3e96b707bdbe2160U, 0x3e4b1e8abe5d0250U, 0xbddfcb0bbd802cb9U,
  0xbdcae4a43e8af4e4U, 0x3de0b5e73c878acbU, 0x3d7c64a2bda55c02U, 0x3e2231733e41a11cU,
  0x3e1497a2bf087a95U, 0xbc83c1bc3dd2a6efU, 0xbea72980bf65529cU, 0x3e8767a03e8041aaU,
  0xbb689ae93d35706eU, 0xbeb237a3bf5d5b48U, 0x3ccf77193ec706d7U, 0x3d0abc723b9b3c19U,
  0xbe807a04bf6ac4b9U, 0x3ddbd3633e8e0ea5U, 0x3e70de38bcbc7b12U, 0xbe5bff26be76afdcU,
  0xbd05f4723e6c4592U, 0x3e4b00ec3da01772U, 0xbed73237bea1b201U, 0x3d28470e3ec4b639U,
  0xbda4d7f63ced641dU, 0xbea8da89be99a405U, 0x3d1166ca3ee58303U, 0x3d468b7d3e542b9aU,
  0x3e3067b0be578bbcU, 0x3d2e3b8cbecbeef1U, 0xbe8dc191be949f7dU, 0xbc98232abe33197fU,
  0x3e3499b6beba2cd6U, 0xbe694de2be1dc5c2U, 0x3e87796dbe0aedceU, 0xbd467f36bedf138cU,
  0x3dbbd2b93e090d01U, 0xbe88de6fbe0fca72U, 0xbdd6e9e1bdd9eee8U, 0x3df52e34be7a12efU,
  0x3d7d8f2f3e13fe54U, 0x3e3e8182be1bb1c6U, 0x3e9317923e856d06U, 0x3d906d33be24ad75U,
  0xbd68140bbe0d3e8dU, 0x3e4a197b3e872eb3U, 0xbde8b5483df7e8b2U, 0xbaae764abe1eb9e1U,
  0xbe319e2ebe25c26aU, 0xbe4a5d4d3e57a25bU, 0xbe1f04dbbe51605aU, 0xbddb5681bdb0c684U,
  0xbdafe1183eebf5ddU, 0xbd50e9aabe9c0586U, 0xbcb5d5193cffe99eU, 0x3ebcde50be3e7918U,
  0xbe22e8a4bec94362U, 0x3e34d6afbe5fdca0U, 0x3e2949babd4efbb7U, 0x3e2c83593cb82e37U,
  0x3e5e5fd33e4cd883U, 0x3e953abe3dec0116U, 0x3e74c30fbdfa18c0U, 0x3e25f6bc3d8d7e6dU,
  0x3efd75a93e969e91U, 0x3e4ae3383f792ccfU, 0xbde1b70bbe536d28U, 0x3ee2239b3dd86b45U,
  0xbd1192463f620bf7U, 0x3d452b19bd051bd6U, 0x3f0bea263eb640d4U, 0xbd6479b43f814ec7U,
  0xbd98fbc73d37a67cU, 0x3e5050623b90e758U, 0xbdd977ab3e45814aU, 0x3dd403fd3e334f80U,
  0xbe2265f2bed78d97U, 0xbd9964133de34d5cU, 0xbe7c0dad3e0e64c4U, 0x3dc713a2be7bae27U,
  0xbd9f2526bda1086aU, 0x3e283caf3e9fc3e7U, 0x3e10f5bbbd8791f9U, 0xbdadbeff3e7e579aU,
  0xbe741a193c9d6702U, 0xbe91ea42bd0f4059U, 0xbdbd3449bdf28631U, 0xbe422bd73e09d157U,
  0x3d73ec73bd1b5547U, 0x3d8889b1be38946cU, 0xbe4b72ae3c0eab32U, 0xbe05ebce3daa3686U,
  0x3e93c03ebdfa4859U, 0xbe27b6b9be0390c2U, 0xbdb2dcf73dde910cU, 0x3dd2e4eabec228caU,
  0xbe9ea59a3e563cadU, 0x3dcb2717be37d50aU, 0xbc8ff1ffbeba7fb2U, 0xbdfedd80be2aea1aU,
  0xbe72584d3dfbf6f5U, 0x3ea3f2ddbd2a155eU, 0x3e6fa7003dae50bfU, 0xbe1e322ebe1a4696U,
  0x3e8dd795be754ee9U, 0xbdb543f63d4b0e2cU, 0xbe3cbc44be6dbaa3U, 0x3e5ba659be7a104cU,
  0x3e843e033d8c5f4bU, 0x3f294ec73f0d9606U, 0x3dd774c73f443ccfU, 0xbd8ab6ca3d6767ecU,
  0x3f26c18e3f05733aU, 0xbde349663f6e40d1U, 0xbde8fc87be3317e3U, 0x3f0c6c093ec67c43U,
  0x3dd957ae3f698a07U, 0x3da0b0923e04b422U, 0x3de874203e3cc54eU, 0x3d5ee7ca3eadecd8U,
  0x3dba0de43e6fade5U, 0x3e1427883e9ad465U, 0xbd7d3ebb3eab317dU, 0x3e597b8b3e832a1fU,
  0x3e8810403d89a825U, 0x3da66ce33d0ae249U, 0xbdde57163e820aa0U, 0x3e761bdbbeda2595U,
  0xbdd370aa3efb5ad6U, 0x3e1492ebbe4badc2U, 0x3ea1800ebe67c381U, 0xbe0215733f069c10U,
  0xbe1ec53bbe0b2d01U, 0x3e43a155be385c6fU, 0x3e6e80143e759763U, 0x3d9c0e813df9050bU,
  0xbfc6e4b4bee2d855U, 0xbe0c3058bf16238dU, 0xbbf12b513bc564e1U, 0xbfbca147beb19fc1U,
  0x3e1f4294bf18d112U, 0x3da46536bd354df2U, 0xbfc6976ebeb7e325U, 0x3e1f1318bf008f6dU,
  0x3d8132c43d32b55aU, 0x3d81f5a7beea0f9dU, 0x3ddf192dbe07dda2U, 0xbe6a69f43d864b54U,
  0xbcbd5131beb58b35U, 0xbe44b1fdbc59815dU, 0x3e0f58153e73e1ffU, 0xbe72441abec14ee2U,
  0xbe5371323ac3b205U, 0x3df1c0e7bde8a1fcU, 0xbdd4a9b4beefd0d2U, 0x3e0a5dfe3e07e016U,
  0x3dc0767d3de79631U, 0xbe9ad430beaab922U, 0x3caf21223eba525eU, 0x3c26b726bd774845U,
  0xbc1295a2bf177a00U, 0x3ba989283eaf35ceU, 0x3d610f0e3d7ee0c6U, 0x3ed4e9e2bf4f2e5fU,
  0xbbc1d2613eafaf24U, 0xbd45ec06bdeabcc6U, 0x3d73c407bf318235U, 0x3e4aeaf13ea0d4f8U,
  0x3e414f993d2c12adU, 0x3e679e98beeb20bcU, 0x3e4e06053df3db01U, 0xbb823a37be13b77cU,
  0x3f41ba40bd6dfc38U, 0xbd1fd6a73ead1363U, 0x3e2bc5333e19301aU, 0x3f121363be0543c7U,
  0xbca03f633f093558U, 0xbd96434e3e2bcb44U, 0x3e9ffeb9bca0d68eU, 0x3e2371bb3ed365cdU,
  0x3cf0e7c23e4f49e8U, 0xbe060d01bf59fe29U, 0x3e7e5b1ebe156240U, 0x3e53b9b43e241e11U,
  0xbe81266abf7df5d3U, 0xbd4ddf12beb845a9U, 0xbdf002e13d9b28d2U, 0xbe38dc1cbf2916baU,
  0x3e0fd1b4bebd25e1U, 0xbc818ecdbc8c6397U, 0xbe330ed93cd29fddU, 0xbe5289b1becd2061U,
  0xbd1f43c8bdc2ffa4U, 0xbe4e90393e75e759U, 0x3e007b38bf0ed887U, 0xbdd27eb33e5300e1U,
  0x3e1ee7a03ea36c03U, 0xbc85cdfebed651ecU, 0x3d7d2cf4bdb4e441U, 0xbe23eab4bdeebf8fU,
  0x3e357c85bec01427U, 0x3d28d213bdbb1f38U, 0xbdcf666bbbd74096U, 0x3e34a3f0bdd3f452U,
  0xbe7ce9633da012baU, 0x3d79f1dabe32fbeeU, 0xbeabc2b8be3ff744U, 0x3e3fda74bc9e8465U,
  0xbe794c7c3eda2f07U, 0x3d645c5cbe42bce2U, 0xbd282ceabd940807U, 0xbdb953373e6d77c8U,
  0x3ae4eefabdfb5340U, 0x3e0b7a6b3dc5ae5fU, 0xbe59f4fa3eb451feU, 0xbeb7b27e3e429ac5U,
  0xbe3b486fbea21f12U, 0x3e1314833f0cc212U, 0xbe4a5c263ebaeaadU, 0x3cc5dac9be66618dU,
  0x3e2af8063f0da35fU, 0xbe38fa3f3eafd612U, 0x3d47dfe53dc09daaU, 0x3d71afa23ef3160aU,
  0xbc1e2db53e613c19U, 0xbd19b71d3e84b298U, 0x3e72c45d3e039973U, 0xbe93880c3cc3a364U,
  0x3e14cbb4be1b29e9U, 0xbd5f06febd9ab8b5U, 0xbd849db1be0d14a5U, 0x3da91ae23e2cea0eU,
  0x3d98897f3c082d8cU, 0xbe33f69abe11f4afU, 0x3ab1b1d83e44fc3cU, 0x3db7b68f3e877ffbU,
  0xbebe6113bdf51ddfU, 0xbdb38d8f3e298085U, 0x3dd2ea763dddcbfdU, 0x3d6285673e3e1cfdU,
  0xbe07aa4e3b8c1632U, 0x3dfbccf43c23ac15U, 0xbe71f789bb98b3bfU, 0xbd5f34093dc0eb8dU,
  0x3f17ed103e60af52U, 0x3d31c5a73d4e633aU, 0x3e25174f3bcc364eU, 0x3f44d2fd3e8025e5U,
  0x3e61eafa3e80904bU, 0xbccbfad1be136ffdU, 0x3f0850d73ee018e6U, 0xbe469d303ea9ef35U,
  0xbdd3354e3e2ea613U, 0x3ec2ea683fced46bU, 0x3d8b79eebe67b366U, 0x3ea07f893e825619U,
  0x3e4128323fd2d35fU, 0x3c86b2b83decea53U, 0x3e91b4063e724f3bU, 0x3e22fee53fceeca1U,
  0x399ac2973dffcccbU, 0xbd9a2842be065d6fU, 0xbcc15b253f3cd8b4U, 0x3b05594d3eb41022U,
  0xbe8fbc4cbd5cc9c5U, 0xbba6275b3f15f159U, 0xbdd8e93abdb5aa33U, 0xbd31054fbdde353dU,
  0xbee0b07e3ed6308fU, 0xbe65d9b43e00c76dU, 0xbe127cf13da7a453U, 0xbf14b8d2bf0318f0U,
  0xbe04d7473e594309U, 0x3d972bb73da615eeU, 0xbf541d93be7e08e3U, 0xbd87061b3e39597cU,
  0xbe9c65953e2f7bb2U, 0xbf6ca2acbf0c8073U, 0xbe91295ebd268b92U, 0xbe93467dbe0e05b8U,
  0x3e9f80bd3e22349eU, 0xbd80264c3eb2b131U, 0xbbe3c6c63eb679f9U, 0x3e6f27ce3f18f08bU,
  0x3dc86b893e220911U, 0x3e8220e53e1cc96fU, 0x3ea07f423dc19297U, 0x3d6392d33d0ed2b1U,
  0x3d8e299abdf9cd8eU, 0x3e4b94093dfe8313U, 0x3eb177f23d0f7e95U, 0x3e8d7e5dbeabb654U,
  0x3df00e8b3dbb95ccU, 0x3ddfdaa43e7d621fU, 0x3db253b2be241075U, 0x3efeeb9d3ea5ef16U,
  0xbe82ad57bd98d698U, 0x3daf24a33e47665aU, 0xbd4b317e3e38b215U, 0x3de42c1fbc342c95U,
  0x3e210b33be581158U, 0x3e28bba23e94509fU, 0xbd2800283e7177d4U, 0xbdbbfaeb3ded55d0U,
  0xbcec99db3ea508e4U, 0x3c1414693d15997fU, 0x3e672feb3d05799bU, 0x3d35a6d9bd4c5e27U,
  0xbd1841023d143910U, 0x3e74a6293d9a78c5U, 0xbdbd54463dd64502U, 0x3dd51de03e6c470fU,
  0x3d3f98133e438bd9U, 0x3dc849f13e88134dU, 0xbe17d7d3bd9aafaeU, 0xbd320bddbe30e835U,
  0x3d401654be189595U, 0xbe0b4c95bd031ca6U, 0xbca282b4bca838d7U, 0x3ccb3fbe3e0a790bU,
  0xbdc30f913dcbc27bU, 0x3e2b8ab53d94dd1bU, 0x3e6188443dad08e8U, 0xbe2c8508bdfc68efU,
  0xbe8a3f81bce1a5d5U, 0xbd92ecb23d2f5f02U, 0x3dd8020ebdfc4ba4U, 0xbdea6a6b3dacd21fU,
  0xbdde906a3d32b4f3U, 0xbdfca77d3d0b8487U, 0xbe05267abe362562U, 0x3e0fb275be691476U,
  0xbe15a6ee3deeac5aU, 0xbcd65f10be3d602dU, 0xbd840d763e38b40fU, 0x3d94d6cd3e24a3afU,
  0xbe3b43303e76fb0aU, 0x3e09221c3df593d1U, 0x3d2a2013bdc9690eU, 0x3d4cff93bd8c86b5U,
  0xbe3d0b41bc3d0731U, 0xbddf06fbbe9a66d2U, 0xbe07992b3c1a6ff2U, 0xbe7ae7a1be246441U,
  0xbe0de663bdc8032bU, 0xbe2748013d373fb2U, 0xbde415233e316221U, 0x3d84dbf1bda73178U,
  0x3d71d9acbe490e4dU, 0x3e151cb0bd424147U, 0xbdf57e11bc017678U, 0xbe91d9bfbb8f0dfaU,
  0xbe5de81fbdbfffd8U, 0xbd8bf7a03da086b6U, 0x3d2471d9be54a06bU, 0xbe2f32fe3d41d77dU,
  0xbe844129be3fe9d5U, 0xbd7a89a4bd3941f6U, 0x3cff57ccbd2ab86bU, 0x3dc6f19cbda69e1fU,
  0xbda537c3bdf0936aU, 0xbe4aa85b3e3bdc14U, 0xbc04aeac3e4bce6fU, 0xbd8f520e3cc8bb77U,
  0xbe4a26e23e06c03eU, 0x3e29581bbd9f06e4U, 0x3d60501a3dce8f3eU, 0xbd0052043dc7fd9bU,
  0xbcd1a7ef3de7cdd5U, 0x3dbea6033e4a8d98U, 0x3dd0208ebda68597U, 0xbdbba1863e062d74U,
  0xbe01704fbccd4076U, 0x3d0a00ed3e48c6f5U, 0x3e46375cbd0d0b11U, 0xbd8f2a41bdfe02a0U,
  0x3e2cfbbebd9dc347U, 0x3e9a0375be526a02U, 0x3ea620003dcf70b5U, 0xbd137db83e2371ebU,
  0x3b09bd183df38286U, 0x3c56de423d9803e7U, 0x3da899683dfa7a49U, 0xbdbaff4fbc768ff3U,
  0xbe2850c33e414103U, 0xbdcead79bd336795U, 0x3e280eefbcc754ecU, 0x3d9f7db0be0c3fd7U,
  0x3df83152be9054a8U, 0xbe7990bdbdab7f74U, 0x3df3bfd33e048c20U, 0xbd7b71e63e13f043U,
  0x3c1c47093e36578fU, 0x3ce18abfbd73ee92U, 0x3e69a8f6be045836U, 0x3e796262bea2d988U,
  0xbe524355bdf97e8bU, 0xbc6fa699be76d375U, 0x3abf7d6d3d7e77e1U, 0x3e69f04ebea77df6U,
  0xbd4337623e1eeafaU, 0xbdd9ac34bc74fc70U, 0xbe1fa1d7bd931056U, 0x3dde8348bd5f8d21U,
  0xbd3c08333e5d2e82U, 0xbed797273dbef96eU, 0x3e4216c6bd448bd5U, 0xbe838b19be5409cfU,
  0x3e120ec03df33363U, 0xbe70b9b63d29e9adU, 0xbcf6aa5bbc5267b8U, 0x3e807fe0be1e361cU,
  0xbe89a7f23dd1305bU, 0xbde550323ddb9e79U, 0x3cbcf6ea3c64bc4eU, 0x3e6f9646beb038cfU,
  0x3dba8b5d3e2b4faaU, 0xbd878609bdceaa58U, 0xbe1763c5beb1da46U, 0x3e801190bdf319a7U,
  0xbd3b88a3be152471U, 0x3cbef9973e399681U, 0x3e2e22e73c2bdbaeU, 0xbcb37363be9dcfbcU,
  0x3c7df6923e2dd4eeU, 0xbdd0f2463c8e358aU, 0xbcd76ce23e468a82U, 0x3d9ffb66be215f80U,
  0xbe0e87aebdc7e4deU, 0x3e887daa3e73acadU, 0x3e808f11be65c4aaU, 0x3cc7a3febe86690aU,
  0x3e50d175be34d773U, 0xbdfc1d183ddd27d0U, 0xbcf823773d59a7e6U, 0x3e1eed873e7ca6f6U,
  0xbd7a7cb13e44b362U, 0xbcabe12c3db8b137U, 0xbe340d343e62daa2U, 0xbe2d7112be7977d3U,
  0xbda6c270be418f7bU, 0xbe6a38fabe062fefU, 0xbdddc1debec434b0U, 0x3e632c42bd8b580cU,
  0x3e1b23a73e91f133U, 0xbe7cfb8bbdc3d13cU, 0x3d8ca0273d8a7097U, 0x3e3fe0433df37a92U,
  0x3d4f55fb3cde75f5U, 0x3dbe9356be350a99U, 0xbe4841183e4f119eU, 0xbde9a85e3bb25e9fU,
  0x3b536f56bdd13bceU, 0xbd99fd61bc81a481U, 0xbcdc53fb3e9b88f6U, 0xbd936cc4be9b20c4U,
  0x3da260b5be03d01dU, 0xbe45a9cc3bdce826U, 0xbd9b50e8bce1a627U, 0x3df97ec3be329000U,
  0xbe1da5a93e0191a2U, 0xbe60e8e43d1ea057U, 0x3ec051e5bdca4e61U, 0x3d8eac433d8835c5U,
  0xbe44a0b4bd8785a9U, 0x3e543d363e47bbccU, 0xbe89453d3e54864dU, 0xbe82c75bbd9790c8U,
  0xba8de01d3bdd6b9aU, 0xbe4557d9bceda0e7U, 0xbdd4e0d73e904076U, 0xbdb293843ce51278U,
  0xbd7a34fcbc66b601U, 0x3e1a229cbd826dc6U, 0xbdbf86c4be6ea5f3U, 0x3e2415ec3d7718a7U,
  0xbdd83a673eaf27beU, 0xbe8bba393d4f9996U, 0x3e0b8528be3d6481U, 0x3d8f4f57bdc6e6ddU,
  0x3ddddf55be8b927dU, 0xbddb8e7c3be57cf2U, 0xbee60185bda3fe33U, 0xbe918471be747eddU,
  0x3e5048ffbe16df74U, 0x3d37e585be1a987dU, 0x3d13ea983e6976b0U, 0x3ab8954abd9a6d9bU,
  0xbe615f393e916b5fU, 0xbe408986be1942d6U, 0x3ce39b83bd9b589dU, 0x3dc3cfd5bd6b18a2U,
  0x3e08dc7f3e63f3f1U, 0x3dddb0bfbe981e3bU, 0x3df6a5a3bdc7b149U, 0xbe22478d3c081119U,
  0x3d039b7dbe76da6dU, 0xbc6b5826be1006cfU, 0xbbdbf55b3d1ba675U, 0x3e3888733dcdd5caU,
  0x3e25939f3da81b52U, 0xbe11a00d3e667e5eU, 0x3e8d04773e2e2758U, 0xbea358e6be4e2b49U,
  0xbea9a08e3e77e52dU, 0xbe32434ebefd72dfU, 0xbcbf67233e14d6b7U, 0x3e02a8aebde5bbc9U,
  0x3da21904be3b9adeU, 0xbe8f1b123c6a340eU, 0xbc88a6a0be628581U, 0x3e791957bc48325fU,
  0xbd725ba03dd73334U, 0xbe19d9cdbea4d191U, 0xbe82eac5be2d2edaU, 0x3c917905bd931366U,
  0x3e53a83c3e1fc6d4U, 0xbe3c483d3c2d4955U, 0x3dfdc891bd542998U, 0xbe1acf0e3de4bfb5U,
  0x3dfb3022bdb87d34U, 0xbd79438bbdd041f0U, 0xbd3ae14f3e0cce06U, 0xbe2d65adbe437e4bU,
  0xbc4b49543e3677e1U, 0xbc70f02fbe828fa5U, 0x3e931b64be21ca73U, 0xbdecc7d5be253b3aU,
  0xbe086d013dfebdc3U, 0x3e52333ebe8d6d2eU, 0xbeaf122f3d3edfffU, 0x3e3f2ec0bd796a9fU,
  0xbe1170b2bd42f2a2U, 0x3dc16f91bde29a32U, 0xbe1871fd3e464de7U, 0x3d98d458be4b22e2U,
  0x3e4d77a03d7e4b5cU, 0x3e5193933e0e950cU, 0x3df0f9d33e217948U, 0xbd289e43be05f7acU,
  0x3c0d7aee3d40e36cU, 0x3e003ba4bdeafcc3U, 0xbdf787dabdbd0469U, 0x3e89a3003d3c0038U,
  0x3dda61f93e336fccU, 0xbdc33cd6bd546180U, 0x3dd2ccbbbe0ad305U, 0xbd47da763db11f04U,
  0x3d2ac0783e569cdeU, 0xbe1c4033be275e97U, 0x3d9d9918bcc44bc2U, 0xbe6acdb1be01f788U,
  0x3dbc876abd9949dfU, 0xbde8d79a3cae3a5bU, 0x3d8593b9bcea91a7U, 0x3dde00a1bc8b4310U,
  0xbd9e92573cba7568U, 0xbe09afb13d9dbeaeU, 0x3e80bafd3ceedeb9U, 0x3e4514e2bdec34a7U,
  0x3dd1826b3d13c8e6U, 0x3e0b00013d631e2fU, 0xbe4c2d03be815822U, 0x3cc8465ebcf2afedU,
  0xbdfca57a3d622cfdU, 0xbda30a893ce9649cU, 0xbda63718bdbd9f44U, 0xbd463ed9be8bcb85U,
  0x3e10a5513d88fc0eU, 0xbe1a7b71be4a32d5U, 0xbe8320afbe5d026aU, 0xbc73f1c3bd57f65fU,
  0x3d78b30d3e792b6bU, 0x3de2eaafbe8b5a04U, 0xbd6faa643b9905a6U, 0xbe232967be1d26feU,
  0xbdcaf3773db93d96U, 0x3eb30859be2921abU, 0xbce0d6ffbe99bd31U, 0xbdb91b13baafb24fU,
  0x3cb4eeb93db276a9U, 0x3be12db4bde2ab4cU, 0xbd8eac003de86c4dU, 0xbd3470d4be060bfeU,
  0xbc3c8ffbbe10df5bU, 0xbe27203e3d8f84a9U, 0xbdb281f53db1eb1eU, 0x3d151ed13e9d29d0U,
  0xbe60da40beb46d67U, 0xbe7f78d5bdcc024fU, 0xbe8287383df71348U, 0xbe855e95be80b710U,
  0xbdb1d6893e11c2a8U, 0x3db86a6abdfcbc3dU, 0xbd59fcee3dc35a2aU, 0x3e3ab46a3dce01a5U,
  0xbda57aa83df40310U, 0xbcbfe0eebdb09afdU, 0xbe1f484abe6af8ddU, 0x3e9d7e4a3e5dc094U,
  0xbd1df21b3e691e12U, 0x3e14c0953e736107U, 0x3e1b12d8bd95b216U, 0xbce53fd63ded7b34U,
  0xbcccab3ebe256355U, 0xbe1b7009bd8564ccU, 0xbe9677babe238a4fU, 0x3ce1357fbe26d6eeU,
  0xbd133c5f3e74269eU, 0xbe5b02823e1b25d5U, 0x3d998616bdbea9e3U, 0xbd96c0b43cd89b8fU,
  0x3e341603be27410aU, 0x3d050aca3aa66e20U, 0xbdc0f8cebe2f7346U, 0xbdf2b3443df19ae2U,
  0xbe450b7c3e5066deU, 0x3d2af3813e7e2498U, 0x3e559ad43dda7485U, 0x3d9924dabd48d8e2U,
  0xbc9c92c0be3b0661U, 0x3ddf8df53d73f4eaU, 0xbe8565693dc0cbb9U, 0x3d08021cbd1e4f36U,
  0x3d3a1a5a3dc20918U, 0x3d8525d43dd69402U, 0x3c21e4d73e1a9c06U, 0xbcbedd183df31ca3U,
  0xbe3e6c743df712b5U, 0xbe90745cbd669223U, 0x3e284fbc3e3f65b6U, 0x3c41a9133e0f4723U,
  0x3cdfe904bda7cb02U, 0x3d4293debe4c1622U, 0x3ceae478be88df0aU, 0x3c98c1563e007984U,
  0x3d9b10e43e77f5c0U, 0xbe581be6bdab3941U, 0x3e679fd53d53c89fU, 0x3e5fc9053bc59a91U,
  0xbe1b504bbc791bb0U, 0xbc55bacdbe048944U, 0xbf0154b03d1a3fdeU, 0xbe00cc8abd5a9d54U,
  0x3e5cade23c214f8fU, 0xbdb1db8d3e8be063U, 0xbe255f073b9069e6U, 0xbeabe3003e052e61U,
  0xbe18046cbbf0ebf1U, 0xbdfcb2dfbe340c93U, 0xbdaa502dbe062b68U, 0x3e40c82ebcfa8ee1U,
  0xbdf6cfc63e3e38f8U, 0xbe1f9d7cbd8f1173U, 0x3ee526ca3dd84955U, 0x3b5eeb8a3e024f82U,
  0xbdb80f203e53a148U, 0xbe0e43cb3dc98754U, 0xbe1ea1473e8a3cffU, 0xbe208ace3e825c81U,
  0x3ec024eabe13d127U, 0xbddf14f93e796a1eU, 0xbe0b8ca73e8632ceU, 0xbe6896663e21b9daU,
  0xbcc231b3be49d3caU, 0xbe583c643d6b0e55U, 0xbee06b5bbdbd374cU, 0xbeae4da3be7159e6U,
  0xbda4bdea3edfbe44U, 0x3e693e6b3cd1205bU, 0x3d9e94613e8be376U, 0xbdeb00093cbd077eU,
  0xbe9867863dcfd2a9U, 0x3d61e1c23d39f71aU, 0x3e4894cd3d777c33U, 0xbde4e4fbbe305939U,
  0x3ce90af6be8507c0U, 0x3d783cf5be948c4dU, 0xbbee46f03e2527d2U, 0xbe3ae23e3e7d791eU,
  0xbe71aa843ca54621U, 0xbe0f07e43e8b7e2aU, 0xbdeb9c95bdff73d8U, 0x3de8f2c63dc369e6U,
  0xbd8300e8be6a564cU, 0xbf194ea83d91fdc7U, 0xbe0f7534be86892dU, 0x3cce4e4fbe44ce09U,
  0xbb80737d3d65f6fdU, 0x3d32c6793d57541cU, 0x3e9399d5be6e2d74U, 0xbe337c673dcd968cU,
  0xbc2bf563be16c4d6U, 0x3db312a33e2bcf15U, 0xbe83970dbe0e2abdU, 0x3d1a466bbd27d30cU,
  0xbe9a977d3e4f45aeU, 0x3d3674b13d36db01U, 0xbe6be415be274b3bU, 0x3cea5b323e0bd58dU,
  0x3da73a4abdde8bc1U, 0xbeac68253e09bf2fU, 0xbc30b8dbbe814922U, 0x3e53c756bd916fe9U,
  0x3e5182643ceb44eaU, 0x3df48a383d60cad2U, 0x3ed59e003d9dfb38U, 0x3e875924be43e02cU,
  0xbdd993703e257d45U, 0xbc955174bdaca977U, 0xbe731d413dc2a4e9U, 0xbe2bc358bca9adecU,
  0xbe8471d0bda20da2U, 0x3cd6bc423ea2c23fU, 0xbe27b1acbd599086U, 0x3e562f5cbe0c90b2U,
  0xbd1dff57bd463245U, 0xbeb41d273d5047f2U, 0xbdf3f21fbc8a1897U, 0x3cf87395bd4b5eecU,
  0x3e4d5a4e3e0bf74dU, 0x3e6d90c3bd1b3badU, 0x3f0645d0be2f8322U, 0x3cc9fad4bd72169bU,
  0xbd0ae1d53d4716e9U, 0xbd6115213e8fadb8U, 0xbe992fd6be16e810U, 0x3e9abd4c3e21bb28U,
  0xbe0ce2d03e38fd0fU, 0xbdea22d1bd9598bbU, 0x3d66ab65bd09fa7bU, 0xbd802e12be03e8e0U,
  0x3d567a123e55a723U, 0xbe15b236bcf87dc8U, 0x3e463b3ebe67a206U, 0xbe26bc413d7351f8U,
  0xbd42a5f5bc89a5abU, 0x3d0464f33df31bc4U, 0xbb7919b13d9a3026U, 0xbe132d40bdf8609bU,
  0xbe103dc2bec4ae27U, 0x3e1a6d11be249c7bU, 0x3e34ee34bd447031U, 0xbdbef1b8bd82ece7U,
  0x3df37c23be771bf3U, 0x3dbb8905bd9fa570U, 0xbd25ae23be51be91U, 0xbe0fabbcbe0cc946U,
  0x3c61c0933dcd8ac3U, 0x3e0e38c73e253ae7U, 0x3da9039bbaf490a3U, 0x3de674093d3497b1U,
  0xbd8c58c3be184da0U, 0xbe9c0388be5f14c4U, 0xbd720a6e3e4674d4U, 0xbe00240ebdc556c5U,
  0x3d72ea7bbe9c092aU, 0x3cb1b321bc847644U, 0x3e379b073dd0e49aU, 0x3e2b229dbddb0da7U,
  0xbc8ec8f2bd0efd72U, 0x3def6931bd43a7b8U, 0xbc85e7c2bdc2f93aU, 0x3ddabd79bda1155eU,
  0x3e5c6fbabe6c2520U, 0x3e2a58663e099f9bU, 0x3e0fc113be76cecfU, 0xbe16f5033e7a3d2bU,
  0xbe2fe8e6be3bbc83U, 0xbdb0bc513dfba074U, 0xbe1bb4253dfea301U, 0xbeb863dabe20e36fU,
  0x3dd4e929beca1c9cU, 0x3d8d2b9c3e44c1d3U, 0x3cc11709bdca88eeU, 0xbe2253e73c349502U,
  0x3c7590683d07364fU, 0x3ab53919be9a32faU, 0x3e0bd66abc796396U, 0x3d36bdaabe3e9542U,
  0x3df800e73defc607U, 0x3bf002b93b50bcb0U, 0xbd358883bdad9fcfU, 0xbe14a3d63e2c5176U,
  0x3c5670f13b657a10U, 0xbe8418a2bdf84d90U, 0xbdd702b23cfb4fb6U, 0x3ba748b43e160f51U,
  0xbd578951beae87ceU, 0xbd90bb293e3ef684U, 0xbdd4be36be3a6cedU, 0xbe23c115beba8141U,
  0xbe23a53cbe7bfaa2U, 0x3d8b0420be25da3cU, 0xbe082217be9d044eU, 0xbd3a6254bd83e821U,
  0x3cfc4a73bdc8d290U, 0x3c3835c2be4b67dbU, 0xbcb0f2adbe87f181U, 0x3e110520be07f9f1U,
  0xbc1bd1d63cfb8e73U, 0x3e25fd653e1803b3U, 0xbe291dee3d083b26U, 0xbe853f84be129165U,
  0x3d8e84d63cc91e30U, 0x3da9b37dbe3d3c8cU, 0x3db9514f3db4b4cbU, 0xbe4ebf583c1b60d5U,
  0xbdf734bd3de8ac19U, 0x3e8a0050bdeed4adU, 0x3e3108b03dabeb8bU, 0xbcde5a62be600edeU,
  0x3e0ecc0c3e9de279U, 0x3d789806be7c31ffU, 0x3d882474be4e024bU, 0xbe8292593db55e7fU,
  0x3e076f56bd8cc175U, 0xbe2f24143da4c2e5U, 0xbe30cfbe3d3b4d1eU, 0x3e3f3903be755991U,
  0x3d1363debdcef09cU, 0x3dd2fbd73e3128b4U, 0xbe233fa63e527008U, 0x3c8af67fbdeb9e2fU,
  0xbdc47fd5bea98a91U, 0xb949b37fbd91d414U, 0x3e4268f03d9bc59eU, 0x3e1cfd94bd27d073U,
  0xbd9b877d3e5a8f1bU, 0x3d68cda1bdb07930U, 0xbd7ecd0ebe71510eU, 0x3e2fbd8abec748c3U,
  0x3e3fbb7cbd28b510U, 0xbccd2744be1562b9U, 0xbe8b70aabe835ce9U, 0x3d3877563c7e4390U,
  0x3e757525bde80ec2U, 0x3cb5cb303dddc5f9U, 0xbe0ca710bd91639eU, 0xbe9345ab3d4f6513U,
  0x3dab7c6e3d5fe432U, 0xbdf45a1cbe6c0fe7U, 0x3d94ec7a3d7579e6U, 0xbe39c613be62be6bU,
  0xbe90d0083e14450bU, 0x3dfed832bd0bb295U, 0x3e19b014be006563U, 0x3dd0eb4abdb9e650U,
  0x3d5b694a3dc52eb7U, 0x3df77adb3e378364U, 0xbe45e6a9bd8b9807U, 0x3d275baebcdc02a4U,
  0x3e07ccdb3e238102U, 0x3e08060a3d11854aU, 0xbe091e5dbd78cefbU, 0x3ddcbd78bc3b88f6U,
  0x3d8b185cbcf6aabeU, 0xbd9a06f83dc8f17eU, 0xbe7aec553dbf0541U, 0xbf091f493e6063f8U,
  0x3dd116233e9a65ebU, 0xbd45502c3dc9a053U, 0x3eaa0cb23d69cce9U, 0xbe01766b3d8b5fb4U,
  0x3da3bbd7be62b420U, 0xbdda5a4f3e131699U, 0xbe7c2352be4afc66U, 0x3d586944bdbf72c1U,
  0x3c51480abd904349U, 0x3ded3f14be0596faU, 0x3dd8305ebd7d9835U, 0x3e0aebc83dd2742aU,
  0xbe7c9180be598cebU, 0x3d578d453de9dffeU, 0xbe8686e0be6c8130U, 0xbdcb6f4fbd93f8a7U,
  0x3dd9d2c1bd4b64c2U, 0xbd6033c73d262249U, 0x3de311dcbe1ecb48U, 0xbda39deb3d851024U,
  0x3e63bbec3f08e3d4U, 0xbcb87b62bd2b7c83U, 0x3e1451833d8090b8U, 0x3dbf49f0bd81c2aeU,
  0xbccfe7813dbbdc10U, 0x3e2440f7bdd0f789U, 0xbe9d894b3e7614dfU, 0x3e367627bd0fb2f6U,
  0xbe977fd3be949d38U, 0xbd89097dbd8b550cU, 0xbdd51df5be39083dU, 0xbf0136f73d6e3acdU,
  0x3dd0da5abd9a27e7U, 0x3d14540b3e3ffc54U, 0xbd9783043dbadd83U, 0xbdba26c3bdf5d53dU,
  0x3e0686e73ed1ae9aU, 0xbea901993bf02cb1U, 0x3d9c6fddbdb95479U, 0xbce1987a3c7188b4U,
  0x3e1129b73d2c55c0U, 0x3e9ff1c93d0074aaU, 0xbe3e8f943e094716U, 0x3e99a0a03da6ef10U,
  0x3d4cbde7bdb15829U, 0xbda5d7a83eb15f4eU, 0xbd9d7347be96390fU, 0xbe81679bbdbc6485U,
  0x3dccee3bbe938c33U, 0xbe87a982bdbf3088U, 0xbe35395dbe017469U, 0x3e06cbddbdc682b8U,
  0x3d14e8393e17f1c2U, 0xbda46539bd13e6c2U, 0xbe31dd90be0ad738U, 0x3e54b8303cd0aa5dU,
  0x3e164de83dd610a6U, 0x3e9312cb3e40713aU, 0xbe6223aebe87e9fcU, 0x3e5f5ded3e3eb910U,
  0xbe36e7be3cbd19cfU, 0x3ebed9c73e4e5f2fU, 0xbe8bcfd3bd890d93U, 0xbe2667b0bd9af24cU,
  0x3e71d4713ddab7b0U, 0x3daaaec23cff0c2cU, 0xbda79790bd9c7739U, 0x3e66e6ee3bb787b7U,
  0xbe2d2f43bd87e179U, 0xbdb935123c64b5d9U, 0xbea16b0a3d6b0e16U, 0xbd19223a3e1dcdb6U,
  0xbe90b99a3e1fcccaU, 0xbe9cf897beb5e1a0U, 0xbf5dba1cbcb91914U, 0x3c54820ebea33653U,
  0xbe2389f33dbe9d00U, 0x3e93a9d13dc36505U, 0xbe825ca6be01de4aU, 0xbe7ee815be813aa6U,
  0x3e848f913ea7beefU, 0xbe3d6373be84bfdbU, 0x3e5c01a3be079e82U, 0x3d9264863deb1628U,
  0xbd0600a3bd29801fU, 0x3d981ae03db730b3U, 0x3dc7857d3e9df866U, 0xbdd298a9bda8ad8cU,
  0xbcf22d623e99f61dU, 0xbe8fe68fbec151c8U, 0xbf2225223e1d65ccU, 0x3cf39b08bdd1d4ccU,
  0x3e2d0fffbd8ca7ddU, 0x3ebf981f3c1c0ab3U, 0xbe2a6e233e28ae0fU, 0xbcd5f3143d5d883fU,
  0xbdd122fc3e1f38feU, 0xbdddd7fbbe228b99U, 0x3cd57cc5becb1ea3U, 0x3e9312ea3d160527U,
  0xbea60889be762124U, 0x3e53a7483d3acf41U, 0xbe59b4343e8b31edU, 0x3d35382a3e34fb5fU,
  0xbe14bed13e8e644bU, 0xbddd3cb3bea3d34fU, 0xbf53706e3d160907U, 0xbd81df53bdc2a4ddU,
  0xbc8d63663e39532fU, 0xbd9c4630be29ac48U, 0xbe1a75643e646bfaU, 0xbda519d63e848e39U,
  0xbf20546e3e645b35U, 0x3d3b8113be36c3d8U, 0x3d8a22adbd5b42b3U, 0x3d27e756beccb9aeU,
  0xbe8f1c5d3d206022U, 0x3e4d3bda3d952b1cU, 0xbd6428d6bd8d15d9U, 0x3e05195d3df3a414U,
  0x3bba52353e2b74f5U, 0xbeec28e6be913bafU, 0xbd7ce570bd7c7849U, 0x3dff6d6e3e0346edU,
  0xbd0a1e003e47dd10U, 0x3d1756fa3e0563a4U, 0x3d72d1abbe2c1692U, 0xbe2451723d15ed70U,
  0xbf42f7e83e1cdae2U, 0xbe608f5dbeda9dddU, 0xbdb33fed3d02e611U, 0x3d887503be1fa70eU,
  0xbea43bc0bc82061aU, 0xbd6aec963dc11933U, 0xbd577475be963259U, 0x3da681bc3d8ba960U,
  0xbe857ec43e2b9640U, 0xbf139580bdfcce8fU, 0xbabdb208be267713U, 0x3e5446d3bda678c6U,
  0xbe1c72603e6d90d5U, 0x3d7c56be3dfbf29cU, 0x3d920abcbe7a9892U, 0xb9d5ff13be4c8131U,
  0xbea9f0843e219f1cU, 0xbdcb5ed9bdc6476dU, 0x3e00aff8bcca3347U, 0x3e28ba913d989ae6U,
  0xbe29a60a3ced6758U, 0x3e4a8bbe3e12743cU, 0xbe84e1ca3cc2aa2dU, 0x3d8fb008bdacce2aU,
  0xbe3296313dc68403U, 0xbf21a887bea1e758U, 0xbe2bc92d3dfa04bfU, 0xbe6faa61bdc77ecaU,
  0x3d7c8004be829d0bU, 0xbe3da560bd0ff636U, 0x3df2c6c63e248665U, 0xbde251003c166be4U,
  0xbc65b1833d209e80U, 0x3e3765c4bd8694c1U, 0xbe57ffef3cf8e443U, 0xbe089285bd465c67U,
  0x3e6fba163ddbc4aeU, 0xbb807f303dc7ba7fU, 0xbd2aeb113d7f4c97U, 0x3ea85c8e3e12a42aU,
  0xbe4c86fabe032807U, 0xbce2a12ebd8534e7U, 0x3dcee8573c9868f0U, 0xbe2923d13d8436b5U,
  0x3de9bf47be8db661U, 0xbc6d6d6e3dc940deU, 0xbe907bb7bd2389d8U, 0x3d402476be655293U,
  0xbd8deafa3d76b562U, 0xbbfe056bbe475b74U, 0x3ded37703e17531dU, 0xbc2601f3bda5b19cU,
  0x3e84b5ca3e07ff87U, 0x3d19594d3cc536bcU, 0x3eb1079fbbe230f9U, 0x3e1b0f80bdc54b6dU,
  0xbebd685fbe973491U, 0xbe08dce23ca77783U, 0xbe405024bcb905edU, 0xbe8bb34ebe289ea8U,
  0x3d5bdd6bbcae5ef3U, 0xbe52c0eb3e9914ffU, 0xbe5686833b8f47c9U, 0x3e079a63beb3b943U,
  0xbde9667dbe233e8dU, 0xbd96d6b1be716687U, 0x3dcaa356bd9b4869U, 0xbe000b1abe2b16d3U,
  0x3e1c81c03dce053fU, 0x3e1e78a03ea179c4U, 0x3ec3cae43df69051U, 0x3e3b21473d929b85U,
  0xbed7ccc7be46d409U, 0xbd4df816bb7c85ceU, 0xbe66843f3e3314aaU, 0xbd5d9bcb3cf40899U,
  0xbe554e7fbddaf32dU, 0x3e36d6d13cbd59a1U, 0xbe206852bcb8c5bcU, 0x3e0e60c53d8eb19cU,
  0x3eb9c6743f0f2e9cU, 0xbe073724bd7563faU, 0x3e6d35b43c9568a1U, 0x3e65e1c63e818e3fU,
  0x3d8813603cb88387U, 0xbed2d350be5c735fU, 0xbe147000be6b8c7cU, 0xbf0597ea3db44469U,
  0xbe8c65563d0154c1U, 0xbdd55706bd18cfc5U, 0xbe7fdb2bbe2401beU, 0x3d9815de3d82d162U,
  0x3c959c0abcbbfb45U, 0xbe966c1fbe9558d7U, 0xbd7b0e19be2a2b17U, 0xbe8ebae0bd2f7defU,
  0x3dbfd0593c1edd7eU, 0xbcfc8667bd66771fU, 0xbd7ed539bda997c8U, 0x3d1aabe03df0651dU,
  0xbdf62d91bda9d335U, 0xbea0eae9be74d62dU, 0xbe1d5f24be38fb7bU, 0xbe653bc43ce9bc25U,
  0xbcf3c017bd6558beU, 0xbe46f8813c902ffcU, 0xbe345c95bdb41498U, 0xbd143b30bdb88bf0U,
  0x3c1b8520bd9a8c18U, 0xbe86cd32be2f3a32U, 0xbe21e0c1bdf5964aU, 0xbe8722ff3d947e67U,
  0xbde1b4febcc7353cU, 0xbd1d016dbd1acdccU, 0x3d4f6759bd08cca1U, 0xbda3810fbe877041U,
  0xbe0bc0a63e0b9659U, 0xbeb697763c8aa3f8U, 0xbde649573d73c6f7U, 0xbec82d7b3bde9735U,
  0xbe21e90b3dbbe9c1U, 0xbc99b440bded6b75U, 0x3c900ec7bdfbed2fU, 0xbdbe707cbe8b7ce2U,
  0x3d691bf93d477078U, 0xba6ff09a3e5d113fU, 0xbde010f2bcf33a19U, 0x39b3b9ff3cd1af18U,
  0x3c3e85823e3bb244U, 0xbe28d732bd42d9fbU, 0x3b95cf9cbd935854U, 0xbd5a36d8beba44d5U,
  0xbd981b2abde0cb05U, 0xbd72c22a3c21f6b3U, 0xbd80ae2dbd25235bU, 0xbd22994f3dfd4aceU,
  0xbcee1b8c3e180099U, 0xbdf15b36bd4d6e43U, 0xbe67f116be889240U, 0x3de23b83be1381caU,
  0xbdc4e0c5bcd47a68U, 0x3e2a77333cad3428U, 0xbd92824d3d8e9b85U, 0x3d1a3e003d830ddeU,
  0xbe0bfae3be036a7aU, 0x3cd1c9f6bd70efbeU, 0xbe0c39dcbe872ce9U, 0x3cec9babbe05832aU,
  0xbdc849023d02246eU, 0x3e04f5de3e1b6453U, 0xbe0038643e2f3709U, 0x3e8043483de4edeaU,
  0xbe62d4813d63b879U, 0x3daf04cf3c24afe3U, 0xbe42241cbd98e108U, 0x3d4e47aebe29171dU,
  0x3da76928be5c5e96U, 0x3e062efb3d67a5feU, 0x3dac37483da4ec85U, 0x3dd01261bb4e0e67U,
  0x3ce8c7b63d1d4e8aU, 0xbe19272e3d9b9474U, 0xbdbd9e52bdf1204eU, 0xbd5aac29be19492bU,
  0xbd7e2857bd2c2cb1U, 0x3c0c1e413e0637abU, 0xbde3789d3d99ea35U, 0x3c1ae63fbd3170c4U,
  0xbbb7cabc3dfc9116U, 0xbdcf3f93bc699cffU, 0xbe88e202bdca6b92U, 0xbc570129bea1c816U,
  0x3beaa269bbdc9bf4U, 0x3829abf2bd35ba64U, 0xbd3877823dc1b6cbU, 0x3d94f5adbd59dda2U,
  0x3c99c2c33d99f8b4U, 0xbbd474b33d8a54a4U, 0xbe3b08b6bde36771U, 0xbd81f8b1be25b869U,
  0xbd453cb2be441d6eU, 0x3cd33ea73e11c65cU, 0x3d82e3b83d257921U, 0x3dad2b4c3d067d69U,
  0xbce342323cd31573U, 0xbd4b09933bc2665cU, 0xbe8bfa72be10670bU, 0xbd72f747beb0b51aU,
  0x3dac88e2be80e8d5U, 0x3dc0e0a83d1af74cU, 0xbd801ffa3d978025U, 0x3e5ee1f9bdad4a79U,
  0xbb9b2d03be19df55U, 0xbe255e3b39d7ea98U, 0xbe34eac5be0705d2U, 0xbc440c58bea0cba1U,
  0x3e2bb9b7be2aa0fdU, 0x3d86de61be0f142fU, 0xbdb2cddc3dc286bbU, 0x3dac3931bcaa2b9cU,
  0x3ba30997be53fc61U, 0x3bbdd3c23dc6e284U, 0xbebdd076bdd15ba5U, 0xbc99aef6bea21f4fU,
  0xbd74d462be93e755U, 0xbd716febbdc6b9ceU, 0xbd47390b3c885a4cU, 0x3ddbadd5bd4ae65bU,
  0xbd26853abe8b41afU, 0x3df6ce4a3dcf07c8U, 0xbe89a6e0bd198d02U, 0xbe02cf63be2271c9U,
  0x3d798950bdcb6bc7U, 0x3c08c4c1bd01fdf6U, 0xbc214765bdaf6f53U, 0x3da52b393dfe2a92U,
  0x3c9ff37fbd3efc19U, 0x3cb0de0dbd000609U, 0x3b23cc6ebe5934d8U, 0xbb2dd1cdbe01d14fU,
  0x3e0e2033be520986U, 0xbd2d62b93ca3aae4U, 0xbda683a73d57270eU, 0x3e4e64bbbd8294d7U,
  0x3d7109f2be95d4b2U, 0xbdea51433d0b83e2U, 0xbe642363be4226eaU, 0xbd9f6e78be3a9d77U,
  0xbba19e3ebe3dd460U, 0x3d14ef9d3d052982U, 0xbe12024dbd71974dU, 0x3e44f877be27698dU,
  0xbda1bd03be5b2442U, 0x3bd20454bdc3c314U, 0x3d4656b0be6a2ebfU, 0x3dce83c8be553ed9U,
  0xbc8e51e7bbce23b4U, 0x3de9a75abe311a83U, 0xbd2f873abd94b307U, 0xbce0e6adbe3ece90U,
  0xbd15a7bd3a2f92bcU, 0xba42853abe050e4dU, 0x3d4fb0353d870edaU, 0xbc8628adbde1afb4U,
  0xbd6fdb23bddf8b50U, 0x3d7fcafebd0e4070U, 0xbda022aabe10467eU, 0x3c9bc75cbd4b4564U,
  0x3dd65aa53b636238U, 0xbd25c9b1be737457U, 0xbdaf562fbddc8398U, 0xbdd478ac3b161f8aU,
  0xbd3c58a1bd934c76U, 0x3e49b667bda38e5eU, 0xbd918694be394958U, 0x3e224ff6bd945a1fU,
  0xbdc735b0be1dff13U, 0x3d0c52cabe275e36U, 0xbd3d1708bd739031U, 0x3b863261bd935aa9U,
  0x3ca28da33dfa3353U, 0x3d555a3ebd3233b7U, 0xbc927c93be1de20aU, 0x3d6e5536bcc18b92U,
  0xbd94417cbdd0e5e3U, 0xbdf3c899bd92d027U, 0xbcf963123cbba870U, 0x3d6ed4fbbdc9fff2U,
  0xbd931d0e3d90241dU, 0x3d46dfa2bd050050U, 0xbcd13fb53c66ad98U, 0xbe4a0138bdeb808cU,
  0xbb99de613bfe106dU, 0x3e06516cbe43d387U, 0x3df6aff5bdc81df2U, 0xbc42db4cbe3d79efU,
  0x3dbe9c0fbd22e059U, 0x3da8b90bbd9762d0U, 0xbe004488be5aa67aU, 0xbd1daecc3d2bf259U,
  0x3d32cb15bde596b1U, 0xbdf98a61bd6df668U, 0xbd542b08be3d757fU, 0x3d1e52bbbdf02036U,
  0xbd91116fbddb8cf6U, 0xbda1d15abe1296efU, 0xbdaffd3cbec19818U, 0xbc8fab273da9c747U,
  0x3ddcced4bd020cfdU, 0xbd0fbe2abe102940U, 0xbc150dfdbe39f3c4U, 0x3d37168abe12b563U,
  0x3da4ccd03c832a77U, 0xbddc3e15be356e98U, 0x3cb4dc803d54eec2U, 0xbe3b538fbce90c04U,
  0xbd7982383dfdd997U, 0x3c9e9f44bc8113bfU, 0xbd41d333be4186cbU, 0x3dd8fc83bd311531U,
  0xbddc8291bd2b9837U, 0xbd6d2a37bd9c72fdU, 0xbd1711b2bc361cddU, 0x3d55bf273d977d9dU,
  0xbd5c89763dd462aaU, 0xbcc897b63e03b83eU, 0x3edbd554be6a868eU, 0xbcc350bb3ab46ed8U,
  0xbdeca69dbbd980b7U, 0xbdd2fdcbbc9461ecU, 0x3d5caf6b3ea1327fU, 0xbd034f98bdd1c164U,
  0xbcc62da43dc66bd4U, 0x3c72ca483dbc479fU, 0x3e773561bdaa2162U, 0x3e95413b3ca52ff1U,
  0xbda46939be3e7434U, 0xbd26b64c3dbe4a71U, 0xbca66469bc9f9716U, 0xbde25304bdc2a914U,
  0xbe222381bbd77a9aU, 0x3c777cea3dc201feU, 0x3e746607bdb147f9U, 0xbdc100003e0004ceU,
  0xbde92f6abe147484U, 0xbe1001bcbc7146a9U, 0xbc8257a73d8a91baU, 0x3e345fc2bc0ab17fU,
  0x3cd38a3f3dcd007dU, 0xbcb64908bdcbc34eU, 0x3e112f383cde16bbU, 0xbd97e8013dbd603eU,
  0xbd4d5a923dc23e20U, 0xbdf55beabc646c76U, 0x3d9b0d513d66be9bU, 0x3dd8d363bc1f4ac1U,
  0xbe2014b3bca8a38aU, 0x3d5922a13d5a5787U, 0x3e5b55a6bd9bde91U, 0x3e5db5e83e16500dU,
  0xbd6781463dcdf0c7U, 0x3d9d8ac5bd642c7eU, 0xbbe970b83dfe26ceU, 0xbd774bb8be0d7e25U,
  0xbe1165ec3e08fa4dU, 0x3d1c7e44bd0f338aU, 0x3df3d0b5bc481aaaU, 0x3d662311bcf211f0U,
  0xbe2ad1f0bd3ab559U, 0x3d9fa8703d9f20e1U, 0x3d8b752c3dae2ca6U, 0xbde0dfb1bc91b1b6U,
  0xbdd52a78bd8d5e23U, 0xbde33e51bdba8ca3U, 0x3e4a9308bc522681U, 0xbd2276d73e64794bU,
  0xbd99e844bd451a71U, 0xbd51e2b33d840d1eU, 0x3d2386ff3df94cbfU, 0xbdafa0b13daa67e4U,
  0xbdaa9e06ba54857cU, 0xbdd5631abd88764dU, 0xbdb4b002be1fe3d2U, 0x3de6f86e3e17bbc9U,
  0xbd3308b3bddfa0beU, 0x3e0ce4e2be051989U, 0xbd853a53bd99b100U, 0x3df5735e3d2daf4eU,
  0xbe30ff7dbdbb4786U, 0x3dbb9d74bd68e995U, 0x3e75c3f4be45b09bU, 0xbcf0de4a3e22d68aU,
  0xbdddc0c3bc98998eU, 0x3dc77620bda9ceb8U, 0x3e36b300bdacfaeaU, 0xbb949fe1be3455bdU,
  0x3c5b2f5fbc7a1eb4U, 0xbde0b6e2b9ac6188U, 0x3e477f82bdb11e9fU, 0xbdeb72fb3dab2acaU,
  0xbe3de95cbc93268aU, 0x3d904393bd8b4a92U, 0x3c85723cbcad02cbU, 0xbb797efabe053d69U,
  0xbddfd8353b964e61U, 0xbd1b12fdbd2a14aeU, 0x3e65a724bddd87b9U, 0x3c73aa673e70173cU,
  0xbe0f9eaf3d8b33b0U, 0x3d9d8fd3bcee2504U, 0x3d973c71bd9e479bU, 0xb8b99363be03d47eU,
  0x3d244d693dcd55e6U, 0xbe1e9d47bd659e5fU, 0x3e3ef481bd0880b7U, 0xbe2002633eb43b32U,
  0xbbb343313e2c8eb1U, 0x3d84684f3dd836d2U, 0x3e20ba4dbd46ff0cU, 0xbdf3c92c3db969a3U,
  0x3d937d393cba1ce7U, 0xbcb9662abda86a19U, 0x3de5137abd4ffa9cU, 0xbe13a8ed3e9924acU,
  0xbe05812dbc0ff589U, 0x3cf340093c5d6637U, 0xbceb9524bcdbf357U, 0x3dce0ba83de151bcU,
  0xbc884b613e08b0b7U, 0xbd7e08acbd936f30U, 0x3d9274b03d521bdcU, 0xbe298d7e3d9dac63U,
  0x3d99b0963cff7c70U, 0x3d082762bdbed3d4U, 0xbc1cc3debd0aa697U, 0xbab5bc74ba9c0af7U,
  0x3d8c4b133ce6b680U, 0x3c01d628bda9acd4U, 0x3eb308bcbb74ece7U, 0x3d4060e33dacfd84U,
  0xbde752d3bce3e865U, 0x3dac8f21bccae0e1U, 0x3b831184bc204a98U, 0xbe0549e2bd1f35e8U,
  0xbba2c0f5bce95094U, 0xbdee43163d740e81U, 0x3e8f00703c95e048U, 0xbd7943663e0635beU,
  0x3d2f4025be695d9bU, 0xbdd504443d93a605U, 0xbde5ab9fbcd69ba6U, 0x3d35eba9bc6d0e47U,
  0xbce0ce553daf6b90U, 0xbe151e73bc8abe87U, 0x3de237583e0893d6U, 0xbe8bcd9a3d65c3f1U,
  0xbde8efcebd079bccU, 0x3dc90f02bdc6f145U, 0xbb4566033cef1154U, 0xbc5d785abe2a7a01U,
  0xbd2581f2bd1df6adU, 0xbbfb4efebc60ac29U, 0x3e37652bbd87ac0fU, 0xbdaeecf6ba3c2736U,
  0xbd66488dbe0d38eaU, 0xbd5e055cbc55639bU, 0x3dab4c923db5761aU, 0xbd8eb802bdc4b958U,
  0xbdcd054e3e598760U, 0x3d610ee0bd40fb28U, 0xbd835487be65a269U, 0x3cf073123d5de954U,
  0xbdb412c1bdc0c611U, 0xbc008680be2b8f0cU, 0xbd256a983dca2d9dU, 0xbe68c401bd86f3d4U,
  0xbd78ce8ebc6c2ad6U, 0x3db3049d3d7491d1U, 0xbe068e74bd1c419cU, 0xbccf0db63e834660U,
  0xbe2eeb49bd27e67bU, 0xbd1b9737bd6d58daU, 0xbc9882b2bde39756U, 0xbe299a2cbdf66be4U,
  0xbe1270de3c84998bU, 0xbd028469be318e3aU, 0xbcaeab15bdda0267U, 0x3dbeb6a43e18af54U,
  0x3d9c8e98bdbbebedU, 0xbdcae799be03e033U, 0xbca7fc8d3d98a4efU, 0x3d04c51dbe275188U,
  0xbe11123fbdc36986U, 0xbdd57dedbd82f785U, 0x3da0628cbe1392edU, 0x3d9997dd3e0c38a7U,
  0x3d8f6180bdcd35baU, 0xbd86a761ba8ef64cU, 0xbcfd47113d67919eU, 0xbd8d3ffbbd743ab1U,
  0x3c552126bdf0991fU, 0xbcafbda2bdee734bU, 0xbd67ce4dbd477c4fU, 0x3caca7813d42203fU,
  0xbd856d03be624f43U, 0xbe1e311abd4463a0U, 0xbd4da16ebde7428eU, 0x3dda3bf53b704522U,
  0xbd66b034be2eac6eU, 0x3da9ab53bbd764b5U, 0xbe6d328fbdc8d8adU, 0x3c7397553defb91cU,
  0xbd0e155abde9cd95U, 0xbe219c08bd3a2b41U, 0xbd90eb1d3d3c6c77U, 0xbdc360f93c16c39cU,
  0xbcd8bd70be9f164dU, 0x3d2578733d81baa2U, 0xbea5264abe5cd057U, 0xbdbee40b3e84757bU,
  0xbd26c52ebe4fd4d4U, 0xbde047c6bd879973U, 0xbd4edef3bcfb2addU, 0xbcaf76c4bd3a2a6bU,
  0xbd43afb4bec13407U, 0x3d9ca1fdbc57fb8fU, 0xbe58b7b2be8e80daU, 0xbdd4f3af3e96fcb7U,
  0xbdc611aabeb9bb26U, 0x3d83a6bebe12933dU, 0x3c871be23be457fcU, 0x3cb954163c4a4faaU,
  0xbe4e94b9bec4e6d1U, 0x3d4ee48abdc34991U, 0xbcb577f0be931df8U, 0xbde6e0303e5dc132U,
  0xbc94f5d63d96eea4U, 0xbdf27ea93d0603d0U, 0xbdcf58703d68a803U, 0x3daca2cbbcd8dc62U,
  0xbcd3e821bbff0a04U, 0x3c384798bc8d08bfU, 0x3d8b0bb43d9e7372U, 0xbe152da13dbd3a00U,
  0x3c90f071bdda137bU, 0xbdadf10a3cc460a4U, 0x3daae2b0bd6f6d53U, 0x3d4ff4ca3cce3bd5U,
  0xbde85e7ebc9bc02cU, 0xbdcd58983d8bfb54U, 0xbdb99ac8bd5daa9aU, 0xbd3bf525bddd4e25U,
  0xbd9d6a24bd13ef47U, 0xbd8bc2bebc141242U, 0xbe0dc1b8bda97cecU, 0xbda487653d45cb2cU,
  0xbd37711cbdac39e0U, 0x3c16dec53da3ca37U, 0x3c84bce8bdb25bb3U, 0xbdfad62e3cfe4db2U,
  0xbc5d95583d7e0ec4U, 0xbd6cfab7bd885e03U, 0x3c9c1b29bd4159c7U, 0xbbac8409bda6e642U,
  0x3d0d03c9bd6b9ef2U, 0xbd571653bdbf7cb8U, 0xbd645fbfbd8ea48fU, 0xbd1e31de3dbf5cecU,
  0xbdfc58c6bcc2b893U, 0xbd8e681c3d0a0ce7U, 0xbdab4e6b3c908dffU, 0xbdc6238abc289aa0U,
  0xbe0193d83d7037d7U, 0xbe1ae23abddad157U, 0xbdd00c2dbded42e7U, 0xbcf7991f3c27ae74U,
  0xbb499ac8bc3218e5U, 0xbda998723db81451U, 0x3c9d1e793d03ae12U, 0xbd401960bd4b7761U,
  0x3d588292bdc1e462U, 0x3cba85f3be12755aU, 0xbcbb0041bda9aeb5U, 0xbd43b60c3c8149b6U,
  0xbdf7fd98bdd5483dU, 0x3c4e10dabddc015aU, 0xbdbcf4a6bd121a96U, 0xbdb9ab43bd7db9afU,
  0x3d45ba37bd6919deU, 0xbd8bb8c1bc2b6e6fU, 0x3de6ee42bd9d7de1U, 0x3a8f994fbd5c6473U,
  0xbc166dfebe17b194U, 0x3d9444613ca13686U, 0x3db4a3e83cc397feU, 0x3c324e41be12b068U,
  0x3db49c5bbc76f47eU, 0xbda9e4e6be02029aU, 0xbdb0e132bd030422U, 0x3cce9bbebda9acf0U,
  0xbddafa0abcd8e4f5U, 0xbd4b8fc0bd050742U, 0xbd0f15cebd0d6ac3U, 0x3bbb217bbd805793U,
  0x3ca56dcebdb3f422U, 0x3dcac0fe3da3d982U, 0xbdc9f420bda76a08U, 0xbd338f3fbd91b7a2U,
  0xbdde9802bb64b028U, 0xbd3ac93bbd5840cbU, 0x3c80c4c83d588161U, 0xbc31a9343db9adddU,
  0xbdfe6a55bdc5aa11U, 0x3a5a9f49be1571b0U, 0x3dc9cfdcbd08ae6aU, 0x3dc96e67bbbe61e3U,
  0x3cad6442bb2f5b20U, 0xbd6f9607be0df372U, 0xbcc8abadbdd6dc25U, 0x3d3980a93d82ffafU,
  0xbdb5407cbe127729U, 0xbdb26f2fbdcbe4ddU, 0xbdc255b63cbae951U, 0xbd0de401bd5f84f1U,
  0xbdb34ea9bc06bff6U, 0x3d2e4ce63d952365U, 0xbc84cf39bb984243U, 0xbcaad50bbdad3ae6U,
  0xbdf2807abb9af34dU, 0xbd4d03c53d95b03aU, 0x3c1e9d5b3cf728b1U, 0x3d617ba1bdc84606U,
  0xbdfb6fdebccbaba3U, 0xbcfdde9dbcd28d43U, 0x3d4a1549be157516U, 0x3d4c97923be3019aU,
  0xbda6ff14bd13dac6U, 0xbda455b3bd7b5d81U, 0xbc5736aa3dcc1917U, 0xbcde2ed73d032e15U,
  0xbd198fbc3c0070ebU, 0xbcfbbe2e3aedc711U, 0xbe059aa6bdad76b1U, 0xbd36f782bcedbf7fU,
  0x3d5ba0193c9a1274U, 0xbd9a40913d71a835U, 0xbcdb3974bdaf7331U, 0xbd8b9d103ca32a66U,
  0x3db1ee63bdc758a5U, 0xbdf6e16fbc272ae3U, 0xbdae995fbd862015U, 0xbd3ff1fc3d6e5203U,
  0x3d38f99a3cd36321U, 0xbcb18469bdc7911bU, 0x3db01f7abdf06cbcU, 0x3d8f7be53dafc1ffU,
  0x3d6b901d3ab8567eU, 0x3db421c7bdeb789cU, 0xbe02ec563c6ecb1fU, 0xbdbc0be73d69826bU,
  0x3d4ffe93bd4455bdU, 0xbda29e5a3d824b58U, 0x3dc00b59bdaaaa52U, 0xbd35fdd9bd5b1048U,
  0x3d65d508bd8e7ec5U, 0xbcf73613bd8ae6f4U, 0xbdef6988bda87726U, 0xbdc28f5ebda4beaaU,
  0xbd7b6d75bc4ed6b4U, 0xbbf723283d6d1bf0U, 0x3d3e7661bd67b897U, 0xbcd29b53bcaa76b2U,
  0xbdd5bd67bd97e7e6U, 0x3d7dfe11baf4e38eU, 0xbcfc6fb1be1749e5U, 0xbda455753d582fefU,
  0xbdbed42abdc13fa6U, 0x3d842fd9bdfb300bU, 0x3dafb095bd828e12U, 0x3dd19a8e3c26c55bU,
  0xbdb103fc3dca912aU, 0x3c9b5aae3d5211c3U, 0xbd51b7ce3d87cf28U, 0x3d5962893d6abf25U,
  0x3da47c953d5521c7U, 0x3cbb8c70bd299c90U, 0x3d1056713dbf1f9fU, 0x3d4e602fbdca86e8U,
  0xbd3aabfd3af8cb87U, 0x3c115e58bceaf3abU, 0xbdff26d63ccd60e9U, 0xbdd6a8abbdc8db20U,
  0xbdc284c9bc8fa8d8U, 0xbd166830bdf37839U, 0xbd4538333ce73250U, 0x3d09aaff3db88a58U,
  0xbdfad1273c06ccc6U, 0xbd9b4dac3d83448eU, 0x3d89d82cbdddffadU, 0x3dc0acd8bd44fefdU,
  0xbdb4ec113d0fdb8dU, 0xbd76965c3d223d86U, 0x3bc3443dbcefddf9U, 0xbce3ce02bd1789e3U,
  0xbcdeb0a1bdd06562U, 0x3c50ae30be147ce6U, 0xbd91b7aa3bb9a624U, 0x3dace229bce37731U,
  0x3dae6c29bdc6a73fU, 0xbd87f7ac3c802b86U, 0xbcb868433daf8b92U, 0xbbf28cdfbd120fb4U,
  0xbda6f6183c37e11cU, 0x3dcfe2c83d6b1adcU, 0xbe09b8bf3d6a63fbU, 0x3cbe6660be11540bU,
  0xbda4ebd53baaf90eU, 0x3d4b2069bdef4b7fU, 0xbdee9a953d72e7f0U, 0x3d6dc711bce20412U,
  0xba7bdb043d701756U, 0xbd73fb573cf96db2U, 0xbd9df0bb3be4241eU, 0xbc86c508bdc38de4U,
  0x3d918901bd06c864U, 0x3d4f24a8bdda0899U, 0xbcd87f013c5fae38U, 0x3d9418d63d72f66eU,
  0x3d0fbc383c3c0f56U, 0xbd36628d3c2ad014U, 0x3bf70c5cbe0c90ebU, 0xbd026c533cf20469U,
  0xbd5a6e44bd7124e8U, 0xbdb8c951bcb1bb3bU, 0x3bbc110bbddec46aU, 0xbd926d5ebd9a9bd1U,
  0xbd877ff23cfa3162U, 0x3ba82404bd2b7debU, 0xbe25ed4f3da2cabbU, 0xbca49f1cbde21cd9U,
  0xbd4d6d3bbdcb495aU, 0xbe018760bd8ed326U, 0x3cba2f00bd4a60eaU, 0xbdeb24813bc02ec1U,
  0xbb7167c4be13adc5U, 0x3dc4a7bbbbca462eU, 0x3c45829abc646798U, 0xbd7c4ab9bd82a365U,
  0xbd931366bd29033fU, 0xbbef0f05bdaa9c00U, 0xbd13b944bdd3eb4aU, 0x3ca43c2dbd7f2e66U,
  0x3d9d53acbe1f5fc2U, 0xbd00932fbc841993U, 0xbd908fb1bdfbed28U, 0xbde37cc1bd68d84eU,
  0x3c15f5fbbd2238f0U, 0xbd8e82e3bddeb525U, 0x3de5fae0bdbbb02bU, 0xbd60d4fdbdc8c076U,
  0x3d3c9720b9e55424U, 0xbd461b9ebd1d4453U, 0x3d75df58bd89950bU, 0xbc3a68cb3d828daeU,
  0x3df59babbcdd91bfU, 0x3d92324bbd3bd2c1U, 0x3e41de48be595648U, 0x3a8dc2153ba4a805U,
  0x3ddd2b5cbe284c77U, 0x3dbdc2ccbdedded8U, 0xbe528c3cbdeb3525U, 0x3cc14b203e748113U,
  0x3d873073be0d164dU, 0x3e0d977abd0d5c70U, 0xbd1251f9bd8c425bU, 0x3d545453bdce0535U,
  0x3e4d06cabd47836fU, 0x3d772384bd470e78U, 0xbe083319bd1246f7U, 0xbe0dbdf13d9e1e40U,
  0x3e0f31d9bdff3c19U, 0x3e01276f3d6a2311U, 0x3b9427c1bd18e35bU, 0xbdb31b0abd75f486U,
  0x3e1221493daafb3bU, 0xbbedd5ce3d883ff9U, 0xbd3eb958be406514U, 0xbe854c473d87afc4U,
  0x3cb4167fbeab302dU, 0xbd1cabc4bdda077bU, 0xbe7245babd4825c0U, 0x3ce1f6cabe4a6617U,
  0x3e25df5e3d01e671U, 0x3d0533e83dfc25bcU, 0xbdd67482be14b124U, 0xbcc277b33deeb37bU,
  0x3dde45a0be962862U, 0x3d7841413c9f1890U, 0x3bf741babd21c1d1U, 0xbdc4d743bcda8faeU,
  0x3d98715a3d9b4925U, 0xbcd1723fbc87d7e0U, 0x3d5f0041bdcaca93U, 0x3d7f20743c8b44f6U,
  0xbd978729bdd77569U, 0x3ccae5413d94b187U, 0xbd93acc9bdc55465U, 0xbdae7ca7be1ed03bU,
  0x3e0a3a213d87e542U, 0xbe0a12c5bcff5de3U, 0xbd0ce4c4be202f43U, 0xbd5878cdbc0bff1aU,
  0x3e014147be935b43U, 0x3d95466c3da50c4fU, 0xbd14d2ff3d2135a6U, 0x3bd6cc653cc22744U,
  0x3cc917f03cc090bcU, 0x3ad8a7f5be3a2a48U, 0xbda587e4bdcd7126U, 0x3d0307e0be0ece5fU,
  0x3da97dc6be30ea6bU, 0x3d98cd1d3db61792U, 0x3cdf9212bc9b50acU, 0xbddbdcc0be0458bcU,
  0xbcbd458bbe07dc5bU, 0xbe038e36be2e67e9U, 0xbd9a0f8cbd17b2c0U, 0x3dbd5906bd972046U,
  0xbd9afb53bccbb81cU, 0xbcc3d4ea3e32d5b8U, 0xbd86b8e33ba5b5f2U, 0xbd0b9606be2e9087U,
  0x3b8e41b53ca001aaU, 0xbdad7cc2be49807bU, 0x3d68db783d18ebdcU, 0xbdf282b3bdb2ccdbU,
  0xbd891ef7bde664c7U, 0xbd5882d5bce46395U, 0xbe1660d13e11a083U, 0xbe0e1cfa3d5658b1U,
  0x3d888d06be0ac01dU, 0xbd96b490bd9da45eU, 0xbe04c1c4be17121bU, 0x3d8ea317bdd6a5f8U,
  0x3df23e3abe41a024U, 0xbdb3d3113da71564U, 0x3d423945bda648e7U, 0xbe5da86ebde28bf8U,
  0xbcd3402a3db2ba76U, 0xbe07d483bc9b06fcU, 0xbd5b6b23bc97cd04U, 0x3d62d205bbeed3b5U,
  0x3d8d7a4ebd04597dU, 0xbe21d0393d8d5565U, 0xbdf536e9bdf8547dU, 0x3c6b9edf3cddfc3dU,
  0xbdcff023be0334e4U, 0x3c852ddabc8ed765U, 0xbd843da03df7c829U, 0xbdb0629a3d94af71U,
  0x3d94c0e4bd82b8b7U, 0xbd213483bd68f456U, 0xbdb889823b4b3f84U, 0xbe07a98f3cee291dU,
  0xbe3ea3be3c8db673U, 0x3df29c50be226c25U, 0x3d9700f73d5377cdU, 0xbe196e56bd1978d0U,
  0x3def6808be1355b7U, 0xbe4b00d4bdeb494aU, 0xbdba48d3bd6deb57U, 0xbcdc0f61be037f04U,
  0xbdd255acbe27a991U, 0xbda19e1dbde94ae7U, 0x3d9e7f5ebc8919e7U, 0xbde8c999be2c1700U,
  0x3c9b4a7dbdbe467aU, 0xbe7b1e213d0663bbU, 0xbce2c5bdbd618ee2U, 0xbe13be9c3a84d52aU,
  0x3c87c25fbe1cc080U, 0xbc66209dbd73170eU, 0xbdad79a6bd826595U, 0xbdb53e72bdfb41efU,
  0x3d844766bd17b2a8U, 0xbe02e21a3e340dddU, 0xbe179eb6bd1162f0U, 0x3d5248c83c77cefaU,
  0xbdc477fbbe7a4e22U, 0x3d992383bcf62710U, 0xbdde9ae43d973216U, 0xbdf46370bdc92fc2U,
  0x3da497a6bd7cc696U, 0x3b766d283c905c52U, 0x3cb6a23a3dba8f31U, 0xbe1c4ac9be16ea3bU,
  0xbdbe4ac7be6fe72fU, 0xbd452ac93c9de534U, 0xba2281973e081487U, 0xbe34e94bbd629860U,
  0x3de2d642bcc7a5d5U, 0xbc2db2e53e246d3fU, 0xbe5efe3c3e4e6e1aU, 0xbe1c26a7be0b62b7U,
  0x3d2e03913c302992U, 0xbcfa77663c7e62f8U, 0xbd76a5693d155493U, 0xbe1742abbe2fde11U,
  0x3d8c5997bdaf6c8dU, 0xbe5f1e633dc63f59U, 0xbdca44f4bdb927b9U, 0xbe79326dbe96fef2U,
  0xbe3b9525bd079b53U, 0xbdc742c4bbac9bbfU, 0xbcb26b693d58b977U, 0x3c40ba93be000674U,
  0x3c43c56d3c9b153fU, 0xbb87b4f83cffdedfU, 0xbe7534ed3cc9b349U, 0xbe2339bbbe71efbdU,
  0x3d198cd0bc2b8952U, 0xbd665724bd8b028dU, 0xbd22b964bc2beb0eU, 0x3da877d0be15543fU,
  0x3e1cd8a2bcc7cd9bU, 0x3e01e67d3c8bdf4aU, 0xbe1e886bbd413c15U, 0x3db2ae31be813aceU,
  0x3de7af6cbd7e5b15U, 0x3d85372f3d770fd2U, 0x3cfd3f153d7de89bU, 0xbe07a34d3d716d8fU,
  0xbc83748abe080ab7U, 0x3e39ea7b3d55d960U, 0x3c9ded5d3ccef8c5U, 0x3e122c01bd0f60b9U,
  0x3e098b6cbcb95d81U, 0x3d225c883d51360fU, 0x3d7b4ac83d7305edU, 0xbe0b429ebb70ea1dU,
  0x3de61d16bb6360b0U, 0xbd73818dbdf9db1fU, 0x3d438dc4bd5cf7c1U, 0x3d211cecbd00b65dU,
  0xbda6e415bdec7634U, 0xbada467cbd4a312aU, 0x3d1808383c53bb7cU, 0xbe5d2fedbe001eb1U,
  0xbdba6d5fbdb74960U, 0xbd5b3c52bdcbc495U, 0x3d1d82d4bc8084e6U, 0x3ca5885d3d26929aU,
  0xbd585f6fbd81204cU, 0x3c98f89cbdbf4276U, 0xbd895ad3bd4ea644U, 0x3c7da68cbc7eff14U,
  0xbd78c407bde8d3f7U, 0xbe19e0c7bc05525bU, 0x3dd2f3513b4ba613U, 0xbe0627bb3cd5082fU,
  0xbde13ff9be0cefe0U, 0x3d9a6585bd2a8b38U, 0x3df1742bbdf11006U, 0x3d857ef2bce27f0dU,
  0xbd7d79d93d9c2bfaU, 0xbcdc321c3d59e546U, 0x3e4c04eabe33060aU, 0x39e2def83e034bd1U,
  0xbda76c5f3bf932a5U, 0xbe449506bd5780acU, 0xbb448df83dcb2381U, 0xbe1b69d1bd21e613U,
  0xbe704fc6bd84810dU, 0xbdca1337be4d54acU, 0x3a4795f8bde7b4faU, 0x3e72ae823d133cb3U,
  0xbd212567bdb69fa3U, 0xbea0d86d3caccbc5U, 0x3db38df33d71f198U, 0xbe75ca0cbe48001dU,
  0xbec551723d1162e6U, 0xbc347e28be2ceb27U, 0xbdda8715bd2d33ecU, 0x3d9414023e69079aU,
  0xbe43cac7be5d1306U, 0xbef72e18bd94642aU, 0x3bcb7d2dbd841c26U, 0xbef49b973d4019d8U,
  0xbe0d86d8bc5a23a8U, 0xbe7896f7bde0d138U, 0xbe64be2ebda3b263U, 0xbd03d7543e3cea4eU,
  0xbd9ef38bbd7e42e8U, 0xbecb9537bd8cd031U, 0x3d3761be3c9af4d3U, 0xbed269393c9db1c7U,
  0xbddf4cff3db69f50U, 0xbe1cfb39be3a944dU, 0xbe109c5a3d96808bU, 0xbd85bd043e66ce5dU,
  0xbd9811943e2c3d3bU, 0xbe5407123de71520U, 0xbc09e53b3db5f79bU, 0xbeccee683c799296U,
  0xbe9fced23d6ffdd1U, 0xbcaafd5fbe05040eU, 0xbd84f787be680b72U, 0x3dac48043e1cace0U,
  0x38d1f08b3d0f0ccfU, 0xbd352daa3d6b391cU, 0x3d8c4e1cbe19ae94U, 0xbea3154abbb0ff89U,
  0xbd96f1fa3dc1acb7U, 0xbc472861bde179c5U, 0x3ae51280be446f79U, 0x3d4c8e0e3d276794U,
  0xbd5fa346bddd08f8U, 0x3cf2d21fbd16759eU, 0x3c09a58dbdb05c3cU, 0xbe4aa7adbe3e627cU,
  0xbd3b690ebe4b39efU, 0xbe26160ebe7f9972U, 0x3d03cf1abe74e5a2U, 0xbc94bf353e932d33U,
  0xbcedcd983db3482fU, 0x3e52d876bdf1ab27U, 0x3dd1937cbdd3be17U, 0xbd7de712bde6cef4U,
  0xbdaef76dbc06081fU, 0x3d988e1abb78ec4dU, 0x3de11172be437a20U, 0x3dbea2383e3f20eaU,
  0xbd1e6e92bcc1dbfdU, 0x3dddc8f93b781b01U, 0x3dd55134bd2f54daU, 0x3e6da130bd80c858U,
  0xbd851e7abd27d6acU, 0x3aac82a8be066d8eU, 0x3e3f94ecbe267970U, 0x3d98ea2e3e64390aU,
  0xbd9d50c3bd4c730bU, 0x3e1db382bdd00e0bU, 0xbd75d3b83d9c8938U, 0x3e071bb73d1a57cdU,
  0x3d6f26c7bc8e2229U, 0x3d1088dbbe0cc5f4U, 0x3e0345cebe446df4U, 0xbd0464a63dc811bdU,
  0xbe22a9ecbe48468dU, 0x3d33ab26bd41744aU, 0xbc822f573adac90bU, 0x3d8a22b7bd30b285U,
  0x3dfbcec93dd3cd14U, 0xb9551e6a3d65ae55U, 0x3cb023dcbe90ab2dU, 0x3ddce0963e68158aU,
  0x3d7515f73da06d6eU, 0x3ca9ca70bc1fb28dU, 0x3cd245393da2c860U, 0xbe9194c43dadaf42U,
  0xbe1299fb3e0c11f6U, 0xbdd513f2be01e4e8U, 0x3e41c4eabce82aeeU, 0xbcaeb6533e9a5943U,
  0xbdc7a7723e10c5beU, 0x3d420e843cfca442U, 0x3e45f41cbd2735d5U, 0xbd8ddf28bd20eb29U,
  0xbe0b20533e0080d4U, 0xbd6e58133bae53c7U, 0x3e463d34bd9866ebU, 0x3bf8110f3e1c17e3U,
  0xbe3e4f043d6b6f5bU, 0x3b8448d73ddbb66aU, 0x3e5a3b8b3c870ad2U, 0x3d49e8f73c260338U,
  0x3d39cae03da7bd2dU, 0x3c33b993bd384b0aU, 0x3e58d7b63df1be89U, 0xbe16adb63d8ee05dU,
  0xbd885f643de29b7fU, 0x3d88ad87bd4329faU, 0x3d55f4863ea4acddU, 0x3e4bfb46bdbe4e89U,
  0xbdc805503c0e51b4U, 0x3c6018e23e0c6d12U, 0x3be8696d3c235693U, 0xbd6609b4ba76f5a6U,
  0xbc941ec9be296615U, 0x3e1260adbe22439cU, 0x3d331e99bd178c99U, 0x3df2424cbde416baU,
  0xbaf011babaf9ff9bU, 0xbce968113dd064c9U, 0x3aafab4f3e0c0beeU, 0xbd9d8d4d3c82a82dU,
  0x3d944fb5bdc73480U, 0x3c5d544fbd88c898U, 0xbdb96b1c3d7cd3f2U, 0xbdac6f793d203042U,
  0xbe0313c13da0a9a2U, 0xbd040902bd26502eU, 0x3d0b39793ccf48a0U, 0xbd71340fbd2f6adcU,
  0xbc826e67be138aa0U, 0x3dd58e263d41f97dU, 0xbd851f063da3ede9U, 0x3d4fa241bda82d03U,
  0xbde7704bbc610f5fU, 0xbcfeef5abd54565dU, 0xbb0ffe7cbc172ceaU, 0xbe48760e3e276758U,
  0xbd6e0c913d52b257U, 0x3db22df33ca6ef0dU, 0x3dac8c5f3d95196bU, 0xbda610693cb8c1d6U,
  0xbd87ee313d316dbfU, 0x3c20e0ae3bfea661U, 0xbe87cd65be36cd82U, 0x3d12b9d23e212f3cU,
  0xbdd09a093db6fa1dU, 0x3c832dde3dc02af5U, 0xbd5d8ddb3dadba1eU, 0x3d2b9a88bbddfeb9U,
  0xbd2db0d0bd9285f1U, 0xbe2adfe33af9aeefU, 0x3d3950cabe3ea7b3U, 0x3d3bca5e3cce6a52U,
  0xbe11f634bddfda75U, 0x3d772f8bbd264a16U, 0x3cf556c8bd3f33a1U, 0xbe3bbbfebd646ab1U,
  0xbdfe2163bd626380U, 0x3bbd601bbd2d073bU, 0x3e0772e5be235733U, 0xbd96a1853ea06798U,
  0x3d7711adbe03454bU, 0x3d96983fbdc733fcU, 0xbcbf3ec6be207f07U, 0xbd8f0dbb3cdcb642U,
  0xbd3c7e47be62795aU, 0xbcb0c87ebdc83e8eU, 0xbb65fcc6be7e48e6U, 0x3d4b99bd3e0ad629U,
  0xbe06d7cabe61e143U, 0x3de6d7d4be01517dU, 0xbcf3a760bcfcd263U, 0x3dfe6fdabdee0991U,
  0x3cb16984be5ce2bbU, 0x3d7ed7513c08350dU, 0x3e8a61dbbe452cb2U, 0x3bce247a3e5c0bf7U,
  0xbe085198be41f5d7U, 0x3d2b78a0bc56487fU, 0x3e2e5aadbd3ade27U, 0x3e4ba2f1bcd17e13U,
  0xbc1e50a6be70c673U, 0x3d8ea4c43d262e0fU, 0x3e6bc2c3bdeb3fedU, 0xbd0519fabc2b3c9eU,
  0xbdf429ae3ce813eeU, 0xbd90c6bf3d6ca320U, 0xbd0ab47f3cf1a68fU, 0xbe1c00cabd62c5afU,
  0xbdb86ac9bec227beU, 0xbe2c46d5bdd4daa4U, 0x3da8c174be47beceU, 0xbd1919193e177158U,
  0x3d338934bd91752fU, 0x3d754cc2bd553b15U, 0xbdcfc98cbe125afeU, 0xbc8da7393d87e282U,
  0xbe3ac726becc8143U, 0x3d98a713bc0217bcU, 0x3e0ba6abbe201394U, 0xbd8e6ac23de1f591U,
  0x3d72274fbe97b8acU, 0x3cf05b38bd43fd22U, 0xbd8e05a2bc02eeafU, 0x3d81b20b3cd4bf58U,
  0xbd6bac10beda868aU, 0x3da64d2d3d0b0516U, 0x3e0046e1be33182eU, 0xbe79150a3e562f0aU,
  0x3d7d166e3e496bdcU, 0xbe40e6653e54c072U, 0x3e63d4593e4fca46U, 0xbda6b45ebd95f951U,
  0x3e6259943dd8bf20U, 0x3cdb721c3e23fe4dU, 0xbe1c6b6f3e309f44U, 0x3d2c40103e5728d5U,
  0xbda608143db08473U, 0x3e0466033e522f08U, 0x3e3ed86b3e43c88fU, 0x3aa9077cbe25f998U,
  0x3e25b40b3e11d870U, 0xbd8445d63dab7321U, 0xbe874f6e3ebc101eU, 0x3cb423d73debd5aeU,
  0x3d9434713daae13cU, 0xbdae41cb3b0f5d64U, 0x3e0cddb93e3b8982U, 0xbd3abc38bd8a60c7U,
  0x3e4765ac3c5ef4aaU, 0xbc89668d3d8389d0U, 0xbe203cf33e7fea35U, 0x3e9caead3d60614aU,
  0xbdaddc0b3dbae835U, 0x3e509ff3bd451301U, 0x3d62d02f3d58d07aU, 0x3bac3496bdb61b1dU,
  0x3d1d952e3c5e6497U, 0x3c9580e73c7c88c4U, 0xbd2a3a883d98baa3U, 0x3e7b29623cab5cfcU,
  0xbd1932bebd0a0b33U, 0x3ce53f48bdf35572U, 0xbbaef6bdbda94f53U, 0x3cca833bbe88c668U,
  0x3ba06eb6bc983a64U, 0xbe166b2e3cfdcd3aU, 0xbd315de83e60d64dU, 0x3e8f569bbe2b469eU,
  0x3c0611dbbe05c484U, 0x3dc21cd9be34120cU, 0xbcb3e7f03ced68e9U, 0x3e7cdf9ebd15cb90U,
  0xbca2a0413c3f8995U, 0xbe24285fbd84b256U, 0xbc6c83e93db04652U, 0x3e54c985bdd07f2cU,
  0xbd3eb5473c92fc96U, 0xbe18f8b8bde2e8baU, 0xba90da9cbbbaabbeU, 0x3d3cb729be38210fU,
  0x3cdd9858bd946bd6U, 0xbd2d2aea3d85ea20U, 0xbdd007c13e08842dU, 0x3e8b447ebcc5046cU,
  0xbe3cb2cebd96a2f7U, 0x3c3ab591be7868a4U, 0xbde8d5e2bd0ca915U, 0x3c8f2c73bcc815b6U,
  0xbc291cc63da0cd35U, 0x3bb67370bd40df51U, 0xbe01b9a53e3047b2U, 0x3e0c5573bce4f421U,
  0xbe3c20213e0c7063U, 0xbdb090bbbe50226bU, 0x3c305a7abc2f743eU, 0xbdb20c5b3e27e5ddU,
  0xbe01c4a73d6c12abU, 0xbde404523d36595aU, 0xbdd01e7a3d971f9aU, 0x3e561069bd29663dU,
  0xbd99fc4a3ca59caaU, 0xbe258a403d300d30U, 0xbd55d1efbdcc7d85U, 0x3d237725bc894336U,
  0xbe5518da3d94c249U, 0xbdf022e8bd950b40U, 0xbe847409bce03723U, 0x3d50d5adbda907a6U,
  0x3ddac3e33c00103fU, 0xbd2027f8bd2a4bb0U, 0x3d435b75bd4431a7U, 0x3e5bbf623deea2a7U,
  0xbe3364bf3b5db6b9U, 0x3e452f323d8fef85U, 0xbe35e7153cdee249U, 0x3e9f3f50be7e3986U,
  0xbd06f4e03d02b523U, 0xbd15eb343c4db322U, 0xbe2f0db93d0799c8U, 0x3c62a3893e2a536cU,
  0xbe4fa813bd271ccfU, 0x3dea166c3c8431d7U, 0xbda55649bd7ede7cU, 0x3dbbb046be271996U,
  0x3a61a05bbd8adbd9U, 0x3c03b78abd40c83cU, 0xbc70a9f3bdb7ece2U, 0x3c9d1fdd3d5c6a50U,
  0xbe801ed73da63004U, 0x3cb2fce3bdd27e82U, 0xbe090958bb95a19aU, 0x3d6920bebe069d40U,
  0x3d6a0ca8bcdf3c5dU, 0x3c6713053d9e2726U, 0xbdd847bf3dd001ddU, 0xbc82d30b3cb04e43U,
  0xbcedd3233e7d6dcbU, 0xbc8985dcbdb6b549U, 0xbe73ff873cdb224bU, 0x3e2c8672be7256efU,
  0x3d425947bdbc6c28U, 0x3d8d8fa1bdb61ff4U, 0xbdca153bbdf8ea04U, 0xbe1383babd4728c2U,
  0xbcf535f03c87d464U, 0x3d07ddf73abf9455U, 0xbda47c7cbb5c07beU, 0x3e0b22c3bd1cf866U,
  0xbdbb0c9e3db6d0d2U, 0xbd3e9767bc4f25adU, 0xbdae7dfc3de18759U, 0x3da091813e29f817U,
  0xbd349cd3bb85564fU, 0x3e4527d33c1068fcU, 0x3d8b3b973df0fe94U, 0x3ddd270fbcfa6860U,
  0xbdf459513e2be09cU, 0x3de5c9b9bdcd2078U, 0xbdf34219be449beeU, 0x3da4898f3d4123c4U,
  0xbe1eee0f3d9b3296U, 0x3dfa3b36bdac2bf4U, 0x3d7f8d29bc9077c3U, 0x3d982599395be0adU,
  0x3d6a80503e4a929fU, 0x3dc505b43c80dd88U, 0x3d2c6d41bcd70262U, 0xbe4cc71fbd1b9530U,
  0xbe14d5033e33a42aU, 0xbe01338abc9d7cdcU, 0xbceb0a1c3c31e26fU, 0x3d80324fbded9471U,
  0x3d307ba63d8c4c6cU, 0xbd8b1d80bde860cdU, 0xbca091a7be168dd2U, 0xba8b4666bb0fecf6U,
  0x3c5205213d14173aU, 0x3c6a4e33bdc03a50U, 0x3d7ad534bca8fe79U, 0x3d27b353bd6e8d8bU,
  0x3d1eb1d5bb939992U, 0xbcfde897bdcaab7aU, 0xbb490a54bdec960eU, 0x3ca2170ebc3b5c9fU,
  0xbdad5ff93e23150fU, 0xbd3aebc6be4ac2d3U, 0x3b640df33d5ee094U, 0xbd1249f03c64c223U,
  0x3d42927e37fbc4a9U, 0x3dc1fc663db7e3e1U, 0xbda86c053d22c63cU, 0x3c969a653e2241a6U,
  0xbbd127953dff18e3U, 0x3dd5351ebe24f7e6U, 0xbe1b930c3d37260bU, 0xbd8eea3cbd52bd20U,
  0x3d05ee1dbc15f5c5U, 0xbba67460bd8d93c5U, 0xbc3451c23c8dee50U, 0x3d1eab123d4d8346U,
  0xbd39c9183d5bf390U, 0xbd8b81a5bdfa6f48U, 0x3c8d9066bc63cd99U, 0x3e09585e3d374c3aU,
  0x3d8bcb9c3d7f3b97U, 0x3dca00233d06c90cU, 0xbda3ecf5be25eaadU, 0xbe833bdd3e29e061U,
  0xbd89fe453db9f1b2U, 0xbdbab8d33d41f451U, 0xbda3caecbd12a797U, 0xbdcf24c73d808c82U,
  0xbdfd64103dd436cfU, 0x3d3540b8bd7fa5a2U, 0x3d088acdbdeed24fU, 0xbd808c533e11ed09U,
  0xbe1d66ce3e3b47cfU, 0xbc335d363d413598U, 0xbe1dd1ed3cdb127eU, 0xbd0a3dcebe395e0fU,
  0xbd694db73d2641aeU, 0xbe0158253db0f3ccU, 0xbd926860bc4cbabdU, 0x3dc39ea63d5c115fU,
  0x3ce8b0013e7c42eaU, 0xbe0c18efbc991d21U, 0xbcee38713e2faf97U, 0x3dc73ad53ba00442U,
  0x3dd2a57c3e3e63baU, 0xbccbd803bd955151U, 0xbd9bad34bd0ae5e3U, 0x3dd0ff663e1a33d5U,
  0xbd93414d3e030668U, 0x3dec9b31b9a69574U, 0xbe537f3e3e009c11U, 0x3e5ddfc2bd99b93fU,
  0xbdceacb9bd2ea0bcU, 0xbdec5aba3de557f3U, 0xbe2ec3a5be18a339U, 0xbb5d26773d968b45U,
  0xbd2a26253d09ec2fU, 0xbe0220963b8351f9U, 0xbe21b1353e765daeU, 0x3e47bceebe59b44cU,
  0xbce89b653e80d595U, 0x3e0a168d3e23e35fU, 0x3e3933a83e825763U, 0x3e2adc65be374c2cU,
  0x3d80d4e23cffee1cU, 0xbce170023e787249U, 0xbe941b2e3e1c72abU, 0x3e3d94bf3b266f52U,
  0xbd07f8263c748bb4U, 0x3c63ee743dbed040U, 0x3e0199173d93cb75U, 0xbd62a109beaed9dfU,
  0x3cf9a3cd3e61b6d4U, 0xbd95ad31bdc56175U, 0xbe892b563e894872U, 0x3daeb3d8bd725384U,
  0x3ca0240abd8ff1c8U, 0xbddf31d93da2be52U, 0x3d96e9a93e890f1eU, 0xbd15a31fbd5806e4U,
  0x3dc8be3f3e2cc277U, 0x398ebeb8bd8e84b2U, 0xbed00c2b3e79b356U, 0x3e584ee8be1bf7b4U,
  0xbd8641673cf63ad6U, 0xbc52d1163d64262eU, 0x3d8d38623c9bcc10U, 0x3df5cbabbd95b306U,
  0xbdf5fae0bd34e794U, 0xbcce5c85bd708094U, 0xbec611cf3e0bd4dcU, 0x3cbce0cebd1f6216U,
  0xbe1ee581bd55220aU, 0x3e30086f3d150753U, 0x3d29a0253d1bf30cU, 0x3dbb0946be612e4fU,
  0x3cd490843e542c4dU, 0xbd49c871bdb785f9U, 0xbecca3d23e4c8719U, 0x3d99fb5b3d05c448U,
  0x3ca41eabbd386ff7U, 0x3e2dd25fbc213d62U, 0xbdab667b3b423a95U, 0xbd817f4cbe2635b7U,
  0x3cfe16babda81442U, 0xbd4587dbbc9b9519U, 0xbeba0b2a3e0c2dcbU, 0x3d3bbff03dc3619fU,
  0x3d39edd9be04055eU, 0x3e32ce40be344e56U, 0x3bb22c4dbcacf24aU, 0xbd0fd55ebe34cb49U,
  0xbba1b4efbc30818bU, 0xbd3db46abe12e514U, 0xbe69ffe33c6a29f3U, 0x3e16db99bcc1b21dU,
  0x3cfbe551bdf16080U, 0xbc97eff0be0e3ecbU, 0xbd8f2f10bdb2483aU, 0x3c0b9e6fbe237b2eU,
  0x3d7ce67fbd8c838cU, 0xbc6d243ebe1e42aaU, 0xbe17b0683dbcfca5U, 0xbd07e5533dde6502U,
  0xbd06877d3e521918U, 0xbd6871d3be77aa57U, 0xbd055b72bd0d9bc5U, 0xbc0520693cbfd8cdU,
  0xbe1f26d9bdbb5d2cU, 0xbe0be9523c39ab5fU, 0xbd1d8df4bcca2fe7U, 0x3e20e68e3e51235fU,
  0x3da8850b3e66fc01U, 0xbdc89682be54aef1U, 0xbccca4f6be100687U, 0x3d88035e3df44236U,
  0xbd1698ba3c5e644eU, 0xbd4988923cf0934dU, 0xbc0846e03cef5166U, 0x3e1ea41f3e48a5efU,
  0x3d702e043d7678f5U, 0xbde386dbbda833aeU, 0xbdeddeaabe28dfacU, 0xbd430ab23e481232U,
  0xbe547a2dbdaf50f8U, 0x3dc6d807bbf449c3U, 0x3de0dac7bd5614ccU, 0x3e5aa1b43dc549b5U,
  0xbd3dab723ca63312U, 0xbc540f38bd8c2cd5U, 0x3cb3339d3bd387e9U, 0xbc81653a3e13f76aU,
  0xbd007109be11a196U, 0xbcd0deed3d4543eeU, 0x3dfdc8abbddb3db6U, 0x3eab53c53e60366cU,
  0xbccdfa0dbda23070U, 0xbd889e6b3da5f92eU, 0xbe52a373be151e39U, 0xbc9bc67d3e1c6c08U,
  0xbe7aa17ebd486344U, 0x3b99b0bdbdf93337U, 0xbd95194ebd9f1157U, 0x3e4063323d8205baU,
  0xbdca734c3d598d60U, 0xbe112884bdc92fb4U, 0xbdb1ada0be13bfafU, 0xbd268563bcbc8f59U,
  0xbddbec3f3e264089U, 0x3da527d1bd559dc5U, 0x3db7d9543e333099U, 0x3e4c64103f0b52a5U,
  0x3d897d8f3d277537U, 0xbd89c8323cbf0db3U, 0xbe12fce0bd4bbb82U, 0x3cc8695cbd4ffbe1U,
  0xbe55cb1fbc41dd2fU, 0x3b62aa553b8f3aecU, 0x3e177c5e3df1069aU, 0x3dd9f0443f0032f9U,
  0x3c510929bdb409a7U, 0x3d8c57ffbd8e34beU, 0x3bdd78b8bc1bca80U, 0x3e3180fd3d58ec92U,
  0xbe02fff5bd07fc0fU, 0x3e188a2bbdcc0caeU, 0x3d9c682c3da1ef26U, 0x3d4ca1423e24cce3U,
  0x3db2ace73c69d01bU, 0x3e257d4abd4e75eaU, 0xbbbcfccfbd87f047U, 0x3e98cf053d4ef425U,
  0xbe332e3f3dabc9ddU, 0x3d75bef5bd75f7b0U, 0x3d7cbe4dbd086d70U, 0x3ea0d7fe3dd9e3dfU,
  0xbccefa533e8bc27dU, 0x3ddb63f9bd9c429aU, 0xbe1edbf1be128f5bU, 0xbdacacb6bd172360U,
  0xbe6d433dbcb95872U, 0x3c31f2b3be7ae25cU, 0x3e5eaa9abd60efc7U, 0x3e52ae65bd125d9fU,
  0xbb9b36bf3d83edf7U, 0xbe083ee93d91fbf0U, 0xbe076823be00f5d6U, 0x3d715b893e87808dU,
  0xbd91e1b43c38bd8aU, 0xbd87dbb0be9b9d93U, 0x3ea1b7afbba71e3bU, 0xbb5232223eef6e4fU,
  0xbd80c25f3cfa529cU, 0xbd943bbb3de6bae7U, 0x3c63c1eabe09237eU, 0x3db8cba13cf00b62U,
  0xbcd921773d886451U, 0x3e1a5bacbe2e6bf8U, 0x3e9c46003c10db35U, 0xbd3a07f33f24f43aU,
  0xbe2ae4763cc9b8acU, 0x3dd673dfbda697c8U, 0x3daebf12be511401U, 0x3da024253e56e086U,
  0xbd47cfcf3e519cecU, 0x3e222ba0be00b6f1U, 0x3ee090a93cc1b695U, 0xbd9d395f3e568366U,
  0xbe21a11dbdea6488U, 0xbc69a832bda820e9U, 0xbdf8ce92be1d6d2aU, 0xbd4757213e10246fU,
  0x3d6490853d0a6062U, 0xbe4ce308bd73376cU, 0xbc46a2973d308331U, 0x3d0f43703dc6b41fU,
  0xbcded02b3e014f5cU, 0xbe38b57a3df1a60eU, 0xbb2858cdbdc0102dU, 0xbe3be7c03e6e38bcU,
  0x3dbea7e1bd1413ccU, 0xbd808465bdd9fd1aU, 0x3de260993dc4d7eaU, 0xbe00a7053da85627U,
  0x3d967fe53d48aebcU, 0x3d250c063e1a062fU, 0xbcc4cdbcbd24a1beU, 0xbe5846a63da2a7b5U,
  0xbe135a1b3b9add91U, 0xbd8bb862bcbd2c99U, 0x3d8ab961bd581a56U, 0x3cff348bbd3348d4U,
  0xbe1de68a3dc7c38aU, 0xbd948f183d1be94fU, 0xbd9d41aabddc0965U, 0x3cb3a0053d4a48f6U,
  0xbca94b47bc82f2a4U, 0xbdea9aeabdc61a76U, 0x3e4131623e6785ecU, 0xbbb230a1bc858932U,
  0xbc6013043e1dbf40U, 0x3e92b3863ca8007dU, 0xbd92ed47bb2154caU, 0x3ebd239e3dafb33eU,
  0xbe10f289be153c36U, 0x3e059eb63d83653dU, 0xbd3516b43e80fd1fU, 0x3e133f8abe5e483bU,
  0x3dc3f57d3d988a41U, 0x3e8450273dc8e180U, 0xbd20baf43df8ef73U, 0x3ed80b3e3ddd230eU,
  0xbdcc1baebe04e20dU, 0x3db1bf23be112922U, 0xbdccc5b43d772270U, 0x3e066ee0be145e64U,
  0xbdb81a35be0aaf42U, 0x3dc80cb1bdd1bd67U, 0x3d219153bcd7e7e0U, 0x3d08ab6c3d6fd6aaU,
  0xbd60877ebd60bc3fU, 0xbdbe9c70bd9a8369U, 0xbd670de4bdc1c9a5U, 0xbdd689efbd6a0274U,
  0x3c27b0923d6913a9U, 0xbdf85fe4bd164352U, 0x3cd28ae13c5354c3U, 0x3dd156cfbd8e3057U,
  0xbc65242fbdbe0c3dU, 0x3ba6efcb3c315bf7U, 0xbd951129bd4924b8U, 0x3d1039613d1b0359U,
  0xbcb6317cbd47cc99U, 0xbd099e58bdd94cd3U, 0xbd2efef63ac8968aU, 0x3d2092d93d43aefdU,
  0xbcecd4f83c9246f4U, 0xbdae23973ce8dbefU, 0xbc008862bd6f6e10U, 0xbdd52063bdfd3d2cU,
  0x3db2db8dbcdebe0dU, 0x3dd7c81ebc1727b8U, 0x3c4ccf713dc1d242U, 0x3dbd626a3d5d79feU,
  0xbdeb0ce5bd0480e7U, 0xbd93484f3d527b76U, 0xbe0998ea3c7070e7U, 0x3dde97bb3d645e13U,
  0xba2e3b043d2cec22U, 0xbd108df0bbca8a13U, 0xbc0e1b17be011d29U, 0xbdb099ee3cdfa12fU,
  0x3dc437c1be0d66a8U, 0xbc39f9013d998a88U, 0x3c99eb4ebad7485fU, 0x3daf99b73d67050fU,
  0xbde33103bdfac37bU, 0x3c01e6703d3de6c1U, 0xbccbc4cb3da786ecU, 0x3da13a55bd12d061U,
  0x3dc2e27ebc4b9082U, 0xbd671f473d61a280U, 0xbce7e20c3d8a890aU, 0xbdd2c3c53d8eb3f9U,
  0xbd1be52e3d91d208U, 0x3db346223cedf4c6U, 0x3c39f830bd7bd19aU, 0xbd33c899bd82554aU,
  0xbdf3e5bebe091069U, 0x3ce35330bdde431dU, 0x3b1639b6bdb1015dU, 0x3c70641e3d864accU,
  0xbda3dd04bdec0fc2U, 0xbde0a8b6bd3ed333U, 0xbde351ee3d97c2ecU, 0x3db1bd4bbde09981U,
  0x3d1596283d944420U, 0xbd495b5dbdd264cdU, 0xbab2a8203c83bce6U, 0xbb2f2ad1bded0b86U,
  0x3d8bd86c3dd036d5U, 0xbc537600bd29f0beU, 0x3c9f5bee3dc94018U, 0x3dbaeb54bd140048U,
  0xbd689ff6baf2e9caU, 0x3d41fb0dbdb43f54U, 0x3d53fe93bdd73af2U, 0xbd0b36ab3d0feb6dU,
  0x3d9f92ef3c1b47e3U, 0xbd729bcb3d202508U, 0x3d8c4909be01c7c8U, 0xbdd605f63d2fcc1bU,
  0xbd24869ebe182c32U, 0xbc4c1958be09e1a8U, 0xbad870febd817c47U, 0x3ca77dfc3ce032e1U,
  0x3d8a3dc6bd945d6bU, 0xbd3b8119bd878c01U, 0xbdf10ff1be02b06cU, 0xbc1034acbde595b1U,
  0xbdf73900bc8bc6daU, 0x3c012a28bd5a5953U, 0xbd3ecc143be61522U, 0xba8ca588bde3b295U,
  0x3d34921dbe01200aU, 0x3dcf9767bc01025eU, 0xbcc35609bcfe2edbU, 0xbdacec6ebd94a023U,
  0x3d8af292be12a50aU, 0xbcc06843bdf2e5fbU, 0x3db4eafa3d97e048U, 0x3d9019193d279733U,
  0xbdce6b02bcb3bd78U, 0xbdc457953d9d3bbfU, 0xbd86da223daa8cb9U, 0x3d8a79ca3c2d6ab9U,
  0x3ca1be93bde7a320U, 0x3bcbbc77be082b4aU, 0xbdb38ed8bd59eb5fU, 0x3cefd417bc7a6549U,
  0x3d3eb47cbe0ebc4cU, 0x3b066638bdd7bb00U, 0xbd0b055fbda0c04fU, 0xbd1035dabc75744dU,
  0xbcd587edbd46b4c8U, 0x3d9e2cf13d2ef878U, 0xba6cf5a23c9849f2U, 0xbdd544173da36396U,
  0x3d838807bd0a97d9U, 0xbde99a5f3d6273edU, 0x3da05dd73c8b0f26U, 0x3c04cb4a3d377cceU,
  0xbe0a6bbcbdd4e9f0U, 0xbda2332a3cc59508U, 0xbd53b608be024ecaU, 0x3d947c05bd6c46c3U,
  0x3cb3e883bc8cc964U, 0xbdd378673d84f20fU, 0x3d127d9ebd073be9U, 0xbc1449efbc600a08U,
  0xbb3ab3ebbcf30c6eU, 0xbde6ad7cbde68105U, 0x3d0e6d7abd74359eU, 0x3d12929fbde38b64U,
  0xbb9af7033cc39626U, 0xbdf9e2b2bc90b212U, 0xbdb2ce8bbdd9c0bdU, 0xbda4efc6be00af2cU,
  0xbdcc2999bdba1963U, 0xbbdd0461bd4f6117U, 0xbe1703cbbc59024fU, 0x3cd6b4d73dcb61ebU,
  0x3ae17f2ebdc76313U, 0xbe01450abdb42583U, 0xbd88af07bc947379U, 0x3d8cf6283c93698eU,
  0xbd554cb0bc979522U, 0xbdf1a1463d2776b9U, 0xbc1d1721bcc43101U, 0x3d92b9e2bdf4fde5U,
  0xbda545f63d7d23f8U, 0xbdf586ba3d8805e6U, 0xbda83856bcbde4a5U, 0x3c4b3451bd082b65U,
  0x3be9f5283dc54a49U, 0x3d3ab495be036763U, 0x3d01f051bd97ebfeU, 0xbe0572c0b9f98d8fU,
  0xbe0fcf85bdb2775cU, 0x3dc5100f3beab019U, 0xbd14cf64bd661392U, 0xbd551ee63d48848dU,
  0xbd84e9dd3d12a025U, 0xbd6fd3ac3dc31dd8U, 0x3dc69c21bdbd66b2U, 0x3ba8adee3db56182U,
  0x3cad1037bd994144U, 0xbd6f6da43d894f52U, 0xbd0ef8763da6f693U, 0xbd3a06de3db58d47U,
  0xbdc72afabc824159U, 0xbae48eba3d9e4829U, 0xbe295c07bd89c831U, 0x3d02c76f3dc7eb9bU,
  0xbd738224bd70746dU, 0xbd527861bd046065U, 0x3d73e9573d9094dcU, 0xbdd69ddfbd7b0569U,
  0xbd63a8c53cbbfd93U, 0xbe0daf04bc880c3aU, 0x3d3271fbbb5b2238U, 0xbdde49af3d87d7e4U,
  0x3c208cdfbe098045U, 0x3d908626bd93a958U, 0x3ca82621bd42a176U, 0x3d5e78ddbdc8a212U,
  0xbc9de654bdae8e62U, 0xbe1a2d9cbd5fa71aU, 0x3d035443bd69a313U, 0xbce0eadc3d61e3b8U,
  0xbd825ce1bd8bf57eU, 0x3dafde353d2ae66eU, 0xbd22c06cbd97e1bdU, 0x3d8dc7d33cc5f856U,
  0xbdd2c17bbdecf9a9U, 0xbe17e80d3da24985U, 0x3daf91f7bdbe5e5dU, 0xbd07dc33bb8564a3U,
  0xbe28bef1bd3764f5U, 0xbdc0fc5fbd3c23edU, 0x3d87b321bb2de89cU, 0x3dc155093d2ed92eU,
  0x3d1acc063d1a2defU, 0xbdec6bfa3cce72e7U, 0xbd98026cbd081dbfU, 0xbc5580723d4cbc9aU,
  0x3cd8efa83cf57710U, 0xbd7680a5bc2dd6e5U, 0xbca235cebdd5f04eU, 0x3c39fb79be0e34f7U,
  0xbd4ed41a3d5d4e7cU, 0x3d08fda0bd120e57U, 0x3c19bf05bde7534dU, 0xbd9238abbdd6ab14U,
  0x3c704c783cc60e82U, 0x3d4e11e93db3b7b3U, 0x3b27291a3d158cffU, 0x3c9560f43d9e9b02U,
  0xbdec37de3d70fbedU, 0xbdb0564bbdb125f6U, 0xbddbae81bd19b63bU, 0x3ca6497bbd376bf8U,
  0xbdbd568a3e188a12U, 0x3ebab9033e84a9bdU, 0x3e842b4a3e29a8f0U, 0x3d9b98233defac93U,
  0x3e12766b3d45b748U, 0xbd4dd8fa3e391afeU, 0xbed8f9723e61a244U, 0x3e0116a33d9cde5fU,
  0xbcc715c83de5499bU, 0x3ea82c673ddf1331U, 0x3e4cdee13e84244bU, 0x3df7342cbd570727U,
  0x3ddf4d9ebd4ec2b9U, 0x3d63a63d3da4aa23U, 0xbe94320b3eb5e179U, 0x3e261046bd9443cfU,
  0x3b58be0d3e0d03ddU, 0x3e19b6143e66b9a9U, 0x3e4b74e13eaea4adU, 0x3c4d901fbe1e1ee6U,
  0x3df690233ccf54bcU, 0xbdb36029bd59d6beU, 0xbefecbc03e801fbfU, 0x3e7281c8bdfe6634U,
  0x3cf961febd838ddeU, 0x3dff0594bd9183dbU, 0x3da4a3673e95fdb7U, 0x3e6d2ef0be6bee62U,
  0xbca98a6a3de8503bU, 0xbd96339b3cec8fc0U, 0xbe8e3af4bd3ac2f1U, 0x3e4e30db3c9578e9U,
  0xbd56026abccb886fU, 0x3cb0e520bd45d83cU, 0xbda3d41ebe266d81U, 0xbd1de396be0e42d0U,
  0xbdf4123e3c927cc4U, 0xbd2d4bb3bd82e920U, 0xbec360343e610168U, 0x3d121e13bd661722U,
  0xbb9e35c73cb19fb0U, 0xbcafeefabe7d6c3eU, 0xbdd51f613d81f4d7U, 0x3d99b3cabe30a11dU,
  0xbd15fe23be07af91U, 0xbbc2cf4e3d5a1713U, 0xbeb313823e5c3528U, 0x3e406a3d3dab979fU,
  0xbe0c860f3d990b14U, 0xbce88518be1eadb8U, 0xbd4d1035bc2eef52U, 0x3e2c6869be06501bU,
  0x3bf8dad53c425645U, 0xbe060fc93dd4ce64U, 0xbe8765d53e094db5U, 0x3e87cbb2bd8a8ba1U,
  0x3d6dec10bdb53100U, 0xbd97ada2be1f3ac8U, 0x3c91de0dbd0e1e7aU, 0x3e2bda45bdd5e552U,
  0xbcea25713d5859f0U, 0xbc9a221dbd2903faU, 0xbde2c8d53d5a97d5U, 0x3dcd66e93d724104U,
  0xbd75ec6ebd8370ecU, 0x3d01f766be2c437eU, 0xbe0056733dc10a99U, 0xbda2344c3dc7a9b7U,
  0xbb2d04a93e4e1a55U, 0xbe42e6623cbd2e58U, 0xbe5ae0853d755157U, 0x3db927c13d9cd59cU,
  0x3c42e61e3df83593U, 0xbcdfb00fbe253c3fU, 0xbd984c793d90e5b5U, 0xbd7985553d48e585U,
  0xbdef7fe7bdeb4c95U, 0x3c7a222cbd6db15dU, 0xbe1d4045bc4d41ffU, 0xbbf01058bdaec134U,
  0x3caf5ef23e0fc2bfU, 0xbd6207b1bcb61fd9U, 0x3c6db934bc6afcfdU, 0x3e74a6bd3e63f8bcU,
  0xbe81aaf83dba1e39U, 0x3d603d80bc859f98U, 0xbe7bea7dbd68ca7cU, 0x3d13e293be724df6U,
  0x3d7319f0bc0a455fU, 0x3da56ff1bc096fa1U, 0xbe066d0ebcef993aU, 0x3e0d99603d87ee53U,
  0xbe1117c53cbf21c1U, 0xbd72eea93c615745U, 0xbe323fbabb96d11dU, 0x3d6f6579be7bf804U,
  0xbd5aa3923dcc471eU, 0x3e0e9724bd9ae822U, 0x3b9aa301b941725eU, 0x3e87f8cb3e0b6832U,
  0xbe70cd5d3b9301a2U, 0x3d36bc9dbd66b373U, 0xbe6292c33db37977U, 0x3dbf3676be3de84cU,
  0x3d68dd3e3d428608U, 0x3d0a6031bd50a60aU, 0xbd25184f3daa3bf1U, 0xbcc116a3bc35646bU,
  0xbe2ab84f3e5413efU, 0x3b1616c33d40265eU, 0xbe60b322bd0e385fU, 0x3e3e19aebdd4946fU,
  0x3dbde33cbdb7a4d7U, 0xbcab37e3bd06055bU, 0x3d1e0d59bd923ca5U, 0x3e48f2af3cf8d4d8U,
  0xbe004c1c3dd511bbU, 0x3e1a836f3c283c17U, 0x3d0974e8bcca44caU, 0x3de7cf66bdcf2e79U,
  0xbd3766abbd7c2d22U, 0x3d887a95bbcd273fU, 0xbe18a0b63e0aa3d2U, 0x3cb333513e4aa93cU,
  0xbd81d5c73df7183bU, 0x3db305a93d43f6dcU, 0xbe952661bd97e167U, 0x3d05a5793cbfd539U,
  0xbe1b55063db8403fU, 0xbd9d22853d809031U, 0xbe1d83ddbd9a1db4U, 0x3e541f41bdfcd7deU,
  0xbcf967983e098eb8U, 0x3e36fb283c6f4e9aU, 0xbdf5bf983d88849cU, 0xbd007e413a938b35U,
  0x3cbd66313d41481eU, 0x3d00b2003c0d8a6eU, 0xbe85a5f4be445622U, 0xbd0db1723b259a78U,
  0xbd4902d6ba0f9284U, 0x3d8b17d8bdb61d3dU, 0xbdc9622d3b9543c6U, 0x3e3998debd2f12c9U,
  0x3d7efecd3da0986bU, 0xbd6acdf9bbe60834U, 0xbe525fb6bdeed275U, 0x3cbad8223c82c877U,
  0xbd38b4f33da0f29cU, 0xbd2c95f1be26d8f8U, 0x3dc185033d0bad3aU, 0x3bd03c08ba2ace22U,
  0x3d77932bbd4df11dU, 0xbcba26b9bdb1af63U, 0xbcc1b9bebe1d0986U, 0x3e0582123dc741c2U,
  0xbd2fef213ddf6940U, 0x3ddc0f64be3e90deU, 0x3c145168bd4ffdbeU, 0x3c533773bdc41fd7U,
  0x3d6cb8e43cccdf11U, 0xbcbbb4d5bc74fdacU, 0xbddb2cbdbd92c5ceU, 0x3d669c403e032393U,
  0x3d9338db3e438867U, 0x3e233278bc8c8ee8U, 0x3d5e01a53d8c3442U, 0x3d535793be127a9bU,
  0x3c49ca2d3dcead9dU, 0x3e2093e23ca7b660U, 0xbc85e177bdbe2d8cU, 0xbdbb9a773dae12e2U,
  0xbc9ceab13e180f71U, 0x3d05eb9ebe0b2e9cU, 0x3cd208893d2efa8aU, 0x3c782725be308f79U,
  0x3cfbc03c3d81b647U, 0xb8bdff7c3cf99358U, 0xbd813a3a3dbf6696U, 0x3d5422e73e00e35dU,
  0xbd182c6b3db3911cU, 0xbe448868bcfd0873U, 0xbdb7a2b5bddbb551U, 0xbd3446c03c9b538cU,
  0xbe476d4b3da95d86U, 0x3dba374e3e02b9f7U, 0x3dc9deb93df770c1U, 0xbdd7db3c3d9037d5U,
  0x3b9dc0da3e5d58ebU, 0xbd2fe477bcb3e870U, 0xbe1285473b124862U, 0xbe26e9f4be632f82U,
  0xbe45d16a3d47c6acU, 0x3d7fc2993d5bf231U, 0x3ce2ff923d0abbf5U, 0xbb3576ff3d67985aU,
  0xbe0acfaf3eb9c677U, 0xbdd9bbcebd7112b2U, 0xbcd1aca63db243ceU, 0x3dbf1bbfbdfd88bfU,
  0xbd6532de3e16dfd1U, 0x3d588359bd84d060U, 0x3da537bebd937071U, 0x3e3774313d9b89dcU,
  0xbd8895083b5a932aU, 0x3cf6c268bdb0c0d1U, 0xbe7ac85d3dd03078U, 0x3e2b3c3abe0347f3U,
  0x3defcc183d6df821U, 0x3da316c23c658d34U, 0xbe833789bd5f9448U, 0x3e249fe7bd5d0960U,
  0x3e2157ad3d9679a6U, 0xbcbf0ce0be2b7481U, 0xbe69be2a3e5c4a65U, 0x3e2e8395be5d9734U,
  0x3d4d7418bd0ba69aU, 0xbd25ce8cbc123ddaU, 0x3d9aa8d4bd698e01U, 0xbd449f16bdb83e52U,
  0x3dbb880b3d96fe60U, 0xbe08f31a3db050baU, 0xbded2d65bddcb53eU, 0x3ce77a56bb8f4e00U,
  0xbe12eeaa3d08c030U, 0xbc52a5a5be02c1daU, 0x3c87d7a63dac4a7bU, 0x3d879c85bdedb39eU,
  0xbda17ffd3d133f38U, 0x3d5688b9bd0e4473U, 0xbdb87d45bdc759caU, 0xbe05438dbd8a474cU,
  0x3d22a250bddeced5U, 0x3d4a7ac0bccee911U, 0x3db20afc3ded60f6U, 0xbd7c01f1bd271f99U,
  0x3ceb25b5bc8f00e6U, 0xbdb2f394bd7d23d4U, 0xbe0300773c2ea1a3U, 0xbd8ca79a3d662049U,
  0xba9394f63d43db7cU, 0x3d6ee014bdaa8ec1U, 0x3d683271bdc0fc3fU, 0xbb768a173da852c5U,
  0x3b92ec5f3d2f284eU, 0x3d517fd7bde7d790U, 0x3dbc29943a234e5eU, 0xbe0247d2bdb37f7aU,
  0x3dafe0333d8aa610U, 0xbd2b1245bc96b2a7U, 0xbded21293cf9fd4aU, 0xbd63ef32bdf39237U,
  0xbd5931173d95b9e2U, 0xbda981febd5556d8U, 0x3cd33c253da40c3dU, 0x3d87acd53d46b937U,
  0xbd306225bddafb9bU, 0x3d935ca3bcf664f3U, 0xbd94f8aabd423862U, 0xbbe2456fbd80990dU,
  0x3da90aa8bdac30c0U, 0xbdae4b593c715fc3U, 0xbdea2e41bb309878U, 0x3d8a824dbdda597eU,
  0xbc033779bce597e0U, 0xbcf01a44bd87c200U, 0xbd088e58bd97c3a2U, 0xbd8335623be2cb37U,
  0x3b6b53253d9d4ad9U, 0xbcf7d4573c390f13U, 0x3b17a7473d84d5cfU, 0xbd96d21f3d71a21cU,
  0xbdf08573bd3d7967U, 0x3c7636fcbcc1ae23U, 0x3d8ba0c93a8ed757U, 0x3a5bc194bd1ce960U,
  0xbd51c0b4bd6e1acfU, 0xbd1dd198bc98c2c3U, 0xba259980bc2a1c10U, 0x3bed90233d088ff6U,
  0xbda0bda0bd5b0c04U, 0xbba67160bda98604U, 0xbe0b2b7ebd905987U, 0xbd798a203b4da9f7U,
  0x3d19718fbb6311d2U, 0xbd23b7f0bc6ceeceU, 0xbc4a1518bd4c7645U, 0xbda0d1bc3dbb59ebU,
  0xbc87c8f43ce1f724U, 0x3aa061953d5002abU, 0xbd0f6f5fbd071488U, 0x3cb49953bd9c36aeU,
  0xbdfbb614bd7fe78eU, 0xbdb1bb51bc51b269U, 0xbab8aebdbcae5e9dU, 0x3d6e40dfbcb57559U,
  0xbd205ef93d0115b1U, 0x3b27b75f3d9794e2U, 0x3ce774e6bcb7c34aU, 0x3d464d70bcaef2faU,
  0x3d34f4d9bd8bf407U, 0xba02656cbca27bfbU, 0x3d8d6b4b3d5fd0baU, 0xbcb60881bd12512eU,
  0xbdfc3a0f3c3df207U, 0x3dac3dc63c8b6739U, 0xbe07978cbb98d0c3U, 0xbd97e92f3d740ccfU,
  0xbba94b27bd81bea3U, 0xbdb8a65f3dc951afU, 0xbde8d3513d734cecU, 0x3d0536c5bd7251d3U,
  0xbdd4ff31be2138b8U, 0xbcb0c3323d25f9c2U, 0xbd591df9bdd83e97U, 0xbe03c8fc3ce4f160U,
  0xbd00a3ccbe10cdcdU, 0xbd0d797b3d11b6e1U, 0xbdcfa1c1bce853d6U, 0xbc461ec23c6fc8faU,
  0x3bd7ea593be8cd6cU, 0xbd3e5ef0bdcdf7a6U, 0xbbe2de3d3cad19e7U, 0xbd612cb4bcafc9acU,
  0xbd10c03abd46637aU, 0x3d2f68a4bc7c2a10U, 0x3d2b732bbd43af3bU, 0xbd4ee391bd24a9b8U,
  0x3d282d6dbdfc0805U, 0xbcc24c1cbd5beed6U, 0x3dbd885bbd30f113U, 0x3db79ad2bd960e77U,
  0xbcde8ada3d7b059cU, 0xbd1901163b1b2c56U, 0xbcc2c9673cf7d1b5U, 0xbdec39bdbcc7f154U,
  0xbdea7c603bdc1f25U, 0xbc43d34e3db1b279U, 0x3d30ad4d3d990916U, 0xbd74b4ddbcadf5caU,
  0xbd031cf6bdd02974U, 0x3d61548cbc77c68cU, 0xbcc64721bd8ce9e2U, 0x3abd8679bcda80abU,
  0xbda8af86bd6495a4U, 0x3dc62b253d148bf5U, 0xbca02cd5bdba62c9U, 0x3d954ba53d1a7f25U,
  0xbd8a317abdf17aecU, 0x3cce2baf3b326f25U, 0xbde42e28bcf5cb19U, 0xbc06265f3d9e410dU,
  0xbba2c1b0bd668d94U, 0x3d0f90023ccf34c6U, 0x3c5223d2bcf522c1U, 0xbc834b0fbd97bd88U,
  0x3dbaeeaf3d7e0b28U, 0xbe0d69f4bd98fdbfU, 0x3db5c5c8bdfd6c08U, 0xbd0ad54bbdb62573U,
  0x3d98a8513d0c7382U, 0xbcba1310bdf5ab7cU, 0xbbf00a62bdd1fb0dU, 0x3da731f6bcf8b656U,
  0xba48917cbddf8ae4U, 0xbd5e7b56bdcda4e9U, 0xbddeaa103dc1f08aU, 0xbddaf58d3d88dc4bU,
  0x3d8ef4ddbbb76de0U, 0xbcb8dd0c3d4d94a0U, 0x3d0e07dbbd26dd62U, 0xbdf3b8b9bd9c5f56U,
  0xbe00bf8a3d82111aU, 0xbcc61e043d224ad6U, 0xbc5622a7bd5e0642U, 0x3da0fae13d277da6U,
  0x3d90be19bddd19f2U, 0x3db44c193d9e78e4U, 0x3d83fafe3d4de79bU, 0x3d0898af3ce62cbaU,
  0xbd9ef288bd3f857bU, 0x3d03d6f33d796e5aU, 0x3d1e69b5bdf7dcdfU, 0xbd7b01553daf08b5U,
  0xbd43f4aebdc84a23U, 0x3d8702edbe059bfbU, 0xbb81e8dbbc48a513U, 0x3bb8fff53d3fd44bU,
  0xbdbfbbc83d85e947U, 0xbded75123cc9238cU, 0xbd4f14b53ce911c4U, 0x3d486d57bd4af5c8U,
  0x3dc1e5e83cdb0629U, 0x3db598f93d86bf69U, 0xbd029ea5bd28353aU, 0x3d8504a0bd8aea78U,
  0x3dba1d8cbdf8fa1fU, 0xbc92a66bbdd79e55U, 0x3dca2c663d9de3a0U, 0xbd13dff2bde9dea3U,
  0x3bb9aa37bdc8cbfbU, 0xbdacfca4bd8b11ffU, 0xbd35bb2a3cf1d724U, 0x3d0427cd3d97fc34U,
  0xbdb62c53bd38c601U, 0xbd113c04bdf318c6U, 0x3c35ecf73d26f67aU, 0xbde5c8983d335c95U,
  0x3ceb8e7abd95cf2bU, 0x3d2207bb3c0918eeU, 0x3ccd0239bb8572e6U, 0x3d06c0e63cc7b895U,
  0x3da4709ebcd290d9U, 0x3d410bdfbda8a99cU, 0xbdeaa41cbbc6ba88U, 0x3d277298bb1736e1U,
  0xbc6292cebe20e3e0U, 0xbd80ea563d537b30U, 0xbdc461a73d8a67e7U, 0x3d3b48b2bdf295d2U,
  0xbd25d920bdada6c8U, 0xbaac9302bdcf509aU, 0xbdeb52b0bda3f4caU, 0xbd5f9e1c3d89e8e7U,
  0xbd385fbbbd8e2c1eU, 0xbc4c1b35bdd50dd9U, 0xbcdf926cbdb8b165U, 0xbb9b65e1bd9e2504U,
  0x3d55cac33dc63778U, 0xbded3c17bdb6d9f0U, 0xbd8b760abd832e65U, 0x3dc0f6cbbd88a233U,
  0xbc8ddcdb3d6a2ca1U, 0x3f054918be0e4777U, 0xbdee031abea3b867U, 0x3e10e7983da1c4f1U,
  0x3dfe1efdbd4ac9d8U, 0x3d6dbe0cbdd2b779U, 0x3e417dc53d904cefU, 0xbc54868a3ccf83a9U,
  0x3c8c95c53d5e263bU, 0x3f2a0d6cbdc0fa9dU, 0xbd828491be9bc858U, 0x3ec5e9b53d618253U,
  0x3dd45d01be1c13cdU, 0xbd01b145bd3aa436U, 0x3ec0bd543de778d5U, 0x3db5ecd2bb778fd1U,
  0x3e0c1cee3c1c8f8cU, 0x3ef51746be11c05cU, 0xbe39a5f0be78334cU, 0x3df86de53db34373U,
  0x3e431697bca205d9U, 0x3df70bafbd9d3ff9U, 0x3d6e39473d825d1fU, 0xbd179972bda7b43aU,
  0x3e2374b6bdc9d3e0U, 0x3f3a6eabbe2d88e3U, 0xbe5599d73d49915cU, 0x3e9265183dcaacefU,
  0x3dec934cbd97b98aU, 0x3df0a8ea3d3dd769U, 0x3ceb933d3e000cbbU, 0xbcf41574bd6162e2U,
  0x3d2739c0bd38b585U, 0x3ecfc6e8be23572bU, 0x3d06c1983ca4658fU, 0x3efc5ce43cffe353U,
  0x3dd6515dbc44f48eU, 0xbdcf0e243d0e14a2U, 0x3e30513dbe0eb7caU, 0xbd4552e1bdd4af44U,
  0x3cc10586bd951601U, 0x3e92ec4fbdbcab9aU, 0xba34bbbebda14cc8U, 0x3e8248e23d882de4U,
  0x3cc0836ebd40d6d0U, 0x3d509d2dbc1c6abcU, 0x3e1f6669bd42032dU, 0x3cca1e4dbd8180a9U,
  0xba3812523e23986cU, 0xbd452a4dbcfab5deU, 0xbe3756c5bdb16a40U, 0x3d3b3b0a3e19e8e1U,
  0xbda64f363c15ec22U, 0x3e4023af3d99f3aaU, 0x3e0aee473d4f92ceU, 0xbe15d501bc570e90U,
  0xbd88e2f63dfb6d1dU, 0xbd5c9815be26db11U, 0xbe207e5dbe59d8a4U, 0x3d385c743d8b8d05U,
  0x3d22caf3bdc96eafU, 0x3d89786b3cbb1855U, 0x3e0c051fbe04277dU, 0x3d2de799bea8647cU,
  0xbc487dc33d1f930fU, 0xbdb5146fbe8414acU, 0xbe34f03c3c93a178U, 0x3db1cbe93e19c844U,
  0xbc57b8b13d1d4118U, 0xbd9f7c34bd072e63U, 0x3d1d82b73ddbe93aU, 0xbe118442beb7f075U,
  0xbdb45be53daed322U, 0xbe5ca29ebd7f8e8cU, 0xbe65bf6ebe67a4a2U, 0x3d2b5f1dbd666408U,
  0xbc90ea75bda08d39U, 0xbda506343df79641U, 0x3b444af9bd14db3cU, 0x3de7a783bcc7b2e9U,
  0xbd96e8e0bd478c03U, 0xbdee7556be821878U, 0xbd93f565bd195da9U, 0xbd9bd6ccbdd24090U,
  0x3dacc4d9be0598f4U, 0x3ba7d61fbdc8a00cU, 0xbd2b97393de91612U, 0x3e0cf45fbd853811U,
  0xbca835dd3cd8d066U, 0xbe208705bd3a7633U, 0xbe24d1763c5ad846U, 0xbd12b97d3cbc548eU,
  0xbc56fe06be2c9bfdU, 0xbdba08e2bb37c5f1U, 0xbc68aa3dba61ae10U, 0xba1ac5d9be32fe3eU,
  0x3d04a9a9bc9a4cdfU, 0xbcfa5136bdd92989U, 0xbd20b726be469137U, 0x3d7926c33d1fa6d7U,
  0x3bfa53c03c337074U, 0x3d8e259ebda323c3U, 0xbc7e0f47baf22122U, 0xbc80e03dbe472e66U,
  0x3cec9130bcdde5d6U, 0x3b5cf62ebd14dfaaU, 0xbe0371b83d29f51eU, 0x3d2f84eebd028bddU,
  0xbdfefc40bc7194daU, 0xbe18b0bfbd6868d8U, 0xbc4cde3f3c9b2fa5U, 0x3d8ee8113e308527U,
  0xbe3578d13d267f46U, 0x3dcc3403bd81e678U, 0x3c97d3283cb6ca2cU, 0xbcc8490f3d2b6091U,
  0x3dd1875abd8a1f81U, 0xbe040a8abe14926eU, 0xbd8adbf83e0047c2U, 0xbc11f097be116809U,
  0xbe2742d1be25441eU, 0xbd841dfd3cb44030U, 0xbe4c8d98bdc7513bU, 0x3e1dfefdbd661c78U,
  0x3e357516be20922fU, 0xbe17557b3d10b269U, 0xbe1653f5bd64f87aU, 0x3cbc3d16be853b5dU,
  0xbc4853eb3cdbb78cU, 0x3bf6d929bd8436e7U, 0xbe087fefbe3cb0b3U, 0x3e0e6075be059236U,
  0x3d8db0abbda3b38dU, 0xbde98d523dba3f4fU, 0xbcbbff0e3e404f79U, 0x3d3e59e0be800660U,
  0x3d4705b33c3bf6aaU, 0x3da9ab56be04171fU, 0x3e00cbedbd9a09eeU, 0xbe668763bd2469beU,
  0x3d9054b83d38965aU, 0x3bd479df3e4add3bU, 0xbc81fb633e35e4f3U, 0x3df10d36be80a504U,
  0x3dce2e58bd720a15U, 0xbd585ee53d4921b4U, 0x3d987c083d7b87d0U, 0xbd82011ebd324143U,
  0x3e0fdb1b3bace638U, 0xbdba60853e8ab8aaU, 0xbdc622233d38191aU, 0x3ccd1e67beb62016U,
  0x3c907e59bdfcc763U, 0x3d0a7a63be127339U, 0xbe032a753dba1b2bU, 0x3ce8bdaabe08cc53U,
  0x3e20b4883de15d91U, 0x3da78e463da6dc6fU, 0xbdbd56e13cc93ae0U, 0x3e232746be480525U,
  0x3cde7178bd27c871U, 0xbc1b2d54bdbb3f38U, 0xbe06eca93d2e8512U, 0xbdaf2d07bc51ccd1U,
  0x3dd785893e505406U, 0x3e0dee653e2c8fe0U, 0xbe91239ebc3159d5U, 0x3ddd30babdb241adU,
  0x3e344727bdce2c1eU, 0xbe16ec9bbcdeb432U, 0xbd90fafbbe265bd7U, 0xbe5fe9793b6d88f1U,
  0x3c7802523e07cd78U, 0x3d76d39e3d5efe39U, 0xbe0d204ebdaa42b3U, 0x3e531479be0ca513U,
  0x3d758a82bd0d4334U, 0xbe1efacb3d445170U, 0xbd81cababd80df2eU, 0xbd6456d13daaad18U,
  0x3bd6abd53e435215U, 0xbca1ee813d3e7b17U, 0xbe2dc8c53bcf4b8cU, 0x3da02d5abd9bfdfdU,
  0x3de030e03e216081U, 0xbd84ba9a3ccfd738U, 0x3c7ae6c33d4f5b8bU, 0xbe3d68153ca3b01cU,
  0xbd96020d3e8497fdU, 0x3d9296663deb9e32U, 0xbe238b24bd36f418U, 0x3e343c7bbdc42da8U,
  0x3c0717303d8a7515U, 0xbe527c40bd340fbaU, 0xbd286f543de08a3eU, 0xbd5b14c8be8e8127U,
  0xbdef9c493e3d7adeU, 0xbd30675ebdb257ceU, 0x3ec044afbdc74a4bU, 0xbc85dc29be497ad6U,
  0xbdab030f3da25cb3U, 0xbd33ffa4bdb39426U, 0xbd8eb2a03e3cc148U, 0xbe10f647be356decU,
  0x3c9976953ea44ae7U, 0x3c07c434bda262e3U, 0x3e4435d0bdba96ccU, 0x3db6e57dbe0770fcU,
  0x3d5e392bbcc74d33U, 0xbe20b915bda186b1U, 0xbc8b94bfbde6f040U, 0xbe8b97b5be1edebcU,
  0x3cf22aab3eb7a310U, 0xbcedf5cfbd05bda3U, 0x3d9e02603cd2d695U, 0x3dcde31ebdb9ab39U,
  0xbd93f39d3dd40e17U, 0x3deed7f8bd30b9a3U, 0x3da62cf23e04eadaU, 0x3cbb9930be224e30U,
  0xbe002be63e0aa644U, 0xbe4d1646bd959fc8U, 0xbe9a808f3e615422U, 0x3df2f3abbe07218bU,
  0xbe01ac01bcae34beU, 0xbc9f5741bdc51087U, 0xbcc231f63df281f0U, 0x3cc25091bddbd9acU,
  0x3d2101593eb41e05U, 0xbd51dc273d8e65e9U, 0xbea280d43d79eb8cU, 0x3db48e2dbe30e1a4U,
  0xbdefa145be05e7d8U, 0x3d1ebbfbbda928e3U, 0xbd72e28e3de881ccU, 0x3df9545e3d04fec0U,
  0x3c9f75eb3e75cbd7U, 0xbdbc31dd3d2d193fU, 0xbea5b6453d489802U, 0x3e41672bbe45548fU,
  0xbdc93d0b3bab616fU, 0x3c5009a9bd5981efU, 0xbd4861ae3daea8a0U, 0x3df3b1cebdedc413U,
  0xbd3abfc93e3c9420U, 0xbe18c5ffbe3427b5U, 0xbede88953e2afcddU, 0x3e75a68bbdfea1feU,
  0xbe1a217ebd9ead9bU, 0xbe07cafcbcd6f84bU, 0xbd86a274bda55774U, 0xbccb30e53d3226fbU,
  0xbd6de9353bd35536U, 0xbe31b62abe459a2eU, 0xbe2e308d3d2da028U, 0x3e0e03dabe7deda6U,
  0xbdd1cd3e3d32c6bbU, 0xbd0d5bb53e1c7c71U, 0x3d43640bbdbd3848U, 0xbdac735dbd881a81U,
  0xbc55a93c3dd96bfaU, 0xbdfe2e4bbe25fd39U, 0xbe60514e3dba4486U, 0x3e4b5761bcac33dcU,
  0x3a22240fbc12a88fU, 0x3d0a1ec73e565287U, 0xbd5993ae3e1388d8U, 0x3d9fdf86bd2f57f7U,
  0x3cb77be63e24bc1dU, 0xbe32f581bcd1ec9bU, 0xbeda87023b0ed7f1U, 0x3d98a517be1ee86eU,
  0xbdad27c4bd2aa5a9U, 0xbd9e9d8a3e36f126U, 0xbd431a723d41de45U, 0x3e49ad06bd888f9aU,
  0x3ba35a44bc9b2db7U, 0xbd0ae3e9bc1a5413U, 0xbe53cc47bd8a4876U, 0xbcfadea9bd9c31e7U,
  0xbcec50333d855361U, 0x3dbb0dcd3e9b9ab8U, 0xbdb8a34cbd301f29U, 0x3da84825bd32496aU,
  0xbdfdcfd6be148c0aU, 0x3db72fd03c310874U, 0xbeab81713e3db53fU, 0xbc86907abe86ca36U,
  0x3d9585e43d551f8bU, 0xbd0549753e0537c6U, 0xbddfca933c7f6b47U, 0xbd3af655be096e64U,
  0xbd4af49fbd3b0ffdU, 0xbe055aab3d28afacU, 0xbe4c0a903cb745a6U, 0x3d982017be92210aU,
  0xbde54cfabe0ad071U, 0x3b8159263d3790a3U, 0xbd4390593d8bba30U, 0xbe11b9db3d9c837bU,
  0xbdd11268bc1eefc3U, 0xbd2e7da8bcc91d1bU, 0xbd0ebeea3d903ae9U, 0x3df9b2f4be76d20fU,
  0xbd373da63c88832aU, 0xbd4d306c3dd7ecaaU, 0x3d88e02b3e798b6dU, 0x3df47734bda0f478U,
  0x3cefc1c33e1c27faU, 0x3d249aa33d01d24eU, 0xbe1eb23dbe04b8c9U, 0x3e10b06cbeac1e4dU,
  0x3c511353be339029U, 0x3cd2b4a6bcd311b3U, 0xbd15116a3e19a9abU, 0x3dfdaa193dbfe3d6U,
  0xbdf8ae293e0e9091U, 0xbc8fab893e6a0daaU, 0xbd187e59bd894f9aU, 0x3dc06bf6be08ed68U,
  0x3da4d334be1505b3U, 0x3d5c4ac53c1642d9U, 0x3db3d5bd3d79e02fU, 0xbcf6267d3d636254U,
  0xbc37601b3dd30d28U, 0x3dd47f003e10b1baU, 0x3e8ec037bcf8ed30U, 0x3e2e5ae7be833a63U,
  0x3e02c8e0be159d6dU, 0x3dd1cc053b9f2099U, 0xbdd6094c3df74c35U, 0x3e6f1d9b3d7373daU,
  0xbcdd87f63c589579U, 0x3e6d5918bbe30f7aU, 0xbe2cc80d3bf17ecaU, 0x3d41f418be75fd1aU,
  0xbd7a0ea2bd6677b7U, 0x3e01ea1a3cf2e458U, 0xbe2d48b13e031dacU, 0x3e3581343da31d15U,
  0x3d3ff4b13d185780U, 0x3e3c7075bd2baf78U, 0xbe7851f53d32241bU, 0xbd00b37abe3913ffU,
  0x3ddfa6a1bdae4cafU, 0x3e22ca9bbce9ccabU, 0xbdee5eb93e3b4b1fU, 0xbccdb03a3de364f3U,
  0x3d07891b3df92ceaU, 0x3e1299a5bd8524edU, 0xbe0a3ab73de31894U, 0x3d9f35aabe2794bcU,
  0x3deb2f353cb076f0U, 0x3dbbddb43e257f23U, 0x3d5148473c65f960U, 0x3e7f72d83e45cca5U,
  0x3b43db843e1b3bceU, 0x3d02e327bd414540U, 0xbe458e03bcbe1ed3U, 0x3dd27e9cbd2431c0U,
  0xbd68e7afbdab508fU, 0xbd35900cbdbcbc07U, 0x3db483523dce4552U, 0x3e6b95193d21d03eU,
  0xbde0ef553e34a25fU, 0x3dd4e38dbdf732aaU, 0xbdbc8c62bc6e2f0cU, 0xbd217423be08b837U,
  0x3d31de1a3db3001fU, 0x3dceebfdbe286895U, 0xbc8841163e270382U, 0x3e0c2a6ebc5b40beU,
  0x3d1a42e03dbf2420U, 0xbd5d52be3da0b956U, 0x3cd65cd83d9c6297U, 0x3d15730fbd52fc40U,
  0xbe039a7a3e11cf02U, 0xbd9eca12bdcaa7b1U, 0xbd816e793d0e77e1U, 0x3ea071153e30f86bU,
  0x3b58a9303e2fe4a5U, 0xbc26f5b5bdd40628U, 0x3c8bfd54bd3de418U, 0xbce6a7f3bd9bbecaU,
  0xbdb8b8363df51cbcU, 0x3c7b6de9bd69929bU, 0xbc266a3abd921373U, 0x3e912d783e1250bcU,
  0x3d1e4d973d3a15b5U, 0x3d23c2a2bdf15e30U, 0xbe1360dd3d004582U, 0x3d0c63a0bd684bd0U,
  0xbd423d103c8478abU, 0xbcc650ec3d4e9a5aU, 0xbd248f91bcf8e70cU, 0x3e3b6bbb3dcb1c3bU,
  0xbe0699ab3e50f0bfU, 0xbd02966abe043580U, 0xbc595b92bda6297fU, 0x3dacb589bdbeea67U,
  0xbe4258ff3e075e51U, 0x3df9f7c03a4745b9U, 0xbdae99f43c6047f1U, 0x3e276bf63d74d9f9U,
  0xbd762ccabc9a7062U, 0xbe0e4c2fbd18db6dU, 0x3e41c13d3db49ab7U, 0x3b89bc0e3d8240d2U,
  0x3d8636e43d8d4060U, 0x3dd766c13cd0a80cU, 0xbe098664bded0920U, 0x3e732b0b3e058fe8U,
  0x3d866c003e28be56U, 0x3da366cdbd83580bU, 0x3e0a52883dc114a5U, 0x3d8ab1ddbe014271U,
  0x3d71bd5b3d639cc2U, 0x3def2d643cd96beaU, 0xbe091d76bbf325e3U, 0x3e508f1c3e39b7f3U,
  0x3da91e443ddcfa17U, 0x3d8f5af0baa1f81eU, 0xbd80dac33bd310e5U, 0x3d9e944cbe146fecU,
  0x3cc0b769bd313603U, 0x3d90fc90bd8c0c9cU, 0xbe32dbfcbe1bb62eU, 0x3da0d06d3b64e042U,
  0xbd7da93d3e46b1c7U, 0xbc2293a5be75109dU, 0x3dc27dba3e1a1425U, 0xbd5a92f2be5944f8U,
  0xbdb200353d71ac43U, 0xbd92f152bdc71894U, 0xbcd114e5be0429a2U, 0xbd37e2ad3d75b22dU,
  0xbcf5481fbde28b47U, 0xbd7d2406bceed8e0U, 0xbe460a91be13eebcU, 0xbdc900383d4d7fa3U,
  0x3dba79d53bb3a2f2U, 0xbd1fc91e3cc6d447U, 0xbdf9bbcabdc05be7U, 0xbdf62b4ebd70175bU,
  0x3cfc78b2bdb68d4fU, 0xbc01a53dbd52eaa5U, 0x3ca6f1f73b824bf4U, 0xbddcf9243d57af71U,
  0xbd5925e63d851b87U, 0xbdaf6dc5be071f76U, 0x3d30e378bd7c24fcU, 0xbdeec16abda8049aU,
  0x3d839f25bd81ebc9U, 0xbc91c816bd9e79c5U, 0xbdcdee62bdd29b9aU, 0x3d31d889bdee5b1eU,
  0xbb13b9aabc10a6a8U, 0xbd30e273bde1de36U, 0x3d476ceb3d2a0796U, 0xbdee769ebdfd9511U,
  0x3d7154693bfb2757U, 0xbdbec9613c60ccd2U, 0xbd4e0875be14e9edU, 0xbd229721bd82dedfU,
  0x3daa8c41bc1914efU, 0xbd7f34a33dd134a0U, 0xbb9d086ebdcc57d0U, 0x3d0c891ebc7651a2U,
  0x3d4eee2abd0711f8U, 0xbdc9d990bca7bf95U, 0xbd8b40dabb822cfbU, 0xbdd0849bbb35fb49U,
  0x3d2d6dcebd5169eeU, 0x3c79ed0bbd9a190aU, 0xbcd326273ca5e95aU, 0xbd20198bbdc2a5f8U,
  0xbd3d5e29bd819569U, 0x3c8eb6a8bd4815c3U, 0xbdbfc2693b7cbab8U, 0x3d4d527fbd6ac7a3U,
  0x3cbfd5a9bc62337bU, 0xbd0ccec0bd89f4b6U, 0x3d84fd7abd16026aU, 0xbdf7cf6f3c8ef9abU,
  0xbde26891b92783e1U, 0xbd898516bdc3fc39U, 0xbdac0db33cf5cc4eU, 0x3c8ed7ee3d913862U,
  0x3b0b24c33d51b8f1U, 0x3d59e520bce44ceaU, 0xbe0df57b3bea28d1U, 0xbc5685eabe01b6e3U,
  0x3c81bb51bdabf128U, 0xbdea47ddbd26437cU, 0xbd93da89bd271d89U, 0x3dc389383daff1dfU,
  0xbd4e458ebcf9f2a5U, 0x3dc9d3bcbe06edeaU, 0xbcf1a9afbdf4c047U, 0xbdb2b4ffbda64774U,
  0x3c5581f9bc5535baU, 0xbdc758b6bcab27d8U, 0xbc8c297c3d21557eU, 0xbd270931bde9a668U,
  0x3d15583ebe00bdb4U, 0x3c1dfb48bc74e3c3U, 0xbd154301bde14d16U, 0xbdc21d08bd9c1bfaU,
  0x3c8f92203d65b7b9U, 0xbdc14fa23d9aa3ceU, 0x3da1ad44bd686f9dU, 0xbd7db1e4bdae8a71U,
  0x3d7d72d3bd1c9014U, 0xbd1139843c70ac38U, 0xbd056f72be01cddaU, 0x3d342f673d47de01U,
  0xbceaaecabc0b0684U, 0x3cccd465bdaeb1e8U, 0xbcbe77d8bdf78fd8U, 0xbbf5ab37bdb288ddU,
  0xbd81b9603dadb44aU, 0xbce18e393d34c8c7U, 0x3c8be190bde3148cU, 0xbc4eef51bd530309U,
  0xbd61a7b7bddae1a8U, 0xbc9417283d1e3814U, 0x3d06b594bd95281bU, 0x3d835a18bd7b6b16U,
  0xbdd55c9b3dc9a458U, 0x3d618f29be136cddU, 0xbd0516cebd162b21U, 0xbd0ce4b43cdae312U,
  0x3d46c130bd5b0163U, 0xbe08d116bd79d7c8U, 0x3dc34f8ebd2066b0U, 0xbc88ddc03a27470aU,
  0xbd708ecabd31e67cU, 0xbd858d853dd18cc2U, 0xbc8c64973c4b8486U, 0x3d7af0d9bdd99a4aU,
  0x3cbf86d8bd4534c3U, 0xbc59ee61be0e08aeU, 0xbdd24d9c3d40fdb8U, 0x3ca66166bd94e022U,
  0xbd64d859bd3b0cdfU, 0xbdf1c5f7bd40193dU, 0xbde29ec4be08ac6eU, 0x3d9a255a3cff39f0U,
  0xbc193e32bc575505U, 0x3d9ac9bc3c392a5cU, 0xbde9edc2bda5a8e1U, 0x3c9a73f6bd747429U,
  0x3da8b4bcbdc896adU, 0xbd1f92cf3ce22c45U, 0xbd41224c3d2aa585U, 0xbe022ca33d37c494U,
  0x3d6fe9bcbc8f1069U, 0xbdb49e883d69f911U, 0x3ccff758bdf9b071U, 0xbdea3ff5bdc26cbfU,
  0xbd8aa0dc3c842872U, 0xbd9d9de9bdc26139U, 0x3d3588793d3b2f34U, 0x3c207f15bd930cd8U,
  0xbb3a03773da6b113U, 0xbdc899473b293e48U, 0x3cfac1a8bda0b9e5U, 0xbd99819c3d54fa6aU,
  0xbcd3c23abe0def48U, 0x3d9dfef7bd933a5bU, 0x3da68117bdb5d7a6U, 0x3c801a463da26854U,
  0xbd1611d23da617a7U, 0x3dab233bbda267f4U, 0xbdc6f0e33d55247fU, 0xbb05e673bdccfcdcU,
  0xbe126c4a3d023944U, 0x3d8eae573b9aa25aU, 0xbda3483dbda5e7fcU, 0x3d5f91033dc0c851U,
  0xbde142c0be13af5eU, 0xbdb8deb5bd96329bU, 0x3c8b2878bd765d99U, 0xbc8a90903d65a3e4U,
  0xbd9033efbc321c96U, 0x3d9b5c433dc5386dU, 0x3d9bbbbdbd78ddecU, 0xbb8f14d73d6be511U,
  0xbde02f89bd5fcb97U, 0xbc3e3dcdbd20de27U, 0x3d681d95bd976359U, 0x3cce4d823db24b90U,
  0x3d323aa63cfaa11dU, 0xbdea4c5c3c3c9708U, 0x3c6015653c46fcd0U, 0xbd426aef3d8aa6eaU,
  0xbd9898ec3dc57f35U, 0xbe0347923c9ebde1U, 0x3ab1a5263ceca9c8U, 0x3d7a99e0bdbf161cU,
  0xbe16a8e33d6b8a30U, 0xbdd5fe463d1c6788U, 0xbd11f79dbd449d65U, 0xbdb1c7d43daf4be0U,
  0xbdc417103b883029U, 0xbdc56995bd80a7c5U, 0x3dd087f8bd420479U, 0xbd823449bd7374c6U,
  0x3d42e2ddbccf4263U, 0xbda07ec5bc661963U, 0xbdf3da203d3f5593U, 0x3db7a374bcd0e9afU,
  0x3d163e913da22261U, 0xba001a33bba0b6fcU, 0x3b33e0b63d76e5f0U, 0xbddfb269bd27b444U,
  0xbe0c8e8ebbd54bcdU, 0xbdf33c5bbdefec3aU, 0x3d956b85bdd39777U, 0xbd12fa193da7a9d1U,
  0x3cb29e163d61c2feU, 0xbc9ed9703da86a45U, 0x3dc8825abd8819b1U, 0xbde684dcbbbb0c5aU,
  0x3d76e6f5bd39d408U, 0x3da75448bc903fbeU, 0xbd491ed7bd03c79dU, 0xbdeca54cbd4424e6U,
  0xbdfe54433b9533d4U, 0xbdd56c9bbcd5c2c3U, 0x3d1467cdbccd06b9U, 0xbdc508b73bfaadd8U,
  0x3d88e2d9bdca1936U, 0x3c087ca4bdae6efcU, 0xbdffbb823d4cef55U, 0xbdf0c2eabd8e5f08U,
  0x3d2d6ec5bbb08afaU, 0xbe0ee3ab3c915350U, 0x3d685d883c9129bfU, 0xbd0ca9773da4d7b4U,
  0x3cc58d8d3d239250U, 0xbdccc5cebd98d3ecU, 0xbd9db1b6bd520672U, 0xbdef7319bdec919aU,
  0xbdd6ea74be20e153U, 0xbc77cb3abddca2b3U, 0xbd8a971b3d212943U, 0xbdc52cba3d820188U,
  0xbb1def8e3ca1616eU, 0xbce8eb71bd94c0b2U, 0xbe2e1b8f3bffef7cU, 0xbd7af438bcbaac06U,
  0x3d077afc3c2fecfdU, 0xbe82f437be60d917U, 0x3d3cb0aa3d72c852U, 0x3e255688bdf5754cU,
  0xbe1c6d163cdf8f0dU, 0xbddbd0debd07a0ccU, 0x3ced483d3d5b18c2U, 0xbe24c1d43d54c4a1U,
  0xbd8d33283de31b2cU, 0x3cd67c51be260f5fU, 0xbd12c84dbd8e931cU, 0xbd1e976b3dccb969U,
  0xbdb81f72be85ee9cU, 0xbe3c659c3d341079U, 0xbdb63b17bda456c5U, 0xbdc0d0c7bda9e578U,
  0xbe5f77b03c4de44cU, 0xbe67caeebdca96f4U, 0x3d9475c2bcbf7d64U, 0xbddde0c43b30620aU,
  0xbdc9080bbe57cedbU, 0xbe6c26ba3e327c0aU, 0x3df8dedc3c97f2c7U, 0xbd8668943ca004ddU,
  0xbe8853893e263c81U, 0x3c00ab42bcfe3d17U, 0xbdfb678a3d829fb0U, 0x3caf01f83d4bc2e4U,
  0x3a10a1253dd1a737U, 0xbe831f05bd094693U, 0x3dc1f7193c709183U, 0xbe98959abdd9e659U,
  0xbdd71c8b3d660425U, 0x3d2158e3bc94dd5cU, 0xbd047839bca96204U, 0xbd81c6303e8438b2U,
  0x3d8d31093bb49ee0U, 0xbc38fad53d41f0ebU, 0x3c96859e3d0630c4U, 0xbe71b3b7bdc96f94U,
  0xbdb628b63e2a76beU, 0x3d06a829bded53b4U, 0x3e40e237be3b9733U, 0xbda8f4593dc9a9ccU,
  0xbe31122ebe7bfcb5U, 0x3dee2a71bd9c853dU, 0xbd7ac8b73bb33014U, 0xbcd5e981be2ae76aU,
  0xbe51562dbcee9326U, 0xbca0bb3dbdb1bc17U, 0x3da044a6be2e9c31U, 0x3d9b19933e8638feU,
  0x3d5ad3263d1bc2afU, 0x3e0099aabbc5514cU, 0xbda6827239ce68f6U, 0xbd94776fbe4ae0dcU,
  0x3be622343cd5ae8eU, 0xbdd0d302bd8b5e09U, 0x3e11a25bbdc0b141U, 0x3d8494263df42228U,
  0x3d1217b1bd6b418bU, 0xbcf6f5d4bdfccfc0U, 0x3b9e6412be1bc30aU, 0xbd857f69bd36984eU,
  0xbdb438ba3cbb64baU, 0xbd33d8e9bdb3dc05U, 0x3d99659fbcf6efbeU, 0xbd99d38f3eaaa6c7U,
  0xbd8ca35dbd527532U, 0x3d833ae4bdd26056U, 0xbd3b8255be513a38U, 0xbcc42f90bc9a5fb2U,
  0xbde5b8273c8bfc8aU, 0xbe1147c53ccdc627U, 0x3e4dba09bdbf6f0bU, 0x3e22f4cb3e8f3bf8U,
  0x3db95138bcaa4253U, 0x3e062e613c13e504U, 0x3e1d509cbc5b0d84U, 0xbcc1de703c58f911U,
  0xbd5da3463da138efU, 0xbc295bc73c6fb09eU, 0x3e3b190bbe3607e8U, 0xbc13c7943e9d34f5U,
  0xbc0d9e303d1611b1U, 0x3b8b8b7cba9d3dd5U, 0x3dee441d3b7e6605U, 0xbe68c61a3ddbe0c7U,
  0xbe35a99b3c560909U, 0xbe351bb2bda73950U, 0x3e3f61283d1f10bcU, 0x3dad18983ecac6e1U,
  0xbdda1c18bde8ad59U, 0x3d2e76f23c5a1174U, 0x3c18e357be1d1af8U, 0xbd4516f5bad02b8cU,
  0xbe5b253bbcaa7bcfU, 0xbe242ff9bdab65c1U, 0x3e4c9c6f3e1da7b6U, 0xbcadfa1e3e9d6670U,
  0xbe26275bbd54de44U, 0x3cf0c71d3d89ab47U, 0x3d9b535fbe2b5bbaU, 0x3d6cfb1c3d274e82U,
  0xbe54a3853c09d17fU, 0x3d4b20e43cdcf31cU, 0x3ec1f152bd9b5b09U, 0x3d182e373e91b3c2U,
  0xbd8002e03d8ea244U, 0x3da370783e1cb3d2U, 0x3be05698bdd56ce4U, 0xbd226636bd47d372U,
  0xbd96a67cbdc91e39U, 0x3df716cebca527f7U, 0x3eae3b41bd70ac03U, 0x3d695da73e8f52e7U,
  0xbd34ab82bdfc21c4U, 0x3d6a6537bc39388aU, 0x3d3c8511bdb8c709U, 0xbdbddf7e3d6c7b36U,
  0xbd94b232be090b49U, 0xbc66d7b1bb779c3bU, 0x3e801d5bbdd5328cU, 0xbd03fe3f3e29df53U,
  0x3d42b6e13c8ecd62U, 0x3cb850543c9c55a8U, 0x3d0db1943c621dd3U, 0x3d875c343ca1efb0U,
  0xbdb177f2bb09c310U, 0x3d8e7c55bd1469dbU, 0x3e01d4a43d36ce96U, 0x3dc37fc13dfdc6cfU,
  0xbcc8c8013d239df1U, 0xbb3dcad73d2268d8U, 0xbd2bc3fabd6b1cf7U, 0x3ad39bf63ddf335aU,
  0xbd91da8fbde962b4U, 0x3d298831be0fa576U, 0xbd3a7896bd3e53caU, 0x3de171283dafdbc2U,
  0xbde0119e3cc9d98bU, 0xbe01e254bb6dcd5dU, 0xbd9917573caa5bcdU, 0xba17e3cf3d3e4211U,
  0xbe3da7483db78c24U, 0xbdcf82f1be4ff610U, 0x3d37e6d1be4d7e76U, 0x3dc90b8e3e866967U,
  0x3cab427cbcbecc11U, 0xbc9345593dcaaa86U, 0x3d5d395cbea5ec73U, 0xbdf0c080bd1dd1b6U,
  0xbdbac759bde2fbbcU, 0xbc99b623bda05b24U, 0x3e5c3728be395c94U, 0xbdf7fbf13d84d4e0U,
  0xbe504752bdcac09fU, 0x3df971ccbb61c8abU, 0x3d10ac1abe583346U, 0xbe1edf63bd88ff4bU,
  0xbe062fe7bccd83d7U, 0xbd9ed852bdd5377dU, 0x3e50e176be3f09cdU, 0xbd4b34113e644034U,
  0xbd6c5771be13ef7fU, 0x3df99eafbdc4b1b3U, 0xbc35d9fcbd937975U, 0x3e326130bdcdf4b2U,
  0xbe7906093d3d5be6U, 0x3b19cf99be1e442aU, 0x3dbdf588be9b7effU, 0xbd9dfaf83dfa2d7bU,
  0xbd2998e2bd726a59U, 0x3d220cc7bda637b8U, 0xbb6059efbdd0f3f9U, 0x3d4257a6bdf366d2U,
  0x3c18e266be691aa9U, 0x3de64a14be0a6245U, 0x3e949c7fbd91dc17U, 0x3e1712743cb78b51U,
  0x3b181b19be3ab2faU, 0x3db6290dbdfe71deU, 0xbe074075bea09236U, 0xba775c273e02131aU,
  0xbd75e480be4ab10bU, 0xbd072dba3baec88aU, 0x3e77262dbeb3fb86U, 0xbd5346ac3c2f4ca5U,
  0xbd21c84cbe3323b6U, 0x3cb21973bd333e50U, 0xbe20dd4bbd912a50U, 0x3ca9a3233d08b0d0U,
  0xbbeeb449bf01b6f5U, 0xbe40298f3e208d24U, 0x3ce4cbfebe974bbfU, 0xbe31042e3e3d527eU,
  0xbdb12cec3df17f93U, 0x3e3b27f5be1d666eU, 0x3d472c0ebea98782U, 0x3d40262b3bc26e97U,
  0xbddd5439be326bdbU, 0xbd551c723d1753ebU, 0x3e8dc1f5be6872c7U, 0xbe8884cd3d1e2f2bU,
  0xbde5f8a23e1f6254U, 0x3ea0040e3c8052ddU, 0x3e31f3d63dad252bU, 0x3e807a493de60386U,
  0xbc8f6f0fbe816540U, 0x3e8e32443d2bd4d9U, 0x3e8195d6be0c61c6U, 0xbea884ab3e1ae985U,
  0x3a8c6c23bdbeb682U, 0xbe85fcc1be1c1e5cU, 0xbd7b8820bd362c75U, 0xbe9338f7bdc59709U,
  0xbddc5fbf3e5555b7U, 0x3dd2fea5bc8d24d5U, 0xbdb52ef3bd9c351cU, 0x3e3a36b93d7058afU,
  0xbc02cf83bdc2aa10U, 0xbe92f4d2bc035029U, 0x3ccb3aa8bdd4749eU, 0xbe876c7ebd847ebbU,
  0xbe3797e63dfc5d29U, 0xbe1aaa0f3d34f58aU, 0xbde5024fbd90d87fU, 0x3e1fc1713c49c139U,
  0xbe2e5382bc5bf09aU, 0xbe5bbd8dbd9b2625U, 0xbbe5ec20bde7ba88U, 0x3d8aca053b1fdcedU,
  0xbe74af46bdd17427U, 0x3b63581c3cde2ef6U, 0xbd835485be473279U, 0x3d63f79fbbec4109U,
  0xbe3df3ae3dca9f78U, 0xbe4a13ad3da3600eU, 0xbc06a540be0717a4U, 0xbc97cb503d59a5e8U,
  0xbe8f59553dd08c18U, 0xbe82c9e23d86dea7U, 0xbceac49fbe039bedU, 0x3e02cc3d3be8c2f4U,
  0xbdf80688bdbc1362U, 0xbe857f7cbdaf7852U, 0x3c4d6b623bf0421eU, 0xbe96bc773dc9b9bbU,
  0xbe434c6a3ddc4b9bU, 0xbe80c909bdd05532U, 0xbdaa22c3be1a2b67U, 0x3d477b67be1e9fb0U,
  0xbe1234373d03e82bU, 0xbe1f207d3d561e3dU, 0xbd87f1e3bd6e9f71U, 0xbe32ff473e09357eU,
  0xbe6eccb43defa1f4U, 0xbdcc7103bd2391d7U, 0xbea84beabe9dec90U, 0x3e12b721bc8eaab4U,
  0x3d17fd583d135837U, 0xbd05a1a03d79a3bcU, 0x3db43ee13d8b8ca8U, 0xbdafff7c3e297788U,
  0xbe31ca2f3e06d877U, 0xbcc64be73e0dc87bU, 0xbe2f30d2beafea4dU, 0x3de6581cbdae969aU,
  0xbdba7095be2d1e97U, 0x3e47b78f3e222f63U, 0x3d1aa4503e086c26U, 0x3c4572823da0c9cdU,
  0xbb5ed4513cbb6c19U, 0x3cb244c4bc5a53b1U, 0xbe9569f4be2c2ef9U, 0xbd71d794be9c8c34U,
  0xbe523a39be4e8960U, 0x3de14e1a3e0509cbU, 0x3d5d57f83def7691U, 0x3e17acd83d85735cU,
  0xbdd16e60bdd7676bU, 0x3da823d8bd7685eaU, 0xbe7bfb94be5e0972U, 0x3da17787bebc1eeaU,
  0xbcd64213be0562a3U, 0x3e219afa3e1d6e62U, 0xbd849a17bd17507aU, 0x3d8adfe5bdb9d76dU,
  0xbcb20bf63ddf7d49U, 0xbc429da93d0d2be9U, 0xbed76b6e3d200dadU, 0xbd269ad4be495429U,
  0xbd091e6fbe03b8ffU, 0x3da7fd163df71493U, 0x3d43ce8d3e14a268U, 0x3dfec8763d9c76e2U,
  0xbd3f7c873e330fd3U, 0x3cc631dabc85a24fU, 0xbeea3143bdf12c86U, 0x3ce233e9beb03606U,
  0x3ce9dea4bd286121U, 0xb75222183d78bf9fU, 0x3dce3ca13e2c8728U, 0x3daca5db3d98be61U,
  0xbd1fc0f93e539d63U, 0xbdc9fa79bd911413U, 0xbea702fdbd64d30dU, 0x3b75a15abeb2eca1U,
  0x3db63bc63d2a0128U, 0xbbe0d4f23b4dddfdU, 0xbdb75d1ebce2a41eU, 0x3d0047183dc1ad2cU,
  0xbd5688c23e258cceU, 0xbe0a792fbae7cb61U, 0x3d0ec822bdce397aU, 0xbdbf9133bebd0933U,
  0x3be90d45bd7d2700U, 0x3d32afda3d5fb15aU, 0xbdce3fae3ba55c8fU, 0x3dc0fd6c3b1aacfcU,
  0xbd0938d3be0d1779U, 0x3d5c656ebd12ffd6U, 0xbea9c143be118f18U, 0x3dbe5a00bea87693U,
  0xbd3f6347bd1f51faU, 0x3e155b05bd95c7f8U, 0x3d12860f3dc73bd6U, 0x3d40bf25bdb9b934U,
  0xbd9881c6bda03c76U, 0x3da322783da2c9c8U, 0xbecc07783d98ae9dU, 0x3d07a267be9bdff7U,
  0x3d178ed0bd18b415U, 0x3e2086c1bd0b5e95U, 0xbd9962bebd1b26cbU, 0xbd83a2f5bd5caf25U,
  0x3cf94fbd3df15ad8U, 0x3de398d43d036078U, 0xbedc6405be060ae7U, 0xbd661953be26cd1fU,
  0x3d84f37fbc9e0dbcU, 0x3acacd86bd2d7bb7U, 0xbe172b1f3e248244U, 0xbe27863dbd4790d1U,
  0xb91fdd03bd4c7acdU, 0xbe564bef3d096ee4U, 0xbeb7b9723c8e4603U, 0xbddd96ddbe909182U,
  0x3b7ee4dcbe747333U, 0xbc9a778ebbcbc819U, 0x3d3e0d9abd2b566dU, 0x3e2fb6c03c611a8eU,
  0x3d986f8cbd060d36U, 0xbd331d943dd73f89U, 0xbef03a47be87d0bbU, 0x3cbe36f9be3b9ee7U,
  0x3cd2f40f3b902ec3U, 0x3dbe5a023cfd2d97U, 0x3d0fd9b4bdbf39aaU, 0x3e5ac254bb959ee5U,
  0x3d85ed2a3e23093fU, 0x3d329e2ebd8c40e2U, 0xbe48905dbe135e02U, 0x3d69ea24be9c632cU,
  0x3d8813333dead2e9U, 0x3de05f803d6f3d09U, 0xbccf71633c9c697dU, 0x3e286f0dbe17959aU,
  0xbc8d8d28bb6b82bdU, 0xbe223534bdb1030cU, 0xbe0d215ebe133f22U, 0xbd219cc4bda425b3U,
  0xbdc2dfd13e3f2021U, 0x3d3eb140bccf8235U, 0x3d91c8e43deb121dU, 0xbc345ff43b1ea7bdU,
  0xbd0ec40abdabbe2fU, 0xbe1584a2bdb0be8aU, 0xbbe08657bde355b5U, 0xbb6ce5853c917f52U,
  0xbc2946a1bd9f76d4U, 0x3c8bc769bd0af48fU, 0x3db73bb2bd25354fU, 0x3e2539f9be06b3a3U,
  0xbd220d913db2274aU, 0x3c0e1886bd544c10U, 0xbda6b9843db7d00bU, 0xbd81ef9a3db0ecebU,
  0xbe129352bd97defcU, 0x3d8bf8ebbd608436U, 0xbdb0764fbe3dc602U, 0x3df594263ca520a5U,
  0xba934b653dcb98f9U, 0x3cc9d614bdfe641cU, 0x3d8c37433e05304eU, 0xbc485795bde478a5U,
  0xbdca428b3ce306daU, 0x3e23f690be188014U, 0xbd4a6b473c727b9fU, 0x3e5bebcb3d112b19U,
  0xbc8596b23aa7e2f4U, 0xbcf69166bda4dbd9U, 0xbbcafbcfbd4b5199U, 0x3e10e217be2308b3U,
  0x3dc9a777bda7460dU, 0xbd55fa32bdfb6c46U, 0xbe6e3cddbdcbe8a7U, 0xbe18e0da3c6304b9U,
  0x3d1655a83dba5554U, 0x3d79ebdb3d27b14cU, 0xbdfd63a2bc97ed3cU, 0x3d47a6e23e010c91U,
  0xbc8c11ecbd2d5876U, 0xbd91393ebe919a62U, 0xbc1c24e1be4bca3fU, 0xbde38453bd94e699U,
  0x3d73ef3a3dab2743U, 0xbdc1e862be42d0d6U, 0xbdbd60e53d5fdf2dU, 0xbe327f683dc8c066U,
  0x3c03a1b1bcb452abU, 0x3d996772be7e5671U, 0xbe0b8ababd8fa799U, 0xbe3838c7bc3227f5U,
  0xbca9f6bc3e3121e2U, 0xbd17a8bb3ca26977U, 0x3d9bb1e5bd97b18aU, 0xbdcb7fb2bb43ce61U,
  0x3c50ca863cfbdf32U, 0x3e83206cbcea24efU, 0xbe19da2dbd80a15cU, 0x3e3d0d783d10ee9aU,
  0xbcc4c495be16ea30U, 0xbd5c4356bc89c178U, 0x3ebc68a6bd3ebb69U, 0xbb90baeb3cccd505U,
  0xbb500910bd382045U, 0x3ed3bcfcbdd1d870U, 0xbe2ce473be86d514U, 0x3e9569943e364c9bU,
  0x3dd52242bdb51b61U, 0x3e11cb843dd55f80U, 0x3f1797d7bd8ef34aU, 0xbd8b47adbe17a42bU,
  0xbdd078483d12d923U, 0x3ecccebabe149a9cU, 0xbd7ef115bd41afa2U, 0x3e6d1de03d62d673U,
  0x3d8df35abe83c2d0U, 0x3d0145e33e0a7f2cU, 0x3eadeac3bcf64fefU, 0xbd05c857be20759aU,
  0xbcc0ead43dd9f336U, 0x3ed6473cbde20e73U, 0xbd9bcf563cb5778aU, 0x3e8003a5bc89f0a0U,
  0x3df750dbbe4405efU, 0x3df8ebc5bc2968bdU, 0x3dfe2c72bd3ba307U, 0xbe491201bca4439bU,
  0xbdc2cc5d3d040e31U, 0x3e92fabf3cbdb0fcU, 0xbda042743d82d9adU, 0x3eb380f53e30958eU,
  0x3dfa79a9be5d6a04U, 0x3e455c853d941a4cU, 0x3e858c43be2d03dcU, 0xbd0d91f3bd56f3bfU,
  0x3ba0051c3dda5125U, 0x3e4b424b3d3e6c06U, 0x3ac1728ebc928140U, 0x3e88a7863de02fb1U,
  0x3dc64b25bd3ec3adU, 0x3d10e5343e12e92bU, 0x3e6cdfbb390b3308U, 0xbcee0495bde17eabU,
  0xbde0982f3e300507U, 0x3db8eca7be1fe733U, 0xbe4cd7d4bd19e99aU, 0x3e2f55d13e3e58bdU,
  0x3da3625ebe1ffb9aU, 0x3e5179563deab42dU, 0x3e1fb348be01b775U, 0xbdbd81ecbd781185U,
  0xbd9991013d5b97cdU, 0xbde71aa5be7630e9U, 0xbde47ca0bdf5b787U, 0x3e2fab5a3df3d129U,
  0x3d96f87f3d569264U, 0x3d2ee9373dfcb2d3U, 0x3e746ae6bdee179dU, 0x3d0c7183bddd5cb6U,
  0x3c20d6a53d2ce52bU, 0x3ca3a43dbe388e6dU, 0xbdc0576cbdcb1a0aU, 0xbddee002bdaf8a08U,
  0x3cd214ab3c640dfcU, 0xbd8d291b3d3275c3U, 0x3d964001bcd68197U, 0xbddffa33bdf40eacU,
  0xbe190a03bd00bf75U, 0xbdf4c5ffbe2e8d96U, 0xbd50e02fbe091fa0U, 0x3c2fcaacbc2501b3U,
  0x3dab014fbdb64cacU, 0xbdf7584fbcb4d93cU, 0x3d786fadbd5b4132U, 0xbd9db57fbdb33b8fU,
  0xbd1acf8dbe1c2caeU, 0xbd8575e5be592ce9U, 0xbd8ed21cbe1ee4e4U, 0xbdc2716dbe301a13U,
  0x3dbbde49bd8c68adU, 0xbe123467bdb25809U, 0x3e1928a0baf23ea6U, 0xbda02bdfbd6497d7U,
  0x3d64df31bc933c39U, 0xbde1818ebe381008U, 0x3bdba888be01a108U, 0x3c3664b1bd3f145fU,
  0xbd5114d7be2da18fU, 0xbd9c26c9bd719e92U, 0x3da413873cbb9d28U, 0xbd61d55fbe2e9576U,
  0xbde85529bd2b42d2U, 0xbdf892b1be616d02U, 0xbe2d106f3cf00768U, 0x3ca4abd53c0a7af9U,
  0xbc530d61bcff54fbU, 0x3c7a552dbdfd9f2eU, 0xbd9abbbc3dbfd1f4U, 0x3d79fe27bd11a72aU,
  0xbc66a161bdae1909U, 0xbde90f15bd83ed7bU, 0xbd3a3c1d3d792990U, 0xbca99ea03cc49cb2U,
  0x3df0a9cdbd2319beU, 0xbdc1444fbbc53dcbU, 0xbd7d7bd33da37c68U, 0x3a1417d8be712a1bU,
  0xbe8c8df53accc840U, 0x3d8c3506be84871aU, 0xbe63e8a5bdb0113fU, 0xbda45625bdd81081U,
  0x3e058678bd86e380U, 0xbd9140bf3d54a14dU, 0x3c04481b3cc80a8aU, 0x3dc406fabe250c15U,
  0xbe316301bd131d5aU, 0x3d6930e4be52e30bU, 0xbd86427fbdbcee41U, 0x3da47e39be842feaU,
  0x3dd396033d95fe24U, 0xbd906746bd130c57U, 0xbd0b756ebdaf68acU, 0xbd1e4980be9a3fd7U,
  0xbdc91903bddae7b0U, 0xbe01a6f9be08f51eU, 0xbe52989abd80f628U, 0xbd0bc7a8bdd61168U,
  0x3e15d47ebd951184U, 0xbe738cea3dffe424U, 0x3c18f8a23cebe9adU, 0x3e09889fbe2cceaaU,
  0x3c8b52babdb611e3U, 0x3d88e5a7be6f5a3fU, 0xbd170a993d6cef34U, 0xbda194cbbcc3caecU,
  0x3dc13145bc693655U, 0xbdcadb253e5f38d2U, 0xbdad40653e12506dU, 0xba2bf3b5be8f713aU,
  0xbd9c3f8abe563db3U, 0xbdbe70893d4dade6U, 0xbdd60f0c3daadfaaU, 0x3d0e0dddbbd63c0cU,
  0x3dde0e783d1b1c56U, 0xbd9017ea3e15daabU, 0xbdf095cb3cce7cb4U, 0x3ddebdbabeba11fcU,
  0x3d47cc49be42ce9aU, 0xbd1501103d1c3874U, 0x3d91171f3df2eb46U, 0xbc0bd63ebdeee2deU,
  0x3da7beec3bc67b5aU, 0xbce885613e3e96b0U, 0xbe29752bbcfc8dc3U, 0x3de16566befe5273U,
  0x3df51869be26137bU, 0xbc9869cdbde903baU, 0xbdf58ed53d5933a2U, 0xbd69c002bcf52cd3U,
  0x3da475be3dc16cadU, 0xbd2523b23df34a3aU, 0xbdae8a7dbdaf2cd7U, 0xbd47c864bed9a769U,
  0x3e183c42bd6d2193U, 0xbda36eadbdce71a3U, 0xbbb13ca43dd2bff7U, 0xbea012c83ce5ba2eU,
  0xbd96260d3e12d28cU, 0x3d9189d2bcdef7e3U, 0xbdd842afbd266176U, 0x3e011d73be95d9e5U,
  0x3c6aba96bd57ccd9U, 0xbde48c6abe20b52aU, 0xbd9a65443e58f90fU, 0xbdbc6582bcb13292U,
  0xbdd38fd1bc49c51aU, 0x3e3cb655bc40578eU, 0xbdaa2280bddcb3adU, 0x3d82d2e1bdc2bfb4U,
  0x3d9246ccbd6edc45U, 0xbe004584bd58fdfaU, 0x3c7bb3603d2bdc93U, 0xbe8c8d28bdb68327U,
  0x3cdee8943e986fdbU, 0xbd1b49993da197bfU, 0x3dd03213bda8086fU, 0x3e066f37bd336e48U,
  0xbd8b9af63d28a133U, 0xbdab69c3bd932d70U, 0x3da0020d3dc96ea4U, 0xbde80fb7be67ff66U,
  0x3d9ea8ce3e99e971U, 0xbb10704a3c8065f8U, 0x3e313637be41ca15U, 0x3dd90d76bd835618U,
  0xbc94bfb8bcd9f13aU, 0xbe157a9cbd19d4cdU, 0xbd25fc033df2fc1eU, 0xbe57f24abe4203f8U,
  0xbde654c23eb1f70bU, 0xbdc6ea67bd46f754U, 0x3e1e4178be4fe9bdU, 0x3e80c6f13d8dfd03U,
  0x3cd6563dbd82e4e7U, 0xbe85a93c3db84b34U, 0x3c9a3315be0a16d5U, 0xbedbfb41be58fea0U,
  0x3d3a5ce43ec23e80U, 0xbe860d95bdf29be9U, 0x3e121e55bed05ec6U, 0x3e9084303ba77f6eU,
  0x3dab1785bd3e0b5dU, 0x3caeed84bd4e59b3U, 0x3da4d7bf3afcae54U, 0xbd556e713cf0c172U,
  0xbd0beb1b3e6e8bbdU, 0x3efd98b43ef24792U, 0xbd2edfeabd4e625aU, 0x3ebb5aa83ea4ba4fU,
  0x3ef05823be714502U, 0xbe2b51aebe3ab628U, 0xbc109d8b3ef1c4a6U, 0xbe9c3b663e1ccf0aU,
  0x3ec0a328bee7b499U, 0x3e20cf60beade404U, 0x3ea048c0be97e763U, 0xbf41268bbe5b6d91U,
  0x3eb8d107bea9a4c6U, 0x3e83cee73efcfb19U, 0xbe9eefd5bf29db15U, 0x3e98dc42bf1011fdU,
  0xbdd4db6cbed063acU, 0xbf6baba93ec19a84U, 0xbf7036d63ea82f33U, 0x3eae0efdbf2ce35eU,
  0xbf75b8c73f1aea7eU, 0xbf199e533e9306bfU, 0x3cbce6ab3e9c3bdeU, 0xbecbba49be9ccd3bU,
  0x3e3352cd3e9882cbU, 0x3e5c3a0dbe7ee15bU, 0xbe971ea2bda4cdfbU, 0xbeea3b883ecc8c87U,
  0xbe529f95be27090eU, 0xbdac0e9ebed49640U, 0x3ec34b7ebf2211d2U, 0xbe9539423e2dc659U,
  0x3deb22513ec16868U, 0x3e5577403eb84dfcU, 0x3deec660bda03cc7U, 0x3e8623d83d3b83dcU,
  0x3f63e217bf46629cU, 0xbdcfc567be2fb766U,
};


ai_handle g_network_weights_table[1 + 2] = {
  AI_HANDLE_PTR(AI_MAGIC_MARKER),
  AI_HANDLE_PTR(s_network_weights_array_u64),
  AI_HANDLE_PTR(AI_MAGIC_MARKER),
};

