/**
  ******************************************************************************
  * @file    network_data_params.c
  * @author  AST Embedded Analytics Research Platform
  * @date    2026-04-27T17:17:44+0200
  * @brief   AI Tool Automatic Code Generator for Embedded NN computing
  ******************************************************************************
  * Copyright (c) 2026 STMicroelectronics.
  * All rights reserved.
  *
  * This software is licensed under terms that can be found in the LICENSE file
  * in the root directory of this software component.
  * If no LICENSE file comes with this software, it is provided AS-IS.
  ******************************************************************************
  */

#include "network_data_params.h"


/**  Activations Section  ****************************************************/
ai_handle g_network_activations_table[1 + 2] = {
  AI_HANDLE_PTR(AI_MAGIC_MARKER),
  AI_HANDLE_PTR(NULL),
  AI_HANDLE_PTR(AI_MAGIC_MARKER),
};




/**  Weights Section  ********************************************************/
AI_ALIGNED(32)
const ai_u64 s_network_weights_array_u64[29042] = {
  0xbe671795bde14982U, 0xbe8cbf79be4aef15U, 0xbf0541bbbdb36c94U, 0xbe30a3bf3de57df1U,
  0xbe3dddb1bdea61ebU, 0xbed88f7fbde8e4e4U, 0xbcea6aafbd973ea3U, 0xbdf82c61be1d9e2bU,
  0xbebadc0e3cf85bf0U, 0xbd722d1ebcee31f6U, 0xbebad0c0be23201cU, 0xbeb28b8dbe085955U,
  0x3decdef3bdb94db2U, 0xbe851a9abeb6edf6U, 0xbf160abe3c09d7cbU, 0x3e841020be011711U,
  0xbd0dae6d3dcfb6abU, 0x3eefe869bed5409eU, 0x3e51d078bd721477U, 0xbd1fc669bcc3f568U,
  0x3ec06d98bf04348cU, 0x3e3d69cdbdde3f21U, 0x3c1375123c16e5a3U, 0x3e8ae06fbf1da8bbU,
  0x3e685fbbbd6765f2U, 0x3da05bfb3e024871U, 0x3eb7e2b1bf1ea993U, 0x3e6f09e1be5603c2U,
  0x3e795071bd88164eU, 0x3ebf4de7bec5ea7bU, 0x3e764bd93e46199aU, 0xbdb907753e6ddd04U,
  0xbeca58533e341d90U, 0x3e837e753e84f63cU, 0x3c9cec733e057c33U, 0xbe59600f3e42d110U,
  0x3e9d5daa3e48ee45U, 0xba84426c3db5e32dU, 0xbe4bea173e2e9fb8U, 0x3e2418893e57dcc9U,
  0xbc20e0223d6b71d6U, 0xbdde90c63e39c519U, 0x3e6e52c43e7ad6faU, 0x3dac66413ea7aaabU,
  0xbdf939d53e45a569U, 0xbc4f5bfdbd04dda1U, 0x3dc54f153e725cd7U, 0x3e95cab83f956cfcU,
  0x3c8fe7eabd937142U, 0x3e6d23df3d43573eU, 0x3d9069463f7d8143U, 0x3df54d7e3cf02763U,
  0x3d3239613d2e38f8U, 0x3daf4c7c3f1ad170U, 0x3ce040e0bc90fb25U, 0xbb15334b3d023ed2U,
  0x3e8d54c93f554b2cU, 0xbc8b69f63ccedca7U, 0xbd227fc23d929c74U, 0x3e5283003f357f3fU,
  0x3e25c45a3e3ab266U, 0xbd482be9be0012efU, 0x3e3da5e3be760c99U, 0x3e97daea3e64dee5U,
  0x3c4bfe3cbe2ac932U, 0x3e9fdcf33d1b35c7U, 0x3eb330ed3e7ab37dU, 0xbe020dc6bde6b4aaU,
  0x3e2ef20f3e1716feU, 0x3eb5a9673dc80a63U, 0x3d9359613bd719c6U, 0x3e737ce1bdc38e65U,
  0x3ec0e4bd3e8bc77aU, 0x3da84da5be5b6c2cU, 0x3eb4ebcd3d01f6faU, 0xbe5bf5a93e54583fU,
  0x3ed6d9b0bd559d5aU, 0xbeb9be93bec7eb04U, 0x3d4bcf8e3c7b66b4U, 0x3ddda7ecbe2f141eU,
  0xbf0a08f0beba28c3U, 0xbd6333993d3da5a1U, 0x3ea85f32bc2505d8U, 0xbed3e0cebeef286eU,
  0xbe178dfe3c18b2cbU, 0x3e134b83bd95859dU, 0xbf07043cbf2ba6deU, 0xbe00d504bbb1cc7cU,
  0x3e0dff92bdc40904U, 0xbf0f00b8bf503e3bU, 0x3cb8ccacbe52cf5cU, 0x3ebd03043d032f0eU,
  0x3dbb0008bed0f1d9U, 0x3dc96531bd13ede0U, 0x3efddb383c81273cU, 0xbdba19a0beb960d9U,
  0x3e2984bdbe35dfe9U, 0x3f094aa63d9405c9U, 0xbdf93fcebebaa54fU, 0x3dba2c7fbcb46df9U,
  0x3f1731243e20b776U, 0xbe569b21bec18efeU, 0x3e433294bd36add8U, 0x3f0b9b1f3de1064eU,
  0xbe7998bcbef868d0U, 0xbd11378bbe7d555eU, 0x3c47ff4d3d6a4f92U, 0x3e0682a03d29e850U,
  0x3e06994ebea4fb19U, 0x3dc50acb3db888e2U, 0x3e78a779be622503U, 0x3ddf722fbeb4bb6bU,
  0x3e3ea2523d0c762cU, 0x3e2e8b89be2795ecU, 0x3de10c3dbe87f9f1U, 0x3de3b5e33d8ecf09U,
  0x3d2f9ffbbd21eb51U, 0x3e59d3f1be82d528U, 0x3ddeae83bc5ecee8U, 0x3d014bfcbe481e18U,
  0xbe48468e3e03e050U, 0x3eb590ca3b8333bcU, 0x3dadc17fbdb2acc2U, 0xbe4b89f83e38baf7U,
  0x3e535bbabbae9453U, 0xbd53fd63be5d06efU, 0xbe2cdfb13d382c92U, 0x3ea67a91be0a6dbcU,
  0xbd875b26be9f9d92U, 0xbe2fb4a73d1d35fdU, 0x3e861386bd6e2563U, 0xbe1d9a4fbef73eecU,
  0xbe5ff3483d3d8b73U, 0x3ea0923f3d50e154U, 0xbbd61a66bf207365U, 0x3e7c99303e6b34c0U,
  0x3e7cf245bd7cce26U, 0x3e8fb028be7d8290U, 0x3e4ab4ec3e751cb3U, 0x3c7b6b0b3d9ff5fcU,
  0x3e8e6caa3e3d583eU, 0x3e8740c83e1947ffU, 0x3e89ea25bda5577bU, 0x3e9124df3d779e70U,
  0x3e962a2f3ea9b6f3U, 0x3daf6da43d20099eU, 0x3d1ce52d3e262435U, 0x3e49722e3e40e000U,
  0x3dc55f3abcf39357U, 0x3da8128dbd57ace0U, 0x3eaa1d99be19f139U, 0xbd982e103e659098U,
  0xbe20e5883d2dea58U, 0x3e38ff4cbdf39ae3U, 0xbccecf663e1843feU, 0xbd6f7f90be87b303U,
  0x3e95e231bdc877d3U, 0xbb2d154d3e701746U, 0xbd77ddfdbecd46feU, 0x3eccbc38bd1c0ff2U,
  0xbdc6e71d3e8f5b50U, 0xbd5c307fbeb9e9baU, 0x3e976997bd2143b0U, 0xbe6d8e603e5e2118U,
  0x3e172534bf0075d3U, 0x3d2c4fc33caee82cU, 0xbe8b5252bdba14e8U, 0x3e2b9f7ebd5e09f8U,
  0x3caeaee7bb17a438U, 0xbeada1e8bd93d510U, 0xbcfbcce0bea25b2fU, 0x3c05669f3c3f2cdeU,
  0xbe9cb9e43d85706eU, 0x3df1a1e6bf024040U, 0xbc42b1343bfb7a0cU, 0xbf0d25663df773abU,
  0x3e11ef2bbf271760U, 0x3e41a26d3c997ebbU, 0xbeee56613e3a7ab7U, 0x3ed24477bf7eca64U,
  0x3d133917bd5ddaafU, 0xbd856715bedfe88dU, 0x3ed5c516bdab8752U, 0xbb74e3773d9f5be7U,
  0xbd31544abeae149dU, 0x3e6c01eebd0ae69dU, 0x3e067436bc73acc7U, 0xbd06ec93be48ae92U,
  0x3dddfb1bbde43b5fU, 0xbd85101ebd9470c3U, 0xbe0c1284be76de8aU, 0x3e90d17e3e2d0654U,
  0x3d5dedab3da82d72U, 0xbebc45fdbecf18a8U, 0x3f181c2dbcb9811bU, 0xbc57637f3b80e61fU,
  0xbe297129be1fc03cU, 0x3e313eefbf45158cU, 0xbc46cc023e076760U, 0xbe9a16433d395916U,
  0xbdcc5bf0bf651919U, 0x3dc2aea33dc72478U, 0xbdb60e9fbd41ae46U, 0xbe63be45bf20c530U,
  0x3de0cb3c3d68b0fcU, 0xbe0b883f3da43651U, 0xbd3984d0bef2fe82U, 0xbd52fb65be071d4eU,
  0x3dde7484bd0af356U, 0x3e840d16be25b257U, 0x3d0030d6be48f5a7U, 0xbea8793fbe38384bU,
  0xbdc7f3a33dc6b61cU, 0x3d2e087bbe863ee9U, 0xbe3b92f8be90fbf3U, 0x3c55b57e3d9efdedU,
  0x3d9f81bebe289ebaU, 0xbb31ec42be7df59eU, 0xbd8aa1543e2a339dU, 0xbd67619cbe994877U,
  0xbdce3dc4be3829f5U, 0x3d80411b3e215f49U, 0xbd3f5600be9ef400U, 0xbab8c9a7be767396U,
  0x3d871183bc79acf3U, 0x3cfa4a5cbe972347U, 0xbd8af19c3dfc1a71U, 0xbd9e3c6d3e8379b9U,
  0xbe1d59f2bebb5b0fU, 0xbdb1acec3e5ed520U, 0xbc84cbef3e142c4dU, 0xbd5c45cabec3de07U,
  0xbdbee1523c4db023U, 0x3c5501983dbf3fceU, 0xbe266114be175fa5U, 0x3def9a5d3e3a4c35U,
  0xbd049553be5e0826U, 0xbe6cf797be2dcc56U, 0xbd84ff0abb20847eU, 0xbe03864bbe128054U,
  0xbe4cf4e83d93c689U, 0x3e2c6e49be280e58U, 0xbe7000a0bdb5099dU, 0xbd7898e13ce95330U,
  0xbe095bf9bd72c57cU, 0xbee2cb16be8d3893U, 0x3d237fdd3e4315a5U, 0x3e0ec855bd9bb557U,
  0xbea7413bbe0a9606U, 0xbc7532d63d88cdb2U, 0x3e1b65c6beb0aa63U, 0xbe0dff3fbd811b2aU,
  0x3ce033cd3dbb4879U, 0x3de898d7bec5f968U, 0xbeb8b78fbe3cc7b1U, 0x3da8986dbe316443U,
  0x3d25031ebd8b575eU, 0xbf0f6c3d3f152821U, 0x3decf6eabd64a370U, 0x3cf681873c2d3b8aU,
  0xbede0f383efb19acU, 0xbddddd11be1917bdU, 0x3d0925acbc1d14f2U, 0xbee20f003e99cd95U,
  0xbd73323bbd9969dfU, 0xbdf0ad743cb67130U, 0xbef8e85a3f0c3343U, 0x3e08ac19be138961U,
  0xbe3f9320bde4ad91U, 0xbf03944e3f2172d8U, 0x3c92b55c3df61d69U, 0x3e82ee2a3dc63a72U,
  0x3f2d84df3ee824b9U, 0xbd29dca33e2c2c80U, 0x3e9c26903e668ad4U, 0x3ec945853dc53cc3U,
  0xbe081e623ce8ca76U, 0x3e82ff883e68be9bU, 0x3ec9a147bc0f36d0U, 0xbe032a42bc7cbfaeU,
  0x3d5da36d3e85e529U, 0x3f35a8173c23f656U, 0x3d8ce78f3dc650aeU, 0x3d8f87043e89b3eaU,
  0x3eb35869bd0f2b6bU, 0x3ebc2440bda676adU, 0x3d7431493eb870adU, 0xbdbffc46bd0cb456U,
  0x3ea3b8813e1566e1U, 0xbd45f0083e241c43U, 0xbcdc159cbd604557U, 0x3ec2b0a83cd160eaU,
  0xbdc2545e3e67baacU, 0x3dbc92593df5d9d7U, 0x3e84b8403c761f97U, 0xbe16d8da3e9a79d4U,
  0x3e48182e3d2063b2U, 0x3ebd80193e7c0a09U, 0xbe530b033e575a05U, 0x3c269656bbdfe8b5U,
  0x3e22f76a3db67fa9U, 0x3cd5fde63e3bf700U, 0xbf10dbb5befbee68U, 0x3da702c3bc2ef4b6U,
  0xbe0b592c3dcdd543U, 0xbe53e56dbea6aa78U, 0xbe023d613ded53e1U, 0xbe840057b9cab0a6U,
  0x3dedfbb03dc14b36U, 0xbd77a4f0bd91c28eU, 0xbdb231d7be71c85dU, 0x3efd29c83ed40938U,
  0x3cba8878bd7e0881U, 0x3e3e9decbe28bdf1U, 0x3efdff413e1e6b2eU, 0xbe8bf96dbe61b225U,
  0x3d5415203e0bf0c3U, 0xbca7aa39bd9db6c6U, 0xbe6fa33dbd0b6c82U, 0x3e23804b3e9c53c7U,
  0xbd4f870cbe104342U, 0xbe7e293dbe3341f1U, 0x3e8d9c4b3ea55aabU, 0xbe391dfb3dd959f0U,
  0xbed0dfa63bcdec12U, 0x3e1bdf403e4437c0U, 0xbdcaeed73d46daa5U, 0xbef436573c10df1cU,
  0x3e87b39a3ea88645U, 0xbd83a00a3e05d575U, 0xbcf759d03d939705U, 0xbf21eaf33c6dcd2fU,
  0xbf5fa2073e9a43f8U, 0xbdbd04303d5bef24U, 0xbf075cf5bda4867dU, 0xbf1a59173e9564c7U,
  0x3d50d0ea3df9c2d3U, 0xbe911082bdb6d5adU, 0xbee7366f3df5bd1dU, 0xbe18e0b5bce61bbaU,
  0xbe9c64e23e061c41U, 0xbf21e0303de7ab78U, 0xbd9db7cf3d5afb00U, 0xbeb780653e06238dU,
  0xbf360c29be30b8d5U, 0xbe0b02c5be378533U, 0x3e2142ed3cf717b7U, 0x3e40f769be13b8d8U,
  0xbc7fa42ebe2ae578U, 0x3dd08390be5e7a6cU, 0x3ea7f1f2bd0f09cfU, 0xbc9e4656be0d085eU,
  0xbd36156cbe3a5bccU, 0x3da8c1393e4d30fbU, 0x3e2d1de9be7c132bU, 0xbd0eed54bdd2f6e2U,
  0x3dac50653e9c5086U, 0x3e38ef4cbe71a24cU, 0x3e4cb4c8be0e5b39U, 0x3ca2b8313e81c016U,
  0x3e61b6debd93ce6cU, 0xbddd8a93bdaff7f2U, 0x3e21bfa6bc253bd7U, 0x3e669c9cbded76c2U,
  0xbd065978be42adb4U, 0x3e3ba67bbda4666bU, 0x3e7442343cf1c30eU, 0x3c360507be3ff048U,
  0x3dbcbb87bec556d6U, 0x3e0b8e2cbdacc11dU, 0xbde5c6fabe21ecf6U, 0x3ebf9eacbee520d5U,
  0x3e0b9c393cb48d65U, 0xbe074341be297b4dU, 0x3ee70cbebef35717U, 0xbdefc2093ea55715U,
  0xbcc35ad53dc7c878U, 0x3e64c6fe3ededf34U, 0xbe6d346a3ea8d15dU, 0xbdfff8003dc8ab95U,
  0x3e5454f23eb8ff9aU, 0xbe1dd9363eca0bafU, 0x3e3f22333e273d83U, 0x3e3f7ab13e7cf06eU,
  0xbdcb5d233e80b368U, 0x3dee6f6f3ddabf2fU, 0xbd90d0f2bd94e6ffU, 0xbe31b7543ecdb408U,
  0x3d27629d3d0cc707U, 0xbe1d97d5bd9a57daU, 0xbd91043cbd9675c4U, 0x3f1eba75bde15f1dU,
  0x3e99fe33be924608U, 0x3bf8e354bd1121d6U, 0x3f161ebe3d856601U, 0x3ec45ab2be5d9b8cU,
  0xbd5c00bfbdfb40ecU, 0x3f09d47abe051197U, 0x3e887454be7f8094U, 0x3dae8795bddf3735U,
  0x3f579a943cb49b3aU, 0x3ee0075cbe4c946dU, 0x3ce7684bbe45d8b8U, 0x3f7bc21fbdbc15e2U,
  0x3eca0480be5c4a81U, 0xbe88f3163b88f910U, 0x3e5fc69cbe4c9cd7U, 0x3e1a21683e84633cU,
  0xbde13b09bc9d98e2U, 0x3d858885be37d924U, 0xbe1b95ce3d9f058aU, 0x3d2742c23d99e240U,
  0x3c93517dbde648e2U, 0x3ca4b8713ec30837U, 0x3d323cfbbdca05a5U, 0x3da8be4cbd82517aU,
  0x3e32426f3e6e141cU, 0xbd0fb602be07b40eU, 0xbe805f073df00bf1U, 0x3de114393e99f767U,
  0x3e2588a33de41960U, 0x3e180ce13dc3acafU, 0xbda3f839be2d2bc7U, 0x3e0f846a3e7e5064U,
  0x3dfc6cbcbd9783a2U, 0x3c13af7cbdb7a250U, 0x3e2fcc463e8b1ae8U, 0xbcc2be893d996a9fU,
  0x3d8f6acdbd584ef3U, 0x3de6f8843ec47b0bU, 0x3d467f433d16835dU, 0xbb71ba773e3ca3d3U,
  0xbdaaacaf3ee3f854U, 0x3e387cfb3cdd31bcU, 0x3dca0e153d3f15eaU, 0x3d52344dbe6fea0cU,
  0xbeaedddfba968081U, 0x3ec5a60a3e8db947U, 0xbde34125be880cf2U, 0xbf1382113e17e7e8U,
  0x3ee1e0803e4a92aaU, 0x3c80cda1bd8a5be6U, 0xbf11e3e9bd97d28cU, 0x3eaf88fd3d7d51a3U,
  0xbde7e415be8f609bU, 0xbf1e65e33db608e7U, 0x3e8df978bda1ab45U, 0xbd19cbdabdd197ceU,
  0xbf450410bcc86964U, 0x3e8d95903b0ab962U, 0x3da867d43e39b1b4U, 0x3e66a3ebbd30bb42U,
  0xbe09f05f3f5344c9U, 0xbe0e07273d9ca58aU, 0x3e955b143da52081U, 0xbe8b0ef53f4983ebU,
  0x3dbe67cfbd9c5239U, 0x3dc4ecfdbe14cf41U, 0xbe2d585c3f2600d1U, 0xbd1f4b93bd58c240U,
  0x3e49938cbdb3ac00U, 0xbed609013f2b9914U, 0x3e0faeb33cbdc91bU, 0xbe2115bebda21206U,
  0xbec8fc2b3f311b96U, 0xbddc069a3e7af212U, 0xbe7c9b7a3df1f8cbU, 0xbe66e075bd8e448bU,
  0xbd9e00343e6a0330U, 0xbe08558f3e599850U, 0xbea7ac56bd3960acU, 0xbe07fa943dfa069eU,
  0x3d6782203e9e3dfeU, 0xbeac0d203de3ba7cU, 0xbe1094993e4ed68bU, 0x3d8465c43e8f854fU,
  0xbe98ecd5bd296f58U, 0xbcd094ab3d92a354U, 0x3db3bac53e1db78bU, 0xbe735bed3cd9b64cU,
  0xbe1ec8e03d43ea90U, 0xbebffae33ca158c8U, 0xbef6afcbbe0bae86U, 0xbe7bf973bd3c5d11U,
  0xbda920fdbdf8d08cU, 0xbdea1d533e0ad0d2U, 0xbd82e272be7e5dbeU, 0xbe80930d3d805e13U,
  0xbe67a3173e11ce94U, 0x3c6292d8bde4142eU, 0xbeb3e54fbde71d02U, 0xbec64b863d06ee3aU,
  0xbc88e1bbbe7d99d8U, 0xbf07fa92bd94e03aU, 0xbed5b517bdfc1751U, 0xbe3424f13e72405fU,
  0xbd4d198cbe0f5e92U, 0x3dc9782f3ed58e94U, 0xbe873def3e7c5918U, 0xbd0b86d1be05df91U,
  0x3d1623733e89fd35U, 0xbe8217ab3dc26b66U, 0x3d9ff649bdec03aeU, 0x3e0c3fe93d9498fbU,
  0xbea38e133e6a543cU, 0x3d8d3381bc8003e2U, 0x3c8e9a17bd1f6152U, 0xbe8399143e2564ceU,
  0x3e1c019b3d0cd2f9U, 0xbd1774c0be113372U, 0x3dc33ec0be29f6feU, 0xbed19c19be35e59cU,
  0x3dcf48ed3e313e66U, 0xbd7ae507be3f40e4U, 0xbf23c8d93b865170U, 0x3eb0c61bbb7f7a87U,
  0xbe0cc0fabe3f8ec4U, 0xbf0de147be012b56U, 0x3ebbd52a3d3f6263U, 0x3daef06abe088713U,
  0xbec0bf783dfdd20bU, 0x3e60f3d83d425962U, 0xbdcb95f9be339ae2U, 0xbf8d752bbe295b41U,
  0x3e937ac73d852797U, 0x3d43c93cbdbe6f4fU, 0x3e88590dbd396bccU, 0xbe7113df3e83be6cU,
  0xbdd8d6713db0f677U, 0x3e217bfabd7fce79U, 0xbef95b393e4bea9cU, 0xbdbbdd133dc43006U,
  0xbe986dadbdc5726fU, 0xbcaa7b97be211e29U, 0xbdf83cd33dfbbb44U, 0xbe34091abe73af7fU,
  0x3eb73abbbe88fa79U, 0xbd5d2c35be5707caU, 0x3dfdbbbbbe1646e8U, 0x3ebc1adbbd3ffebeU,
  0xbe154161be61896fU, 0x3d1b02a63ed2d417U, 0xbe9358f53e1984f8U, 0xbda8ea97bdbaaa05U,
  0x3e70053d3e5cf880U, 0xbd96d24f3de283ebU, 0x3dc5f54fbe3fcd78U, 0x3e844ec03e8466e0U,
  0xbd941208bcda1e77U, 0x3dbce41cbe078d7fU, 0x3dc680003e35d8a9U, 0xbd9a71ad3ce37f11U,
  0x3e2bf486bdd3a45bU, 0x3e10118d3e4a1304U, 0x3d04c80d3d8a798eU, 0xbe2ef47dbe0d2625U,
  0x3e10a29cbc75014dU, 0xbf4d4db53ec1e096U, 0xbbeaa3c8be0db201U, 0x3e114b803da02ec8U,
  0xbf326b073f12fae4U, 0xbd890a883d2045ecU, 0x3db394433dcc5c4bU, 0xbec0c2ca3ee2896fU,
  0x3cf8fae8be2b2898U, 0x3c472d2a3dfbbb9eU, 0xbeb5d2893ef88962U, 0x3d31c71d3c9d72ceU,
  0xbe3da6e0bdb8428dU, 0xbea22f3d3ea2f8a7U, 0xbe8dba37be0fba35U, 0xbea24925be186d4dU,
  0x3f01fb90be1cbc50U, 0xbea5b403be48ee23U, 0xbe43dff3bd3923a5U, 0x3e4b6d6ebe166646U,
  0xbde8e3bcbda6f3adU, 0x3d1809c9bd8409dcU, 0x3dc5bc65bde61ac2U, 0xbe6aa5d5be3c9528U,
  0xbe8319cbbe751334U, 0x3a990bccbe1475ddU, 0xbdf78458bd504db6U, 0xbec2864abc52c396U,
  0x3e51e728bebacc00U, 0x3e23a025bdc4ed8bU, 0xbebe9dd7bda80dedU, 0x3f1a8bd3bdcd96deU,
  0x3cea294e3ddae1a3U, 0xbe1f44203ce67c22U, 0x3f0ae9d7beaf6959U, 0xbd8f43063e9d7e8eU,
  0xbe05a27a3de1229aU, 0xbca592d73ccedc2aU, 0xbd987e29bd6e9ee9U, 0x3ef301953dbab148U,
  0xbedbf8303e89eef1U, 0xbcad28fa3dfafbd8U, 0x3e3a80d3bdb475aaU, 0xbef81edf3e9e0a83U,
  0xbda44eb8bee7da68U, 0xbbfba18b3ecb2d3dU, 0x3e3af8603f25b988U, 0xbd8690babe9e2833U,
  0x3de99a483d5a81f4U, 0x3e3d42153ee49c3aU, 0xbd8883f5be80a0e6U, 0xbdb049073de77f39U,
  0x3e1fb98ebdb81009U, 0xbdb9cfa6bd6ea1afU, 0xbd41834d3deabd64U, 0x3e1291a9be73c0a6U,
  0x3e1fc6b1be0d8d29U, 0xbe0fe2393e4f934eU, 0x3e4adb73bebdc842U, 0xbe1403273dc0decaU,
  0x3e810d4abdeaa856U, 0xbeb1bd7fbd59617bU, 0xbc6473ba3e610684U, 0x3ee3b6e8bdd335c8U,
  0xbed3d179bc16b563U, 0x3dbb363f3ccbe7bfU, 0x3ead17a9bd84004fU, 0xbe6fe1763e2d6edaU,
  0x3e2f733b3df3ddeeU, 0x3eb42812bd0d0983U, 0xbf0122ac3e12badcU, 0x3d7f9c7d3e172a48U,
  0x3f05b024be295cedU, 0xbef08a233e191e11U, 0x3e513927bee0d24dU, 0xbe62f1c13e383231U,
  0xbecdfd0a3d98014bU, 0x3e5a8b37be8febfcU, 0xbe421f443d87dfcfU, 0xbe24af473d5db787U,
  0x3e20e77cbe6eac65U, 0xbe28af463e1c8aacU, 0xbe2505eebe0324feU, 0x3e125742bdbad168U,
  0xbdfe88c53e8c50f4U, 0x3ccfcf25bd694718U, 0x3e97693dbe70ae6fU, 0x3dda86f43e3f3526U,
  0xbd8b3c27be7b347cU, 0xbe3f47413dae9c38U, 0xbe066501bd03924eU, 0xbe2d533dbdf75885U,
  0xbdcbffbc3e5f62e4U, 0xbe2f194c3cf5ee22U, 0xbe7956ad3ddea369U, 0xbd96f1333e381a44U,
  0xbe19ed263e88b1f6U, 0xbe9be5913db4d264U, 0xbe0840923d6a3741U, 0xbeab54183e56f2eaU,
  0xbeb9c194bd95893dU, 0x3ceabaef3e366cc1U, 0xbe998fd53d8e93f3U, 0xbed632a4bba4d0ddU,
  0xbdbb830d3b07a8cbU, 0xbe505519be185356U, 0xbe878de93eae1ab0U, 0xbe2f11a23d4346dfU,
  0xbdd5f79cbe51b88aU, 0xbe0969ff3e8cb4f1U, 0xbeac49bebd65a854U, 0x3c354b39bdedcb8aU,
  0xbe0937903dd74d8aU, 0xbedbc62fbde36cd1U, 0xbc43011abdb8ab77U, 0xbdd71277bdbf8ff5U,
  0xbec6b908bdcef2eeU, 0x3c87eca0bda59030U, 0x3cb9aad7bdb090a3U, 0xbe8c92b2be2f0b6aU,
  0x3dfc35023ed12cf3U, 0xbc148ec53ce77683U, 0xbe62fc53bde27ca8U, 0x3dd2c6803ed24f64U,
  0x3dddfb98b9a765faU, 0xbe2c6defbdc6549aU, 0xbd929b443e7c529cU, 0xbd4feda9bd063368U,
  0xbca8ca29b8a7714cU, 0xbdae53d23e90cdf1U, 0x3cc4ac52be1773d9U, 0xbd1dd1b43d2528a5U,
  0xbe2bfa803ed14eadU, 0x3dca0d2fbd828c43U, 0x3ebe067bbe4b78caU, 0xbda2cf403d02ee23U,
  0xbd02c9d53e1c18c2U, 0x3e78a39dbd969cabU, 0xbdc0e90a3cda5276U, 0xbd90bbb33c8b8768U,
  0x3e87ba3ebda85a2cU, 0xbdad17c3be17b2eeU, 0x3c988b873e283202U, 0x3ebd8475be3b8dbdU,
  0xbe0201a33d0d1bebU, 0xbdec3bd13debfe0fU, 0x3e902e29be62681fU, 0x3df78c30bca6b0dcU,
  0x3cb3bcd9be41603cU, 0x3d83957f3e39ecc1U, 0x3d993652be1a6d58U, 0x3f175b143e1fd93dU,
  0xbbe7a4433da2e18fU, 0x3d8e1d17bca71167U, 0x3edfe7f1bce1a79aU, 0xbdde8c5b3e5d601fU,
  0x3dccef1b3d81f6d0U, 0x3ebb6d66bad75e3bU, 0xbe2d2dc63e0d5e9cU, 0xbdf48fd4bd124dc3U,
  0x3f0ac880bd223f8eU, 0xbe2edf2d3dbc0acdU, 0x3cf33e37bc9abae1U, 0x3f30abdebda3be93U,
  0xbdaee7743e40eac9U, 0xbe2b82b1bea06cadU, 0x3e23d97b3c39c393U, 0xbd44f18f3da99c83U,
  0xbe4557c7bea4ac07U, 0x3d5739853e125652U, 0xbe7e7e173e5e3f5eU, 0xbdf0b5bcbea90b17U,
  0x3d63d12b3e2f7f6dU, 0xbe1472c53e84cf3bU, 0xbd812d55be602131U, 0xbddd39a83d922070U,
  0xbddd843a3e3cbcb9U, 0x3d3d5985be6a4189U, 0xbe8923c33e4768a9U, 0x3e51605dbe7ed36dU,
  0x3d574864bdc1ffe7U, 0xbe9289dd3e78ac96U, 0x3eabbb7dbe6acdf9U, 0x3e42b81fbc2a09b3U,
  0xbdd03abbbe4764a8U, 0x3ec17a2cbde30179U, 0x3d926b9dbc6f48ecU, 0xbd15454cbed3fe75U,
  0x3eee9bfdbcfaef56U, 0xbe048123be0c5e97U, 0x3ae4fb1abbe3e6f8U, 0x3e7b2532bd5a95e8U,
  0xbe1bbe623beab967U, 0xbd8861a73deb95eaU, 0xbc63193e3c5711c6U, 0xbdee64b9be16b44fU,
  0x3e550b2dbf8df67fU, 0xbd26f2bbbdafa462U, 0xbd385dbc3d5d2012U, 0x3d540de2bf9fa8e5U,
  0x3caab9e3bd4e051aU, 0xbb10da8d3db61de8U, 0x3e2442c6bfbc2a24U, 0x3dc696f3bd9bc25dU,
  0x3dd5377b3e1d6aa3U, 0x3e894b26bfc11a4aU, 0xbc15e35b3caa1ab1U, 0xbba3b87c3dcbba83U,
  0x3e56d1a3bfaad993U, 0x3dad75c83da39f75U, 0x3e738eb2bd81c9edU, 0xbf2dfbb03ed43d6cU,
  0x3df2441cbd9bfd82U, 0x3e5078a6bdfef26bU, 0xbf0b00ed3ed18d02U, 0x3e4290fc3dca3e76U,
  0x3e27d0adbde2ef83U, 0xbf0027173e9f1afeU, 0x3e331d54be30b0ceU, 0x3e0d882cbd3330a8U,
  0xbdeecf7c3ec8df92U, 0x3e7319efbc4d6768U, 0x3c8e736c3d981443U, 0xbda481cd3f0f3dc9U,
  0x3dd74050bee28b26U, 0x3c821efcbe0bd891U, 0x3e6a7c12bddedba5U, 0xbd63c3d6be3b55e2U,
  0x3d1be8e0be2c1798U, 0x3c0f4905bd32bc23U, 0x3ddc8b6cbea49bccU, 0x3e277608be1d9a26U,
  0xbd59225dbe25c54eU, 0x3e23755dbe8f04a1U, 0x3d51f477be883b12U, 0x3e1661d9bde2d7dcU,
  0x3e2e283abe6a2485U, 0x3e7773c0bea2f8feU, 0x3dc3f19dbdb84e78U, 0x3d87bd0bbdc2c788U,
  0x3e93f7843e5b9bd6U, 0x3b64b822be49a3c3U, 0x3e3c1cb03d7246c7U, 0x3e0073ab3e1efa22U,
  0x3d4e09fabeb04b10U, 0x3e68b40abd67e743U, 0x3e902b023e13788eU, 0xbe06a8e7bea71919U,
  0x3eb380bdbda75bc3U, 0x3ec5580cbd0ad730U, 0xbe49469fbe9eedb8U, 0x3e750688bd9199e6U,
  0x3e836fd53bea412cU, 0xba18d7d3bed185b5U, 0xbd7046a4be42048bU, 0x3e0ad83d3e7eacf3U,
  0x3e4f7ce43f962d8fU, 0x3defbf3dbbe3cc7dU, 0x3d4c7e483c67dfd8U, 0x3ec5cd883f56729fU,
  0xbe1f55aebdf39faeU, 0x3d7a81e23e035360U, 0x3e6ff1b03edb9559U, 0xbc3f99de3d6c0567U,
  0xbe31a7c63e0a4574U, 0x3e9fe7283ee25cdbU, 0x3cbd6a923cbf31a8U, 0xbeb4d65d3de95115U,
  0x3eb52fa53ea8b142U, 0xbdba5d9cbda3f593U, 0x3eec4ba63da24f70U, 0xbec572e0bdcf0c4eU,
  0xbe238616bd5efafaU, 0x3ee63f0e3d5c0b67U, 0xbeac0f533df62bd6U, 0xbd9b9504be9e2976U,
  0x3efcdfe3bd741a50U, 0xbe70f4e93e0966e1U, 0xbe07f356be640d6aU, 0x3e99cb853bbdf343U,
  0xbe1c34c03d298cdbU, 0xbe1fcae1bea1a415U, 0x3e02e378bcbea0e7U, 0x3d79a80ebdddc722U,
  0xbd8135d0bd2cc587U, 0x3f03012cbd6dd73cU, 0xbe7ddfa23f11c3b8U, 0x3dd750a5bc5bcbc3U,
  0x3ecbf6d9bcd4c801U, 0xbe10c5d03f242645U, 0xbd3246b3bd8b2a1dU, 0x3ed53b7abdef09beU,
  0x3da308803efacc7aU, 0xbd0bc7aebcfb9557U, 0x3ea7b7c5bdbdaf97U, 0x3e577e4e3eb24ae2U,
  0xbd89ff9c3d8f0e89U, 0x3edf1b013cf8f03bU, 0x3ea757353edc9ea4U, 0x3d810f9c3e381d4dU,
  0xbe50e2db3d210519U, 0x3ece685ebee5bf97U, 0x3d72d8873e5c541eU, 0xbf22fdd43cc40a2bU,
  0x3e25204a3d819a10U, 0xbc9e2baabe3c4b05U, 0xbdb10e55be0a0767U, 0xbda171a33f0489f2U,
  0xbdbf9559be2cefc1U, 0x3e9dc75fbe25895eU, 0x3a6b786f3e46c683U, 0xbe67355cbd32d049U,
  0x3eb226e8be85dba2U, 0x3db51e20be2eee5cU, 0xbe291e373e3cacdbU, 0x3ec6e1a03d5ba9f3U,
  0x3e938e833e51269fU, 0xbe2451fbbd48c35aU, 0x3ec091ce3e33f1e0U, 0x3f18d4743e2071e8U,
  0x3dfc28303e4947b4U, 0x3e894d443e838dd4U, 0xbc02ffef3e3705d4U, 0xbe0dc15b3ba68c36U,
  0x3ee783a63e92cb5fU, 0x3f01e5e93d67845dU, 0x3d5e0c6f3dcaf529U, 0x3f0fccc93e35bcb6U,
  0x3ef38fe23e20b116U, 0xbd9f5263be0a4a96U, 0xbe50d4393dd7538eU, 0x3e7e0ca23f8325d5U,
  0xbcc84f4abc40b160U, 0xbe88f3d43db4277cU, 0x3e879c8b3f1fe4fbU, 0xbe07a0f5bd3d7ab8U,
  0xbea3d3f53db2fdabU, 0x3e8591e73ecbded7U, 0xbe0b0a463d4db881U, 0xbe0b562a3e68a3a3U,
  0x3eb1b8533ebf85ecU, 0x3ce57185be0a5535U, 0xbf0a309b3d7c233aU, 0x3eacba783f175ea9U,
  0xbe2d340b3e772a67U, 0x3e9720923df33f7dU, 0xbea7437bbe3b4736U, 0x3d82d8cb3c688c32U,
  0x3de8b01c3d1f28eeU, 0xbeaaad0d3cbb21b0U, 0x3e0dd9c83e513b71U, 0x3eaf1710bdcdb536U,
  0xbe7c877c3db8d3abU, 0x3e8417ad3e5ca41fU, 0x3dbd2902bcccb3f9U, 0xbe83f7783e1b3f9dU,
  0x3e22a5593da7b484U, 0x3e931b0fbdb601c5U, 0xbe8546533e64756bU, 0xbe14f74ebde1554aU,
  0x3ce68e8bbe599da7U, 0x3ef61e533d32610bU, 0xbe51e855be26cc8fU, 0xbda4d688be31f1a9U,
  0x3e9389c0be874f7fU, 0xbe7f3d7abe717843U, 0xbc99f477be32b23aU, 0x3e430ab6be11dea1U,
  0xbe460089bca29a01U, 0x3e01fceebe16d67fU, 0x3e31aecfbc1a42dbU, 0xbeaa884cbe8c0724U,
  0x3ad903a3bcbed9bbU, 0x3d11d154bca6e920U, 0x3bcd2baa3dd1ff93U, 0xbe849c3f3d304988U,
  0xbca823fa3e2a753fU, 0xbded5f883e59efd3U, 0xbee49425bd463f03U, 0xbe67d976bdc661f1U,
  0xbcf5fc533e436adaU, 0xbec270f83df255ccU, 0xbd4f8eab3e0a90c5U, 0x3ab007a53e91a425U,
  0xbe9bdb993e5acb63U, 0x3d1f508ebe100772U, 0x3dbf7edd3e67bd51U, 0xbe7254c73ea3ccffU,
  0x3e91a673bd859d30U, 0xbe01c320be2413b1U, 0x3e93db093df2237eU, 0xbe64be42b98852bbU,
  0xbe8474e3bdef3a4eU, 0x3cc537f83d13314cU, 0xbe92049a3db626a4U, 0xbe424e6dbbd2a5cdU,
  0x3e22b8723dca9813U, 0xbd9e62e03ee73c55U, 0xbd715b49be45aa38U, 0x3e2e7b0d3ce5cdcfU,
  0x3db669bb3ed56f82U, 0x3ae63e09bd8ca333U, 0x3ea0ec263d48224bU, 0x3d5b14493e84b66dU,
  0xbe2aee19be3a2feeU, 0x3eb5ab49bdefc2d9U, 0xbbaaea67be828af2U, 0xbec575b23da1b736U,
  0xbedd03f7be8aa7e7U, 0x3d8ed260be405cd1U, 0x3f12853fbebada5cU, 0xbefd0e33bed8be81U,
  0x3d8e2363bea97566U, 0xbe8aeb1dbe6b7213U, 0xbe8486a2bde47fb8U, 0xbebe878ebe1e87f9U,
  0xbea2f77abe8fd86bU, 0xbee8c05a3c364663U, 0xbe229914bef7eda9U, 0xbec056463eb22343U,
  0xbe88c9b8becbcd2bU, 0xbec54f0bbc6d75acU, 0x3ea744a7bf032511U, 0xbdaf3be0be9a53daU,
  0xbe2aa09dbe9e0ac4U, 0xbe9ab609bebe3d48U, 0xbeeada44beae9b29U, 0xbea4c292bee75ec0U,
  0xbe971576be9cb44dU, 0xbe28da8c3df02b03U, 0xbe849f82beb40c11U, 0xbe9717a33e7b65efU,
  0xbdb7f0dfbda1af29U, 0x3e56fd13be5ab6a7U, 0xbebb9ff8bea6adbdU, 0xbebb9c24be9a5b5bU,
  0x3fce7d91405f9303U, 0x3fecf85b4014be14U, 0x3ffa380d40441509U, 0x405118f03ff3e793U,
  0x4094b0b140944fb2U, 0x3fb2d551400d740bU, 0x3fb5314c40897caaU, 0x40ff0ded40cc3a84U,
  0x3fd6ae1740d860a1U, 0x40201d54402fd8b9U, 0x4038760f40b5db35U, 0x40f3b0ac3fe1a65aU,
  0x408c688a4042837bU, 0x415f2caf4002d86cU, 0x4016de7740ca1ea8U, 0x407a3e62400ce3a1U,
  0x410cadf1407dbeb0U, 0x419ba2bf40036421U, 0x3fb0239f409f7f72U, 0x40f71b43407be1d5U,
  0x40327d5d40831bd1U, 0x408b008c40416520U, 0x40a6ee544111ffb3U, 0x4038276a409e2bcaU,
  0x40603a43411fa12eU, 0x400b3b983f9dc962U, 0x3fd6ba2540bb2e99U, 0x402ddf293fdb1aa5U,
  0x410ca991400b2b29U, 0x3ff72c4340310ae8U, 0x40e01de1408ff417U, 0x406a19e840a3f0c0U,
  0xbe788f6ebc230c40U, 0xbf6e77aabecb01c1U, 0xbe5bacd6bebd7d1bU, 0xbe09eec4bf54084eU,
  0x3df39a50be896c92U, 0x3bb5ce00bf35d580U, 0xbf66788e3d637edcU, 0xbe829f4ebf0f0ce5U,
  0xbef610ee3dd46d54U, 0xbf3e99c6be34156cU, 0xbe9e0a003d761250U, 0x3dcf25a8bf19b13bU,
  0xbcea2730be617434U, 0xbca02440bed7353aU, 0xbec43ce33dd578a0U, 0xbef54f11bf3ff5b0U,
  0xbd81b5b43e91b4a0U, 0x3ea7e479be8d54deU, 0xbedbccaabeb261dfU, 0x3e105bb2be8bc85fU,
  0x3eb05f04bf1d2731U, 0xbe2bd375bf6573d2U, 0xbf274fa7bd716a40U, 0xbd4e8e6cbf0fb744U,
  0xbe6d8430bc669c90U, 0xbe3d6882bf793ff4U, 0x3bc5f500be2d3556U, 0xbe991545bf4673caU,
  0x39dcb000bf0f4665U, 0xbf4c1b0cbe87ad3cU, 0xbe1acce0bbfe8780U, 0x3e7509443db81cbcU,
  0x3d15451fbede0e19U, 0x3d9c0f7a3cd0c6adU, 0x3d013f3a3e6f8bf0U, 0x3d1030e13d6c9659U,
  0x3db3dcb73d136ef9U, 0xbe3427343e70ba36U, 0xbd22704b3e0fea23U, 0x3df518a2be134cb7U,
  0xbc281c59be13833dU, 0x3e4c80cbbeef020eU, 0x3e7a5efdbd5a38acU, 0x3e1e85f4bd7f067aU,
  0x3e03d7cc3ebaaae0U, 0xbca64c393dfe9870U, 0xbef957c33d38d25fU, 0x3ddde2b63ddc5351U,
  0x3e18cc03be6fa1e2U, 0xbe15bdd0beddeb9eU, 0xbd7dd4483de7507aU, 0xbcf8a0cabd9310e1U,
  0xbe306d6dbe1b777eU, 0xbb364a8e3daa4e3fU, 0x3d42907d3dd65891U, 0xbcccfa953cc3589bU,
  0x3e566cd93e315675U, 0xbe2710513cf3b852U, 0x3ddcfd113d91f18bU, 0x3e9120393a9d2609U,
  0xbe541fb03e3b85dbU, 0xbd62d302bf016123U, 0x3db7c2f9be98e7b9U, 0xbc6354f63e96549aU,
  0x3daaacbebf03287bU, 0xbdd28d3cbc7942cdU, 0xbd63ca783e3170a2U, 0xbccd88b53c3404ffU,
  0x3e806df93be1c39eU, 0xbe318c343e6e7bcaU, 0xbcc088893dbcf7b5U, 0x3e0b6406be0ea2c7U,
  0x3dba3a4fbe865292U, 0x3e66fffebef52a0eU, 0x3e9b45b93dff8064U, 0x3e4fdc3cbdb7b044U,
  0x3e0f4f553e92d9f1U, 0xbebf5004be386b95U, 0xbf180f5e3d46765cU, 0x3e0b81013e2b376aU,
  0x3e5266a7bece5188U, 0x3cc28683beee4ee2U, 0x3ca5e34e3e6ae704U, 0x3e1f7e9cbe0ec972U,
  0xbeef6938be012f6bU, 0x3e2a01323d4ef2c7U, 0x3e2a18b83e7b3977U, 0xbd86175b3dfbcd82U,
  0x3e2f43de3e58120bU, 0xbe640c553dbdf9b9U, 0xbd4341cb3e8a4109U, 0x3e71e53bbe0d1bb6U,
  0x3e394a89bdf27eb5U, 0xbe8d2d04bf289366U, 0x3e29c308becf42c1U, 0x3d42b3153e8de917U,
  0xbe1b225dbef26f0cU, 0x3d4cde933dacf5faU, 0xbef4d1183e916c29U, 0x3d31f740be8d3242U,
  0x3e268b3fbe1feb7dU, 0xbec1b8aebcfc3814U, 0xbe58ba9d3dfce559U, 0x3e5965bf3e015b5eU,
  0x3d9ff1d7be0ba2f1U, 0x3e5f0d0fbedbe7c9U, 0x3ea4ad423eb06d16U, 0xbccfa4d0be200a4dU,
  0x3e09ff663e4bc62eU, 0xbef88217be0beb4dU, 0xbf1119c93de30bb1U, 0x3e18d2bc3da40982U,
  0x3e93ebcfbe95e20fU, 0x3e7ede80bed643dbU, 0x3e5a571f3cef43fdU, 0x3de4436bbca7debaU,
  0xbeb592b33dd261c0U, 0x3e7453bbbd34be04U, 0x3e9100a33e6aa1e5U, 0xbe7184393dd46ec4U,
  0x3db775243ea34687U, 0xbea88eddbe22c39cU, 0xbd6d43d53e87cbb9U, 0x3cbbf5d13c36b4a4U,
  0x3e9c0e823de449c8U, 0xbe030aeebedc5d6dU, 0x3dd7a9febe86133eU, 0x3dda1ccb3ea32f39U,
  0xbe2ef0d33e37330cU, 0x3e8d5ef73e393201U, 0xbdd7f6d13e83f257U, 0x3e20b0dcbefb8034U,
  0x3e06a102bef8d386U, 0x3cce5b20bd49babdU, 0xbea16b8fbea38f39U, 0x3bad1c2a3e3b0b58U,
  0x3d76c7b23e2344cbU, 0x3e3d050e3dc03bb2U, 0xbd189f1ebd52fc42U, 0xbca61ff83e05d249U,
  0x3e3130a53be8b681U, 0x3d497670beb8feffU, 0x3ea3a7413df72135U, 0xbea4836f3e469dedU,
  0x3d647ce03e0a1d9aU, 0xbe92c61f3ec65c28U, 0x3e102035be5326b5U, 0xbe13377f3ead8a65U,
  0xbe05af423cb0afe0U, 0x3d4307073eba673dU, 0xbc65c1113ec46584U, 0xbe553b933e116cd2U,
  0x3dae71383e1aab15U, 0x3ca33befbd9cb1fcU, 0xbe0ff16dbe84a41aU, 0xbe8e86b63eaf8b96U,
  0x3dcf474f3b7848d8U, 0x3ec695083d26c676U, 0x3e022bd1bd585ce2U, 0x3b3137953e19c965U,
  0xbd336c243e832684U, 0x3eb2a65b3d193227U, 0xbe4801423e006207U, 0x3d9a5de6befb81b9U,
  0x3ddc44e7bf0a50cbU, 0xbd94b75fbdda8e52U, 0xbea3628bbe83fdceU, 0x3c2661533d18aaeeU,
  0x3e2ed1c63c812181U, 0x3df3aa3f3dfc65dbU, 0xbe5dda91bd8d5321U, 0xbe151c923e74142fU,
  0x3daeafd1be075f1bU, 0xbbb4abc0be8a8efaU, 0x3e645f863e247d48U, 0xbe8ba5393ea7ded9U,
  0x3cf576093e20ae4eU, 0xbebeff1d3e91b20fU, 0x3d31e622be8ed4c3U, 0xbe1b01583e936130U,
  0xbd36ae43bde62327U, 0xbd7ed5d53e394d2fU, 0x3df92f063e179a32U, 0x3d6015cb3d95d9ceU,
  0xbd09a5f93da5c17eU, 0x3beaaa3dbd755485U, 0xbdf71161bede958eU, 0xbea0dbe33e97cc97U,
  0x3d6360d03e465fe0U, 0x3ed93dfc3da22d80U, 0xbcd0e2a3bcdb1401U, 0xbd030efb3db85396U,
  0xbeb3b53e3dddbbb1U, 0x3ec697503d09ee0dU, 0xbdd5fa6f3cd800dbU, 0xbe24409ebf007fcbU,
  0x3e1a5d5fbe9eb768U, 0x3ba74a22beacad5cU, 0xbe548677be934e37U, 0xbe29ae18bde31932U,
  0x3e57ce0a3c82f394U, 0x3dadc5343e3c8da0U, 0xbe0a670cbd564adfU, 0xbe0b92de3e5b5a64U,
  0xbd8f21febe3f211cU, 0x3c8ef756be97ecf6U, 0x3e65450abd8bdeadU, 0xbe940f533edea79aU,
  0x3d8cf53f3e0f2898U, 0xbe8eb89d3ea8b804U, 0x3e3e207bbea6c0baU, 0xbecb08db3eb4269bU,
  0xbe536e81bc18474bU, 0x3cbc97513e8c55feU, 0x3e10948f3dcc4ba4U, 0x3d57229e3d3fb07bU,
  0xbe6a0b673db5dce6U, 0x3e171e533d09cf38U, 0xbe4d2fe2bf1bbfaeU, 0xbe1f33573eb902d8U,
  0xba80f34e3dffa666U, 0x3edda8e13e4a3790U, 0xbdafc997be560e60U, 0xbd93a3573e353953U,
  0x3e2f20d3be0e3a58U, 0xbf1b5f78be80bbd2U, 0x3dce05efbe2d69fbU, 0x3e34c0aa3d816e9bU,
  0xbcf1d3113e0bcaaeU, 0xbc87b8a5bd49616dU, 0x3c817f1c3df6fab7U, 0xbe123b88beafdfe8U,
  0xbeff47473e3154e4U, 0xbe37e93fbf137de9U, 0x3d80d126bdca35dfU, 0x3e5a4f983d428361U,
  0xbe948e043e4c31c7U, 0xbde0423d3dcb878dU, 0xbe3b2922be39d7f1U, 0x3c03a1b5bf13db4cU,
  0xbe0dd0c4bdef27d4U, 0x3e3277cabde0e06eU, 0xbe53735a3d1a1c0cU, 0xbe30591d3d9ef237U,
  0xba9b795fbe8f5fffU, 0x3e4a9fd1bd5193d3U, 0xbe5601183d333432U, 0xbe1e38c33c9e92d3U,
  0xbdf858adbe27ca7dU, 0xbebb80cc3e529daeU, 0xbd8504ec3d3ec09fU, 0xbd8b0f10bed806a3U,
  0xbed17a343db7ff03U, 0xbf04a631bded3679U, 0x3e3ae26d3e402a71U, 0x3d6f4193bddc0452U,
  0x3e0ca0a1be00e71dU, 0xbf2eb369bec593fdU, 0x3e76f868be2c6635U, 0x3e4afd223dfbb6c5U,
  0xbde549cc3e5e3b28U, 0x3c74f82bbe01357aU, 0x3dcfecd03d9bb9dbU, 0xbc15658cbe6872cdU,
  0xbeeca9053d7026a1U, 0xbe2541e0bf10a4dbU, 0x3e32c5ac3d4cb5a6U, 0x3e7feb2f3db63633U,
  0xbe030d833e1d1eabU, 0x3c8bd8103dd7db45U, 0xbdfcf8abbdda2243U, 0xbc93dfa3bf490dafU,
  0x3d025e6c3c7ff9cbU, 0x3ecfe6da3d87afc7U, 0xbe5d8183bdc69106U, 0xbedb61053ded0542U,
  0x3d2b3aabbe254c64U, 0x3e2695b3bdd5c93bU, 0xbdfef86d3cb60fd6U, 0xbdf304763cf2b181U,
  0x3c5686f1be9ff0e8U, 0xbe9e617f3e8b4850U, 0xbce37b203d324842U, 0xbda33462be97bf8bU,
  0xbe847fce3dc89390U, 0xbee15a80be048a2fU, 0xbc4eb9e63d986719U, 0xbe1252d3bd9ad908U,
  0x3e979080be7e364eU, 0xbf342cc1be91192aU, 0x3e394f1b3db0af54U, 0x3e3fdbf83e261c97U,
  0xbcd959f63e8583c8U, 0x3dc75e073d5fec75U, 0x3e378c023e9210eaU, 0xbe2a9370bea12c8eU,
  0xbf44ac873c28d088U, 0xbe4ccc79bef6d522U, 0x3d68fc7cbc58ae2fU, 0x3d60f49b3b383a74U,
  0xbe8977403ea58325U, 0x3d97af093e85a69dU, 0xbe25a1f4be26a781U, 0xbd2d20f4bf648f64U,
  0x3e5b84ac3e0a0e3dU, 0x3e81b94f3ccb7c42U, 0xbe99034fbb4b54e4U, 0xbec92c2a3d75fcd0U,
  0xbdabe9aebe3d2d2bU, 0x3e2db7913d65c00eU, 0x3b11e11f3d135809U, 0xbe42792a3dc1f8d4U,
  0x3d8d59e9bed2671cU, 0xbf13e9473ece82bfU, 0x3e087ab73d937264U, 0xbd5c6632beef7efdU,
  0xbed00ed9bc50add7U, 0xbecef6fcbd335444U, 0x3e19bf0abdcc7fb0U, 0xbc2cc09dbc95fd69U,
  0xbbd21649be20fbf1U, 0xbdf24aecbde5219eU, 0xbdc0da1cbc7629d8U, 0xbcd555a13e89be66U,
  0xbe2f3f0bbde962ecU, 0xbe1cb6c4bd82ef4bU, 0x3e3696da3e63eaaeU, 0xbe81ba893e10f077U,
  0xbe44bbe8be06658eU, 0xbea1733ebc0fea51U, 0x3dc71d4abe599486U, 0x3d1f02cc3e21de9bU,
  0xbbbbfc0d3cb00b78U, 0x3ecc52f53e1077cfU, 0x3bf0b13cbdf98dd8U, 0x3ea90767be2cce7fU,
  0x3d44200fbeceb8f8U, 0xbe8e878cbc8ae5dfU, 0xbe5e83e93da6c670U, 0x3ec2e4edbe100a83U,
  0x3e07b8f83e370883U, 0x3edea57fbe1e5095U, 0xbe617486bd74ece3U, 0x3d7aa56dbe2ebde9U,
  0xbe28f89d3ea5856fU, 0xbd6a0421bb03d64aU, 0x3dadad91bdbb3efeU, 0xbddaefa5bc3b7673U,
  0x3e89d0b53e9da22bU, 0xbda8b8ae3e86b22cU, 0xbced9aa13e09a775U, 0x3e17921abd947a94U,
  0xbc45d2b8bdd41e7aU, 0x3dfea0ed3ded40f1U, 0xbdbb19b4bdc6b7feU, 0xbd38f6a93e4b052bU,
  0xbe2481e43c40ac07U, 0xbaefcfb23d261681U, 0x3d0167863e86a5c4U, 0xbe0b10853edac13bU,
  0xbc91ce0ebe0ecbbaU, 0xbd147a3c3e1b0b56U, 0xbe0e5d03be0d4355U, 0x3e4785a03e826db1U,
  0xbcad827e3d529fbfU, 0x3f16afa93d069d5cU, 0x3c895314be0d1e64U, 0x3ea2481e3e299b5aU,
  0xbd1b9895be5e2e55U, 0xbec2989dbd1b05eeU, 0xbde454b53dcb1441U, 0xbd9fea40be7bbe90U,
  0x3e03d3823e17ead3U, 0x3eef2f0cbdbdf36aU, 0xbd313787be3e7a2bU, 0xbc56c621be098f80U,
  0xbe0709303e12c729U, 0x3e560f3f3dd66cbaU, 0xbd0f84fe3c79d7a2U, 0x3e3232e53e4b3652U,
  0xbe266ff23ec8a727U, 0x3e39edb13ce748dfU, 0xbc7b9df03e031670U, 0x3e5af2bcbd990c84U,
  0xbe0f5acbbe3a4a11U, 0x3d1c61183e886691U, 0xbe36ce5b3dcfb36cU, 0x3d1dbf663dcc76a9U,
  0xbeab321ebd1e7148U, 0x3d5237f43dc68871U, 0x3de7f5eb3e8be0f8U, 0x3d17395b3ec7427dU,
  0x3ddd93b0be931ec6U, 0x3e04533cbdbef7b1U, 0xbdbe0168be916458U, 0x3e7bfbc63eb1e17cU,
  0x3e255b1fbe01168aU, 0x3f49f08cbdb41923U, 0x3e580396bdc371adU, 0x3ed1c3263ddc0edeU,
  0xbd74991d3bf135cdU, 0xbf0c6a46bc6d2924U, 0xbdbb5bf83bb3d43aU, 0xbd92f7f7bd661241U,
  0xbe101bbb3d876501U, 0x3ec3a9fc3bc8f267U, 0x3d630cf5bdb3d121U, 0xbcb8a13cbd4f7a17U,
  0xbdb8f2153e0f621bU, 0x3e195b003d49761eU, 0xbe042dfa3ceca18fU, 0xbbedebe83e717e79U,
  0xbe6a54a33ea8d7abU, 0x3e8bdd39bca1e690U, 0x3d61f5a3bdc5e59eU, 0x3c254e363c9e7358U,
  0xbce02efa3dcb6449U, 0x3af358823e383847U, 0xbb9d3bd0be3c34e0U, 0xbdf005c63cbbbb4aU,
  0xbf11314b3b1de418U, 0xbd2557303e03294dU, 0xbd0e37cdbe803476U, 0xbde282513e5e31ecU,
  0x3e70c868bda2b1c6U, 0x3d6a4b81bea03a28U, 0x3e4cae48be6c5accU, 0xbdb6ea893f105c99U,
  0x3dab20033d716c05U, 0xbe70745b3ccd3b0eU, 0x3d849f79bea05402U, 0x3e72ac373ded6890U,
  0xbdff82043ea0916aU, 0xbec0884ebda8cd91U, 0x3d944b6e3e09ea6fU, 0xbe58a1d73d61062eU,
  0xbdca68c8bea09552U, 0x3ebbc34a3e76a098U, 0x3e354cbcbd195266U, 0xbe8892233d51bf16U,
  0x3e04e7dfbd23236aU, 0x3e0c5ecfbd9f753cU, 0xbdc99807be7293b7U, 0x3e8a2180be3c9165U,
  0xbe3d557d3e05552aU, 0x3cd3b957beaf092eU, 0x3e803ce6be72cb10U, 0x3ddc121d3ebd5f3aU,
  0xbe1384a53d85ac32U, 0xbc983f843e97af88U, 0xbd8a3b30bd8d74c1U, 0xbd8bf3c83caa3fa2U,
  0xbe8ee2be37755800U, 0xbe432d293eb028c8U, 0x3df3edc2be7749c0U, 0x3c4027993e1c8fd1U,
  0x3e4ea969bd8758d6U, 0x3da78a66be92f48aU, 0x3e7df0a5be2d468fU, 0xbc8903153ed1401dU,
  0x3da7c15a3db60a2dU, 0xbe16ca7dbcea7385U, 0xbda04f42be611883U, 0x3e4644123e805748U,
  0x3e1874863e5d68c0U, 0xbed705e8be0d90b9U, 0x3e2b3f713e4399d6U, 0xbe603dab3dea26b9U,
  0xbe34ba71bd741fcfU, 0x3ec9ab9f3e3e644aU, 0x3e83eaf23e3df438U, 0xbea0ce403e77da50U,
  0x3e910296bda8215bU, 0xbca6b7113dcbac18U, 0xbda53573be558734U, 0x3e31aa66be4673eeU,
  0xbdf793353e4385f3U, 0xbdd891bdbea1abc8U, 0x3e596f6dbe423f2dU, 0x3e33ffe13ee0aac6U,
  0xbe82ad9fbd617174U, 0x3d8230773e8b79adU, 0x3c5866ae3df3a7bbU, 0xbe4f5c103d7b3094U,
  0xbeaccbb03d4b8f36U, 0xbe4993ca3e9e7b80U, 0x3d54febabe926fadU, 0x3d768453bd333eddU,
  0x3e9f3b09be97896aU, 0x3e678471becfa1b1U, 0x3e972b9fbe8ce100U, 0xbcbf529c3ea14e00U,
  0x3dd66680bd9ccae0U, 0xbdebe713be642162U, 0xbeb0a61dbe26aa4dU, 0x3ea0f0be3e51aaacU,
  0x3d625f2e3e06be1cU, 0xbec2eb76beab8b6aU, 0x3e3d51da3e79ed18U, 0xbe157510bc1f6877U,
  0xbe91e05cbe5a6ae8U, 0x3ee51f343e3f26e6U, 0x3eb01a3c3db55d7aU, 0xbe3ebbe23e8f745dU,
  0x3ebc7bbcbd5aa361U, 0xbba631d83d62aac4U, 0xbdf25e4ebe87daa3U, 0x3e5c2627be326120U,
  0xbeac09ca3cf9ce65U, 0xbe4ec80fbee93f2bU, 0x3e3a9924be5b7305U, 0x3d91fb5f3ebb07bfU,
  0xbceddc183e5d050bU, 0xbea51a283c9c8999U, 0x3e0f009a3d4e5161U, 0xbe0daf483ea223e4U,
  0xbde3864ebe3b6881U, 0xbd583fda3da711b3U, 0x3d245e683eeb213fU, 0xbe25ec4c3e756585U,
  0xbe3403f03d88ba45U, 0xbd58e559bde04618U, 0xbe1df6653ddfa136U, 0xbe14e63f3e31b3a9U,
  0xbea942783de991f9U, 0xbe0bcef63e4fee98U, 0xbca4e6d6bc63b296U, 0x3eb5ce9cbe9c5edaU,
  0xbf13b8a1bd431ddfU, 0xbe65dd84be055c63U, 0xbdbfc9dc3ec65650U, 0x3dd786383dea4a38U,
  0x3c787147bdb9974eU, 0x3ec71362bd55eb07U, 0xbe9d89b4be1adf75U, 0x3e00644bbddf545bU,
  0x3d9a641e3dd156beU, 0xbd9ca546be7adbaaU, 0x3e0d81d73e6c180fU, 0x3ec0ec30be90a116U,
  0xbe9e5ba23e056163U, 0xbecbc1bd3ce9bee5U, 0x3dfe6083bc6cda8eU, 0xbf00e9883c92b838U,
  0xbe07b908bcffd88eU, 0x3e03156b3e060f57U, 0xbe8a4fb93e2cd06aU, 0xbdcee6cb3e2f7138U,
  0xbdc44e1ebe93f069U, 0x3e239cd6bd042737U, 0xbd5612fb3eeaa23dU, 0xbdfd296a3e45bf81U,
  0xbe178c0ebe7ad543U, 0x3cbe711a3d3612c6U, 0xbdfc9a9a3ccdb48eU, 0xbc5ec8653e82225eU,
  0xbe75cb993dab7c58U, 0x3e0ee4203e93a1eeU, 0x3eae860fbd5e158bU, 0x3e81f2b7bdfbf445U,
  0xbec27db43e96cbd6U, 0xbd5930693ea4f46dU, 0x3c3b44063eb19ed8U, 0xbdd631643e9ead75U,
  0xbe899cac3e052ffeU, 0x3e8e5b9f3e146c72U, 0xbeacb6d6be5e9021U, 0x3e2a8b9fbdb96415U,
  0xbde031b33dce3556U, 0xbde6bc05be8d5326U, 0x3e2c3e6a3e810c91U, 0x3e2fd69d3e76c294U,
  0xbe0b77bf3e3128a7U, 0x3c7e56f23e8d1657U, 0x3e1b51c5bd9b0b31U, 0xbf15bbed3e5c3565U,
  0x3d8fa6a1bea2a458U, 0xbcb0d885bc375fdfU, 0xbef864973e1f7788U, 0xbd04ab933d5e2547U,
  0xbdfa1310beddc4caU, 0x3e0d46a6bd35c832U, 0xbe9434a03f031662U, 0xbd6d6bc23e3093aeU,
  0xbcf142d0be72a04cU, 0x3e635611bda712b2U, 0xbebf9513be1cbb62U, 0xbd38aca23dd5362eU,
  0xbe9f7afd3dd99be8U, 0xbd88a0523e2cb71dU, 0x3f01de0cbdbd0dcaU, 0x3e4c12f1be151fa6U,
  0xbe975e673e55d2c3U, 0xbe93e0223ee4d688U, 0x3b708ee73da9a856U, 0xbed33b1e3e19b1e6U,
  0xbea4ee70bd8c9a8dU, 0x3e420ebd3e8fc8e0U, 0x3c89e230bea22f7cU, 0x3e84a8883e805272U,
  0xbe4f23873dbc4056U, 0x3cd52af6be98b860U, 0xbe6adecc3d611428U, 0x3ddf56983e5051f2U,
  0x3e1dd3e23e1a3178U, 0x3dda7cf6ba426b04U, 0xbd6f4765be885df6U, 0xbf0d80903e9d1286U,
  0x3c9ba563bf074750U, 0x3cddfb08be065e12U, 0xbdf6a806be420d33U, 0x3e3bf95b3e5c0fcbU,
  0xbe4701553da86485U, 0xbf16379dbe6cbbd8U, 0xbebda9a8be3fc98bU, 0xba5d6080be138a0aU,
  0xbdc6e46dbec15cc5U, 0xbea31b4d3d99ad45U, 0x3dfcc8c4beb9d578U, 0xbdc7cd91bedf9a6fU,
  0x3e223c98bdd98b15U, 0xbe72fcc03e696669U, 0xbe8e7932bdfd61b4U, 0xbd73be253e734d2bU,
  0x3e34f7d0be0905e8U, 0x3e49350dbea78563U, 0x3d3de4d93d99b62cU, 0xbd9fceeebe7803d1U,
  0x3dc9eddc3dd1fff7U, 0xbe5947fabdd9e580U, 0xbe6475c3be731bf6U, 0xbebb5f50bd9c91d8U,
  0x3de36f5fbe8f03d4U, 0x3cdd6561bec54392U, 0x3e04ab6f3eb9cf37U, 0xbc849e483d624bfbU,
  0xbe9ebdeb3d9057a2U, 0xbe5232013e220c5cU, 0xbeb82e30bc3a5c69U, 0xbcfc8e2ebd3fb513U,
  0x3c506afabe927c58U, 0x3de37fb2bdd80333U, 0xbe134daebe3eb2c4U, 0x3e6123643d988a52U,
  0xbe37bd30bdb620f5U, 0xbf305159be385a6fU, 0xbe97a70a3dc922c3U, 0xbe273db3be96e9c8U,
  0xbe387b58bea6dcc3U, 0xbeae5d17bd95e75bU, 0x3e3b76debd49e1ddU, 0xbe89046bbef3e6a6U,
  0xbda85cddbe15043aU, 0xbe97bddf3e09ad05U, 0xbe1a6335be26c31cU, 0x3ca5e6b63e6df81cU,
  0xbd9635973d3a0108U, 0x3d8afbd8be84faa5U, 0x3db6687d3dd1f872U, 0x3e0a2057bebb878dU,
  0xba99e952beb711a5U, 0xbe3c1308bd0f5619U, 0xbeb0055fbebede31U, 0xbe86d10bbe0bff35U,
  0x3e12f586bd8ded99U, 0x3d9f21bfbf082c70U, 0x3e51355d3eabefceU, 0xbe292685bc02d92cU,
  0xbdb8aba0bdfbe850U, 0xbe9c67df3b700d62U, 0xbf19dec9bdeab1e3U, 0x3e0e6b3cbd7692e1U,
  0xbd811969be8a968bU, 0x3e3e383bbe64f069U, 0xbdfeaf0ebe0010e0U, 0x3c9d80c23bf54ae8U,
  0xbd951ab0be87e993U, 0xbf54c23ebe868b1cU, 0xbeea57a5bd5cab47U, 0xbe8215d9bec99aa7U,
  0xbdde7f74be7c5b3eU, 0xbe81c482bdcc6f1bU, 0x3e497dad3e0530b3U, 0xbe1d5156be9f9248U,
  0x3d0e46d0bd36f06aU, 0xbe92542fbc27aac7U, 0xbea06745be841f9cU, 0xbd0dece13eac08f7U,
  0xbc17427cbda75468U, 0xbeaaeecebe7beb8bU, 0x3e37814f3e3676fcU, 0x3d086f48beb2ae9bU,
  0x3d58a40fbe9ea66dU, 0xbde63bb2bddc3d74U, 0xbeac25f5be7efb2bU, 0xbe06c1c4bc941d57U,
  0x3bfe3a1bbe36f8aeU, 0x3e39e810bf446af4U, 0x3de64db93e4315a0U, 0xbde3fa3f3df2fa0dU,
  0xbd959eb23dad2a25U, 0xbdebf6623e2f2eb7U, 0xbee4cdc0bc4219a6U, 0x3e873af1bdb8aa88U,
  0xbed380b2becdaad2U, 0x3e7d13bbbda52763U, 0xbe4aceb3be7c1556U, 0x3d566d09be956ac7U,
  0xbb0f2ec13d85d73cU, 0xbe1e8d84bddfc9f4U, 0xbdd49161bec8e38eU, 0x3ec772643e21fcfdU,
  0x3d2d5c20bf050c06U, 0xbe464316bcba44b6U, 0x3d2355fbbe3eabcbU, 0x3bb26df53eaa9855U,
  0xbe3f427cbde0824dU, 0xbe89154abf15b41fU, 0x3ca9e507be39a341U, 0x3ebecc5d3e158978U,
  0x3e56ade1bec0be18U, 0xbe638069bca23e3fU, 0x3ea657a73e5a0a43U, 0x3d7100a03d698973U,
  0xbf1966c83ecf0e6cU, 0xbd47de6cbd2472efU, 0x3ec8edc3be3c8d63U, 0xbe95a09f3dad2a3eU,
  0xbd248574be8fff16U, 0xbc9c6ce4bd829a46U, 0xbeb9a52a3d0af6ceU, 0xbc1d2b683e74f43eU,
  0xbcd3e27d3d6e5772U, 0x3e876d15bdef652eU, 0xbba36080bf28442eU, 0xbd637b7abf0fed41U,
  0xbb4cff2fbe6cc721U, 0xbe81cee2be5b94f4U, 0x3bced358be62659fU, 0x3e038d25bd92b67dU,
  0xbd4af2093a38123cU, 0x3e213aca3e542231U, 0x3e5ab0c1be4b48c4U, 0x3e301e9dbe5d2702U,
  0xbe13f68ebd851314U, 0xbe4b0dc6be7d68aaU, 0x3c9f3333bd02d029U, 0xbde801eebddbc43dU,
  0xbeca7f1ebd918d40U, 0xbe29211dbe0a9f21U, 0x3d1b7553be5827caU, 0x3dfad85dbe764d6eU,
  0xbe25e411be28861dU, 0x3e35b770be69c655U, 0xbdd36b333e78ce03U, 0xbeaef38abd908685U,
  0xbecf154a3e3b10ccU, 0xbd907222bdfdb7f3U, 0x3e15bdf8bedf70e8U, 0xbea8bba23db10d77U,
  0x3e030656be4e78aeU, 0xbe1c0fde3e37e219U, 0x3d37b9e93dcf2b17U, 0xbe804036bd097f4cU,
  0xbed468cfbddb57a3U, 0xbdef941cbe19e7fdU, 0xbedf744dbe96a672U, 0xbc38724f3d13ec6cU,
  0x3cc3c830be77f6ceU, 0xbd64f597be246cb2U, 0x3d626d543da938b9U, 0xbd957ed33db02818U,
  0x3e0d97c3be27720dU, 0xbe0ac9173c5ce977U, 0x3ea016b6bddef845U, 0xbe884f57beab0a24U,
  0xbe45d287be6b0c72U, 0x3e682565be4a025cU, 0x3d0ea71f3e750afdU, 0xbd84a864beb02278U,
  0xbf129ec3bde01a92U, 0xbe166007bdfa93a9U, 0xbe4bf2bdbe79424cU, 0x3cf1cb8ebe4488d8U,
  0xbec729f1beacd248U, 0xbebc314bbe3386beU, 0xbe1690b03ddc4639U, 0xbe5e5f79be19b9f2U,
  0xbe7ef3a2be86dee9U, 0x3d2ab291be18669aU, 0xbda5f748beda0647U, 0xbe769c5e3e28c6b5U,
  0x3e5a7620be090fccU, 0xbeac11cd3df319d7U, 0xbdcb7d433da9ac53U, 0xbeb62424be75d00fU,
  0xbebeca44be43c06dU, 0xbdee6317be85c502U, 0xbf267d66bd98f341U, 0xbc3e732c3e5439beU,
  0x3ac585ef3e9cf18bU, 0x3dc4a9bebe330f7fU, 0x3d4cf629be16af88U, 0xbe207e50be86cdfbU,
  0xbd910fc9be810785U, 0xbcd35c1dbe2eb487U, 0xbe3ef8afbea352d2U, 0xbda20ac63d324a8dU,
  0xbe0e33953d20c51aU, 0xbdd895573e4e5f58U, 0xbe0685babf1488afU, 0xbedf0ad03dc0dcdcU,
  0x3da72a66bed3bffcU, 0x3ea1a54a3dd7e174U, 0x3ebd14b8be1f6993U, 0xbf1989a1be8f0cb5U,
  0x3ddef1a73e962692U, 0xbf20833f3ea96978U, 0xbe897909bea5d491U, 0xbe93c1683d0399f4U,
  0xbe8ab5b93e4c3248U, 0xbe337d58bdf640abU, 0x3d5fb7a23d16279fU, 0x3c75217b3e2886deU,
  0xbe044d653cca9938U, 0xbcd00d4a3dccdd89U, 0xbe4e2896beb94f7bU, 0xbf2ae8db3e3674f4U,
  0xbe8e9b94bd6ce2c5U, 0x3eb712003d963ad0U, 0xbddfce1fbd04f8edU, 0xbe6bb43fbeac9b18U,
  0xbcc1327b3e975d80U, 0xbd188c4ebec6cb4aU, 0xbc90744fbe8fca32U, 0xbe05736fbe67cb71U,
  0xbd8ac664be8f3fbdU, 0x3d201f22bdaeacfdU, 0xbe0168f3be9496b9U, 0xbcfe91363d2fc418U,
  0xbdaa624f3d93deb5U, 0xbe4da8813e741c1dU, 0xbe1f7b71beefeeb2U, 0xbebb5ce53e608824U,
  0xbe16a662be8540efU, 0x3c76691c3ded4b8fU, 0x3e918f71be8674aaU, 0xbf14715cbeb0f3deU,
  0x3db6ff7c3e87950fU, 0xbe9b0f353e8c6dbbU, 0xbef0a3a2be0f43c6U, 0xbebe16103d5b3693U,
  0xbd814b783de80268U, 0xbd9ab05bbd589f22U, 0xbd19f5853bd039f6U, 0x3d8698d93cc7e380U,
  0xbe00832f3b80cfd2U, 0x3d8ae7fb3d4516a9U, 0xbdf10854be8aac4aU, 0xbf0f95323da237f4U,
  0xbcaab947bd574af4U, 0x3e4921c73e713ee7U, 0xbdcfb6f23dc6ec61U, 0xbdcf57d1be64eca5U,
  0xbd110a613eeba4ecU, 0xbda67597becee710U, 0xbd5945ecbe80ef9fU, 0x3db99c08be56bb90U,
  0xbe0df021be119aceU, 0x3e21e4e1bd192fc2U, 0x3b022fa9bd356ce1U, 0xbd4fc1793d45dccaU,
  0xbe8e5f053e7cdbc6U, 0xbd1be7023e7a27e1U, 0xbe9ff4a2be8c7794U, 0xbe8718c63ea0d4acU,
  0xbd7741debe4f59beU, 0x3c1f8ef53ca700d6U, 0x3e7ed69dbf000f70U, 0xbf22fcf1bf30a653U,
  0x3d1658823eb62165U, 0xbdc1ef6b3e1a4dd5U, 0xbf048606bbf2a98bU, 0xbf15a7393e6ac0acU,
  0xbc7287b83e83a8a8U, 0xbe2a03373d85b073U, 0x3bbf25423c92b764U, 0x3e2564733d94fb6aU,
  0xbe5963e0bd72833cU, 0xbd36764f3cca47f3U, 0x3d873d2cbde1792eU, 0xbeca093c3d16fbccU,
  0xbe66d6cfbd97fd84U, 0x3e5e0fb53ec630b9U, 0xbdcbf9443c9bd438U, 0x3aa06651be8c7073U,
  0xbe422649beb7b018U, 0x3e5f311e3db664b0U, 0xbf04a09c3e140bf1U, 0x3d1d419fbf136732U,
  0x3b09819dbdce7bb1U, 0xbda9a0e23d1747d2U, 0xbefcc91d3d28fcf7U, 0x3e9048a63e2db14dU,
  0xbdc0a80bbeb8b52dU, 0x3e2778a13e51190aU, 0xbe4f68bebb5b6370U, 0x3e8f555fbe48a474U,
  0x3d498e97bb390328U, 0x3d7130a2bee0f99dU, 0x3de5fccf3c9766faU, 0xbe16e1cf3dc16c85U,
  0xbe9ef4d6be769edfU, 0xbdc5c1823de60578U, 0x3c11e838bdb30282U, 0xbd8cda45be6f8fefU,
  0xbe8506d13e159fa3U, 0xbf0a9580bcb81b50U, 0x3e11c044bddaf9d7U, 0x3d3d3acdbe6bd0cbU,
  0xbda5dd8a3e082d4dU, 0xbce1ee98be8d1cc5U, 0xbf13ea663d460834U, 0xbe35c5163ee160a2U,
  0xbeac062e3e41f8bdU, 0x3e6fb0c2bd547f70U, 0xbdbd4af8be48168bU, 0xbdf272efbe016d91U,
  0x3d6edd56bde4c22bU, 0xbe3676d8bdbccc1fU, 0xbda641603e095b40U, 0xbe9e48633b9fa9b8U,
  0x3e100f553e9191ecU, 0x3e346cc53e9242d6U, 0x3d692259bde28892U, 0x3e478382bc81410cU,
  0xbe07a684be229300U, 0x3e43fda1bc36aa01U, 0xbd1ce8f9be4b8f1bU, 0xbca76351bd417a9bU,
  0x3d1b9147be603576U, 0x3da1955fbdaa2272U, 0x3e7afd5ebea99578U, 0xbda2f72cbe34bc9fU,
  0xbea20768bc90bb58U, 0x3bdaeb823e18449dU, 0xbe93e732be208538U, 0x3ef90fd4bd1274c3U,
  0xbe53d0b83e7b7774U, 0xbe57d72dbe46bf78U, 0x3ce3b8f33e311131U, 0xbe116708bdb7663eU,
  0xbe8c8bbe3e03308cU, 0xbed5abc63df690b7U, 0xbe3b51b9be46ed7dU, 0xbee93ca13d809bbdU,
  0xbdcc4ba9be041851U, 0x3e3dc20abdba74a2U, 0xbd843c07be885eefU, 0xbe5a60b6be3f2948U,
  0x3e80fa553e819f5dU, 0xbea77005be1f00f1U, 0x3e9325a6be4c3f32U, 0xbee55c6b3e8befaaU,
  0x3c92c4f63eb7c10dU, 0x3e6ad4753e880f82U, 0x3ed0f319bea07a1bU, 0xbd428970bdb3be2bU,
  0xbe32f5d13e8f1b38U, 0x3ab5e63dbe9e3c8aU, 0x3ddedfca3df12308U, 0xbeafc5ca3e32f859U,
  0xbe34fe7bbeb844a7U, 0x3e1d2f92be3bc848U, 0xbd96cfbfbef62405U, 0xbd8a6da0beb40215U,
  0xbed8a9983dce4838U, 0xbd4d823bbe81b4e0U, 0xbf009319be8da559U, 0x3e5962a1be1b58a3U,
  0xbd04d15abeb92ad6U, 0x3d87d499bde7188cU, 0x3d54fefe3da9b697U, 0xbe9410e1bdfd1863U,
  0xbe2ae8cfbe1ce174U, 0xbebfe2673e5b1a70U, 0x3e37a302be9f1d20U, 0xbeed7ffebe8af13eU,
  0x3cd15ed7be73af04U, 0xbe9d6fccbe8b126eU, 0xbe1c374cbe3fa676U, 0xbd778fb2bdb609a0U,
  0x3c15850dbe22b83eU, 0xbe9c775dbf32bc55U, 0x3db457ac3c467059U, 0xbed4759ebdec1360U,
  0xbcd389883d1413c3U, 0x3e47e6e2be9b8e1cU, 0x3e1259d23e462e44U, 0xbe348ed03e036a11U,
  0xbe0a449ebea09fc9U, 0xbedb18e33d82d722U, 0xbd7e14dcbdc4349bU, 0xbede8a49be56b9c2U,
  0xbe2f93ecbe49bcc6U, 0xbd70015a3cc80c4dU, 0x3d826136be00c69cU, 0xbe18ac6abe9aa21eU,
  0xbed0a56f3dcbe37dU, 0xbe64f3f03e979621U, 0xbe55a6ddbe8b51b1U, 0x3dabc2db3e016ba8U,
  0xbe4111d2bd44e638U, 0xbca78086befb3806U, 0xbe044f83be978982U, 0x3e230f4fbd5fec7fU,
  0xbd31824a3cd08b8bU, 0xbee6d34a3deadb64U, 0xbea362a7bde77a08U, 0xbe3a1b2bbe7e95a8U,
  0x3edfb51bbe983f31U, 0x3d9c3b76bc3f2b48U, 0x3d10485f3d1f7e46U, 0xbe436eafbe1fdf79U,
  0xbe89feb9bde91c66U, 0xbee71d53bf0ec027U, 0xbe32ebcebe11e5e2U, 0xbf07429abe18f68bU,
  0xbdcd5b84bd86ee54U, 0x3e3ba8a2be951628U, 0x3e1bb908bd6cf3f5U, 0xbdb98e1c3dc960ebU,
  0xbea0d684beab05c9U, 0xbec95851be46ea28U, 0x3cfd55213c9e9fd8U, 0xbec78632be8ae710U,
  0xbddcae54bdd3b8d4U, 0xbd83a215be1f644aU, 0x3ddbf64abe141dc3U, 0xbd437a62beccff75U,
  0xbebcb5a4bdbf9b56U, 0xbd8fdcf63e3e53d1U, 0xbe1cbfe2be876affU, 0xbe078ef3bcfa7f34U,
  0xbdd01983bea31d9fU, 0xbc597433be8e79bdU, 0xbc0282fdbd164f65U, 0x3df5b9d8be3c9af6U,
  0x3dcd6b49bdf76256U, 0xbec7fddabda2f794U, 0xbed39b4cbe9738ebU, 0xbe3a38f1be892a12U,
  0x3d7a1813be953495U, 0x3d891decbe593c9eU, 0xbc285107bc137233U, 0xbe88505dbba17f80U,
  0xbeaa5274be83b2fdU, 0xbf0363afbf0675a4U, 0xbebcb47dbe073035U, 0xbe8d7aacbe198c30U,
  0xbe379553be61be68U, 0x3d0aefa7bef8f3fdU, 0xbca23aa0be21d24fU, 0xbda3537a3e12f8ecU,
  0xbf289627bf0b666eU, 0xbed9753abd522367U, 0x3e5683693df4d573U, 0xbe6dc621bef5ac22U,
  0x3e1b2062beb4f09dU, 0x3d03bd1dbe5a004fU, 0xbd46e0c7bdabed33U, 0xbddfa548bf265c74U,
  0xbe5652e7be9ddcecU, 0x3d9844a43e20774cU, 0xbe7eef45bd9d6236U, 0xbec3e4dbbe2392cbU,
  0xbe505269be9f06a2U, 0xbe92a1a3becfab32U, 0x3b78566dbd2d5cecU, 0xbd91c5e2be2ab7f8U,
  0x3dd3978e3b0c0192U, 0xbefda6c7bd823c33U, 0xbf033232bdb8283eU, 0xbbe15e0abedf1b94U,
  0x3d911b52bebff88eU, 0x3e25be03be18757cU, 0x3e1463eebe299cb5U, 0xbe53af5bbd0065f8U,
  0xbe33359cbe0b2043U, 0x3e6ea8c83a897fd4U, 0xbedbc3dbbee4579bU, 0x3e3dbbaabe97bc19U,
  0xbe947d203de74990U, 0xbf061af0be2fdb19U, 0xbeaec98dbee59a22U, 0x3c207ba0be794329U,
  0xbd307fd4bd631331U, 0xbc6f76b43e851ba8U, 0x3cb2360fbe88257aU, 0xbd73c022bec4cfe6U,
  0x3e3c5211bdc67e0aU, 0xb6f18310bebb8b43U, 0x3d7f71c7bc14fc90U, 0xbe79b1933e1ec890U,
  0x3ec27580bda26f6fU, 0xbca0f9133c58f5eaU, 0x3db0e5313e25c532U, 0xbd6eb24ebe8127f0U,
  0x3de290e13e268cc3U, 0xbeb2384c3bc0279bU, 0xbd8f4609bee50854U, 0xbe4367ed3d75a801U,
  0x3e11c6f1bb9fc8bcU, 0x3d1801a5bf1eca8cU, 0xbd72dbc83e0bda35U, 0xbeb31de23e32cd53U,
  0xbea050bebe270c56U, 0x3bfd24943dbc65c1U, 0xbeacfae73dc1d94aU, 0x3dbc9eabbddcab79U,
  0xbe8c8651be08c403U, 0x3d1ff5a03d778c0dU, 0xbeaa799dbed4ea46U, 0x3e08458fbea0df98U,
  0xbe9964783db89a78U, 0xbf218f06bdef073aU, 0xbeb3b4d2bf0f0f41U, 0xbe44e0d0be815ffdU,
  0x3c8ff9bfbe0b3a26U, 0x39b1f22c3e1a99f6U, 0x3d8877c5be4624e2U, 0xbc101f2dbed18a97U,
  0x3c295482bdfd1321U, 0xbd4bf5b3be7754c8U, 0xbc93f7f43d064c0eU, 0xbe4134a83e8b7f40U,
  0x3de79d1c3d707960U, 0xbe26f383be1810c9U, 0x3e12e9fd3e1db50cU, 0x3d4c5070be7fbe68U,
  0x3e2855633dd744d9U, 0xbe823090bdd48925U, 0xbde9700abf55743aU, 0xbe784b96bd2cd0beU,
  0x3ce3022abd8c2a0eU, 0x3e3e87a4bf4bb9acU, 0x3da8d9093dbc697eU, 0xbe0e23e9bd5bdc92U,
  0xbe26b919be52e790U, 0x3cfd49733cef0549U, 0xbf18249b3e0a856dU, 0x3e75ba80be05c072U,
  0xbea32453bdf73140U, 0x3e05280e3e915c35U, 0xbe868bf9be77c634U, 0x3e01e5dfbddfc0a2U,
  0xbe27dd463e1ab4c2U, 0xbf27d69abea11e44U, 0xbed745e2beea12cbU, 0xbdf987a2bee4c7dbU,
  0x3df43d7dbe3fb7b9U, 0xbca006383cba4631U, 0xbceddd71bdc24d95U, 0xbd89a4fabea5c4a4U,
  0xbc952f72be1f3de5U, 0xbd49e190be7f5b5dU, 0xbe5f4787bdbd3f52U, 0xbe018ca63e87e400U,
  0xbd94c0eebdfc3fd5U, 0xbe82e409bd3509acU, 0x3e7f2f5e3dae95d7U, 0xbe73f759bef7c34aU,
  0x3d020d983d4b9f70U, 0xbea044c3bdc5c80bU, 0xbd7eb3c4bf318f54U, 0xbc9fc76a3ca3e7efU,
  0xbdd19336be3658abU, 0x3e9c9b56bf3e10bbU, 0x3d94e8a5bd62e9f9U, 0xbdda041f3dd444afU,
  0xbe46cd8e3d3bbb81U, 0x3e0653583e3201adU, 0xbf2115ea3d74563dU, 0x3db6adbabd83965dU,
  0x3dccd1e13ec0e1c0U, 0xbc69f8fcbec6a944U, 0xbcfb6f923dbe69a9U, 0xbd8e2d3cbe57d2b5U,
  0xbdf1aa08be1cc862U, 0x3d1362cabe8c4affU, 0x3cfd54b63e02f43aU, 0xbf103482be2eaef9U,
  0xbebe41643c8f3be6U, 0xbe7052203c9f99ddU, 0xbef711ccbd0c760dU, 0xbe3cec183e93b9f6U,
  0xbf2e9295bddc0150U, 0x3e2471f9bca41f9bU, 0x3d8682eebea536d4U, 0x3d9159c8bf2f2b1aU,
  0xbf0667fb3dde2c29U, 0xbea08a6d3e27b0a7U, 0xbf2d5409bf065bf3U, 0xbd242588be0bf4dfU,
  0xbe749929be41cc52U, 0xbd4952fabe50880bU, 0xbf2216febe94619bU, 0xbb5e446c3e271fcbU,
  0xbe4c6fa2be7da3adU, 0xbf0189893d40d8a3U, 0xbe9236b53cfabadaU, 0xbea960e3bdd0aea3U,
  0xbdfba294be07246dU, 0xbdd27f0d3d4e5740U, 0xbe65eca5bd1a0715U, 0xbe75e864bf12b70aU,
  0x3d1e09dd3ea34080U, 0x3ca21332bf02522eU, 0xbe35d22f3dccfb4dU, 0x3d3e7ca2be277ec2U,
  0xbd8bd132bd579f0aU, 0x3dffa97cbe023670U, 0xbe0d51ce3ddcf750U, 0xbeade38e3cde82deU,
  0xbf38a73b3e5ab294U, 0xbe26d884bd1bfeecU, 0xbe97c7d1be49f48fU, 0xbe61c5133e3960a9U,
  0xbeffea953de46ad2U, 0x3e149576bdfffcc8U, 0xbd9a9b00be6dd258U, 0xbe103e58bf17b1c7U,
  0xbeb5b1f03dc2e3b1U, 0xbe589f2ebb5ba910U, 0xbef8fcb2beafdfacU, 0xbea5ffe73c4875d0U,
  0xbe5c2f8fbd77355eU, 0xbdd82a21be155fe7U, 0xbefba96fbe82bb97U, 0xbe0384503de528efU,
  0xbe6f616dbe413f9eU, 0xbf0ac4e03daac470U, 0xbe110da43d6144b5U, 0xbd6e2b4c3d2df8eeU,
  0x3e069008bdfbec79U, 0x3bd2d7ac3e2262e9U, 0xbe693ea03cfa6b21U, 0xbd291b1cbecfb32bU,
  0x3e3bfc913e80d947U, 0xbda8ece1bee68a64U, 0x3cdbc3f8bc86aa7cU, 0x3dce1a383d59aaf1U,
  0xbdb8676d3e393e7cU, 0x3eab22e33dffdfc2U, 0x3e1cacc43e90439eU, 0xbe09a01cbd320871U,
  0xbf2436d23d7a8b20U, 0xbe6bf4e03cf61f77U, 0xbe8107e7be58e8f3U, 0xbe7a717e3cd13203U,
  0xbe96f99b3e3a9707U, 0x3d1c63e1bda253efU, 0x3e06e549bea54313U, 0xbdaec999bf312c7cU,
  0xbe34148f3e0474ddU, 0x3db1efe13e12f6acU, 0xbf5265cbbe8fbb44U, 0xbf308c633dead585U,
  0xbdd1b8863db07806U, 0x3cd01c1d3cc1def7U, 0xbeb2f7083d5a4b19U, 0xbd4817ffbd21928bU,
  0x3dc8a78fbe601c66U, 0xbf44a48a3e680ff7U, 0x3dfc4d513dc83fd9U, 0xbe28ce843d67c28eU,
  0xbece3cd6bd8251d2U, 0x3dc8c77e3e020a25U, 0xbe68375cbda2fa5fU, 0xbd8ff1d3be905f95U,
  0xbf205329be1f8d63U, 0x3eb907e83e89a7f1U, 0xbeb4b198bda29257U, 0xbe574ed5be381036U,
  0xbd705031be6c1a2bU, 0xbe63b4bebd7242beU, 0xbe9e1f0dbea25463U, 0x3d2cd12d3b85d8daU,
  0x3dcd03f3bcc302dfU, 0x3e42450bbda303baU, 0xbea5faa6bd913fceU, 0x3e867ff43d4bbdffU,
  0x3bf9358ebeff482cU, 0x3e0a5427bf0304e5U, 0xbe67854c3e18a798U, 0x3df5f6853e92f78bU,
  0x3e6508fbbe741d1cU, 0xbe1711623d812079U, 0x3ebb72153e6f6daaU, 0xbe9b656ebf2704c6U,
  0xbe2b621bbe7af83aU, 0xbe2e5c393d174d2bU, 0x3e5c0f863d687cc6U, 0xbeb5abad3d10cf40U,
  0xbded1b973d69bbd6U, 0x3e650822bf00959cU, 0xbca43a6bbe4bf57fU, 0x3dd0dc1a3ea6bec7U,
  0x3c3134673db4f0a2U, 0x3e802c373a67e632U, 0xbe7f5c753dbc4319U, 0x3c1782d1bde38386U,
  0xbe2be95dbdc18bacU, 0x3dcc1a1e3d4a0b2cU, 0x3e030b60bd1f5ea9U, 0xbef8505cbe347270U,
  0xbe38ed9e3ebc8872U, 0x3d838ef53e3386bdU, 0x3da7df0dbec40566U, 0x3e4db0193ddb225cU,
  0xbcac33b03e177e75U, 0x3ecd8aa8bceeb9f3U, 0xbe5fa204bde426acU, 0xbe2d2a833da0d7a4U,
  0x3e45abefbee190c7U, 0x3e116a6fbe95d2e2U, 0x3e075e19be275370U, 0x3e063425bd20044bU,
  0x3e9d9d37bd0e4ef5U, 0x3dacd1023e4c506bU, 0x3df82166bb51fabaU, 0x3ec66079bde02434U,
  0x3c3351473d1882cfU, 0xbd016cc13db44992U, 0x3e71df343e8e9052U, 0xbe01b50ebe68ff45U,
  0xbeaec8dbbd856ccaU, 0x3e0bb84b3dd7e230U, 0xbe77f671bec892cdU, 0x3df7363f3d0f1d7cU,
  0x3d202825babfefceU, 0x3e4c9c7fbe2a94c9U, 0xbd5cf251bcd2e0cbU, 0xbe0947f23e32a56fU,
  0x3d8108273ddb1b4dU, 0xbe550796bd4aae2cU, 0x3e6fb2f2bd415250U, 0xbf0ab16b3df48619U,
  0xbe60a49f3ec09375U, 0x3e2469f13e16e243U, 0x3e38c4cebea6f007U, 0xbce83d3fbdb768feU,
  0xbe8201ef3e98d652U, 0x3e32903bbe221b0bU, 0xbd4a8f34bdd311dfU, 0xbefd65a5be5d5aaeU,
  0x3e2272b9be50ed4dU, 0xbe01ccf8bca4bbcbU, 0x3d887939be83f157U, 0x3e65a535beafacfbU,
  0x3dbacc06bcbd5a85U, 0x3c7afbc6bd0abd97U, 0xbe9eda233cae2ec2U, 0x3e8ba7023d972bc2U,
  0x3df65fd2bd45642eU, 0xbd342d313deac0aeU, 0x3eaa3514bdbe5c34U, 0xbdaf276dbddf1d45U,
  0xbec1277dbd47388eU, 0xbe3995d13e7725d4U, 0xbd7db466befb38c5U, 0xbe891d93be66bd23U,
  0xbda66530beb77010U, 0xbe2b5c43be68d850U, 0x3d9a49343ca510f9U, 0xbeefbfb5bdf74573U,
  0x3ce55209be94eb3eU, 0xbee8a26db9ce8dc7U, 0x3dd307513e4a88a5U, 0x3e86d1673ea09311U,
  0x3ceb284a3d079785U, 0xbd187f57bd9c6060U, 0x3dd126eabbe5b3ceU, 0x3e122f413e8e0906U,
  0xbf05f3fcbe6587c1U, 0x3e788d2a3e3e4038U, 0x3dd8f05ebe39d64eU, 0x3e588315be868e7dU,
  0x3d92fb853db4f539U, 0x3ea53f973d339579U, 0xbdd3f3b93e9af353U, 0xbcbd0726bf66caa3U,
  0x3e91828cbe664673U, 0xbed69581be349fe8U, 0xbee52d6c3e6ffa84U, 0x3ea0269abe18b423U,
  0xbe0eea453df03a22U, 0x3ca675333e8a54f2U, 0x3e37e85f3e4e9111U, 0xbdfed2163e6b776dU,
  0xbddd75783e210c23U, 0xbeccdfee3e169971U, 0x3df9f47f3e560650U, 0x3c2147e9be832945U,
  0x3e9db12cbe75a895U, 0xbe8c015d3ab72e98U, 0x3de71c8bb8cb8914U, 0xbe3d249dbbc327c0U,
  0x3cd71016bf01fd2dU, 0xbee026883e024147U, 0xbe9bab3c3d8aa512U, 0x3db6dd463db6bafbU,
  0xbe00d4cfbe4f6f94U, 0xbd76eccdbcedb4a5U, 0x3bc40310be0c8955U, 0x3e97847b3ed8180bU,
  0xbe92b27dbe99ad32U, 0x3e43c0cabd2a8056U, 0x3e1a6fdf3e0a0d41U, 0x3ddd9d63becc2cd3U,
  0x3e4dd9943d895920U, 0x3c805581be532ee2U, 0xbe0351c93e218d57U, 0x3e400757bf4a2dd8U,
  0x3ea4b514bec743b8U, 0x3e298d4fbe90d80fU, 0xbe57bf1e3e3c0915U, 0x3dc4d0d3be7a264dU,
  0xbed589353e1a7ca0U, 0x3d0e9f963e3f4f93U, 0x3eb6f8e73e1aa508U, 0xbecd29ad3e8b7559U,
  0x3e03a9113dda9fddU, 0xbea8ea0abde2cf98U, 0xbe1b8a733e8ae84cU, 0xbd9ec839be0d805aU,
  0x3e8d6099be820ad6U, 0xbe47ad18be93193dU, 0x3d8aa1d63d96dc95U, 0xbdf9e1a2be32af92U,
  0xbd8c283abdd27abfU, 0xbe91c4b83eb44496U, 0xbede99663d0eb080U, 0xbd0c253bbdfe02a9U,
  0xbdc31805be2c2b3dU, 0xbe4b6697be1b06caU, 0xbcdaffc63bbbe9b5U, 0x3e8e727c3edda9e7U,
  0xba16082ebe07686fU, 0x3e530d95b8c1c833U, 0x3e21831f3e872d7bU, 0x3c9d94bbbe6d2d73U,
  0x3eb4ce50bd1a4b1cU, 0xbdfe641fbebe831aU, 0xbe618f753ea13167U, 0x3b2fb6cabe615a80U,
  0x3ebfc384be49b9e8U, 0x3e0a52d1bd5af733U, 0x3ceea14d3e6aafd2U, 0x3e0884c3be532669U,
  0xbe312a673e1f5eefU, 0xbe2353363ed5b3d8U, 0x3e9f51ab3ea7db87U, 0xbecb60003ead9080U,
  0x3e2c9af43e918463U, 0xbc800e13be66d361U, 0xbe26a1f73dd1a160U, 0xbd3f6b65be281370U,
  0x3e4311bebe86f01eU, 0xbe2064efbe06ba8bU, 0xbd90335abb5515feU, 0x3cf7d0b1bca5fbc7U,
  0xbd7fa57cbdb86053U, 0x3c8d3cfcbe95a459U, 0xbea7bc093e2e4115U, 0x3d8f6f4fbe998d26U,
  0xbe45d80fbe38df32U, 0xbaa6846ebe0d0ed1U, 0x3d99bcf93ead5159U, 0xbe9210323e0f8c68U,
  0xbe3804ebbe0f6fa2U, 0xbe1a1ba0be0444f7U, 0xbe3968b3be051d24U, 0x3e5d980dbe0db42aU,
  0xbe42ad9f3d0f16ccU, 0x3ea98c48be316590U, 0x3b103d5a3e2a6487U, 0x3e1ef9ddbe2b972eU,
  0xbd003f4fbe53b80cU, 0xbf199c38bbf92cbeU, 0xbe97c704bd27179aU, 0x3dba58e13ca1f0cdU,
  0xbe9deac9be0f78dfU, 0xbc8ca53abec393e3U, 0xbdf3847dbf1935f5U, 0x3ddaa7683e92b20aU,
  0xbd33f1ce3ee3a38dU, 0xbe3d87813dfd3532U, 0xbef138e83da75da2U, 0xbe533de73d8240e6U,
  0x3ea38f9dbca77fcbU, 0xbdeae8e0be376172U, 0xbeb6063abe1cb602U, 0xbda19e0b3e3aa92fU,
  0x3bcab71d3dce4dddU, 0x3cc5ada2bdf8d6d8U, 0xbe19765a3db77205U, 0x3e2c4a9abe9734c2U,
  0xbdad1ccfbda5fc2fU, 0x3d79448cbc9c1cbbU, 0x3d7a57e73d62db07U, 0xbe41cdae3dfee4f7U,
  0xbe2051633dc41df1U, 0xbe606e04be83b1f0U, 0xbe2b2ec9be2d5601U, 0xbd506ee03cac7f2fU,
  0x3e036d533ed124b0U, 0x3df5efebbeb825f4U, 0xb98af0163eac22e9U, 0x3e796bc1be82d805U,
  0x3de383fdbdaec2feU, 0xbdacadebbcec7d85U, 0xbdf16c0ebd70f9a5U, 0xbe21cb4bbd9ce1c2U,
  0xbd8aa5733e1c3842U, 0xbca741bdbe3a4cd0U, 0xbdbf59bcbf05c6b4U, 0xbda2b43f3ecb6e79U,
  0x3da93d003eae7385U, 0xbe12a5d83d29e2fbU, 0xbe9fa5013eb0c120U, 0xbdd2fbf53c2cf949U,
  0x3e7fc7123de509eeU, 0x3d032dabbf05a685U, 0xbe91f41ebd2898ceU, 0xbead9ca03e7189f2U,
  0x3e1cd3623e99e278U, 0xbdf82840bc121b71U, 0x3ddd2129be5b1ff9U, 0x3e18cc6ebe22751bU,
  0xbeb9c52d3db6970fU, 0x3e7c3f8f3e5c24a2U, 0x3e7abf023e1867a5U, 0x3ca688273e2da29cU,
  0xbe1dc2bfbbddd515U, 0x3c8ab1c9bed943a2U, 0x3dbf6eecbebd3f3bU, 0xbe74176d3dedabe6U,
  0x3e6da8a03f04e37bU, 0x3e3f0f55be99879dU, 0x3dfcc5f83eab8b38U, 0x3dea6779be42683dU,
  0xbcc7e32ebb77031eU, 0x3b1324cf3d5ca495U, 0xbe9730fdbd980255U, 0x3dca6815bdd05c44U,
  0xbd6a473f3d39df69U, 0x3e6e8aed3e3e4fbcU, 0xbde2347bbee6d5ebU, 0xbe4447203e86be00U,
  0x3ee688403e9f01baU, 0xbda637c73e4d6d81U, 0xbe13e7c93ec06018U, 0xbeb0085fbd8e747dU,
  0xbdc80e0bbe0320deU, 0x3d950d66bef51952U, 0xbeb589c63e3eb4b9U, 0xbe920f033e872437U,
  0xbe4737173ebdba9aU, 0x3e0f8d13be63a56eU, 0xbe8bea763d725751U, 0x3e84a59fbcf2872dU,
  0xbe26fcae3e365a15U, 0xbda9d7533d9bd6f8U, 0xbea3abb13ceba9abU, 0x3dafd84a3e879250U,
  0xbd9bf9bcbe1352b8U, 0xbd31655e3e5ae119U, 0x3daaef3abe866f66U, 0x3e3454283d69e328U,
  0xbdb4c2c3bd87174aU, 0x3e548ba8bd001b16U, 0x3ea35570beb1e08dU, 0xbe950131bbbdd1b6U,
  0x3e8cb0fc3c1db0b4U, 0xbbd076293e5c621bU, 0xbdc5d1a03e44bf6fU, 0xbe3286b43e945e6aU,
  0xbe9ed0da3f185918U, 0xbe303a79be1b8866U, 0x3e37fa4a3e820a77U, 0x3e0abb1abe18c589U,
  0xbe5309c63ea7c7d3U, 0x3d3c65f7bc82f4caU, 0xbe3817e6be16ce8dU, 0xbe913d433e949fd1U,
  0xbdd35de9bd2036d5U, 0x3e4fa3ee3e23e243U, 0x3e2b2e17bd0fd8e5U, 0x3e4d60dfbe8ee224U,
  0xbd16483d3ec44620U, 0xbd05921cbcf34488U, 0xbc6f1c71bd3a15d1U, 0x3d7cb0693e1e04e7U,
  0xbeb5323f3e9cc74fU, 0x3debd0413df1929eU, 0xbd4793f4bc60f7afU, 0xbd2c89293e2ddea2U,
  0x3d529fcd3c898a95U, 0xbdd0f2613cf96a77U, 0x3df0e8aebeffebafU, 0x3dcbec9a3e8ee46cU,
  0xbe71e705bd1e884aU, 0x3e08d145bb188940U, 0x3e6e74f3be649684U, 0xbde3ba493ce2de3aU,
  0xbd7069863da3daaeU, 0xbe978cf43e00c4efU, 0xbe8f25823cd43541U, 0xbf1d50ef3e71a0a1U,
  0xbe6b72f83ee5c813U, 0x3d6c6e5dbd6dfdf2U, 0xbc828e3dbdd5170fU, 0xbd9ddab2be68ccbaU,
  0xbdf1b1253ea4dd9cU, 0x3c8925e13e440d2eU, 0xbdd972eebd9db1a1U, 0xbe9e03af3dbdd8a7U,
  0xbeaaa41d3cc1f514U, 0x3cb344343d52b4e7U, 0x3e640791bda8590bU, 0xbd9cf389bd85be1aU,
  0xbe4fbcd03e8ace71U, 0xbd250edbbb48a96aU, 0xbdaa1700bdcf2a5fU, 0xbd203ceb3dac60fdU,
  0xbecf19213e6cdc80U, 0xbc651b9e3e181462U, 0x3cdb825f3e036f04U, 0xbe9a20f03e445db1U,
  0xbdc7c066bd270c97U, 0x3d8b08ec3d7b2c8aU, 0xbd97a420beb9c39aU, 0xbe32c6be3dbb1e15U,
  0xbe921fb639d903f7U, 0x3e856483be0ac1dfU, 0x3e10a826bec7ffc4U, 0xbe24eb1ebda5f1adU,
  0xbe24442f3c43755cU, 0xbe8af3f33e7d7a6bU, 0xbed56e243e63d554U, 0xbf3ad6ba3dec74dfU,
  0xbf16cf043eb6b523U, 0x3d0ef0ca3db13fbcU, 0x3cdde080bedb0de2U, 0xbe49c99ebd76154aU,
  0xbe96afd33e874ba8U, 0xbd57893b3d3453b6U, 0xbe3fe6aebe5b7736U, 0xbedf62d13e03c8e7U,
  0xbf056a7bbe3faf1bU, 0x3dd62b51bccbc439U, 0xbcff07e0be468b31U, 0xbeb586c7bd434934U,
  0xbe51593cbeed9ff5U, 0x3e830f093d9fdd2bU, 0xbf0ca92dbd83fb46U, 0xbccc4ae8be530f88U,
  0xbdf44d71beb95383U, 0xbea6cb35beb38622U, 0xbed9d2283d312632U, 0xbda67fdfbc1f9f04U,
  0x3df4bf3abee74157U, 0xbe5f62e33e01f46eU, 0xbe964043be916868U, 0x3b006e30be4b65caU,
  0x3dfb2505bbed12edU, 0xbe0803be3e37fb60U, 0x3e7575c13dc8f995U, 0xbe3677bf3e3ecaa9U,
  0xbe3f1f1dbe9f6317U, 0xbe35d90b3d79cc07U, 0x3e63a4633c801f82U, 0x3e820809be1b593bU,
  0xbd280dca3e1004f5U, 0xbf04654abe4fa19bU, 0xbdde57bebe5b018fU, 0x3d480ac2be4913acU,
  0xbd1b723abe057ee2U, 0x3e51af44bf00be3fU, 0xbe0d597f3e6d7123U, 0xbc944af73eb73196U,
  0x3de6518e3e689666U, 0x3e63cc03bbab6ae8U, 0x3dd175f6be8eb238U, 0x3e29171cbddfd4c2U,
  0xbe9e0fe5be2ff457U, 0x3d6e1a7cbe24091fU, 0xbc27fd0bbe0d04bcU, 0xbca032bbbcc78ab0U,
  0xbe20ad64399e74f2U, 0xbd8d4bdcbe2649baU, 0xbe3a54eabe179eedU, 0xbc0814fe3c84dcdaU,
  0x3bfc2bd0be6f6ef0U, 0xbe6a2b98be3c9dafU, 0xbea7d868bd509d07U, 0x3da9e5b5bc358597U,
  0x3d03c55abe54737cU, 0xbde6c6a7bdab5e0bU, 0xbd5872503df5310cU, 0xbd2a803c3c8d3cdcU,
  0xbe0e04adbe84f55fU, 0xbe563e36be10b914U, 0x3c5c6ff3bd2021d4U, 0xbd58bdc9be242afaU,
  0xbe3ace663beccbccU, 0xbe860ca7bca4f838U, 0xbe05e3e13d118416U, 0xbea8f66dbdee1d4cU,
  0xbc9311ecbe174385U, 0x3d347c35bd7db8e4U, 0x3d31a66dbd0b4850U, 0xbde884203dcc0b8cU,
  0x3e12d6a9be4adf46U, 0xbe8f73a1be2cfcf7U, 0x3d880ef4beadbcf2U, 0xbe59ec49be9236a5U,
  0xbe95b3c63dc004d4U, 0xbe8e42c3be226ca8U, 0x3ec0831dbe09fbc1U, 0xbe2df987bd20f1acU,
  0xbebd69b63e17190cU, 0x3dfad0fd3e25ce72U, 0x3e055b9abe376630U, 0xbd6f642d3d5544f9U,
  0xbe2804483e3af619U, 0xbe6f5a73bf1b40a7U, 0xbe577eccbec3bccdU, 0xbd99ddeebdf193a8U,
  0xbde9977bbcd189d4U, 0xbeda59c5be816a46U, 0xbea7e0893dc0f8e8U, 0xbd98e7d4be55927cU,
  0xbe8e374ebda087eeU, 0x3d815a6bbdaba3e4U, 0xbec6140bbdcb83f6U, 0xbe5ceaf3be5db706U,
  0xbe64b751be4c498bU, 0x3e016ffe3db4bef8U, 0xbe899147be31d513U, 0xbe9c48313cdad4bcU,
  0x3e33f229be2ccbdbU, 0xbe1e66bf3d5a107fU, 0xbd74670dbda2c445U, 0xbeaa8ae7bea7e00eU,
  0xbe4705b5befd37a7U, 0xbf127c9ebecc0fd6U, 0x3d40a8cdbe13fca2U, 0xbee61ae5bd9b14e8U,
  0x3dc6ebf1be4183b2U, 0x3d0a99b6be5a8489U, 0x3e591af1bdbc0a83U, 0xbd8b136f3e776719U,
  0x3dbeb0e13e79f1afU, 0xbea4f5673d3f1d91U, 0xbdeeebe0bd3d9080U, 0xbea35586bec1210bU,
  0xbec421813d315907U, 0x3dc167513db8c171U, 0x3d7fca1bbe862055U, 0x3d7702c8be02df36U,
  0xbdc55df2be026a5dU, 0x3db372be3f190407U, 0x3da9ab6abc8b1fbeU, 0xbe80f68abd56f28aU,
  0x3e14c34fbe8b5a4cU, 0x3dac99b3bd99a9adU, 0xbec039933e99a0f4U, 0xbe10c720bda7414eU,
  0x3daddbb63e0ffcb6U, 0xbeeee3af3d271659U, 0xbe892056bdc415a2U, 0x3dbc4e0ebe5dfb75U,
  0xbd6ed8e9bdcd1bf9U, 0xbdcc83e33ce8a934U, 0x3dcf1dbabe8a320cU, 0x3c99483c3dbb791fU,
  0xbe8972f93e407c9fU, 0xbe1030fd3e87300cU, 0x3e908b3f3d62aa2fU, 0x3d849b24bdabbeadU,
  0xbe05077ebde53ae2U, 0x3dec4894be818145U, 0x3e5519ccbe46f528U, 0x3df8b0803ea61423U,
  0xbe0fd0e83e40fdbdU, 0xbe9f06cbbcbde183U, 0xbe122df2bdad3a60U, 0xbe1f3918beb76b50U,
  0xbeedae253db3042bU, 0x3d228e803e2aa317U, 0xbccbebbdbd48d02eU, 0x3d036d54bd6a84b0U,
  0xbe2fb818bebdcc7fU, 0x3d8dd0c93ee642caU, 0x3d820a09bdf0337fU, 0xbe619371be4a837dU,
  0x3e613ab7bea7b326U, 0xbd8778dbbd824d9bU, 0xbeb907613eaa8dd8U, 0xbdcaadb4be5ccbd3U,
  0x3e1088e73e1dcb41U, 0xbe8bbf4f3da34961U, 0xbe7ee3fdbd626c75U, 0xbd781260bdf69c59U,
  0x3d7df3d5bd554735U, 0xbe84c795bc548055U, 0xbdf8fc11be51a60fU, 0x3d49d2cf3db25aadU,
  0x3d17b5c93e81609bU, 0xbde4eb083e8d62ffU, 0x3e95184dbd9b2adbU, 0x3de9c9e2be0bcbbbU,
  0xbe1dba70be55aaecU, 0x3c79bab7be9f494eU, 0x3e29ccc2bea6c4a2U, 0x3d5e1c3a3ea18e05U,
  0xbeaac2333e7ac270U, 0xbec7d6d7be1154fcU, 0xbe0faa19be83706eU, 0xbe155777be66b18eU,
  0xbe9b96373db2cdd7U, 0xbcf2a95ebd5adc08U, 0x3d92c850bebaaa12U, 0x3e21fbf03dd6c94fU,
  0xbe2789ccbead238fU, 0xbde395263ef8a9cdU, 0x3c086f82bef2de58U, 0xbe037242be96b548U,
  0x3db6359bbecbd170U, 0xbdbef623be82ccfdU, 0xbe7d91563e9b5181U, 0xbda84127be71ff6dU,
  0x3e20f8613e3da310U, 0xbe829e453e2a03f1U, 0xbdd818a7be32876fU, 0xbe19a5a9be14418aU,
  0xbdba25cbbe2ac2b3U, 0xbec8cd26bdb7135fU, 0x3bdba8babd836260U, 0x3d77eed6bdf5ab9aU,
  0xbe40a6563dd5b512U, 0xbe0ef60e3e596cd0U, 0x3e75b50f3dec82feU, 0x3d0ba4f9be975749U,
  0x3be191f9be0ae4ceU, 0xbf36c3c6be379cadU, 0xbd4b29e5bce72579U, 0xbe463444bde0eb7aU,
  0xbe08cd84be81c146U, 0x3e056907be67ef3bU, 0x3c6adaa43e1c7182U, 0xbe2bf6a0be6549d6U,
  0xbe976240bdcf54b3U, 0x3cb81cacbf111492U, 0x3d96f4a4be0fa26fU, 0x3e437c523c8c5703U,
  0xbe6e83d4bc21fbdbU, 0xbe70f0c5bc968ca3U, 0xbe9d3033be73bf88U, 0x3d92875abf13eb78U,
  0xbe641bd5be0e4fe2U, 0xbe56d9e6be11a203U, 0x3a97440dbeabcc0dU, 0x3e247dd9beda1b22U,
  0x3e2ef893bee5ed34U, 0x3dce24bbbe1c3c26U, 0xbeb58caabda6b3baU, 0xbe69fe0c3d2147f3U,
  0xbe229182bea64b62U, 0xbe9b9ca63d3053caU, 0xbdfbe0c53d90a5a4U, 0x3dbab7bcbe9b0aa1U,
  0x3ec17c3bbeb27a2fU, 0xbee17956befe1073U, 0x3d9d2c47bd254b4aU, 0x3e6eb8d1bdaec41dU,
  0xbe30f743be1f3465U, 0xbf50ed6abd70954aU, 0xbda93f6dbd888017U, 0xbe0f9a0cbdbbe8bbU,
  0xbe5f1033be355071U, 0x3d3a81dcbe5310f1U, 0xbd5d81a63cd358d4U, 0x3c70b967be160175U,
  0xbec7973cbeb56d10U, 0xbcaa70e1bf092968U, 0x3e1a2d9b3dec4930U, 0x3daa17a5be252db1U,
  0xbd989c80bd1194a6U, 0xbe917b63bd0c55f4U, 0xbee9e581be5248c7U, 0xbc52fa30bf2ab7c4U,
  0x3b23197ebe5cfdacU, 0x3e96c263be832c23U, 0xbe1aa6d8be24246cU, 0x3e85f9e1beca514eU,
  0x3ab3db1cbeca77dcU, 0x3d5e6ed9be3f5d99U, 0xbe8bfa8f3c994dafU, 0xbe856a0b3e10e78eU,
  0xbe6796d6be90a9dcU, 0xbebcd559bd9cd013U, 0xbe317d723d1c2f75U, 0x3dd7ebd8bee50b3aU,
  0x3e7b0a94beac5a36U, 0xbef041d5bef28688U, 0xbc78c321be83db40U, 0x3e0f0192bd45c648U,
  0xbcb22505be367502U, 0xbf10aabc3a8549dcU, 0xbda0b3333d6706d9U, 0xbdbd24f83bdfe589U,
  0xbcfd88dcbcf9f97cU, 0xbd3b4473bd093479U, 0xbccb3c953df2bd81U, 0x3de8ebefbe46ee09U,
  0xbed1cf0cbef200b5U, 0x3d9c74d8bee90080U, 0x3e6430c8bc3dbcf2U, 0xbd5ddacebe5f35c1U,
  0xbd6b9536bdf57946U, 0xbd0a2ab53e6529f2U, 0xbea3841bbe5ed5d5U, 0x3d20170dbec3a867U,
  0x3dee73b4beb59bc1U, 0x3f08f518bdc51fb4U, 0xbd1c00d9bd5222dfU, 0x3eea3e71be70cb9bU,
  0xbc8f83e8bea7ce71U, 0xbd287d5dbe2d3a4cU, 0xbe3889943e1c4fd0U, 0xbe593aa73e7fda03U,
  0x3bdbb560bd5ca3c1U, 0xbd48aab8bd95c140U, 0x3d516d90bd7c2bfcU, 0x3e2db2c9bf02a0a0U,
  0x3e3b0b4bbcd5f6b3U, 0xbee456d9bd0c9e38U, 0x3e960245bee12808U, 0x3e8cc7c3bcbd9916U,
  0x3ba60165bec82c36U, 0x3edccf043db14c3bU, 0xbf2bc5a63c893e2eU, 0x3e5de8febd1d21b0U,
  0x3d737556bea94c94U, 0xbf2c4ff5be00ebe8U, 0xbebaa682be2037dcU, 0x3da1cb563bdd28a8U,
  0x3e5d8211bdd0e19cU, 0x3e0c510abd499147U, 0x3e032398bdda47fcU, 0xbd22155cbe04a002U,
  0x3ddf97643ddb34dcU, 0xbe66793f3d1d2a22U, 0xbdb32ff13da8c33dU, 0x3d8af8803ec3ce3bU,
  0x3ddf1023be8549e4U, 0xbe97317bbe8b2784U, 0x3e376e293e1615d2U, 0x3e8873f03dd908baU,
  0xbee4ef89bdb8e36aU, 0xbdc96ca63e60dbc4U, 0x3e3ebc1a3c69f81eU, 0xbdc9aa5f3ea438fdU,
  0x3ea46b20be171b68U, 0x3d5ccb763c09a953U, 0xbdf48c65bdf3fd00U, 0x3d71fbe33e773853U,
  0x3e19380f3e7c5f53U, 0x3de591533d4f6196U, 0x3c043d89bdec9a20U, 0x3e054551beb80587U,
  0xbe182999bf0d9c73U, 0x3ecafd633cc9a65cU, 0xbf0fb4773cf1ecd5U, 0x3c9cd02bbd85577aU,
  0x3e300610bea877d5U, 0xbf609602be8528a0U, 0xbf1a9f40beb6a14fU, 0xbdcabd713e1ae2eaU,
  0x3e7ef48ebdbecd40U, 0x3e03c9583ccb61e6U, 0x3cd4acbcbe92f50dU, 0x3da1dc543c1524fdU,
  0x3b3b381d3dafd5d5U, 0xbd79059cbda65198U, 0xbe19acbb3b6df345U, 0xbe2525bd3ef9c947U,
  0x3db8d5eebf061cdeU, 0xbe9126f9be5bcaa4U, 0x3e89c98b3de7771fU, 0x3c10cc8dbcd0f08bU,
  0xbe9e1722bd18a931U, 0xbe5ba4303d4e1bc5U, 0x3d37a4aabd365390U, 0xbd29625b3ea856c7U,
  0x3e3abbd9be07d01eU, 0x3cea87fbbe62dcedU, 0xbdabf9d5be85a242U, 0x3e6760e23debba66U,
  0x3d83b0f43e519171U, 0x3c5ded5abe043e3aU, 0xbdea3763bd106dd8U, 0x3dd4abbebed5778eU,
  0xbee83cf8bea1a2a5U, 0x3e2814453ce13a78U, 0xbf2255d0bde5140eU, 0xbe00e1e9bd78d1abU,
  0x3c3d0cc7bd211d12U, 0xbf2c3681bea69e3aU, 0xbf224746bea0524aU, 0x3e054d2fbc0a0f5cU,
  0x3e854c60bcaa8a1eU, 0xbdc7fcadbde84dd9U, 0xbd1b74d2be369c48U, 0xbe5b1cf6be299505U,
  0xbd3b1ac1be86cf5eU, 0xbe83b491be8c717dU, 0xbe39f258be017d4fU, 0xbae6e8703f0911f9U,
  0x3e33adf2beecedb2U, 0xbd043b8ebec5d9eaU, 0x3e8384ddbd538ebcU, 0xbe072c47bdf20440U,
  0xbe4e052ebe019c34U, 0xbea3fe41bcf03f66U, 0x3d1aa7af3dc14361U, 0xbe29a10a3ded799bU,
  0x3d9b3b74bea870a2U, 0x3dce1ce9be92b20dU, 0xbe3c76d0bee7dda8U, 0x3e43a1be3d84647dU,
  0xbe0021d03dfb8bf7U, 0xbe224b7abdf3feb7U, 0x3c0c28443d4841c3U, 0xbbb55306bf29bd29U,
  0xbdad8b91bdfc09b5U, 0xbe6bbda8be03b5e1U, 0x3e1f9a003e1f4490U, 0xbdda488f3e3041aeU,
  0xbe394e56bd6abf06U, 0xbe04b521bd854667U, 0xbcce6745beab876cU, 0xbde52b0cbeb2b127U,
  0x3e37bf85be3e4ebeU, 0x3da1f824bf5e3a9eU, 0xbd886484bc7035ffU, 0xbd3791d13ec646a5U,
  0xbd9401b5be085d34U, 0xbdba97313e27cae6U, 0xbf1c7a81beed3f08U, 0x3e18f91c3d52dce9U,
  0xbda89244bcb03112U, 0xbdea2ef6bed15857U, 0x3e49d8cb3e7b0d46U, 0xbe93d355be894956U,
  0xbe9945efbe9af0a9U, 0x3e0221103e71b74cU, 0x3db410fdbdeb8229U, 0xbe237dbc3d94a531U,
  0xbdf666dabd4a8a46U, 0x3d0df3673d666bd7U, 0xbe36a3ccbe20ef2cU, 0x3e92b902be9a6b34U,
  0xbe7ed2c83e7278c4U, 0xbea09af9bf5778edU, 0x3c1efa9dbeab2823U, 0x3d9781b1bdd944caU,
  0xbe4f7a3fbeb81c70U, 0xbe36eaf83db53fb5U, 0x3e11a7f93d13b0e6U, 0xbe0cc4d3bcef5b68U,
  0xbea66577bc9115bfU, 0xbda5e2e8bda8f364U, 0xbbbbef37bea1098cU, 0x3e0007ddbd8ef13cU,
  0x3e1d503dbe195e3aU, 0x3df4e65dbf45fdefU, 0x3e2c64f3bbc58534U, 0xbdeaf4663e8e2b43U,
  0xbd20cd0dbe5354e2U, 0xbdb142e7bcbe6488U, 0xbf1833a1be94ace8U, 0x3df2e6f63e3192c3U,
  0xbd956aecbe93c554U, 0xbe2c5ab6bee8e480U, 0x3e1ddde43d438b2dU, 0xbea41a613d2e0462U,
  0xbec6b414bd0d767fU, 0xbdb981703d8cc9e3U, 0x3e3cdbcf3cb6d478U, 0xbe994a9f3e1255c7U,
  0xbe8a4131bcbae19eU, 0xbd48d5a2bcc3f2a4U, 0xbe4c7c18be0d6765U, 0x3e2b6529becb4f8dU,
  0x3dc14dae3e604b57U, 0xbea46578bf6da796U, 0x3e3c645dbf0f16beU, 0x3da21890be4fa038U,
  0xbde21daabf2a29cbU, 0xbe279cb8bc896cd9U, 0x3e1e4ba5be6595b3U, 0xbdfd48193e3cb48aU,
  0xbf02bdd93ed2bbfaU, 0x3d5b129e3db378baU, 0x3db0a722bec8019bU, 0x3e1821a8bd9513f6U,
  0x3d318b69bf0a45e9U, 0xbc8aa15dbea1452eU, 0x3e9c1aa2bd3f9061U, 0xbe5a79393e89d834U,
  0x3dc9c47dbde7852aU, 0x3d0298813dbc9702U, 0xbebed09cbe8b2431U, 0x3dac9f543e0cf5c0U,
  0x3c89a1c5bf07a23bU, 0x3d0ac008bf29ceb7U, 0x3de638d33e8ef9bfU, 0xbe0419733e7a3ec1U,
  0xbec5e3373eb4101cU, 0x3dab956a3e7c6cf8U, 0x3e6d54393e3a64eaU, 0xbeaf9e39be2e1c93U,
  0xbdcb39bdbdd8604aU, 0xbc99ac223dd523e9U, 0xbe578fdbbdafade2U, 0x3d8b058fbd7b8a13U,
  0xbe0f95aa3e4394e8U, 0xbe51e305bf0190d6U, 0x3e8357e1bf07136aU, 0x3c6c1c02bce757a9U,
  0x3de61c03bd6ab127U, 0xbd9285d93dea1dd8U, 0x3ed443e9bc2d0a77U, 0xbdf5fb003e88ec51U,
  0x3c2c10a73e677f2cU, 0xbe70ce093d8f2018U, 0x3e6dfd9c3d84851dU, 0xbdd106f83e266d29U,
  0x3e4bae1abcc81472U, 0x3d246eb93da1783aU, 0x3ebfd94d3e0a76fcU, 0xbe9662893ecfe6c8U,
  0xbd91722ebde37624U, 0xbe304c743e7b9499U, 0xbda706f2be4c03deU, 0x3ec2b1ca3da18f85U,
  0x3d94d4e5be2b2f01U, 0xbe096b80bed60247U, 0xbe586e8c3bbc969bU, 0xbd0270b83ea93cd5U,
  0xbcfb29fd3c112508U, 0x3ea3936f3d9d48c8U, 0xbd5f25813dec72baU, 0xbcb938943d3ab9e3U,
  0xbed3d8e8be932dedU, 0x3d2a67593e3ad290U, 0xbc9322e5bea69bc8U, 0x3e468206be231b3fU,
  0xbc9858b33ea1944bU, 0xbe2d94f73e9b6a57U, 0xbca6831b3d9eff55U, 0xbe5dbdd3bccb9666U,
  0xbe6dd0d83d429bcaU, 0xbe0b7f8ebe92031cU, 0x3e0ed3b6be9e1db7U, 0x3e45f274bd734125U,
  0xbe37bfdbbe116988U, 0xbde0de1fbeca52a1U, 0xbce5e7c3bd0f00f6U, 0xbeaf3b55be999f8aU,
  0xbd8e715cbc1eb0ddU, 0xbebc6a43bd41d9cdU, 0x3cb4d0ef3d72252fU, 0xbdf6d205bd9c9ae9U,
  0xbe14af58be064c23U, 0xbe928d8abc5614f5U, 0x3dcfdd4a3d455387U, 0xbde0eb4c3defa725U,
  0xbec53db63d144f0dU, 0xbdcb455bbe145064U, 0xbcfdc746bea1f56cU, 0xbc249f6a3e14fab8U,
  0xbb548461bea4c970U, 0x3e4b53c0be88b97cU, 0xbec07875be6833a7U, 0x3de42cacbea35a00U,
  0xbea85c2e3d86f7efU, 0x3e2365f3be56571fU, 0xbde745d1be7c2622U, 0x3c9a92e0bdfa9473U,
  0xbd0be345bccf198fU, 0xbdb2b1983d829dcaU, 0xbdf20d143dd3fec4U, 0xbe1f45fbbd3c6c8cU,
  0xbe950fa2bdc05c87U, 0xbcac4bb8beb0b364U, 0xbef1d346bd6dcb10U, 0x3dc7ae09be369ddbU,
  0xbf0846c9beb5e648U, 0xbec6c9a9be7f5d2dU, 0xbeab1e50be240827U, 0xbe21f842bd25a402U,
  0xbe255c51be6bd458U, 0x3d1ce28bbe673b65U, 0xbeb05656be01e51cU, 0xbedbd9d9be2f85e2U,
  0xbea88a4dbe9fc78fU, 0xbe955567be261e9fU, 0x3e71c627bdc1e798U, 0xbdf51727bdc8647bU,
  0xbeca0cbebec80944U, 0xbea50287bd11cf7aU, 0x3c23e7d6be4916dbU, 0xbeb15f89be63a90eU,
  0xbe041856bd659435U, 0xbd82c47b3e8c7466U, 0xbe4774b9bec6d10aU, 0xbdc9757c3dbad626U,
  0xbe3ef1cabde83c39U, 0xbe1e03b3bed67300U, 0xbe93502d3da0b28cU, 0xbe6a449dba39ba33U,
  0xbe9a8b48be825c1eU, 0x3cd24ca1bea7593cU, 0xbe81170bbd63e4f0U, 0xbf082e4bbe85d55bU,
  0x3d9f35743c189d2eU, 0x3f5b1ad23e4bced6U, 0xbeabcf31bd227687U, 0x3d8d49f5bdea1288U,
  0xbd806386be8d61b2U, 0xbe188e84bde79440U, 0xbef01c3b3e374d0aU, 0xbe5f71d03e0a7921U,
  0x3e1d7ffdbed9bf24U, 0x3d3146103e61d6a8U, 0xbe572070be83ebcaU, 0x3e063c5a3e48d06bU,
  0x3c2d130d3e2f2b67U, 0x3c8f4af93e0af3ffU, 0x3d8db41e3d4100fcU, 0x3dd4b20e3eb2ccb5U,
  0x3e3b60c4be34cb2aU, 0x3c2d96613d6d5063U, 0x3e6f055abdcba982U, 0x3a8ba7333d0b4b91U,
  0x3dedd6143e30bd00U, 0xbde0ddcebe9d371aU, 0xbe8c449ebd9dbdd4U, 0x3e897a7cbddc2b64U,
  0x3d3ffc103dc88c28U, 0x3e80eeb63d7769a5U, 0xbe36ed363c40af50U, 0x3c86f7ff3f3d281cU,
  0x3d05475e3ee49cb0U, 0x3eb93c043e6acc70U, 0x3e2935b2bdadde6fU, 0x3e81d8c13df843c4U,
  0x3e22fd0abe44d579U, 0x3f3ce3713ea0a59dU, 0xbe750bdebd1a37ceU, 0xbd7864413d552f98U,
  0xbcb8f60bbe85d7beU, 0xbd0dc164bdfd8e0fU, 0xbe3dc5973e2e68b2U, 0xbe1a69473d796037U,
  0x3e048f8dbf1e0ffaU, 0x3dd8899f3e69ff89U, 0xbdbb4892be1f8bdeU, 0x3ca024a23d17e466U,
  0x3df0e185bd187ca8U, 0x3e459e843e239411U, 0x3e5c8059be6038f0U, 0x3d16a32b3ec3257bU,
  0xbd2ad5efbeb1a5a3U, 0xbe44600d3caf61fbU, 0x3dfb0da8be05b9ceU, 0xbe4850273e282651U,
  0x3d9a4a133d5b7b90U, 0xbd861819be2a7a93U, 0xbe42344ebd486417U, 0x3e8fb753bdee1724U,
  0xbe072e7d3e16a8bcU, 0x3e2136f8399bff6eU, 0xbe87187b3cfb5703U, 0xbe1dc03e3f38f327U,
  0xbe337fd43ed14c5dU, 0x3ecb61063e15ba52U, 0x3df9ef65be3e4f3eU, 0x3e5051bb3d80f966U,
  0x3da50036be698788U, 0x3efeab1f3df57197U, 0xbe951b6c3c89907fU, 0xbdca4e81bd9dc83dU,
  0xbe2bb00bbc9bbef1U, 0x3d87827ebdd729eeU, 0xbe82cb633e0663d9U, 0xbe4a6642bd117cdeU,
  0x3da4320cbf18b32eU, 0x3cef2b273eac5775U, 0xbe07d868be5cf0a4U, 0xbe20f402bd5a19edU,
  0x3e1ccfd4be6ba530U, 0x3c6702bf3d47e9afU, 0x3e98ae0abe88aed9U, 0x3e439f263e6955f7U,
  0x3b6a122fbeb80638U, 0xbd2489a13e56bb54U, 0x3d2634e43d99d002U, 0xbe8ff8823e67aa7eU,
  0xbe31585a3e955b8dU, 0xbd5a62f8beb4f42dU, 0x3d5c24d5be8336a1U, 0x3ea054b6be75b29eU,
  0xbed3b9fcbe0d5012U, 0x3dbd25963dda7e58U, 0xbecb4070be64bf61U, 0xbe6884d03f379422U,
  0xbdbb3abf3eb88d1bU, 0x3ede57693eae6eaeU, 0x3e3bf222be611244U, 0x3dc664b4bd7d4010U,
  0xbed92f473eab6108U, 0xbe8bdd8cbe629e34U, 0x3dbdd73dbe892ff3U, 0xbea86cd0bdf439daU,
  0xbeaa49ebbdf30c63U, 0xbdc792983c779383U, 0x3e2623373ca1b364U, 0xbe8251e13d6eb4bcU,
  0x3d0018883e85ae8cU, 0xbead57e3be825a82U, 0x3e007a47bda6defeU, 0xbe29c2953e3d2294U,
  0xbe8355273e60c03dU, 0xbe5f2fafbf40b918U, 0xbea94d8e3dec9164U, 0x3d1cfe7abe4ff58fU,
  0xbe918587be24dfa6U, 0xbee6d9ccbe81e1d8U, 0x3da7d56cbcd42e10U, 0xbe6f822bbe06ec4fU,
  0x3e7e7de7bd576e20U, 0xbdb2008a3e2d572fU, 0xbef65b0dbe8f838bU, 0xbe37a5c1bdb5aa15U,
  0x3e9d719f3e107042U, 0xbdf75f29bea8c792U, 0xbe1f673e3d1ff085U, 0xbdbe0e54bf032010U,
  0xbe70494ebe42760eU, 0xbf01ad2abeb5ba42U, 0x3d9e974fbc2529cdU, 0xbdb038ebbd14e231U,
  0xbef7ce103eaab4e4U, 0xbe657a8bbe469359U, 0x3e8137a7bead1955U, 0xbed69246be01708cU,
  0xbe83a5febe4506d7U, 0xbc5e77fa3cf2c5c5U, 0x3e6196303dd4e673U, 0xbe28ef57bd837bf8U,
  0x3dad1a653e8fcab6U, 0xbeb10d63bdefaef6U, 0xbd64ab50be156600U, 0xbe22e3d83e2ec453U,
  0xbe3893923da70986U, 0xbe371a69bf00b161U, 0xbce88e793e791190U, 0xbd5b763abcfdc03eU,
  0xbe48bd16bd011fbaU, 0xbf2261d0be1bf863U, 0xbdbac906be111dfaU, 0xbe4fca81be0f64faU,
  0x3e2e681d3de38f38U, 0xbd3547ba3dde6a47U, 0xbeb95f87be74feb7U, 0x3d3c15e6be2c5de5U,
  0x3d5497e93e9efb56U, 0xbde1896abe486a53U, 0xbd1cd471bd5a67d4U, 0xbe1a667cbe99a176U,
  0x3da14ebbbe86f475U, 0xbe236749bed74eb4U, 0x3d9fce4c3de95d1fU, 0xbd9e2f86bdd059abU,
  0xbeabc2e73e8e7247U, 0xbe24f2ffbe7e8e53U, 0x3ed6337fbe65d75aU, 0xbed53db8bbcf1832U,
  0xbea8341cbe2d817eU, 0x3da8b6c3bc52138fU, 0x3e402a233e033d86U, 0xbd0031b6be2bb4b1U,
  0xbde8f9c33ea1d1abU, 0xbecb021fbe706caeU, 0xbd28d2c13b39f40dU, 0xbe1462ed3cc5fb24U,
  0xbe845e6e3d2a0e89U, 0xbdc5a4b4bea9ee92U, 0x3a4103363ea12386U, 0xbe14ca5fbd954055U,
  0xbe95e92f3d7c8ea3U, 0xbed3ab21be08a37eU, 0xbc4a0cf8be54582bU, 0xbecdfc3abe3c9e45U,
  0x3ea32051bc3099a1U, 0x3dacfc463d2686abU, 0xbe75630ebe2ffbe1U, 0xbe16cd23be80f3e0U,
  0x3d84c01b3e88185cU, 0xbdadd215be62eb34U, 0xbc950653bdaebb7fU, 0xbe22aabdbeaf0271U,
  0x3cf95f79be8bc82cU, 0xbe544657bf0a78aeU, 0x3d4604eb3d8dcb6dU, 0xbdee9078be0f161bU,
  0xbe8c30003e96ce52U, 0x3e313fe83e2e96e0U, 0x3e16c7913cff2331U, 0xbead405a3c4b4c1bU,
  0x3e04e57d3e67cfb4U, 0x3c9bb131be17a6bdU, 0xbdf4ad1dbd02fe74U, 0xbeaa636b3e2a3ca6U,
  0x3d9e6d313df6a34bU, 0xbe7cc5273ec9b35fU, 0xbe78e0193cd4b526U, 0xbd3c1fcd3f04b253U,
  0x3c1aae0bbe3fec6dU, 0x3ea6ebad3e2f5b36U, 0x3e8989ff3cb2d6d4U, 0xbe52ec563d84c75aU,
  0x3d5fef673e9b00f6U, 0xbd81e15f3e476efaU, 0xbd7b00e7becc0e28U, 0xbf0493073da7d2b7U,
  0x3e35b8073d78cfbbU, 0x3db10a6dbda4b024U, 0xbe563f2cbe172c15U, 0x3eccc2ce3e032279U,
  0x3ce7df84bcbb595dU, 0x3e4130ff3e475322U, 0x3cbab030bee12c29U, 0xbe53bbdb3e45c920U,
  0x3e038d133e24d0d1U, 0x3dc70f773e82b062U, 0x3d62f6163df80ef4U, 0xbd84a103be4ec460U,
  0xbe9d5db33e172a2bU, 0xbd7e6624be1d0f69U, 0xbda95591bdb8a044U, 0xbefe14f2bce23291U,
  0x3bce5b583c96ac4cU, 0xbd5cd220bec062f7U, 0xbde7566ebcbfa69dU, 0xbeae82443dcc1569U,
  0xbd01c5353d6317efU, 0xbea2e6ce3e8e112eU, 0xbe131e7dbd2de854U, 0xbe9590093ecbd22cU,
  0xbdbd590bbee14b77U, 0x3d75ae823dc0c61dU, 0x3e4bab163ca0ef61U, 0xbdf72d6fbe54e5feU,
  0x3e2714d73e6c200aU, 0xbd819db43da33c21U, 0xbe6ca7f0be87e897U, 0xbe1d37fb3e172c55U,
  0x3dd38b683dab6a98U, 0xbe1118313c3674cfU, 0xbdb01e6dbde1d937U, 0x3e3db21bbba8612aU,
  0xbe2c3172bd726be0U, 0x3ded672ebd778738U, 0xbdca47ebbf09d3feU, 0xbe06b251bcfd96d0U,
  0x3dd8df573db1374cU, 0x3ccf65113def7ec2U, 0xbd72b0333d3e4f3aU, 0xbe8559b7bead7b5cU,
  0xbf012e503df27ef0U, 0xbe590906bebeafc3U, 0xbe12e4a7bec357cdU, 0xbf153c26bc10d819U,
  0xbec4b78dbe028119U, 0xbe03b143bec116c5U, 0xbd198399be54e182U, 0xbeb60500bdecca8eU,
  0xbe59c4903d6286daU, 0xbe9600463c86e9a7U, 0xbe2a632fbe902770U, 0xbeed13663ea1250dU,
  0xbe3ab33abf13940dU, 0xbe09706d3d7f570cU, 0xbd415cd1be010723U, 0xbe6c09fbbebfdeb1U,
  0x3ac7f998bd4afdcaU, 0xbeabbbc23b848a7eU, 0xbefff27fbe47c802U, 0xbe7018be3d1f3466U,
  0xbde5565d3d130b65U, 0xbeb7d22c3d09eb31U, 0xbe197aa9bea3ec5eU, 0x3d8e6f10be63eafeU,
  0xbdffb4a1be4916ddU, 0xbd04995fbdf429b0U, 0xbe61676fbed62675U, 0xbe70848abd7fabc7U,
  0xbe1ca819bd9f216fU, 0xbe8502273e2f0402U, 0xbdb89d7f3bfc9d19U, 0xbecf98a9bf33eca2U,
  0xbe0474f93ed359d9U, 0xbe6f02093e0a4aeaU, 0x3d0ef7c3be25fae9U, 0xbe1654a53d309be0U,
  0xbee534fabe92993eU, 0xbd730b07bd759860U, 0x3e342892bda1bed1U, 0xbe8fea34bd61e99eU,
  0x3d53a1b83e518fd0U, 0xbede8dc5be9b3ab5U, 0xbc93a757be76ad1aU, 0xbe96d24f3f0bdcb9U,
  0x3e550e453e8b9997U, 0xbc514c38be84d512U, 0xbd88bba93d185d5dU, 0xbd217e96be04e4ffU,
  0xbe72cec23de6a9b3U, 0xbf24b6463d7e3d4fU, 0xbd01ba9cbd1f9a8fU, 0x3c8e8a15be713f9eU,
  0x3e86de04bd9be3eaU, 0x3dde6cf83d3aefb9U, 0xbec42014be817da9U, 0xbf2e1c3fbc66e7daU,
  0x3e49efbcbbdb39afU, 0x3e74334cbe3f3f55U, 0xbc65b9d23dc811b2U, 0xbde80337be8a9fd8U,
  0xbf0b0bb13db1102aU, 0xbe52d06fbd2b7c14U, 0x3de0c7523e7bd91dU, 0x3d66e0dd3da15f04U,
  0xbe30c9c83eb17916U, 0xbe2609e63eb16318U, 0x3e102703bd936bbcU, 0xbe181ef4bd45eb20U,
  0xbeb85c09be8019bdU, 0xbc8943573d8ef12eU, 0x3e28ad1c3c3091daU, 0xbe7acc2ebd0357f3U,
  0x3e5d4e733e0a3d36U, 0xbe83435dbe2abdd3U, 0x3b961b35be3f76e3U, 0xbe5e81423ef3eb8fU,
  0x3c85574b3e883ae7U, 0x3deab3cdbd80aa73U, 0xbd271f7d3e3d3dd5U, 0x3e009da83dab6d6fU,
  0xbeaa5d013e981ba4U, 0xbeff85783ce77409U, 0x3e0ff4f13e373679U, 0xbed35c6abe6d58e4U,
  0x3e833b65bd53461aU, 0x3e5f0d4f3e4bfeb7U, 0xbe6ef5a3be5242f6U, 0xbeb6925e3d7a24f4U,
  0x3e14764ebdcc3ff3U, 0x3ea13d37bdb52d00U, 0xbcfac72a3e1a407cU, 0x3c57e59fbdc85470U,
  0xbe96a12c3e1343d2U, 0xbe16837f3de1d0f6U, 0xbd2111d83e15892fU, 0x3dca733d3e1c25e9U,
  0xbc348d6a3e15451fU, 0xbc963f433e5d97f1U, 0xbcb3cbf53d09c40aU, 0x3c9a3862be14fc68U,
  0xbd83d569bd3c7277U, 0x3c0444043e85ac96U, 0x3d88009dbe072515U, 0xbe0ea833be93e86fU,
  0x3e243cb2bd146b21U, 0xbdabc4cdbe0dbdcbU, 0xbdbbaa5abefee3f1U, 0x3cfc70833f091223U,
  0x3d6f19f03e931e9bU, 0x3db09bb3bd9877e5U, 0x3d0240813e5320f4U, 0x3ea99a7c3c3236eeU,
  0xbe8f544d3ce34581U, 0xbf1b4722bdb1d546U, 0x3d9ebdcf3e5ca435U, 0xbeebb799be4f0000U,
  0x3d90ad01bdc1d994U, 0x3e16b71c3da12be8U, 0x3bf974f7be503661U, 0xbe8b76a53e765032U,
  0x3d8e55cdbe328c2bU, 0x3efbf2cabe434389U, 0x3a8d4b803d48388cU, 0x3de35af13ceae8baU,
  0xbebb40603e5f0e83U, 0xbe820f713c10f915U, 0xbe09ba95bddc4e63U, 0x3d5f9cf53e56d2b6U,
  0x3dddc5b8bea3f982U, 0xbdf2583e3e51c78eU, 0xbe4e76b5bd29d3afU, 0x3e8070623ee1343aU,
  0xbe25dd74bdb888f8U, 0xbec541ae3de6924fU, 0x3d48613f3e9dd715U, 0xbe8b55793bea9557U,
  0xbd83b32ebe219181U, 0x3dc5aac4bd9af520U, 0x3e19a3d0be24f439U, 0x3e14298e3e74df6bU,
  0x3e1d64d43e854395U, 0xbd8bbbf73e8ce43dU, 0x3de58fc4bec27406U, 0x3eb96bc9bc818238U,
  0x3e4fd233bedcb721U, 0xbe0fbc9abe59a9a4U, 0xbcc65feb3ec35095U, 0x3efb3bbb3cdc57b9U,
  0xbcddd9f73e60ffe5U, 0x3e6453233dae9485U, 0xbd11369dbe90c5d1U, 0x3ddf91d43d9f6be6U,
  0x3e55f30a3e1b66efU, 0xbe2b022a3d65132eU, 0x3e9195c33ea56e1eU, 0x3e2acd02be6b325fU,
  0xbe18dc803d41a0d9U, 0xbdab84dd3e64ced2U, 0x3edd7d9f3e8d2fbeU, 0x3d21b9153c329921U,
  0xbca629c1be8240d1U, 0xbe20fe863e13a6adU, 0xbe97c027be07aaa3U, 0x3e1a282e3ec893bfU,
  0xbea08ac7be110430U, 0xbdff10b53e39fe35U, 0x3d8e91803e304370U, 0xbe0bc2f63dc3d398U,
  0x3deda842bdd74761U, 0x3ddbb0f43d19363bU, 0xbe19b85ebeb7132cU, 0x3e7a7bf33e90c848U,
  0x3decd40f3e60ed18U, 0xbd4c1d813d85516cU, 0x3e1bbeb2be4bc424U, 0x3e769bd53e315636U,
  0x3dbd86fdbea84c75U, 0xbd812bf33dc039f3U, 0x3d13bf373ed3664aU, 0x3e84f5253bb8de39U,
  0x3ddc54853e64baf2U, 0x3e891db13eb1601fU, 0xbd493026bedf7e61U, 0xbc80eb54be2f845fU,
  0xbdb2fe653e1b5708U, 0x3e0322debd677942U, 0x3e2298eb3e8a932aU, 0x3ed65143bd80ee6eU,
  0xbed1b9223e7e0dbcU, 0xbde5391b3d84c943U, 0x3e53fa443e91efeaU, 0xbddf3a253dc02853U,
  0xbdac26cfbecfab12U, 0x3d1d117c3e2f0246U, 0xbe379c1abe88e9d5U, 0x3e7ec02e3e8ac0a4U,
  0xbf125616be536617U, 0xbd9fca9f3ea93f99U, 0x3d214bcbbb90870aU, 0xbe2ea0b43e51e7fcU,
  0x3dac7377be098e50U, 0x3cd3a684be54a768U, 0xbec10fabbf3ecacdU, 0x3e0f9f223e459e87U,
  0x3e2df4febd1e1cdbU, 0x3d90083ebdbfc272U, 0x3e1cdb68be86aedfU, 0x3e81a6143d27423aU,
  0xbe37c838be19b141U, 0xbf00a87c3d861f24U, 0xbd495ede3ec683ceU, 0xbeb3a3cf3e462906U,
  0xbdad14993e39c5e3U, 0xbd4ec2723ef1a1c4U, 0x3ddf3b2ebf01f1a7U, 0xbdf7e161bd97a503U,
  0xbe8f0881bd32392aU, 0xbc7dd8d1bbd41ca3U, 0x3e49a5b73dc3af63U, 0x3ebf38af3c01ae3bU,
  0xbee773e73c69c2abU, 0xbd5e79d4be121972U, 0x3a24dbce3dc28c8dU, 0xbebb840b3c29f861U,
  0x3e6a65b33e4820ddU, 0x3d789a1e3cf4dc97U, 0x3e01392d3e998208U, 0xbe529df43ea801b2U,
  0xbdf398463e8f81c9U, 0xbba13dfb3e8cf717U, 0x3e9521ac3e512c03U, 0xbd9b881c3e7845e4U,
  0x3d80dfa83e36e233U, 0xbe3974573e819c60U, 0xbe7c6d693dccc7caU, 0xbe00fc833e7578b7U,
  0x3cfd80803e45c216U, 0x3f08faec3db95dcaU, 0x3dd09064bdc31acbU, 0x3e665078bdd55527U,
  0x3ccd1eb0bd5accd8U, 0xbde729cf3d01d114U, 0xbe3f16a2bd2b15e2U, 0xbe5a35623d7921f1U,
  0x3e4a3444be0ba417U, 0x3e80cc353dad0ccaU, 0xbe3070a4be3713c2U, 0x3ceb6031bddf0a51U,
  0xbda1cdc13e97b75fU, 0xbd189bb33eb699e7U, 0xbbdc2b62bdfdb303U, 0x3e6e35be3dd66461U,
  0xbcc55eb23edc35cbU, 0x3dc7317f3e60de28U, 0xbc10fdb33e1e35c8U, 0x3e45413e3e815c20U,
  0x3d2c1e1d3e56667fU, 0x3e3e014a3ccc2732U, 0x3d6c4fdb3eb92fb3U, 0xbe240ceb3e75069cU,
  0xbdccf3943e406435U, 0x3dbdcbb03e33b108U, 0x3e911f483e612744U, 0xbd4f19603e65f8d0U,
  0x3dfcf29a3dfd4c43U, 0xbd2222a13df567ebU, 0xbe57610e3e4d06beU, 0xbde9d7b13ea822c2U,
  0xbe477f1d3d8c8355U, 0x3f1586a23d6e10edU, 0x3db7043bbbeb8b61U, 0x3e4837883da88438U,
  0xbde83b3d3e1573f3U, 0xbdb5470f3e4e8e2fU, 0xbe1c988cbdfe3dbfU, 0xbf01c2af3e10a1b4U,
  0xbd61868d3d2912ffU, 0x3e54829a3d97dd13U, 0xbcfb0ea7bea8539bU, 0x3e5684ddbcbbf3bbU,
  0xbd99b2e93db583cdU, 0x3dc189423e907502U, 0xbda8b4cbbe28c1ccU, 0x3e2ebad93ea021e8U,
  0x397f685f3ee0b902U, 0x3e8f75113e8f599dU, 0x3c122fcabd03992cU, 0x3d49d94b3e2c6462U,
  0x3d7ca7a2bcb9f9cfU, 0x3e13885dbddb4edfU, 0x3e1de8e23eae9a70U, 0xbe3c27963dd6c86cU,
  0xbe2cf9003e83a4a3U, 0x3e0564ff3e7d6af3U, 0x3e40fd5a3e2ca58dU, 0x3da40c593e5ebb88U,
  0x3cbc78ed3a5e6b3dU, 0xbd91d1fe3e62a436U, 0xbece2442be6ea3f1U, 0xbe24a80b3e68f08cU,
  0xbdd720ed3e334adcU, 0x3eae10b2bb28ae3bU, 0x3e2bdc74be724300U, 0x3d90abe0bbff82bbU,
  0xbeae99183e6375f4U, 0xbdd95eac3de9568dU, 0xbe0c002fbe084545U, 0xbf0b03703e186815U,
  0xbee4cfbd3e0db08bU, 0x3dedc7643d859a63U, 0x3d725f71be996de6U, 0x3d4c6f4e3c11e3cfU,
  0x3c2d3864bdefe087U, 0xbdbc1b8b3ec94886U, 0xbe7c52d9bc5307bcU, 0xbd1755433eac6e0dU,
  0x3c747c593e814e01U, 0x3e87d5583e3c90d8U, 0x3d27d36cbe602506U, 0xbe5f3f753e27fa92U,
  0xbe933944bdd63b96U, 0xbe93f9b0beed8e36U, 0xbe13f57dbd2ec7caU, 0xbd56043cbea0bc15U,
  0xbecde585bd8c569bU, 0xbda9eba1bebf81c4U, 0x3e32b19dbe852f37U, 0xbe4ea9f7be0c8642U,
  0xbe6f52d63ca92df4U, 0xbe8d0bd8be1abd23U, 0xbeb84b4e3e557422U, 0x3dde8d39be206b12U,
  0xbe91fdc5be248dddU, 0x3d8670cbbe59ea02U, 0xbd9fea9fbeb15281U, 0xbea00c443ba41cb0U,
  0xbef42a08be9f51a0U, 0x3e76b53f3d5eef81U, 0xbdd58358bee8b22dU, 0x3eb3230cbe9915e4U,
  0xbec14ddbbeedc340U, 0xbe5c01cebed79e78U, 0xbf02bc61be73628eU, 0xbe758314be86eccdU,
  0xbecb79f7bd87ee47U, 0xbdc3034ebe186816U, 0xbea4ee99be967ebeU, 0xbe6a0155beb7a68eU,
  0x3ebd2d65be609a11U, 0xbe31da6abd6d4502U, 0xbee35e52be5f7000U, 0xbe365eeebe76569aU,
  0xbcd79fd8bdb8dae1U, 0xbd23d05cbe256a7cU, 0xbd8a7b9fbec1d0e5U, 0xbdf8ffa53d824aa3U,
  0xbee2dd053d6c461aU, 0xbda3d198be24248cU, 0x3c81d394bc8752bcU, 0x3caf52acbe29a440U,
  0x3d8abcd1be89d545U, 0xbe269dacbdb31bd0U, 0xbeba7cc43bffd9bbU, 0xbd8f0f20bd7d7a80U,
  0xbd9911bdbe4b46d8U, 0xbdff98333b932393U, 0xbc81c8d2be6c2b52U, 0xbe0bbd2fbca21b82U,
  0xbec51ca1be931851U, 0xbe5ea97abd743ad5U, 0xbe0c68f2bdcbba1fU, 0x3e1169cbbcf4388bU,
  0xbe8cc5c23e5526fdU, 0xbe03f52abdacc03cU, 0xbdfb6ba0bedbaf67U, 0x3c886432be62b0c0U,
  0xbdb10a4ebcba71daU, 0x3d5a3ab9bd994c1bU, 0xbd8741c6be113bcdU, 0xbeccf3a63dcda8f2U,
  0xbe18324bbc818440U, 0xbd2af9f3bdac2314U, 0xbe92c0fbbdacd24bU, 0xbeb2bf8cbe96a1dfU,
  0x3d8d17efbbff2335U, 0x3d9af2b9be63d025U, 0x3c82a3f3bef8e464U, 0xbe272b523cd0e408U,
  0xbec30a4b3e1a874dU, 0x3ccb4f79bdbd5a1cU, 0x3ba893c83d08eec2U, 0xbe738076bdc6c630U,
  0x3da7fb843e198e80U, 0xbe620be63b9f322aU, 0xbebdd57b3e58a767U, 0x3aa89f90bdf38fbdU,
  0xbe27876c3b2389daU, 0x3df9d15e3e04c3c1U, 0x3c44659ebea48f38U, 0xbe1b4b823c496dc8U,
  0xbeb245f0be0eb865U, 0x3c8a67afbd30f179U, 0x3dc5a832bd909a2cU, 0x3e985accbd90e268U,
  0xbdcd6d703df3efabU, 0x3d8a43a0be26ef20U, 0xbe7d7a10be99e796U, 0x3d9ec3d2be3ec105U,
  0xbe1a823abe1aa432U, 0x3e05abaebca260ffU, 0x3d961f64be5566d7U, 0xbe57ca573d7ad0c8U,
  0x3e2e7db93dc33ea5U, 0xbcff7beb3d603d34U, 0xbe698ee1bb4fcd89U, 0xb924b1e9bd673593U,
  0xbe8da43a3da67595U, 0xbc99b6b73e1b245eU, 0xbec0c1353e25f377U, 0x3ec0795cbd900c18U,
  0x3e3f35d73c4cef6cU, 0xbe2866683c5d39a8U, 0xbe27cbf3be089140U, 0x3ef7841f3f1e3970U,
  0x3cce6873bd1699a6U, 0x3edeb1f23d4cb957U, 0x3e730d613ddfb713U, 0xbe0305be3dc28798U,
  0x3da7f598be60e6b7U, 0xbeb6e8a8be4274c1U, 0x3c9d895abe777a63U, 0x3d8e4972be1a04f5U,
  0x3dcc91993d3455d4U, 0xbe5788f6bd01d07aU, 0x3e05cf943e826c4cU, 0xbf082ab03ebcfab0U,
  0xbe6a956a3e8225efU, 0xbe8987203ea6504cU, 0x3edaa7fa3f10238aU, 0xbc8ac3ccbbeb903aU,
  0xbeb589b6bdd256d4U, 0xbc92957fbe4c225dU, 0xbe21ab2b3e67137bU, 0x3e72e6963d0ef8e3U,
  0xbe5ae4b5bdc22ad3U, 0x3d14576d3e27cd3cU, 0x3d442e453dd65aefU, 0x3e235a91bdcd5425U,
  0xbe48860cbe116643U, 0xbd8c3e263e3c5b39U, 0xbe322600bd835a4fU, 0x3e9438efbd1b9c91U,
  0x3c5622763e38d2f8U, 0x3c854deb3e432a06U, 0xbd5ca871bde1c593U, 0x3eda0f833ed0b2efU,
  0xbd9d485e3c41c2fdU, 0x3ecc199fbbdde15fU, 0x3e016b853d82d16aU, 0xbe6dea443d286a96U,
  0xbb99097dbd645160U, 0xbe9a08f7be4f0b1bU, 0x3e083415beb186c3U, 0x3ca4bb12bd923c64U,
  0x3d49ea6dbe2f2fcfU, 0x3ed94da03e06e2cdU, 0x3e09c0773e421f0dU, 0xbed87ebc3ef3670eU,
  0xbded44a73e9bcbe0U, 0xbe88d8723e7d7463U, 0x3eac835f3eeb4db1U, 0xbd42b988bd8c89c0U,
  0xbe458727bd1152abU, 0xbe5d9106be5d1ca8U, 0xbd38467a3ca8736fU, 0x3dbf3dc33e1fa302U,
  0xbe976034be08f849U, 0x3e5a25553da17a89U, 0x3d8ca7093e2aed10U, 0x3cb60c613db481ffU,
  0xbd898453bd1ae070U, 0xbe42c1dd3d1b9b9fU, 0xbe892545be1c5b34U, 0x3e818392bd08697fU,
  0x3c23ac1c3dd97e15U, 0x3cc05d1f3dd62addU, 0xbdee922fbdcf93ffU, 0x3e68823c3e95d6d5U,
  0xbd0338613dd537d9U, 0x3e8376813d91c3e3U, 0xbdf46960bbd1878bU, 0xbe90a7cbbe0ab9e2U,
  0xbe079cb8badf3bafU, 0xbea7191cbd8bcf83U, 0x3d94a198bdb794d5U, 0xbe0b5526bdb01ca6U,
  0x3d027aa1bd290badU, 0x3ea626c63e2f2ff8U, 0xbd35c7193ddf1162U, 0xbeff886c3ee9c524U,
  0xbe1f21f03c890783U, 0xbda91de13e144407U, 0x3e84273b3d11a5e7U, 0x3c8cfc78bd50c3f5U,
  0xbda929913e05cc1bU, 0xbe35b629be312cbdU, 0x3daaf3703dbe199bU, 0xbd000aef3d1533c9U,
  0xbe0f022bbeb0d420U, 0x3e468194bd87ab9cU, 0xbbe86b5f3d913e1bU, 0xbcca0bf73e21bebaU,
  0xbda031173c4dded0U, 0xbf62dafabd94342fU, 0x3d1e6bc0bd4e9e1aU, 0xbe3dc9a8be0e3990U,
  0xbe7906ae3dc6a0e9U, 0x3dd644b3bd4f537cU, 0x3e75f6d5bcbd7626U, 0xbe025b7cbdf76ba5U,
  0xbee7c10abe4ad64bU, 0xbc1ad334bea3a28cU, 0x3d60d982bcdcef25U, 0xbd4e2be63e87f7efU,
  0xbdd2dab33da68777U, 0xbebe2e01be0482aaU, 0xbdc90ff5be0092c6U, 0xbda16cf8bfb90144U,
  0xbd750e9f3e11e305U, 0xbe5d7aa6bd2ffffdU, 0xbeab2f0fbe598243U, 0xbee3ae0c3e0d6defU,
  0xbe170145beaf85ceU, 0x3d43be7a3d8bdfebU, 0x3d8f0492bde229a3U, 0xbe618c793b93b65aU,
  0xbc9f7feabdf23bbcU, 0xbe8adef03e66a1c2U, 0xbdc407f3bdabda1fU, 0xbc74f8efbf2dbcfdU,
  0xbd5c7755be63b276U, 0xbecfee8cbef4486aU, 0x3ca07245be4fd045U, 0xbdeef1633e482a06U,
  0x3cdab19bbe1ea71bU, 0xbf687ae2be1397dbU, 0xbd9a7ec93dceb8ebU, 0x3c2e4d17bdbca4aeU,
  0x3cd073e73e07fd2bU, 0x3e0fba7e3db68b7fU, 0x3d8e77a63d29bfd3U, 0x3e2774533db4ce13U,
  0xbf0be701beb1d515U, 0xbe000b84beaf6dbdU, 0xbbc23027be33b63fU, 0xbdfeed753e055790U,
  0xbce948363d389cf0U, 0xbc8bc77bbde0745bU, 0xbd3e2bdebd11f4ffU, 0xbaacfc16bfb73584U,
  0xbd461dde3d9d45fcU, 0xbd9b7b6a3cb876ceU, 0xbeae3d0a3c835bb4U, 0xbf1a84fc3e25c802U,
  0xbe690b77be034a7bU, 0x3d1c861ebbde3092U, 0x3daebc063d58bccdU, 0x3d0af06f3e2f555bU,
  0x3ccfe918be9ac65eU, 0xbeecd21a3e889edfU, 0xbd95fc65be1383b7U, 0xbcca0b2abf1660c3U,
  0xbe493b35be0e3d1bU, 0xbea4e6e4be8426e1U, 0x3dafb7bbbe9319e2U, 0xbd878d073e3dfd57U,
  0xbc613067be185bb2U, 0xbf77e854bdca3b86U, 0x3cdeba953cf33e64U, 0xbcbdb2323c144e10U,
  0x3c18297f3eb24d59U, 0x3e8d86863dcfc243U, 0x3e53a6c0be013561U, 0x3e2e20ea3e1d5edfU,
  0xbf237549be90d13dU, 0xbd12a23fbe6db04fU, 0x3d1b8460be98457dU, 0xbdd8abd13ea04fafU,
  0x3e0151893df17e9dU, 0x3c8593d43cd01760U, 0x3e05d4eabdf1ae4dU, 0x3e005fbfbfd7f1d0U,
  0x3d3aa0833d082abfU, 0xbdea4ce83dd31adfU, 0xbef868a3bce246f0U, 0xbe9baccf3e397d68U,
  0xbed07a773d0f88d2U, 0x3e4ea5a63e53c9afU, 0x3e4da1383d1f1553U, 0xbca0c97a3e5a59bbU,
  0xbdbfcee6be0deaa6U, 0xbecec1093e7e1802U, 0x3d8e0b16bd2c20baU, 0x3cbc2a87beffb4e9U,
  0xbde4cda1be23950fU, 0xbe8b1efabe5ddc1fU, 0x3e28f842beeb91ebU, 0xbde7de363e5b377fU,
  0xbe848e853cadefbaU, 0xbda65512bda54063U, 0x3e203f7dbd778060U, 0x3e0519223ef65970U,
  0x3d8f5ef73cd47c2cU, 0xbf1eb0abbd51820dU, 0xbe835a533d9e4c77U, 0xbdc24f5dbe9d92aaU,
  0x3c99c8c53bb5e3adU, 0xbe10bf043e923b5dU, 0x3cb869a7be8568faU, 0x3e2e19f53e4a2b8fU,
  0x3d8b3578bcfa77e1U, 0xbe0dcce93ec41038U, 0xbede7691be479945U, 0xbe367fcd3e44083dU,
  0x3d45c894be9535f4U, 0xbb9b927fbf578682U, 0x3e0999323d1eae3eU, 0xbe5ae62dbe2e9de3U,
  0x3e959375be7eb1feU, 0xbeef21253dc06ac5U, 0xbe91a7b0be259d2fU, 0x3e9668a2bd90a8c1U,
  0x3d37146fbe822c79U, 0x3e4b7b593d595a18U, 0x3e12200a3d840932U, 0x3ed8ceacbddaff03U,
  0xbf0005f33f01b1b9U, 0xbee526553ea61fb5U, 0xbd06b7443e869ed0U, 0x3d3c4e39be84d2d6U,
  0xbdb5a28dbe39b3b4U, 0xbdc38369bd95f011U, 0x3dc8f7d3bde39c73U, 0xbdea70823e609442U,
  0xb901cef9bd81ced5U, 0xbf204be2bdea9c51U, 0xbe49c416bdd4c7c2U, 0x3d8c0fd2be86320dU,
  0x3e1fbb75bd945e5fU, 0xbe6a7ab83df377d5U, 0x3e4791a8be1893e7U, 0x3dc94bbe3e52f483U,
  0x3d8760053add85b2U, 0xbd8736333e66559bU, 0xbebbcef4be3c88efU, 0xbdf5667b3e45f1baU,
  0x3dcf3ac8befa2a66U, 0xbe6963c7bf3add2dU, 0xbcbab61e3dfbba29U, 0x3dd29cf1be3001e6U,
  0x3e89d820bdd67422U, 0xbebf5d2e3d830bf0U, 0xbe3b3111be00b6dbU, 0x3dc12b0cbe854eedU,
  0x3d8d4a98be2b6fc2U, 0x3d9411f83d48f551U, 0xbdaf74a7bd15cf15U, 0x3ea6590dbc2849d0U,
  0xbec6e74e3efde513U, 0xbecf15c23ea9d888U, 0x3d8364613d2b87d6U, 0x3d49f2bcbe8edb53U,
  0xbe530235bea460cbU, 0xbde6bfd5be6b849aU, 0x3d9e16cfbdfcc1a3U, 0xbd906f263e9f1acfU,
  0xbe8857693e35d599U, 0xbf0d1dd2bea955f4U, 0xbd8caba6bdde1f5fU, 0x3e0a36bebdbc89f1U,
  0xbb724371be4450bdU, 0xbe6de70bbcbb16bcU, 0x3deae6acbe409b75U, 0xbe1c07813e55dc63U,
  0x3cfe1b5cbd8428a1U, 0x3dafc5cc3e4b3ba0U, 0xbebe8a9dbe2b4907U, 0xbe020033bd7c5df6U,
  0x3e462aacbf2570fbU, 0xbe9f05e9bf478d64U, 0xbd7754933e15da45U, 0xbeff4432be457f3fU,
  0x3dfbf025be6ee4c3U, 0xbef45b643d232063U, 0xbe58fec6bd426bebU, 0x3d5caba9beb6bdfdU,
  0x3d7cb7e2be5ba578U, 0x3d7be95e3d279638U, 0xbe220084bd521161U, 0x3ec426f3bdda6929U,
  0xbdc9bcc43ea862ceU, 0xbeeaa8b13e33018fU, 0x3e6e9ee0be22aba2U, 0x3dceb96ebee2e0ffU,
  0xbddb533b3e9e2045U, 0xbf08d850bd57b3efU, 0x3c85b0c23dd72689U, 0xbe8b1e70bb268cb6U,
  0x3d0911d3be2096baU, 0xbe1ab8c13def7f9dU, 0x3bf9d1c13dead913U, 0xbea8e57c3dad84c2U,
  0x3e08e6473e6036b0U, 0x3dabf84cbdb76ec6U, 0xbc0235c13e068e4eU, 0xbd568de8bcaaeb85U,
  0xbeaa8b0b3e1c137dU, 0xbd73dcfcbe0b6c8cU, 0xbf085f273e8596a5U, 0xbe981193be5cc747U,
  0xbe3bdac23d6b4f44U, 0x3e1a0212bee05fd1U, 0xbdc44627be0538b7U, 0xbed3662cbeba5d95U,
  0x3e46433abef963ecU, 0xbe738501bd986bdfU, 0xbf1e193bbdae3766U, 0xbd9d40b73ea18cebU,
  0x3e50f1d4be0dc93aU, 0x3d1109773d4fa6bbU, 0xbda5b3553e2d4fa2U, 0x3e37ed40bf1b694dU,
  0xbe42470ebe2f90e9U, 0xbf6f5487be598730U, 0x3e59de3bbdd76fb3U, 0xbdfb95b6be5ad84dU,
  0xbe3a1ca93e5bca1aU, 0xbead1a23be89c5aaU, 0x3d5556e2bdf63252U, 0xbeae468d3d15a442U,
  0xbd8b2115bdec88e0U, 0x3de3db99bb8c3059U, 0x3de689a5bda088c8U, 0xbe3a23603e004b84U,
  0xbe3e2bbbbd00d928U, 0xbd7a2bf1be1e119eU, 0xbe2f7308bd620328U, 0xbdd36ee23ca55d42U,
  0xbec0efcf3d5c2c23U, 0x3c09d05ebe44d243U, 0xbeeb14913d5312c4U, 0xbe6a4f3fbe3a3922U,
  0xbdd697123c83507aU, 0xbe57bee6be975eb3U, 0xbe44de4fbcd4400dU, 0xbf01b3f6be525787U,
  0xbd9c3405befda09bU, 0xbead1034bc929b0fU, 0xbed6bd08bddfd3bfU, 0xbd2a9201bce878a1U,
  0xbca9c53fbdc60975U, 0xbd50bc1bbc8d35b7U, 0xbe215c2c3e3b55b9U, 0xbc184071bedc17a1U,
  0x3e096bd8bd83d2dcU, 0xbf3a84c2be6ddc84U, 0x3e84bc82be980bd9U, 0xbe2a52c0be9f6fc6U,
  0xbd9bdf8d3da6cedaU, 0xbf01543ebe8cd8eaU, 0x3d9a60d2be062970U, 0xbe8084f2bbcdedecU,
  0xbdaca8493e020317U, 0x3e6e1f1a3e213962U, 0x3e1961c5be6003d5U, 0xbb41c8313ea9c041U,
  0xbe950945bc9d9295U, 0xbd04a939be619949U, 0xbdd96085be09fb83U, 0xbdbf58ebbcfcc37aU,
  0xbea4bdbb3e549a49U, 0xbda0b9ffbe5ee8f1U, 0xbebd9e493c10f07eU, 0xbd8ba0c9beaad80bU,
  0xbdb0a3dabc01595bU, 0x3dfb175dbf012d6dU, 0xbead96d0be4b1d95U, 0xbf32f2c9bd9d9d10U,
  0xbdfb3854be8fa976U, 0xbe32a69d3d1a081fU, 0xbe9278d03dd06117U, 0xbe126fffbc353b41U,
  0xbd8a7a0abd0403b6U, 0xbe9402413e75cce9U, 0xbc7cdf9b3a7603e2U, 0x3dc08bc4bf14d77bU,
  0xbe77911dbe461b8cU, 0xbf4e0194bf0c6c00U, 0x3ea3d790be397f11U, 0xbe7159cabe09dd1dU,
  0xbd2594d6be2d4ecbU, 0xbf0cd3ba3e1d82ccU, 0x3e05b9c93e6f9723U, 0x3ea1d6713e7312bbU,
  0x3e0fa66dbcf7e681U, 0xbde61eb5ba8c4e11U, 0x3e119aad3d3aeff2U, 0x3e9978593ec80112U,
  0xbd813ea9be8b98f2U, 0x3dd3aff2be2b5777U, 0x3e2453e2be8d076fU, 0x3e1437853dac0d3aU,
  0x3d114fc53d5023d2U, 0xbdeee8c43d9d6442U, 0xbeb5ffd43e82e1d5U, 0x3e03270ebf113f6bU,
  0x3d9bcc50be73196bU, 0xbed5ffabbeb3f15dU, 0xbe42daac3e5bc443U, 0x3e76323fbdf63584U,
  0xbec70f2c3d0436fbU, 0x3db421b43da3e16cU, 0x3da4cdde3dbe053bU, 0x3e3abdc13e154171U,
  0x3de2cc433e6b73faU, 0xbe9050cf3dad8314U, 0xbc5e5de63e0fa2f6U, 0x3e8e201fbe85a7cbU,
  0x3db7d1063e02f8aeU, 0xbe9406dbbe2fc91dU, 0x3e57075bbdfdea9bU, 0xbe9347dd3dbd80c4U,
  0xbe57ce6cbf17019bU, 0xbef8602b3eb75e6dU, 0xbe1f59613e4f589eU, 0x3ddcd6ad3c87fae3U,
  0x3d6f0648bd1f39cbU, 0xbd809eb2bcbc514fU, 0x3dbfbe563c36b0d9U, 0x3ea288d33ecef69cU,
  0xbdc245f6beb3f7c8U, 0x3e29ca94be7bb143U, 0x3e087eb63e708b69U, 0x3e71af4abd7adcfdU,
  0x3e4a7aabbe000e62U, 0xbe2d1a87be5d31bfU, 0xbe7ca2043eb217dcU, 0x3e344536bed35bbbU,
  0x3e6977a8bf2bd17fU, 0xbdbe6563be9f28abU, 0xbd61a5383dee32a9U, 0x3e04036ebcb3fb06U,
  0xbee3cc7d3e089900U, 0xbc0921053e4238eaU, 0x3ea718d93e4c12e2U, 0x3d9c05a73e2f68f9U,
  0x3c1eb1443e91293bU, 0xbda792d53dcb1d1dU, 0xbe6152843e94ecdbU, 0x3e1bcb52be660a59U,
  0x3e852b833d5871a8U, 0xbe98c1bbbea19091U, 0x3e0605003ddc33dbU, 0x3d630fb93de5fd54U,
  0xbe87b668bee006f5U, 0xbea4fa103ead1feeU, 0xbe7bb22f3e373a6aU, 0xbdaff670bce086b9U,
  0x3e1b3012bc079751U, 0xbeb138fabc973765U, 0xbdc0efe3be5bd27fU, 0x3e9327183f1141c7U,
  0x3d075877beaeadffU, 0x3db48f75be2cd40aU, 0x3e7931ce3d5d8c12U, 0xbda43f203dc0bc62U,
  0x3e85a622be6b6bacU, 0xbdbb5e19be78d1daU, 0xbea54be53e9ff2d1U, 0x3e35d685be839347U,
  0x3e58f42dbf24f67bU, 0xbe1a61b6be77c26dU, 0x3e6c71693eab7239U, 0x3e511b853cb7d9c0U,
  0xbe78a5203ec2555fU, 0x3e251a933e682a3cU, 0x3f0024523e3bac25U, 0xbdd7d7b53ea16dffU,
  0x3da3f5323eacf0eaU, 0x3cee3a653ce5b8d0U, 0xbdfcddea3de05ed3U, 0xbd7f4158bdd0cdf4U,
  0x3d91971f3d41ce2fU, 0x3cb1c107bcaa3299U, 0xbc5293383cf90e4aU, 0xbde78e4e3e44d8a7U,
  0xbee82e513e0cd8ffU, 0xbe4c1d6b3c19ad70U, 0x3e96cfd5be500dd8U, 0xbe28776abdee4027U,
  0xbd7961d53c1c78d7U, 0xba819692be1882fcU, 0x3e7894cebeab5c49U, 0xbc5353d4bc895707U,
  0x3ecd82da3e9f9d59U, 0xbe93525bbe840c9fU, 0xbeddfaa9bc2cd7c2U, 0xbf0824723e3a7ac8U,
  0xbeab4becbe66d533U, 0xbeb8fd96bec7caeeU, 0x3dc977083e3c34adU, 0x3b9da6ad3c5bfa0fU,
  0xbda475d13e1b0256U, 0xbe8cf66b3e17b0b7U, 0xb77de8d0be33f69eU, 0xbeafd1fcbd3784d0U,
  0x3e143d25bdf21ea7U, 0x3e60b4f53ec47e82U, 0xbe639c713d0fb4b9U, 0x3c8b3b333d8c7cc4U,
  0xbc0193623e1f6067U, 0x3eb211b7bdd56f55U, 0x3e0f1412be68f779U, 0xbd7667ffbe9aee30U,
  0xbdfde812bdffa3beU, 0xbbaedbcfbed16cadU, 0xbd6021573c5437d7U, 0xbeb14b3bbbcdbf8dU,
  0xbea8d8f03d9c3489U, 0xbdc1cd1cbe23f36aU, 0x3dcc4d77be7817f6U, 0xbe3a4ac3beaaae4fU,
  0xbe6a71a5beaa4f43U, 0xbe19f623be484809U, 0x3d445abdbe9094f1U, 0x3e15c86d3c6d4960U,
  0x3ea46e653d885faaU, 0xbe362fccbda018f0U, 0xbeee87793dd9a40dU, 0xbee7b4bc3e541382U,
  0xbe5fe202be276d2dU, 0xbec89fecbf155230U, 0xbdc16f013e37464eU, 0xbe10b8cd3e3d7e86U,
  0xbe3f3af5bcbead74U, 0xbe6d695c3d338179U, 0x3e00e3dabdd51c23U, 0xbdc615b9be26ef8aU,
  0x3dcb7529bde0ede3U, 0x3de8e95f3e9b1db5U, 0xbdb6755bba7d3a6fU, 0x3e813293bcdf4c38U,
  0xbc3d5b553dc98e23U, 0x3ea548c8be7cd410U, 0xbddad247be7a9349U, 0xbe5a39ebbeaa2109U,
  0xbe3b9eb2be6171a8U, 0xbddc4926be6e6374U, 0xbe559cfcbd5f36acU, 0xbe36d3973dbe51eaU,
  0xbec0a6bb3d8d6c69U, 0xbcf508e6be0ea88dU, 0xbe822e34be743220U, 0xbd2190edbe6ef92aU,
  0xbe6d59fbbf02672cU, 0xbec98755be8726ecU, 0xbe49b81ebe04d0d4U, 0xbc59e0adbde8f305U,
  0x3eb13aa4bdc7b550U, 0xbe084669bd656795U, 0xbf2bb053bdbe4b13U, 0xbeba93073dd5c7fdU,
  0xbf01f946bea493e3U, 0xbda20344bedbd584U, 0xbdf936cd3e326b06U, 0xbe7e46343e7ff5faU,
  0xbec728d1be257311U, 0xbec83804bd55a372U, 0x3d4f56003d4ef2faU, 0xbecaf91bbe5172daU,
  0x3d9ef768be16286eU, 0xbe52b5cf3e9a48f8U, 0xbe5b862ebe29c293U, 0x3e3d65963dc83824U,
  0xbd166d093e7cf9c6U, 0x3ea0b33bbe62cd8eU, 0xbc9a71dfbea3e462U, 0xbe6d88843d4c855bU,
  0xbe0c30cabd393025U, 0x3d8a436fbdb03942U, 0xbd58d965be011001U, 0xbe90856cbe88d5b2U,
  0xbe7b6fd6be9ae96bU, 0xbbe6bf95bf13cd03U, 0xbed55267be866403U, 0xbe2c2258bec983efU,
  0xbea45854bf16a9deU, 0x3df4bc4ebf015626U, 0xbc14365cbc0fa471U, 0xbe05cdc1bf00f5d0U,
  0xbcb12ddbbed923c8U, 0xbed40ecdbe9e461fU, 0xbe8a24113cbc8d7bU, 0x3d986321be95e022U,
  0xbe974b10be7251d0U, 0xbe9a84bcbd93f6bfU, 0xbe4f858cbec50b6eU, 0xbd0a48843cee4ac7U,
  0xbe99ee1ebdc15371U, 0x3e958582bdcd4cb5U, 0x3d97a515bec4c66dU, 0x3e094a86bf041d45U,
  0xbdaeef54bee558e8U, 0xbdbf9ee1bf197ac7U, 0xbec7cc99becd4ab6U, 0x3ddc082bbed8af02U,
  0xbe63dfc4be544f73U, 0xbe31f8b3be9f6ddfU, 0xbe92376cbddd5561U, 0xbe6610efbd835e91U,
  0xbd2a8ea9be1dcd49U, 0xbe378130be3c3dedU, 0xbe95ea7fbe48328cU, 0xbe1389c6be564fa3U,
  0xbe5793f2bdc7160eU, 0xbce403dabe86b81aU, 0xbe6802ebbec29cbdU, 0xbe3cd35ebe0fa9bcU,
  0xbe763711be49f955U, 0x3e5fea2cbe4df996U, 0xbe928e2a3e0882d2U, 0xbe46614cbe857a8cU,
  0xbe08a2dabe99c3c7U, 0xbe8d6c7fbddc1bc4U, 0xbe9ddc6e3da3b789U, 0xbd8647c0bdd021a9U,
  0xbe692d7abe3cffc9U, 0xbecd28a8bc8dbe3dU, 0xbe069564be628258U, 0xbe11bb1fbde0dad5U,
  0xbe0bb8293c2b3f5cU, 0xbe60b928bcbaa28dU, 0xbd8a72a8be4c363eU, 0x3c34c6bbbdf7edecU,
  0x3d126f69be33f144U, 0x3e44b079bee43071U, 0xbdcaaedbbe314cd8U, 0x3cade49cbe25a226U,
  0xbe7eecc5bea5a975U, 0xbcb640d7beb5e965U, 0xbe5b17bf3c0a620eU, 0xbdd628133d825d09U,
  0x3e0c79323e064e65U, 0xbe18a3dcbd71cba2U, 0xbd008e2abed99e24U, 0xbe354a28be19bb62U,
  0x3e41226fbd38ec48U, 0x3d804d39be91682dU, 0x3e093125be3361bbU, 0x3c6ab6243c1ae252U,
  0xbe907ace3d17d402U, 0x3e8f3f393bf8a4ceU, 0xbe6b742b3e67db09U, 0xbe56af8cbeabdb57U,
  0xbd7ffab83d8234d9U, 0xbeda868fbe1d4fd8U, 0x3cbb6b163c8809aeU, 0xbde7af993decfec9U,
  0xbe3c3dc53e7b9476U, 0xbd556e293e8d7778U, 0xbca1bf93be0e7c65U, 0xbbf54db43dd8a5abU,
  0xbdc391553e63df5bU, 0x3e3f94bb3c023184U, 0xbd8b2345be6c496aU, 0x3e60df313d7b719fU,
