/**
  ******************************************************************************
  * @file    network_data_params.c
  * @author  AST Embedded Analytics Research Platform
  * @date    2026-04-17T17:35:36+0200
  * @brief   AI Tool Automatic Code Generator for Embedded NN computing
  ******************************************************************************
  * Copyright (c) 2026 STMicroelectronics.
  * All rights reserved.
  *
  * This software is licensed under terms that can be found in the LICENSE file
  * in the root directory of this software component.
  * If no LICENSE file comes with this software, it is provided AS-IS.
  ******************************************************************************
  */

#include "network_data_params.h"


/**  Activations Section  ****************************************************/
ai_handle g_network_activations_table[1 + 2] = {
  AI_HANDLE_PTR(AI_MAGIC_MARKER),
  AI_HANDLE_PTR(NULL),
  AI_HANDLE_PTR(AI_MAGIC_MARKER),
};




/**  Weights Section  ********************************************************/
AI_ALIGNED(32)
const ai_u64 s_network_weights_array_u64[7138] = {
  0xba052987be69e5a2U, 0xbedcb6b7be09d704U, 0x3e8073833e24492eU, 0xbe3dec25be2c1b36U,
  0xbea4f3fbbe52f868U, 0x3da34ac43db02b11U, 0x3e0f0f04bdca01f7U, 0xbea4cd6e3dbb175bU,
  0x3e774b67bdbe2542U, 0x3e97a1d1be22d402U, 0xbdcb76c7bea481e1U, 0xbe7d6517bddd8c92U,
  0x3e37cecd3e52a1bcU, 0x3e7bb27ebda4bec5U, 0xbe1342083cfdc5bbU, 0x3dbbcb21bcaae531U,
  0x3c259158be93a563U, 0x3c780970be9aea50U, 0x3e56b8b0be2fd624U, 0xbe2dbc96bbac72a0U,
  0xbe3e051e3ed39678U, 0x3de671603cb7e1faU, 0xbe87fa3b3dae9c5bU, 0x3de6330e3eac18f7U,
  0x3deee461be4799e2U, 0xbf0028a73d12c574U, 0x3e3f46a43ee2b8f8U, 0x3c24a20e3e504a96U,
  0xbe8b59793e22ba79U, 0x3ecd256dbbb8f2dbU, 0xbaa94dfc3e99c882U, 0xbec1fcfabe17f22fU,
  0x3ebc3703bd2df2a1U, 0xbe81aa073d97b947U, 0xbed344e73e3cf4ecU, 0x3ecc0459be49b4d7U,
  0x3ca597893da9419cU, 0xbd82b4b73e052b8eU, 0x3e187dd8bdcc81b3U, 0x3dc2830f3ddfc3c1U,
  0x3dadbc583e42021dU, 0x3deae316beb0386fU, 0xbe80a4753d810fd5U, 0xbcc62d933e2bd42bU,
  0x3e3f8e9dbc803dbfU, 0xbd9e02f33da10cd0U, 0xbe4e3028bd535f45U, 0x3d0e86e53e91959dU,
  0x3e808e2cbc115734U, 0xbd9fcef23d4166d9U, 0xbe6bee063e5e6f69U, 0x3e49d10ebcac8a9fU,
  0x3e4ce4013e2969c4U, 0xbe89fb1c3e7f57faU, 0xbe208b96be74d622U, 0xbe7aed1c3e1c0e3fU,
  0x3ced3efcbd0d2dd2U, 0x3de7809dbd93b91bU, 0xbe79779e3e881c1bU, 0xbe17e538be9e24b5U,
  0x3e345c1dbe79a38fU, 0xbe82cf6d3e6d0236U, 0x3e433c10bed90485U, 0x3d413a45be84d9c7U,
  0x3e530067bd7567a6U, 0xbccf5ff7be33b82cU, 0x3bde507ebe89dc63U, 0x3c26e9bc3e54df85U,
  0xbe191c9abefb64b8U, 0x3cd53db8be2f519bU, 0x3e7895303e72b646U, 0xbe38db3abf012254U,
  0xbde3e0733ea2d802U, 0x3edbc0e13cfc0457U, 0x3e04ca9f3ead0045U, 0x3d5aae073eb94ac2U,
  0x3edaa9b03e8d368dU, 0xbc2fcb7dbb93c236U, 0xbe20838e3e0a4cbcU, 0x3ed5972ebdfa3de2U,
  0xbe304bb33ecc6905U, 0xbe55c285bd0d8068U, 0x3e00221c3dcfc2dbU, 0x3e6bf182bcdb635fU,
  0xbdbcd13bbeb0c69dU, 0x3e892e3cbdaccd1eU, 0x3e20bbccbeb4c21aU, 0xbe45423fbec3120aU,
  0x3ed1bb93bd504988U, 0xbd325f88be4307fbU, 0x3e5aaebe3e3501b6U, 0x3ebc8095be7478f3U,
  0x3de7a589bea1b4a3U, 0xbdde6ca63e1d778cU, 0x3dbc32fb3e19b4f5U, 0xbd790ae4be9fcd12U,
  0xbe366b903e07c80bU, 0x3dc35c20be4e1b95U, 0x3b191d0cbe824c7aU, 0x3e080d40bd81e5ebU,
  0x3e23d5103ea76efdU, 0x3da50249becc9e99U, 0x3db17b33be6d726bU, 0x3e9ae302bd7b5e0cU,
  0xbe94c272bec8e53aU, 0x3dc2f2d1be8ceb1fU, 0x3ec6fac53e6777f9U, 0xbd999d1fbe08d44eU,
  0x3e3fb3243e188337U, 0xbea9c8323e09e6dcU, 0x3e8aa2e2bc590becU, 0x3e4a32263ec63745U,
  0x3d2a72a8be0c730cU, 0xbd1c3ed5bd402263U, 0x3e8a64b8bbed4d92U, 0xbe87bb703dd87092U,
  0x3cccff9e3e44d77cU, 0xbd0d2dfc3d6e76a5U, 0x3ee03aefbe41b04cU, 0x3dd6fcae3e19d6f6U,
  0xbd916ff5bd24b902U, 0x3eb428a13c9903ebU, 0xbdcca8ad3dd4297bU, 0x3dfc2a70bdb46853U,
  0x3f0122acbc6f2023U, 0xbd62aa813e88cf8bU, 0x3d3d82fdbe1afaeaU, 0x3e0028393c8a0bedU,
  0x3e3fdc71bd5d483bU, 0x3e5c3b673d669f40U, 0x3de583ed3e4c390eU, 0x3df14667bdfc295aU,
  0x3e598bcdbd2072e3U, 0x3d33b7633e5a8e9cU, 0xbe65461d3dc6c208U, 0x3db5b6923d42326dU,
  0xbe91ff733e7501baU, 0xbe8688633ca6982fU, 0xbdba7b8d3e00bbb5U, 0xbe75fb64bd0a303cU,
  0xbe8637073ed29575U, 0x3e8857ca3e6c58efU, 0xbd81a2a43eae7af3U, 0x3d4d00d43ec86f72U,
  0xbea8be22bea7afa3U, 0xbec38debbded2dc4U, 0xbd36fe7fbe2a00ecU, 0xbea7171dbe9b2a53U,
  0xbd4871e3bd8a6c4dU, 0xbdf2a9303e440f36U, 0xbe8aa5d9bebc1bc2U, 0xbeb24724bddc4e74U,
  0xbd4d18abbe304af4U, 0xbe0a23b8bdd82163U, 0x3e06c8f93e8eb938U, 0x3db31dee3dd20351U,
  0x3d9680efbd7d7e73U, 0xbdac71a83e119208U, 0x3cb19b1cbe189093U, 0x3e29fe453e174644U,
  0xbe4a64c9bcb1fb8bU, 0x3e272b833e57cc74U, 0x3e9018a93e932de1U, 0x3dda4c97bda16755U,
  0x3d9c994d3da0f14dU, 0x3e6a0205bd16ddddU, 0x3e09e1523e7e4bf4U, 0xbe3a1da93d982054U,
  0x3e884822be1f50c1U, 0xbe22c4363e637ad9U, 0x3e414ab13ebdd841U, 0xbd846659beb7b46dU,
  0xbedc693abdefebd7U, 0x3db25aa3bd935c64U, 0xbd8ed454be9a2455U, 0xbea7e3233d8910c1U,
  0xbde71ea53d9cd4dfU, 0xbe3a97bfbe2e1562U, 0xbbea9610be3fca3dU, 0x3d9cb8d2bdf91d66U,
  0xbe2c4ff5be35b4feU, 0xbef60e323db25ce7U, 0xbe80499e3dfae4a2U, 0x3ccd87a2bd9f2f52U,
  0xbe980e2abe25e411U, 0xbe13d0a93e851782U, 0xbd4eb407bea6f57fU, 0xbed17e78bc9bd33eU,
  0xbb88736a3d22bb1aU, 0x3dc7a68dbd4178e7U, 0xbb640c463ea2c698U, 0xbd90d955bedc5930U,
  0x3d2f8417bdfcd66bU, 0x3c8270fe3e0e75f4U, 0x3e1db5f4beb2d7b2U, 0xbe07415f3e50fbe6U,
  0xbe2a09293e832996U, 0x3e853963bee7356eU, 0x3e0a9fc73cf105d2U, 0x3df3f243bd222af8U,
  0xbe48b8e23e92feb8U, 0xbe41e7bfbe95a2d6U, 0x3ef9d2c63888dcf0U, 0xbd67a9143e89f2adU,
  0xbcf6c776baa57e66U, 0x3f01f247bdb76209U, 0xbe5458b13eb61c1aU, 0x3d28d8383dd45dadU,
  0xbd9e6cd43e3ec135U, 0x3eb958da3dd0e609U, 0xbc931dccbe6ba990U, 0xbde5a9d6be7d7b73U,
  0x3e657162bdbdfa7cU, 0x3cfe1de2be32f6e3U, 0xbec3865d3bd24941U, 0x3e9aa4583d8bece6U,
  0x3e3601d23e64ad17U, 0xbe9a486fbd179573U, 0x3e9396acbe813af0U, 0x3e0c4dd53eabbf00U,
  0xbc568ca8bdc496f3U, 0x3e982fccbe8b975dU, 0x3c9017e43e94fea5U, 0xbe8add653e4ad223U,
  0x3e88a66bbe73dd2aU, 0xbbe027063e053f7dU, 0x3e08fcc13e1d693cU, 0xbe8edf8abe2b3a71U,
  0x3da61a173e003621U, 0xbc22a4043e0df8adU, 0xbe73adbcbe99234bU, 0x3d23766a3e82f9e9U,
  0x3e0fa5533eb6a244U, 0xbd092b383d0a908dU, 0x3dbea829be65da99U, 0x3e96e02d3df33676U,
  0xbe5012073eea9cadU, 0x3e1af704bdd12dc2U, 0x3ec8e436be726c38U, 0xbdde5dd83e871972U,
  0x3e7d9da3bd4a8dacU, 0xbdb5bc1bbe750f45U, 0x3e5dd0103e8617eeU, 0xbdbfcea4be2c9e5aU,
  0x3d1eb3353e803c16U, 0x3eff2b61bf09d727U, 0xbd1ce9d3be6f909cU, 0xbe6a50713d2afc27U,
  0x3ea002d6bee45718U, 0xbe891dc73d8260d5U, 0x3c4a6355bdf6c448U, 0x3ef0ca00bed84d90U,
  0xbe478d003eb4d128U, 0xbeac7a1e3d26d025U, 0x3dc1c5eabde275a4U, 0x3e0f6eff3edfcd05U,
  0xbec0a1933dc06336U, 0x3eaf2617be27cb30U, 0x3e58a3ee3efa4feaU, 0xbe13504dbd35350fU,
  0x3eeacebabdb7aa40U, 0xbe5800673e0b793bU, 0x3f1622493e231c96U, 0x3e6c3bf93ceddde2U,
  0x3e2e84a23d896923U, 0x3ea528bdbe1f9357U, 0x3d90c4d1be132297U, 0xbd4e6d7a3d6e78f6U,
  0x3e7524baba091969U, 0x3cfec3ea3d390911U, 0xbd8e0986be9747a8U, 0xbe92e9ad3d34d557U,
  0xbe0a279cbe3a2b1fU, 0x3d95ccb1bd886d1eU, 0xbeb6ecb2be5e5c15U, 0x3e6499dfbe4ab1a6U,
  0x3ddb5930be94eee8U, 0xbe96af5fbdaaf5c3U, 0x3e44c7e0bceb6f32U, 0x3e28ba493dda8329U,
  0xbddf7639be1faf99U, 0x3da4e5f83e3df766U, 0x3c7671223c67ee2cU, 0xbe63fe943e2bea7eU,
  0xbd7856df3e8ac2e2U, 0x3e657b713e05f5c7U, 0xbedfbfd73da3ff73U, 0xbb88ced53c56779aU,
  0x3dbc7f0b3d41ff25U, 0xbd8369093d61b187U, 0x3c5bd3e2bcacac43U, 0xbbdae6d33d5e198cU,
  0x3de6af04bbaf968bU, 0x3d8f5b533d1572c5U, 0x3d61b60cbd6b9920U, 0x3c7d853ebce5e613U,
  0xbd6ed3113d6e2786U, 0x3d999a8dbdba9430U, 0x3c471dd23d25dfdaU, 0xbbd524a13d7cce42U,
  0x3d9e5b36bcc050e1U, 0x3d55e71b3dab6b41U, 0xbc3b2e6ebd6980dfU, 0x3c80e448bd451fdfU,
  0xbe873ecfbd1326fbU, 0x3ed7fc88be1dc7aeU, 0xbe43e5bf3e77c2e6U, 0xbd791a3e3e27909eU,
  0xbeb9f7d1bd8587beU, 0xbec75726bde9e08eU, 0xbe5c625e3e435e86U, 0x3e0698cdbe053550U,
  0xbd04efc23d4d00eaU, 0xbde8b8633dfceeebU, 0x3d8916a73e0f4619U, 0x3e09363bbe3d63f8U,
  0xbd2cdb583e8aaabdU, 0x3e6e70d5be8190e9U, 0xbe04f1da3eaeafd4U, 0xbc6b36683e3dc07eU,
  0xbd673e6c3b471bf1U, 0x3eb766313e4f0618U, 0xbd6202d83c283e00U, 0xbe97e4ae3d7e6db6U,
  0xbd679f323d9aa8e1U, 0xbe483a80bdcf6f64U, 0x3b9f2da53e4cefa4U, 0x3c1766093dfd62f4U,
  0x3e26b4ce3d497d4dU, 0x3d255a253d46061eU, 0x3dc90d363dd4a06eU, 0x3e0a9b563e0aa01fU,
  0xbd97eb663deaaaa0U, 0xbde7358dbe9aa69bU, 0xbe08d1f93e1e090eU, 0xbd8dc1bb3da034caU,
  0xbebca3d13e8d2de8U, 0x3e01c5353cebba17U, 0x3e0222433e90e720U, 0xbe8a6bc8bd8b187eU,
  0xbd91d32ebda56985U, 0xbe929c5bbec9fcf8U, 0x3d42c5513e93285bU, 0x3d3b05c73e01c59eU,
  0x3dfe29ecbd46f9c6U, 0xbe1c7e873d499ec0U, 0xbcfb105d3e0cabedU, 0x3e0b72573e0b926aU,
  0xbe38f8723ec528f4U, 0x3ddc6868bd94f4d5U, 0xbed7df0a3e2efddbU, 0x3e6c8cf13d691362U,
  0xbdbad75fbc9354bfU, 0x3ea8e9e7bc67c1acU, 0xbcee8d263dfe3257U, 0xbe014b57bd01d3a3U,
  0x3d77131b3e853fb6U, 0xbdabb1ecbdb90b6aU, 0x3eac1a12bd970a6aU, 0xbde8263d3cde4badU,
  0xbe170b56be4cd725U, 0xbd99ea05bc0f86e0U, 0x3d8155223dd0f97fU, 0xbd9dda723e90e6eaU,
  0xbdced3253e1b0debU, 0x3e8687533e26c668U, 0x3d435c193e8016c8U, 0x3e5b981d3e9e105bU,
  0xbe09ef883e963786U, 0x3ebf74ee3e33bf71U, 0xbd6f2af7bd6d5f74U, 0x3e26c5bd3daa931aU,
  0xbd80da553d4a3657U, 0xbe7c7c343ced6485U, 0x3e09e621bd1df64aU, 0xbbefcbf7be0646bbU,
  0xbe228415be57963eU, 0x3e28aa183d9d86e8U, 0xbd23f9fcbdfa3686U, 0x3e7e15da3ee2863dU,
  0xbcff1c2f3e351fe6U, 0x3e8283723e16c3c2U, 0x3d75aa813e83704eU, 0x3ab3f7da3c5fb7ebU,
  0xbe9de1e03e144161U, 0x3ec495923e13b36bU, 0xbdcfbe9b3d89a6baU, 0xbe76a8d03d80d94fU,
  0xbe5fd15a3d2170f2U, 0xbe844e52bd6a117fU, 0x3e6924d83e649465U, 0xbddd0a233e4db74bU,
  0x3db16a33be2e94fdU, 0xbe2355533d87b005U, 0x3da07d943de63a64U, 0x3e6636ac3ea993f3U,
  0xbe69fb563e59fa40U, 0xbe143826be092036U, 0x3d99d2ea3e962db7U, 0x3e2f53283cc76c8cU,
  0xbe6a1ff9be884d50U, 0xbe370505be87939dU, 0x3db219c93e59ffcbU, 0x3eb700753d6c31e2U,
  0x3e257a5ebe80467cU, 0x3e853bfebda8f0d4U, 0xbed9af8abe5959efU, 0xbe38de283d4d434dU,
  0xbd9fca43bd9585a9U, 0xbd52ba1ebd2cb45dU, 0xbd2ab6c0be88b8b2U, 0x3d4a4e10bd849728U,
  0xbb2c1557bd959f6cU, 0x3ea3dd0fbe8f861eU, 0x3e11461fbe3ffe10U, 0x3daa483cbd6556c4U,
  0xbdda620bbc4a659bU, 0xbe01e165be8cd5d3U, 0x3d104eeabdb1a4e5U, 0x3e6660a23e2ba1eaU,
  0x3ebb14ca3d9befcbU, 0x3e95e7a73e13577bU, 0xbd2eadffbcb56a03U, 0xbe85bfe5bcba2886U,
  0x3dbee329bd76ce88U, 0xbd9ed9283bdb7dd6U, 0x3e30d249be0217d6U, 0xbe264103be8f5b3eU,
  0x3e07de24bd3e257dU, 0x3de7c1673d742b6dU, 0xbd4d4f42bdafe1c5U, 0xbe03aa553e257b82U,
  0xbe6449d6bea72cfcU, 0x3da50576be9bd93dU, 0xbd1fe1423d817337U, 0x3e293b963e3d0014U,
  0x3d8f4503be8b9db7U, 0x3d141b36be2aaf18U, 0xbe8455e5be66bf7bU, 0xbe6922933e91b338U,
  0xbdd994debcb35ba3U, 0xbe1f4fa5bb9d48d2U, 0x3e80403dbeb755c1U, 0xbd53267ebdb1bd55U,
  0x3d6cca71bbf32e94U, 0x3e26df83be746f2eU, 0x3ca71139be925f2dU, 0xbe26979c39771d64U,
  0xbea443ba3e0a5510U, 0xbe00dc3ebd9e9a1aU, 0x3d5d20b33d4b8dcdU, 0x3d54be0e3e45afd7U,
  0x3e95ed043df622fdU, 0xbe257ff2bea9d615U, 0x3de80dccbdfe383bU, 0xbe84df643dc8d45cU,
  0xbe09dea03edd4506U, 0x3eb5bcd8be7b329aU, 0xbe7d53eb3dd1ca46U, 0x3dd102503d869474U,
  0x3d20492fbe734f56U, 0xbd29c62f3e9456daU, 0x3dbc88f2be1c018bU, 0xbe4eff2a3e3bf8bcU,
  0xbe8fa9ef3d9d37a3U, 0x3e37f3cc3e2b999aU, 0x3d57a739bdc5f3c2U, 0xbd968f993ceb2207U,
  0x3e208d803e2965fdU, 0x3e2d7463be1ccdefU, 0x3e815302be153f99U, 0x3db78d49be0f78c0U,
  0xbe3fa0193ec0735fU, 0x3e6578eb3c3f4f83U, 0x3d97b4c33e09b821U, 0xbd99b4833e822c2fU,
  0xbe9615543d875fcaU, 0x3dacde2f3dd3c4edU, 0x3dd1548abd4fb9efU, 0xbdbe87b03e74b612U,
  0xbefe73f93db921e8U, 0x3dab461d3d3b559eU, 0xbd95321cbe35acffU, 0xbde6522d3c8f09e7U,
  0xbd360c953d05c63fU, 0x3e453591be6e21f1U, 0x3eaa0312be8c6863U, 0x3d9902473de23811U,
  0xbd6f05373e9ca374U, 0x3e8a79923cb0a22dU, 0xbde4209abd24f830U, 0x3d4541f83e2b8fe1U,
  0x3b90fa133a1803d7U, 0x3d0cc5f13e665097U, 0x3aafc154bd85c40fU, 0xbdd21aa73e4850e3U,
  0xbe1aadd6be94eaf7U, 0xbe285a2b3c7b32c3U, 0xbdec180bbb2c448cU, 0x3c821c433e81cde0U,
  0x3e35ec48be8fa16aU, 0x3d8688e3bb88b742U, 0xbd495dff3db0a97fU, 0x3d5e32393d847287U,
  0x3e48e0f43d731e59U, 0x3b2252f53e667a4fU, 0x3e67fb54be99c335U, 0xbe7c3964be7eb50bU,
  0x3d1abdf33d94683fU, 0x3cc78b41be3634d3U, 0xbe6b856e3e0d6c30U, 0xbe49a02d3dca7ea4U,
  0xbe2bb89cbeb96c81U, 0xbd91c86bbe6ed5adU, 0xbda5ac0ebd4a2e65U, 0xbc9adcdcbd4050f1U,
  0xbe09596e3db9efcdU, 0x3e5974a53e82b5f1U, 0xbec3380abe04d3bcU, 0x3e5d45373d77d188U,
  0x3e3254ecbd56d4b1U, 0x3d31ba8ebe1476e8U, 0x3e175bbf3cbe69f8U, 0x3d44608abe22ddc1U,
  0x3d7e20fb3e5419cbU, 0xbcadc8d2be152acfU, 0x3de57e343c5ad169U, 0x3db290bfbe573997U,
  0x3e3bef4bbe108b3fU, 0xbe3e2134bc4c78daU, 0x3dfc31143de78ec8U, 0xbd3cc78dbe0c5dd3U,
  0xbd6e7ed83d452b72U, 0x3b71eb953e1a323dU, 0xbdcf92963e27780dU, 0x3e35703a3d06d9fcU,
  0x3d889043bcd7bcfaU, 0x3dd32dc03baebe2aU, 0x3e3097bcbe98e410U, 0xb9af3689be472101U,
  0x3e6646c73deb8e24U, 0x3e67b9cfbe066efcU, 0x3d4a24363e27ef1eU, 0xbe4f64abbd88ceebU,
  0xbd383750be82ce77U, 0x3dad0e4dbea1c954U, 0xbdc1ccccbd0417dbU, 0x3e896af93df5e287U,
  0xbdd3dc413e24a009U, 0x3e78a6ce3e5b8514U, 0xbe9bc7043e5469d5U, 0x3e455813bc70ca25U,
  0xbd48617cbe399442U, 0xbe320fed3e5ccf5aU, 0x3ea190aebee34a8cU, 0xbd202a4cbe25ce7fU,
  0x3e1a265e3e3d4d83U, 0x3e1295f8be696c14U, 0xbd6587583a68dfa0U, 0xbd33c206bd85f1a7U,
  0x3e0f0441beacfcc7U, 0x3d674448bd4c4b57U, 0x3d305bdc3ea84a14U, 0xbdc1d164bde2c152U,
  0xbd62f384bc2312dbU, 0x3e4639653d08eba8U, 0xbdb8b5a5bde04371U, 0x3ddef07f3e51f099U,
  0xbda559febea29fb5U, 0xbdae0541bd3b183fU, 0x3e54e6f3be2793c3U, 0xba901601bd8c88b9U,
  0x3e0efc913e4cdc6dU, 0x3dfc8773be5e8b93U, 0xbe23e196be0ba763U, 0xba9a63e7bdfe8eeeU,
  0x3e4fa493be69c6b9U, 0x3d395259bdd24ecfU, 0x3c1b4d6a3dcdcb93U, 0x3e494c6abdfb3fd6U,
  0xbd72613d3e1e151aU, 0x3da3fb80bc856348U, 0x3d9662ef3e109d77U, 0x3e62c6e9bc0352d0U,
  0xbded264ebe94eca9U, 0xbee0054d3dd63f8fU, 0x3e852191be955278U, 0xbe27419ebdc51d2bU,
  0x3d5ca2e83e43aebdU, 0xbd28eadebe956fb5U, 0xbe081804be30806fU, 0x3dbe1657be414724U,
  0x3d3d8e04be7ae3baU, 0x3e2222673e178100U, 0xbc5dcd42bdbb4689U, 0xbdddca993e1cec29U,
  0xbea0b92ebd21fdc3U, 0x3df1bf69beb25e31U, 0xbed5919f3e8cd6c4U, 0x3eb791433e5f78e9U,
  0xbc2a2d1fbdfd48a0U, 0xbeb250c63ea7d9f8U, 0x3d2939db3de88a6eU, 0xbe4fda1fbe911321U,
  0x3eaf755f3e4c7772U, 0xbe6b0b0dbec50b8cU, 0xbe0025bcbe2598f8U, 0x3e0dd215be5211f6U,
  0x3dd729b2be4507d9U, 0x3da1019c3e8d2747U, 0x3e868dac3e0a118aU, 0xbdd3c5203e91337eU,
  0xbede62e5be1dd9b2U, 0x3e6359f4be925318U, 0xbed439ba3e6029d6U, 0x3e7f824abcba9b9bU,
  0x3e49984e3d4a75a9U, 0xbed5a0d33c14fbadU, 0x3d7d24af3df624b5U, 0xbe1ab8d9be39868eU,
  0x3e563f363c9dfef9U, 0xbee44eadbeb7fbc7U, 0xbeae9f463da5355cU, 0x3e99b53fbe731cd7U,
  0x3d4badebbe86e24fU, 0x3ce8d1673e87d671U, 0x3e59d5b8bc9bc347U, 0xbe29d82c3e7a2d69U,
  0xbef3b0733e2ce465U, 0xbe2ee273bda190d0U, 0xbeb77fabbcf3d588U, 0x3ec034c83e6a0403U,
  0x3dc5d0f6bde5d807U, 0xbe76d3623e877d13U, 0x3dd74b5c3db4542eU, 0xbe8517a5be87da9eU,
  0x3ea227c0bd9643a7U, 0xbea098bebe87a581U, 0xbe8f86b13ca5e6e3U, 0x3e1ac050bcbe3f67U,
  0x3d1d8bb8bcdc50a8U, 0x3d8457373d4aa745U, 0x3d8226e1be11758cU, 0x3d2f0b10bdd7934aU,
  0xbd047bf3be39985eU, 0xbdb55b67be3d9d3fU, 0x3d8935483d3d8db7U, 0x3dff45a7bdbfaf6dU,
  0x3e02e848bda530f6U, 0x3df7bbf6bdaa4abbU, 0xbe29fe1fbdc57371U, 0x3daf1f32bd03aef4U,
  0x3e2fe550be390390U, 0xbe4e64213d9c600fU, 0xbe2296383e30230aU, 0xbe55b4853e016351U,
  0xbd5d082cbe120dddU, 0x3d9b50583dac9992U, 0xbc84dd5dbdce0036U, 0xbdc4f0eebe5d5951U,
  0xbe33f1c9be318436U, 0xbcb19378be2e819eU, 0xbde44512bc6a0380U, 0xbe0f64e43db47e0fU,
  0xbd861cbabdf15c13U, 0xbd19afc4bd3c2885U, 0xbe0ff3f0be12db2aU, 0xbaf57569be00584aU,
  0xbe4e923d3da567d8U, 0xbe4bb1993e04b44dU, 0x3ced5b14bc802475U, 0xbe0ba8b7be16e658U,
  0xbdca8d91bc04031bU, 0xbe5ed1abbe188bd5U, 0xbe5b82b53da60adcU, 0xbc1daf2ebdce4f62U,
  0xbd903a873d831d30U, 0x3d2df343be064490U, 0x3dd0c2e93ddaaa87U, 0xbe417de0bd5ef51dU,
  0xbdfd922fbe4bd88eU, 0x3c7ee452be1d246bU, 0xbb92f4a7bd969ee6U, 0xbe19aa15be47f247U,
  0x3e02a5033957904dU, 0xbd025c0bbdfcd2efU, 0x3d8b9a293cc088d8U, 0xbe598a60bdc0d700U,
  0x3d834c4d3d59db8aU, 0x3d7bc7edbea08d56U, 0x3e5ea6433cd36efdU, 0x3de26233baa2b08eU,
  0x3d2bdc9abe8591e6U, 0x3d23cf2fbecd5254U, 0xbe98e67fbdc7c342U, 0x3d9414083e32648fU,
  0xbd39107a3d3bed05U, 0x3b729cae3d6598e8U, 0x3e53fcd3be2c943cU, 0x3e3395b43de7e99cU,
  0x3e26e5553da61584U, 0xbd778bc6bde3d6a1U, 0xbe2442d9be383c74U, 0xbe7cb52d3c168d56U,
  0xbe81dd31bd66ab12U, 0x3d0174fdbea82214U, 0x3dea3b993c497da9U, 0xbd0a0b6fbc2daeddU,
  0xbb5611cf3d7142ceU, 0x3d633d94bef33e70U, 0xbe2fbf653e131a97U, 0xbd5f684c3e53a5b4U,
  0x3d977b573dbb7152U, 0xbd81da2c3e551ac1U, 0xbdc111febe27abd5U, 0x3d9abe33be33d4d0U,
  0x3d2c62c93e10e4b6U, 0x3c4eb816bebead57U, 0xbeec5738be5a6d65U, 0xbe2d2821bdd84cc1U,
  0x3c5fc4f7be8989c0U, 0x3b112372bc899067U, 0x3e10deb73dc03541U, 0xbca8eaa9be067470U,
  0x3e31b3b43d23e294U, 0x3e7ed060beb54c7aU, 0xbde5ad1cbcf679faU, 0x3e2026c13d06b2aeU,
  0xbcb0aaaabe8196acU, 0xbe92b7f83e4a2e4bU, 0x3e1ac5e8beb0e08aU, 0x3dc37cfb3c839eceU,
  0x3e4ddbeebcebf1d9U, 0x3dca89f6bebac519U, 0xbdb159e0be3466dbU, 0xbe69c91f3c8c7942U,
  0xbe86ff0e3dd4eb0dU, 0x3e3aa26abe46015fU, 0xbe73e486bd4064c1U, 0xbdec93ce3e59c68cU,
  0x3c73cc3fbdecd2e9U, 0xbe80ec00be164e88U, 0xbe2da29fba965e1bU, 0x3c7e22c4bdb20c9fU,
  0x3e362adebe7b48cdU, 0xbd9f39693e01d7baU, 0x3e6bae23be1a4d3cU, 0x3e6a0e3abdac547eU,
  0xbe9a56ac3ec3f47fU, 0x3d68459bbe804de0U, 0xbe9630c83e36836fU, 0xbda16cb9bc79c456U,
  0xbdecc0e63e004eccU, 0x3ec8f5063d6fcf2cU, 0xbeabe6b13e26996aU, 0xbe568ab43e7b680dU,
  0xbe0350a6be99716fU, 0x3cee28c3bc9fffb2U, 0xbca757a73e2bd778U, 0xbeb38612bd2d66ffU,
  0x3e7003e2bde67522U, 0x3dbe7495be3808ceU, 0x3e794fb2be4e85c1U, 0x3eb38722bc856924U,
  0xbc3e48863e9a9523U, 0x3c8e85b2be4865fdU, 0xbee649623e8edc95U, 0x3dffecd23e9baef7U,
  0xbd791d3a3ea61087U, 0x3e83c80e3db6ef30U, 0xbeb491f73c8feed5U, 0x3de6d105bdb9ffbdU,
  0x3d8d8654beaa529aU, 0xbd053efcbe673447U, 0xbeaafd8e3d2fa2e0U, 0x3a2850433c297308U,
  0x3c5237a6be308649U, 0x3dd72eb33de5c9aeU, 0x3c89f2bdbe660148U, 0x3eb2a86cbd86004bU,
  0xbd5834bf3de98a5eU, 0x3e9c8c223df907c2U, 0xbe9d2da33d72dbcbU, 0xbce0046c3db355dbU,
  0xbeab3a3f3e4b641aU, 0xbdabc4e6be3dcd1fU, 0xbe11f7ecbd072d7eU, 0x3d5295d8be59c334U,
  0x3dd96e9e3e5c930aU, 0x3d41da9a3e0f2d96U, 0x3da3ccab3e57f99bU, 0xbdebb5c03e2d2ba9U,
  0xbe2a0d033d9c02caU, 0x3e09c4c4bdf0aa7eU, 0xbdd6af7b3d8058bcU, 0x3e3b09bd3e60482fU,
  0x3e060b0c3dab13d2U, 0x3c9dadd5bcca89ebU, 0x3d62aa0e3e8d369aU, 0xbcc6dadd3df3afcaU,
  0xbe8ff7493df68e82U, 0x3e52f5863db71734U, 0x3c103499bd1fbfedU, 0x3d21877dbe65566aU,
  0x3e37c0343e5e75f7U, 0xbd2bbe5d3d21bc80U, 0x3eb6ae093e39f646U, 0x3cf733e9bd2d73bcU,
  0xbd806613bdc7d708U, 0xbdfa209f3e0198ebU, 0x3dc2f1f93cd59d8bU, 0xbdb466eb3dfb982bU,
  0xbe347c0cbd7b24f0U, 0x3e25a0853db6a088U, 0x3d8e122a3e92a2e2U, 0xbe62388bbdec98eeU,
  0xbe87d176bd41671fU, 0x3d79a176be44aa7cU, 0x3e262145bdc7c668U, 0xbdb1f4d4bd4b6c70U,
  0x3c9ece563eb88497U, 0xbba41416bdb18fe4U, 0x3e05405fbd1205acU, 0x3deb2f8e3c4f8c57U,
  0x3d8d2b163caec489U, 0x3e30f7913e1829ffU, 0xbe0061703e2cd78fU, 0xbe59643f3eb20335U,
  0x3d40b5e63e23256bU, 0xbe3ad97abdb3fc5aU, 0xbd6bad5cbdbdb34bU, 0x3d4e50173daf5dc0U,
  0x3d7770d7bc97867dU, 0xbd026d0abd80020dU, 0x3e0a6b3cbdb052d9U, 0xbe16b8f0bcf98a58U,
  0x3d441d453e3b02caU, 0x3c9fa5283d942e16U, 0x3eb1d55f3d48755aU, 0xbc750389bceb5129U,
  0x3de5de81bdddb1fcU, 0x3e5a02e13e4642beU, 0xbe8548b43e8d7e6bU, 0x3dfe314a3e8a5e56U,
  0xbdb81d44be1b97daU, 0xbd723d583e791791U, 0x3eeb2f623dbaaa07U, 0x3e2381ebbe060484U,
  0xbe8ca22f3e338615U, 0x3d5b7ca53cfcde9dU, 0x3e2dce2dbd9fdb9eU, 0xbdb0b200be70558eU,
  0xbde619503e664011U, 0x3cca3db2be630bfbU, 0x3e9bc1e5bda6c31bU, 0x3e426a8a3e343ec6U,
  0xbe038137bccb5495U, 0x3e5f97c83e7c20adU, 0x3cdd690e3e318b47U, 0xbdf382fb3e4459cfU,
  0x3daa6a0ebe3dbcb9U, 0xbec0af423dcc1abcU, 0x3e08e2a73dcd32e3U, 0xbe02ec043df7e65bU,
  0xbd3f6cb3bdb6cd30U, 0xbe8c025b3e91fdddU, 0x3e8439d0be39f842U, 0x3d1c483cbe036f2fU,
  0x3e783fc83d69d55aU, 0xbe241e2abd42c255U, 0x3e41d7353d96ea46U, 0x3e4abdedbd29b9c5U,
  0x3e5c08513e89c9b8U, 0x3e546f643e00eacaU, 0xbe7860733ec5d99aU, 0x3e3513e93eb0d42bU,
  0xbd849664be5a905aU, 0xbe96da563eb08c4bU, 0x3d20d3a23d4e7038U, 0x3e133aaa3c6d414eU,
  0xbed4013dbe4090a6U, 0x3d9549c5be681b91U, 0x3e4f46af3e8d5522U, 0x3de2372fbe08ced5U,
  0x3dcff0ab3d971070U, 0xbd2c398e3e89b68aU, 0x3e9affec3dc627adU, 0xbd440c223e3df8f4U,
  0x3e1c661f3dfc9d15U, 0x3e5e7d63bc439304U, 0xbd8c3c9f3df90c3cU, 0xbe461e2d3d27d5c5U,
  0x3e6e72a03e40723cU, 0x3e7fb4a3bdcc163aU, 0x3ee0af643e060d97U, 0x3e1226cfbd572778U,
  0xbe037ca0be182865U, 0x3e82545cbdb4869cU, 0x3d7e3bb03dbbd147U, 0xbe3b08f6be68ed7dU,
  0xbd86099f3d9f5d40U, 0x3d8bf3b83e7f20efU, 0x3d496363bdcb82beU, 0x3e90c29fbe058740U,
  0xbde86e893cb83114U, 0x3e37515dbdd3a413U, 0xbd9e5ebe3e258ddeU, 0x3db252103e1e391cU,
  0x3b47132f3de56821U, 0x3ea6eea1be2208f0U, 0x3edb47853e0b40e6U, 0x3d3c15cc3de81f20U,
  0xbe2c77893db81db6U, 0x3e77a141be526f21U, 0x3e2ec6cbbd053f01U, 0xbe32ca573c958e5dU,
  0xbd7fd9413ec862ffU, 0xbe501fc03e2816aaU, 0x3ec1e8753e1fd51eU, 0x3e114280be6171e0U,
  0xbdb59afa3e20460eU, 0x3ea2f39abda34709U, 0x3e1fa98e3d59565fU, 0xbd47a3103ec7dee3U,
  0xbdd26c5c3e5b6438U, 0x3e1083bbbd5c0c56U, 0x3e5facdc3eeba912U, 0xbe67e281bc7618fbU,
  0xbdaab56bbe192e53U, 0x3c83f57f3dc7f7a0U, 0x3dd9504c3d307ec6U, 0xbdbb23923e79aac9U,
  0xbe076798bcc94180U, 0x3e58f0e73cdab504U, 0x3e08907c3c81e8e7U, 0x3ea45faf3de45ff0U,
  0x3e999c7ebe95a725U, 0xbdfa1da13e466068U, 0xbda0789bbb189b53U, 0x3d7f0e6c3e4f4c6bU,
  0x3e394692be20f989U, 0xbe34d9e33d21806bU, 0x3eafaaf1be814e8fU, 0x3e1034fabdabe242U,
  0xbd2a0119be549dd8U, 0xbc21973a3ed0d6e7U, 0x3e12162d3e996c5dU, 0x3da2f0e8bd0b96e0U,
  0xbe0d5e4a3ea17b03U, 0x3cd74811bde5cbfbU, 0x3df2c3723e076822U, 0x3edb4c433e3d58d8U,
  0x3e3bb4f6bdabb91aU, 0xbed50e443ea3b74bU, 0xbbe97e37be171dafU, 0x3d16b91a3dfef78eU,
  0x3e831749bde2f4afU, 0xbd7de78b3e04e70eU, 0x3e478080bd22b572U, 0xbd8f40e4bdbcec7dU,
  0x3cf5060ebcb559fbU, 0xbe3d0ea23e9f1d8fU, 0x3caabe61bdb57c75U, 0xbd21d920bdfda205U,
  0xbe9e49683e946897U, 0x3dbbe071be8a9110U, 0x3ea1aa773df5565cU, 0x3e600a80bd6de46eU,
  0x3e3483f4be7f953aU, 0xbeea82963e55ce09U, 0xbe4633e53e58fbb9U, 0x3e0b1e433ccd123eU,
  0xbd81b8a4be9b1f6cU, 0xbec38d763ec7594eU, 0x3d57d1e73c8d17dbU, 0x3c6f802dbe927e93U,
  0xbecacc1b3d7348bbU, 0x3e7291f2bde79d70U, 0xbdebe20ebe2f17b6U, 0xbe4a2aeabddc179cU,
  0x3e94d7863ddf9f01U, 0x3dffcac8bea74d5dU, 0x3e914004be7a6393U, 0x3e0a9ef73e3492b9U,
  0x3e23e9f53e905733U, 0x3e540ba83c040962U, 0xbe5e7f6b3e955c25U, 0x3d8036aa3e92013aU,
  0xbc988215bde8db54U, 0x3db400b5be4fb2a5U, 0x3ede5004bdbfe0bdU, 0xbde0f3633d0d89d7U,
  0xbed1fc1cbdace53eU, 0x3e8e1c323d9ce2a5U, 0xbe1eff7b3d92c6cfU, 0x3e21a3b13e0b1a66U,
  0x3e6cd32a3e859828U, 0x3df8f793be93e70aU, 0x3e5600e03da3e8e4U, 0xbdc8d034bda3d8e9U,
  0xbe3222103ed1f1cfU, 0x3e43609ebc3e3743U, 0xbdd16b4e3e9ea9cdU, 0xbc0c344c3dd6341fU,
  0xbe4154f3be51eb7cU, 0x3cee7cc3bc70fef3U, 0xbd644636be134b82U, 0x3d4cb1c6bd42ac77U,
  0xbf081a303e28b79fU, 0x3d0a4e11bdd8ab36U, 0xbe6101fc3e45976aU, 0xbdafe0e73e361172U,
  0x3e6140273e072e1bU, 0xbe53c496bded278fU, 0x3e826c25be8b2768U, 0x3da1062cbdf6d8aeU,
  0x3e0661e03e2c0c70U, 0x3d14f71cbe4f738eU, 0x3af182f43ea4c09fU, 0x3bddca683d82ff82U,
  0xbe590dc9bd9fdfc4U, 0x3de288ddbe0d14edU, 0x3dfcc59abe1bba19U, 0xbd739541be212a76U,
  0x3dcb69b3bd01160dU, 0x3d1fb87ebe03cfebU, 0xbdd282de3e667486U, 0x3e163d283e464950U,
  0x3dc28156be1c82c5U, 0x3dd50f90be2ee3d2U, 0xbea22c33be19925fU, 0x3dcee0fa3db4c53dU,
  0x3e37b387be939b3bU, 0xbe72e360bbfed499U, 0x3d7984e7beccb4bcU, 0xbdd7dc3bbea84d73U,
  0x3c0a4e8d3e12a568U, 0xbbcdd946bdc36865U, 0xbc9f27a7be0332edU, 0xbdb5398c3ae61402U,
  0xbcee57553dd1b80dU, 0x3e5165cfbe52cfeeU, 0xbd84bdf13e1caf57U, 0x3d4c5f5a3e162f3eU,
  0x3de2479bbe4521e8U, 0xbd9f54b6be0dd874U, 0xbeae1b1bbe32a361U, 0xbe04b9f03e069e97U,
  0xbe0f0021bda7a6c7U, 0xbde00b2e3e1949beU, 0x3e8c3f7ebed77d4cU, 0xbdcc6ab1be83b4c2U,
  0xbda40cf93dce5177U, 0x3c61f404be4abfc1U, 0xbe9c7ba7bd32fe24U, 0x3d8b66e0be23300bU,
  0x3d9c4c333ddafe3aU, 0x3e19fd1fbe8c54eeU, 0xbe121ede3e7a8beeU, 0xbe01e60e3e71eb72U,
  0xbe1776afbdb1d3b3U, 0x3d9515a7bd6b4fadU, 0xbef6ea693dae7c4dU, 0xbd945ce63e3410a8U,
  0x3da26c3dbe973a49U, 0x3d32f9963dfda754U, 0x3e5011cebe783150U, 0xbc9cb07abc4e51eaU,
  0x3e438c3d3e5bd4dcU, 0x3e7fe86dbe6bd4aeU, 0xbe17fd343e3507f3U, 0xbe504a21bdf06a04U,
  0xbcda7eeabdc490e1U, 0x3c20d49d3db5af54U, 0xbce36c073ceb3ff8U, 0xbce2a03d3d9df240U,
  0xbcd1837ebd2dfb4aU, 0x3b9c79b4bd56c9e8U, 0x39b36f30bc085f67U, 0xba8d3c8c3c421713U,
  0xbe066b40bdf5a16cU, 0x3d2aab8e3d0589ccU, 0xbe4d39cfbdbbc671U, 0x3d7f10a6be51c87bU,
  0x3dfa5fb8be136a4aU, 0xba5ed3d03cc8b131U, 0xbdbb8f3dbe11cd02U, 0x3d3839a43d8a1c12U,
  0xbcced561bd98b4f1U, 0x3e0662993d95c70cU, 0xbdab13793d356b8bU, 0x3cc08584be26c9b0U,
  0x3d194ebebb29806cU, 0xbdbb907bbcb6c03eU, 0xbe45243abce79a29U, 0xbc5c0dba3d15b304U,
  0xbd60899ebd22595aU, 0x3d2642f33e2669cdU, 0xbd87abbcbd6a7f9cU, 0xbd7126e2bdbf9e55U,
  0x3dce9732bcdfa48aU, 0xbcaab70d3d977adcU, 0xbc8f97213c6d2e97U, 0xbd2dfea6bc256350U,
  0x3c908e08bd3085a8U, 0x3d4dd6353e4e0cabU, 0xbd03b297bc7f8a00U, 0xbcb48fc0be51d750U,
  0x3e291337bd88d7b4U, 0xbce952383d0b7f8cU, 0xbd5673fe3d766d83U, 0x3aac6378bba03d3eU,
  0x3d8bb02f3d68a8a4U, 0xbd1129a43dfd3347U, 0x3d12dccbbc608dcdU, 0xbd2ce2a1be36a672U,
  0x3d8eafc33d5aa78bU, 0x3c2231b43d2abb20U, 0xbddae9ac3e03bcbfU, 0x3dd55572bcb83a24U,
  0x3c8caf56bdab0106U, 0x3cb4574d3e86657aU, 0x3d9ba5923ddb07f2U, 0xbd277694bdbf87d8U,
  0x3d9f13cf3e0a68b1U, 0x3d5db18f3cfaff65U, 0xbc8dd7253cf80dbdU, 0xbd0a0d44bdb3b547U,
  0xbcc9f0dbbd8a296fU, 0xbc68606c3e6d4299U, 0x3da52b053e07bc91U, 0x3d9607e9be100b52U,
  0x3e1399213e01b9f2U, 0x3db5df4b3dc87aeeU, 0x3dc87976bcf6f004U, 0x3d5f87d8bdf821f3U,
  0x3d0cbbd0bd3fe809U, 0xbd0681cc3e9105dfU, 0x3da81a653cf579fcU, 0xbd816e54bd64a928U,
  0x3d7ca0fb3d313da4U, 0x3cb73f743d7adba5U, 0x3d06bcb7bdf049b5U, 0x3da5697ebd8f265cU,
  0xbd448e1dbdc76bf9U, 0xbc3996163e467775U, 0xbc3eeeb43d0a9437U, 0x3b242c40bbf6f149U,
  0x3d7a19c43d96662cU, 0x3c16824cbbd51a89U, 0x3d143e3ebd8dbae0U, 0x3e0d57e3bd8fa556U,
  0x3cfd162fbe22e40aU, 0xbe13fe6b3e9b0286U, 0x3d79f6a93e0ea1f6U, 0x3d6387f2bd222a0fU,
  0x3de7b84e3d04cc9eU, 0x3d152490bd58159bU, 0xbbc14e09bd29854fU, 0x3e0b389fbe1d2140U,
  0xbcabb196bcd6d9a8U, 0xbda775c83ea6f0c0U, 0x3ccba23c3d108defU, 0x3c7ad558be1363c1U,
  0x3d811658bca6e348U, 0x3cf9d8dcbd39e6d4U, 0x3da122f33d8be58dU, 0x3d81f275bdd55080U,
  0xbd6a7e543bf38c21U, 0xbd0a9daa3e67a03eU, 0x3dc457b03dacd311U, 0xbcdb4f0abdba5ffdU,
  0x3d3e30853c78ed5cU, 0xbd833670bd189f25U, 0xbba3aeca3dfcdfe1U, 0x3e15fbbebd43e6b3U,
  0xbd33005abd36e20fU, 0xbdb5fedf3e79b645U, 0x3d68bbdd3d608d9cU, 0xbc3519183ccfc06dU,
  0x3bf068563de21503U, 0x3d7f68f83b849735U, 0x3d1023303e070ee6U, 0x3dbd60e5bb140b95U,
  0xbd9d63193d126cb0U, 0xbe1e49e13e90f38cU, 0x3d2344e13df8d48fU, 0xbd7944f03bf407d4U,
  0xbaf229c13ca1da77U, 0x3ae6e4d03c011289U, 0xbd1dc9a7bd191b12U, 0x3d7f21703bf2bb9cU,
  0x3cb2f47d3cec9b8bU, 0xbe1fe3c53e19ec32U, 0x3e17fd08bbf6767fU, 0x3d8ab9cfbda57520U,
  0xbcc40c293ce345e9U, 0xbd57667cbd013c91U, 0x3dc9ac6bbdf3e04cU, 0xbb4d0eecbd173ddfU,
  0xbc7e20f9bdd21752U, 0xbd1da9bf3df42914U, 0x3dafd40b3d1fead7U, 0xbda13d59bda48addU,
  0xbe2207bbbd82f5fbU, 0x3b6301cb3cbfd099U, 0xbd0b2b65bdb4f82cU, 0xbc5087dcbd41855aU,
  0xbe11d73cbdbb53faU, 0xbe1736923e25ba52U, 0x3d1738a13bf6e49eU, 0x3a2ba980bdd90e5dU,
  0xbe393c8e3dae8502U, 0x3c0397ecbe0e5d3aU, 0x3dad353dbe63c249U, 0x3de2773cbd83481dU,
  0xbd01c6efbe1d9728U, 0xbd38d6803e22359fU, 0x3d9422bcbd030f97U, 0x3d4d43febc7915b4U,
  0xbd1fcea93dc6c0b4U, 0xbd1110cabdc2929fU, 0x3db60c79be8649d4U, 0x3da71c49bd909cc6U,
  0xbe34651abd06af7dU, 0xbe5298113dd82c02U, 0x3de0e156bd71bf3eU, 0x3b28f620bdaedc4aU,
  0xbe5b41713ca6ca77U, 0x3ce52278be0642e4U, 0x3d4047c6be6220abU, 0x3e044c9abb81de2cU,
  0xbd6be317be264b00U, 0xbd64d9603e44b9b2U, 0x3d3ff7f63db4a6dbU, 0x3d59868abdb38216U,
  0x3ba2f37db92243c5U, 0xbc3eaae1bcf57cb5U, 0x3d89d172be37638aU, 0x3dc17911bde802ccU,
  0xbda54f8dbd85ceaaU, 0xbe1024923d5f7b2dU, 0xbd08d01d3d578367U, 0xbd98239bbd63f82fU,
  0x3ba31c823d41f66cU, 0xbdf8eaffbe157167U, 0x3d92b08fbda17b43U, 0x3dcb3f04bdb4f5daU,
  0xbd40a137bd4c7c2fU, 0xbdaf18dd3b4c6af5U, 0x3d6d3035bd1c7cb4U, 0x3d7a868e3e00dc31U,
  0xbd955609bbb3c28eU, 0xbe417e313ac056dfU, 0xbd373b61bd95d381U, 0x3d73b23c3d27815aU,
  0xbd6c80e43d2fb6b9U, 0xbc3770f33d2454d6U, 0xbcf0e33f3d5f3946U, 0xbc66bb303d7cfc2dU,
  0x3d835740bd824adeU, 0xbcdb01c1bc2739bdU, 0x3d9c11c2bd1ff2d2U, 0x3d8b7f0bbd1cbbefU,
  0x3bcb95083d41785bU, 0xbe1ea1183e039ebaU, 0x3d9c9cfebcc0b73aU, 0xbd6aa8fc3df50338U,
  0xbbc55a5a3c8a328cU, 0xbe4104afbdf41e92U, 0x3e09751ebdcf4cc7U, 0x3d2e1cf13c563b81U,
  0x3c8363073d876f3aU, 0xbd07b4c73dfe2681U, 0x3ca581a8bc05827eU, 0x3da4b72d3d40c2a9U,
  0xbc9a2d913d890eccU, 0xbe378808bd7316c5U, 0xbd37f6263c377a5dU, 0x3d129af13d7502d9U,
  0x3c2a50273c8e4d09U, 0x3d070e723e3d3983U, 0xbc636018bc9e1d6cU, 0x3d3a9ae63d75d19dU,
  0x3d408f363da10effU, 0xbe4e5d8abd09d9c3U, 0xbdb6d8fc3d4f65fbU, 0x3cf5943d3caf179cU,
  0x3d50cab63d4ff896U, 0xbdbc44f93e8327b5U, 0x3d2f9983bc8ddf1bU, 0xbd9013a6be0c510aU,
  0x3e50a7e03d1d0a62U, 0xbe1e7126bd80726fU, 0xbe5655173d17d0bbU, 0x3df6e9c13d7ce713U,
  0x3bb114363dae8a3fU, 0xbd88874d3e04b385U, 0x3e0571193ddb7f17U, 0x3d822679bc7cec2aU,
  0x3e18f4bc3dac1d48U, 0xbe443e8b3d4cfa35U, 0xbd0eec32bded227eU, 0x3e61e7c83c2bf6cbU,
  0x3d3b6117bcf55c9cU, 0xbdf7a6f03d48e975U, 0x3d9b3db53d6779b9U, 0x3d9db0e7bca0906cU,
  0x3e2b85f53dbf3fc0U, 0xbe7d7b59bd8c1590U, 0xbd9b6141be00320bU, 0x3d00eb92bdcd07a5U,
  0xbe0a29b63d0a7246U, 0xbd0a46c73d4f7f8bU, 0x3d03507b3ceb8ed0U, 0xbda998503dd4bc0eU,
  0x3db9ab023e13857dU, 0xbe8c26cdbd81e48bU, 0x3d8af398be812eb3U, 0x3d1e714dbcd0f095U,
  0xbe305bdd3da8a56bU, 0xbe0120f3bb9c19d5U, 0xbdcbd1de3d59fcc7U, 0xbda817d23d953b3fU,
  0xbd5c4755bd24c673U, 0xbe8d8b76be47357eU, 0x3d0f12b1be70f582U, 0x3cb77092bc98c85cU,
  0xbe95ee9fbdd0ea89U, 0xbd3ed3f33e0dc79dU, 0x3d3af19c3b8def3eU, 0x3d40d2823e120ae0U,
  0xbd317226bd048babU, 0xbeb32e30bdda0381U, 0xbdc8165abe7b8002U, 0x3ddcc3cabd039007U,
  0xbea68c5cbc850eadU, 0xbe68b7d23e7ffea4U, 0xbcc5b54f3d2db28aU, 0xbd9f7157bcb096c9U,
  0x3dacbc2d3e1d2d2eU, 0xbee5c839be84aa0fU, 0xbe381ba8be3225beU, 0x3cf639a1be078197U,
  0xbe920fb5bdcac37dU, 0xbe14e3eb3ea76c5bU, 0x3e12105b3dde3549U, 0xbb3a4c403dbdc284U,
  0xbd9887a63e13b5ceU, 0xbeb0d5e9be37492cU, 0xbd776f5bbe0cc64dU, 0x3e31eddcbe0c9d30U,
  0xbe229e453cb13cb2U, 0xbdf7b9503e38e02bU, 0x3e2d23233e326abdU, 0x3c651f50bc53a5a9U,
  0xbd4162b53e30acf6U, 0xbe76f695bdce5618U, 0x3ca838b33b406d5bU, 0x3caea0ccbe1622f8U,
  0xbbab4f05bd5820ebU, 0xbe276aa63e0547a7U, 0x3da037183e229515U, 0xbb2d02603ce98531U,
  0x3d95f8623cf88ba0U, 0xbdd817913d41cd73U, 0x3c5829c83d7081abU, 0xbc632991be20f5d6U,
  0xbcb85f5f3d915229U, 0xbdac732e3d71ab50U, 0x3d9ea60fbce8df51U, 0xbce47d983e123fc8U,
  0x3e0e67433daceebfU, 0xbe0066f8bd8f744aU, 0x3d92c615bc0644f3U, 0x3d04a760bd23b15aU,
  0xbdca9f39bbb79c8cU, 0xbdf7c0f13dc0ba5aU, 0xbbc194423e23eaefU, 0x3d5c88f23e00ba68U,
  0x3dcf21783ca5dc73U, 0xbe84cc683c92ed16U, 0xbcd83a4cbe27aa79U, 0xbbd33b15bdce3b66U,
  0xbd8179bbbc0ee455U, 0xbe143cc73e3997cbU, 0x3e03b9713c2205c6U, 0xbd983aeb3ddf2a79U,
  0x3e01c2fe3a68c61cU, 0xbe6e5c1cbd03ff44U, 0x3b950f8cbe4830b0U, 0x3d21f46f3c4e6450U,
  0xbd6ab6a1bb8d3904U, 0xbe9783ef3dc4dd01U, 0x3d3e55aa3d9aa5b7U, 0xbd6185583d56c37cU,
  0x3c0078263e070d07U, 0xbeb27bafbd669a3cU, 0x3d61bddfbe687e77U, 0x3e42a8cebe022a12U,
  0xbddcea143cd0bbacU, 0xbe8339243e483653U, 0x3dda919c3d23f398U, 0x3d3300ae3d1d460bU,
  0xbdb727283d7c37d4U, 0xbe327e63bdb106a8U, 0x3d087936bd6ad7a1U, 0x3de74bba3c034a7cU,
  0xbd8e08a7bd571d9eU, 0xbe8b86b53d8dc262U, 0x3cc0706a3ca15a3fU, 0xbcf0f7823dab3aafU,
  0xbbd5ee443d9ca457U, 0xbe2831bebc9b6fb5U, 0xbd827614be549956U, 0x3d8486cabdc72068U,
  0xbe2a1ffa3cd64adeU, 0xbe0d48bf3e0abcffU, 0x3df3a3de3cf23de6U, 0xbda7fa943e2df82dU,
  0xbdb6c1963e1c12d8U, 0xbe9d0e80be4b5dc3U, 0x3ce15d2abe56ff84U, 0x3d37238ebdbadffdU,
  0xbe290c37bd85f007U, 0xbe6dfca83dc07e17U, 0x3e0ae0983d675a23U, 0xbd3b390b3da3d758U,
  0xbdd3eaedbc76fb85U, 0xbe3ebd3dbd0bb4e1U, 0xbd87d320be439c02U, 0x3ddcab08bdd44cfcU,
  0xbe724e98bcf9b170U, 0xbe729359bc46e2c3U, 0x3c5721593dd4ee0aU, 0x3d1547c43d8e2156U,
  0xbe0ca5a23db96eeeU, 0xbe65ad7dbe0cf1a9U, 0xbd471e69be452041U, 0x3de7c9fdbd1ff720U,
  0xbe29e619bd23d4b6U, 0xbe0735463d66f6dcU, 0x3d8682553def191eU, 0xbc5314783e1b3396U,
  0x3d25f8f53e02723cU, 0xbe739d79be3e6f66U, 0x3d868433be7aa71eU, 0x3da32c16bdcf44c5U,
  0xbd39f528bc11ab46U, 0xbe10bde53ba1ccf9U, 0x3e1477833e39efc8U, 0x3d1b4bd63e40221bU,
  0xbd999c3b3de3d568U, 0xbe39ddfbbdc3b1d3U, 0xbc92b600be368023U, 0x3dea0805be249defU,
  0x3d9983223d120d02U, 0xbd865845387f1a74U, 0x3d6a8385bd5edce1U, 0x3bcc5af0bd8af155U,
  0x3d9dcb453d34b6b2U, 0x3cb9be84bce870ceU, 0xbd18cc8e3cfb0a67U, 0x3c1fd6dc3d916742U,
  0xbcc83880bd22b892U, 0xbd05f1583d33a582U, 0x3d1e758abda3d363U, 0x3c308118bd881c22U,
  0xbd39ac813ce6b86bU, 0xbdc61fc6bdd33fc0U, 0x3d042e9f3d81c1a8U, 0xbb812648bd78130cU,
  0x3d1a5953bbd636bcU, 0x3d23332bbda4e5d7U, 0x3ca245013b08044fU, 0x3d9648f1bc9b58c6U,
  0x3aecae83bb50ac37U, 0xbdcbf3b53cf7622bU, 0xbda85170bcf72d96U, 0x3d82e848bdb27ad7U,
  0x3cd81680bc96b7a4U, 0x3bcd5dcebdcb9ee1U, 0xbbcbd2f9bd0e3e24U, 0x3d8e276bbdb0401aU,
  0xbc8f2c93bcbcba01U, 0xbd9fd4413cb20256U, 0x3d93cb9fbc033b5dU, 0xbd170b6d3d98a266U,
  0xbd98e372bc68016cU, 0xbcea87d1bb0e9d49U, 0xbd08fc11bda4cd9dU, 0x3cffdd34bdbc90d6U,
  0x3d1caa12bd770f19U, 0xbcd946343c1c22c1U, 0x3c9d2a12bd814387U, 0x3a178a473d5e7cdeU,
  0xbd18f4593c43fc72U, 0xbdb7da94bcba2f45U, 0xbd9c7ed3bc4ce35bU, 0xbd82cf81bbf54b4fU,
  0x3d9142f53d5d4919U, 0x3b2b52abbdb321b3U, 0xbd8c46ffbdbe8e82U, 0xbd6fc94f3cb0d88aU,
  0x3d05d9523d134303U, 0xbdde0f7cbc17adacU, 0xbd90cf3e3d94a761U, 0x3da23d77bd9b58e2U,
  0xbcc149393d92f67aU, 0xbd6f79d4b9db1f0aU, 0xbd1217e2bdb599f8U, 0xbd19166dbd8bbf25U,
  0xbba0525abd48731aU, 0x3d1f0614bd9eb557U, 0xbd2264f6bcac21d6U, 0x3c67e7e03ba96a68U,
  0xbd6e0efe3d9cffbfU, 0xbd92dc1e3cea21a8U, 0xbda7f51f3c946553U, 0xbda18c68bdce4095U,
  0xbd299670bd99bd51U, 0x3d3372d5bdb9ad8fU, 0x3d9a8943bcba609dU, 0xbdad01203d77d934U,
  0xbdc217cfbd045d9eU, 0xbb9fb310bc82076fU, 0xbae29e06bd05511bU, 0x3b1118afbd6bfa04U,
  0x3d9ca6333c5aca13U, 0xbd7e0d04bd850cd7U, 0xbd3aadf13d8dd5f2U, 0xbbd4b050bc0a296dU,
  0x3d07775e3cdb545fU, 0xbdaa6561bda4aa65U, 0xbd9461c8bd9f80bfU, 0x3c31c093baa7c46eU,
  0xbd8ea0593cbb6fbaU, 0x39af0241bd749243U, 0xbb83ded6bd83e816U, 0xbd8db5463d17a30aU,
  0x3d8dbfdcbc7eeb40U, 0x3cc12e33bdc91c90U, 0xbda1a4bebac7d0e8U, 0xbcd75609bdc3139fU,
  0x3d9fc23f3d8df613U, 0xbdebd07dbd628047U, 0xbb412ecfbce0243cU, 0x3cc87344bb6ed727U,
  0x3be10fd7bbd920aaU, 0x3d52d44dbdcb76fdU, 0x3d80d2b93d33b41eU, 0x3c95e06b3d3a057eU,
  0xbd6c8dda3d10bdabU, 0x3d4c1cb1bc4872d0U, 0x3c3dbd4ebc509717U, 0x3c9eebc8bbdfdb2cU,
  0xbcca42cbbd8ffe20U, 0xbd6a6da7bdea3baeU, 0xbd08a5b9bb150a2dU, 0xbdb271963d677c39U,
  0x3d8e02fe3d8cce69U, 0x3d5d1b87bd5f27e1U, 0xbdabadf5bc9b0e2fU, 0x3cefaaf4bd70c2a1U,
  0x3cba0831bdbd8c90U, 0x3d5c91c1bdca7de2U, 0xbca3f9abbb73883cU, 0x3d20e144bd925edeU,
  0xbd9fce1f3d172c41U, 0x3b409582bc125821U, 0x3d92beedbc99bca5U, 0xbd6192403d685fb9U,
  0xbdabb2f7bdb6c592U, 0x3c97bf5abd090a14U, 0x3d9187e4bdb1ca72U, 0xbd9697a0bc76fc5bU,
  0x390fa9b4bcab4e68U, 0x3d48f1a53c200f69U, 0x390343c2bd3eaf4eU, 0xbd347c31bd494723U,
  0xba1f0347bcc60731U, 0xbde5a0f3bd795fecU, 0xbce21632bdb6b9bdU, 0xbd01b88abd4cc27aU,
  0xbcae9912bca23050U, 0xbd80a3e6bda3f2b2U, 0x3d783dd0bda5ef90U, 0x3d8a2c8dbceb75e5U,
  0x3d864fe9bd8868a9U, 0xbd8862a5bcf26a45U, 0x3c9e6f9f3d683b2cU, 0xbd9e5bf2bd47f2e1U,
  0xbd07b922bcad8364U, 0xbd877416bd2aa8afU, 0xbd9ea6b03d0ddb7bU, 0x3d8ef2f93d4b5c54U,
  0xbba90142bd5d787dU, 0xbd585acd3baa73cbU, 0xbd2950a7bc9bea45U, 0xbca32961bdd5d748U,
  0x3da1f8463d4f210aU, 0xbbf2b35fbd0190d6U, 0xbc1642febb57eb53U, 0xbd8139873c6c39a7U,
  0xbb276fcdbd9cdc0dU, 0xbd2d0c063cbe9fd0U, 0xbb5a5470bda21ddeU, 0xbdbabd7c3cbceecfU,
  0xbd3106e03d8e7efbU, 0xbda797c6bd8762c0U, 0xbd7b75edbd3afdfaU, 0xbbf349d0bda80cb9U,
  0x3d50e4b43d949aa8U, 0xbc0c32953d01a34dU, 0xbcdc7129bdab2eb5U, 0x3d62e7e0bcdefad5U,
  0x39c199f0bd170eaaU, 0xbcf3aff4ba9eee7aU, 0xbc8df6a3bcf6d83aU, 0x3d408296bd9372deU,
  0xbbebab29bdb02ef9U, 0x3d05dc70bdb0b0beU, 0xbd702631bcf0ec55U, 0x3cad8159b989fe0eU,
  0x3d3791b1bd106ae2U, 0x3d259f7fbd41e1ffU, 0x3da478093d762c75U, 0x3caebf6cbadd256eU,
  0xbc4e4759bb49a109U, 0xbc90734fbdb1738dU, 0xbdac9d7a3c07830fU, 0x3d03bec6bce27f42U,
  0x3d7d73043d3ffce6U, 0xbcf1fc73bd9027b6U, 0x3c833b50bc9bf445U, 0xbd46c997bc44b738U,
  0xbdbef35ebda336f4U, 0xbcd8d697bdee565dU, 0xbd259d5ebdac64bdU, 0x3d9e9ab7bd875c5cU,
  0xbc5bb9de3ca57c2cU, 0x3d12da3d3c4b0058U, 0xbcf20f60bb045b4eU, 0xbdb11d71bd04e276U,
  0x3d8cad6d3d50b333U, 0x3cb5fc7abd878f7dU, 0x3cefa566bd186cf5U, 0x3d85ffe1bc4cf20dU,
  0xbd9a2ba7bcad9a1aU, 0xbc6d99b63cee8158U, 0x3c4299703d8523c3U, 0xbd09d2f3bcdf9441U,
  0x3d12989d3d427508U, 0x3c346dd2bba7ce1bU, 0xbd92b1043c834685U, 0x3d85faa5bd286f8dU,
  0xbda77419bce747d5U, 0xbc830e36bd739ea4U, 0x3c798a683c75428fU, 0x3d0dd4cebdac36f8U,
  0xbd8ca8d2bc658740U, 0xbd9a8cfb3c6d12e2U, 0x3da1c1babc4b3dfeU, 0xbcce5e9c3cce7426U,
  0xbba544663c8d25f6U, 0xbddd4c363d57c54cU, 0xbce248353cff0dfaU, 0xbd14de0dbd21a865U,
  0xbdad5759bd715cbcU, 0xbd93c1d9bda7d3d6U, 0xbd9193bebd94abc2U, 0x3b9a9bb83d58d3f6U,
  0xbd069c09bd34e0f3U, 0xbdefe5e6bc828570U, 0xbd82aab83cd68da1U, 0x3d7eb16abd1de263U,
  0xbdbfbb643d8f5640U, 0xbd840088bd2a1eb3U, 0xbcf886e33c278670U, 0xbcfe4ca5bd8e1deeU,
  0x3c8d66cabc1cb388U, 0x3d0f00bcbc8a7da6U, 0x3da40847bc6aa561U, 0xbd0731743cbd156cU,
  0x3cbb4041bd865116U, 0x3cc2dc54bcf5ce56U, 0xbcd40b55bcf75ebeU, 0xbd331d223c52d9beU,
  0xbce5ec343cd1c4d0U, 0x3c44bbe8bd9459f2U, 0xbdaab1413d0d88e5U, 0xbdb2fbb1bd9ed234U,
  0x3c01d7283d326e97U, 0x3cb1f1053ce17b96U, 0xbda0683dbcba1e46U, 0x3cda89b7bd081bc7U,
  0xbd46e11c3d725922U, 0xbde69220bc5e218aU, 0x3d4fda57bb7f52f3U, 0xbd36d366bad9d459U,
  0x3d6cad9e3d011679U, 0xbd8492c63c23a2f5U, 0x3d2c5ab9bd8dcd7fU, 0xbc24efa8bdbd728cU,
  0xbd25efdf3d0076adU, 0x3c861b25bce41e39U, 0x3d086b843d525a9eU, 0xbd3a8516bac102aeU,
  0x3d2a5a8dbd46f4abU, 0x3d95b9fe3c8a5036U, 0x3b4736393c3c6aa8U, 0xbda7f53bbd8c5457U,
  0x3c32afc43d9c5574U, 0x3d426a86bd05861eU, 0x3d9fc89b3d507223U, 0xbd25f95c3d1b69c6U,
  0xbce38ae7bd1e7fbcU, 0x3d6015f0bd49a185U, 0xbdb1ea19bd2d6c97U, 0x3d7dcd00bcab6621U,
  0xbd770461bcf306c1U, 0xbd2baa56bbde9dc6U, 0xbd8c27513c880600U, 0xbcb77c583d0d7bcfU,
  0xbd81def8bcddb61dU, 0xbc8a95b6bbaba456U, 0xbba15897bc6b09d0U, 0x3b5e2ff8bd578a81U,
  0x3d884ff9bd6d2f5eU, 0xbd629791bd43f112U, 0x3ca284943d404b66U, 0x3d94ebf9bda506f3U,
  0xbda04428bd8a897cU, 0xbbdc8f9f3c93a8edU, 0xbd532875bc0af918U, 0x3d3ae5b93d814d9bU,
  0xbc1207343d7523b7U, 0x3c92445f3d824446U, 0xbd0ddcac3cadab92U, 0xbdb452d03d98042aU,
  0x3d4d8f1f3c09d23cU, 0xbd7e8d4cbcec2a20U, 0xbdc03e133c518c14U, 0xbd8be134bdbcd417U,
  0x3d58a725ba96967cU, 0xbdbd1836bc63b4e0U, 0xbc844ae5bd26beceU, 0xbd8a6db238ed03daU,
  0xbcf76781bd7c3379U, 0xbd63f438bc752a09U, 0xbce5cb293d95af48U, 0xbd828569bcbc3bf6U,
  0xbd8ad5f1bd4015d0U, 0x3d5322553d6cecb0U, 0x3c5254c7bcce0e8aU, 0x3d87651b3cc26909U,
  0x3d56e7303ba2806bU, 0xbc210ff4bc9b11caU, 0xbcc2baafbd528786U, 0xbd9ec41cbda7d58eU,
  0xbd7df9eb3d361bf5U, 0xbdbe879fbdddc31fU, 0xbd0bb57ebc3b41f2U, 0x3d1faeb6bb575806U,
  0x3b9e1018bd811e7bU, 0xbdb5200fbde0554eU, 0xbbc88b5dbd45dc05U, 0x3d869a8e3d8d361dU,
  0xbd17f0063d7b3a00U, 0xbd595fb63c9d13d0U, 0x3d8e19c5bd292a6aU, 0x3d74894abd234604U,
  0x3ced932fbd9bf467U, 0xbd844d463cf1fffcU, 0x3d479766bd9b3675U, 0x3d5713193d065981U,
  0x3c1c62afbd582b23U, 0xbd46a24e3d06a288U, 0x3d21b1263bfd055dU, 0x3da90c0bbda3d9e3U,
  0x3995cafd3ca3e7d8U, 0x3d9978b6bcf7be76U, 0x3cd18d1f3d0b3235U, 0x3d81f8953c85d53cU,
  0x3d99f521bd7031d8U, 0x3c8d7f8cbd0da897U, 0x3d5a45983be8d1ddU, 0xbc5051483d80a214U,
  0xbd2142bcbd94e6eeU, 0x3c94a61cbc97cf80U, 0x3cc7936a3d94ecd4U, 0x3cd42ec4bd8558deU,
  0x3d3c46213c4d6e21U, 0x3d610d493c8bd3afU, 0xbd5938a1bd3bcaebU, 0xbbbcd860bca1140dU,
  0x3cbb8ffebcf96217U, 0xbda9c1de3d859d12U, 0x3c806e653d9d1ea6U, 0x3ca2e74dba508573U,
  0xbd817883bdacc74bU, 0xbca6e0bf3c4d667fU, 0x3b3e9ca9bda6f88dU, 0xbc2ac7e03cfb6363U,
  0xbd101fe6bd6bf017U, 0xbd9840ce3d08cbf1U, 0x3d01b4e23d8daa80U, 0xbdaeb060bc8dcfe5U,
  0x3daf706bbd8fc6f4U, 0xbbc817c43d424df9U, 0xbd6bb496bdb287bbU, 0x3c4941a8bd58dbb4U,
  0x3cfd9a8abd5b6f80U, 0xbce2569a3d2c3479U, 0x3d5b925c3bb6b037U, 0xbdb5dd9bbd92e070U,
  0x3c9f3cfe3c52fb13U, 0xbd2e908b3d1a4012U, 0xbc008e6a3d287d21U, 0xbd7be845bd776293U,
  0x3cebe410386f3f8fU, 0x3d9a5aa4bdbac7ecU, 0x3d34966e3ce50e55U, 0x3d9be1413cddd785U,
  0xbcfebe01baff4fa3U, 0x3cac8ca8bdc3db88U, 0x3d3491a3bc05eccaU, 0xbd39b0fa3c070bfdU,
  0xbd947c8dbd47e26aU, 0xbc8497dfbda59408U, 0xbd5d0ef5bc2bfb5eU, 0xbdb0eebabc3e7544U,
  0xbd53fab43dedec6aU, 0x3d6c1d14bde77f90U, 0x3d32cbbcbc140724U, 0x3cf921503e073cc5U,
  0x3d09a28fbba6fffeU, 0x3d8403343d608d3bU, 0x3e23aaae3deadd2dU, 0x3dcfa232bd4bc937U,
  0x3da72163bd2accd8U, 0x3c2d3716bda217caU, 0x3de356f0bc33ca1bU, 0x3da0c7133c88ff95U,
  0xbdcc74cd3daac91aU, 0xbd06614dbd0a0a55U, 0x3d9c84c33d59c1a7U, 0xbd1ece2b3cc6c224U,
  0xbd8877073d820e54U, 0x3d56b188bdd38681U, 0xbb017948bd9c3798U, 0xbd48bb763da5eff2U,
  0xbd20f76e3d37d149U, 0x3d2665ec3cb1223cU, 0x3c780725bc07f690U, 0xbca6adefbd79475eU,
  0xbc43ad45badef4cbU, 0x3d1d00d3bddd4f1cU, 0xbc5003b5bd2acd9cU, 0xbd58961fbc98d8f4U,
  0xbd8a58a7bca8b180U, 0x3ddc1b66bd282cd1U, 0x3c40b2c0bd521747U, 0x3ca1a7f7bc8797ecU,
  0x3dd01b0c3da53606U, 0x3df3180dbda66e0cU, 0x3d20c6593d63a48dU, 0x3d8be95dbd21d889U,
  0x3d8b7aedbd509852U, 0xbd2692ecbce168dcU, 0xbd6008703c54343cU, 0xbb9946133dd5d1b0U,
  0x3d8752c33bcef126U, 0x3d8bbc50bcc11065U, 0xbc8721d3bcfe6bfdU, 0xbd7780aebd96e58fU,
  0x3dbb4437bdcb9694U, 0xbdcc9343bda9d675U, 0xbcaec1c23e2fea82U, 0xbc903cf0bcf474d2U,
  0x3d21228b3dc4c604U, 0x3c27b040bd540499U, 0x3d1bcefa3d072016U, 0xbdb045bb3cb82acbU,
  0x3e67a1cebcdede51U, 0xbd25c0fb3da29101U, 0xbc839dfa3e235fa2U, 0x3cc0f8a23dd2161fU,
  0x3e4064bd3e0415dbU, 0x3ce1ce46be3b8453U, 0xbc843df6bc1ffa3aU, 0x3d072f823bf0cc4dU,
  0x3e0580e23c5d1bf6U, 0x3b9bc674bd33e806U, 0xbe205bee3e08bfb3U, 0x3e0b45763b7b0b65U,
  0x3e2734713d9fed5eU, 0x3dd889acbe39c8b3U, 0x3d1cedd43d45c7e2U, 0xbd534fecbb6b4de3U,
  0x3dd967853da5be2cU, 0xbd97227fbc849f8aU, 0xbda174203defb2a5U, 0x3e09d6993e2cf1efU,
  0x3d2bf5f53d96f2d4U, 0x3e0a30fcbddf2604U, 0x3d3a0aa7bda3f41cU, 0x3d4b96423cfddc52U,
  0x3e67767d3de7ac3dU, 0xbb0dc6ca3aeb9fa9U, 0xbd4447293c2b4f46U, 0x3d2398ef3c7c414aU,
  0x3d10e9f43e3085ffU, 0x3e1dcdf6be2e29a7U, 0xbd8107a5bd5194f4U, 0x3daa1d613e094ca5U,
  0x3ce05688bd673c26U, 0x3ccc22ad3d82de14U, 0x3ce202e13bd29ecdU, 0xbd9c01a93dbe50b4U,
  0x3dbd7d473dae244cU, 0x3cc5593abe03939aU, 0xbd0c7881bdc9abbfU, 0x3ce930e03ddbfb80U,
  0x3e057fcf3d56268dU, 0x3d8641043d849c30U, 0x3c8829a9bd902039U, 0x3cf19fde3e16a533U,
  0x3d9cf1e23dd47228U, 0x3d9d2a5cbdb5a8f0U, 0xbc091c103aa49af5U, 0xbd48f4133bdbe613U,
  0x3c064e1dbd08b761U, 0xbd1b916a3d117a8aU, 0xbc828df9bdda1c51U, 0xbdc5ba41bc70a16dU,
  0x3db75759bc08d426U, 0x3d675b0fbde01d71U, 0xbdad6d043d263670U, 0xbd84be593ddf7204U,
  0x3e524349bd4829e4U, 0xbdb6ab29bdd6009bU, 0xbd4bf0c0bc4a2a4bU, 0x3cdac5b2bd103da2U,
  0x3b42bc533ddce7a4U, 0x3db80e78bd9d6447U, 0xbd01b37ebb792b5aU, 0xbd2ae99a3d9225dfU,
  0x3e7547d33d214c8aU, 0x3c9f07393d8b0c51U, 0xbd0d1c653d69d76bU, 0xbbdfb2dcbcf139a3U,
  0x3e229c8b3da65ab6U, 0xbb378e04bc448d57U, 0x3d3078403c9c706cU, 0x3d9a6cd13d76b3efU,
  0x3e598979bc3f3fd9U, 0xbe02666d3d1a41d4U, 0x3d0151fb3dfbf7bbU, 0x3d8f3ee13d145489U,
  0x3ddaf48f3cc3292fU, 0x3dc6afaf3d876fccU, 0x3d8002c13d114b0dU, 0xbd1fcbac3dcb486eU,
  0x3de5b9473dbaff0aU, 0x3b56bc36bb82ebf6U, 0xbdc3b0a43e6f5d81U, 0x3cf72baf3da19133U,
  0x3e29e1213d912d26U, 0xbb1c82ffbdd766f7U, 0x3de0c8ea3d45e773U, 0x3cfd2d883d694587U,
  0x3e1a9370bcc4f66dU, 0xbd0626a5ba02ef72U, 0x3be945103ddf8c09U, 0x3c7eb42b3d22e3ecU,
  0x3ca1c8903e2010dfU, 0xbaf587ac3d461b1fU, 0xbd1157123dec5587U, 0x3d7134be3d8fcf5aU,
  0x3da562133db36807U, 0x3ddb46373dcbbb2bU, 0xbd2afe433de118f6U, 0xb9bcc559bc620c61U,
  0xbc38627d3d0dedfcU, 0x3d7fb927bd77b1cdU, 0x3aae8792bd3190b8U, 0xbb789b203d979b6fU,
  0x3be411663ddf03f5U, 0x3da24fc73d8f140eU, 0xba844aac3de57ccaU, 0x3d0775a03da0814eU,
  0x3dc07dcd3d661283U, 0x3dccd64d3bba6644U, 0xbda4e7ad3d9d1787U, 0x3b684ba03c901148U,
  0xbcd48c3f3d242423U, 0x3d5fe4333d51d18fU, 0xbcd99b33bd1a1c02U, 0xbd7bb01d3de61eedU,
  0x3ccea1393c88e2b4U, 0x3d9d7d94bc9d6fcaU, 0x3d413556bd966e8cU, 0x3d1e162e3d857a90U,
  0xbcbdff7f3cbb60b4U, 0x3e577eebbd207399U, 0x3d487ef23d595142U, 0x3db244fdbcfacb6bU,
  0x3cd091653b90b2ecU, 0x3d5bb7cdbd0cca99U, 0x3d887033bda1937fU, 0xbd101c153db4fbd1U,
  0xbc3d4448bd0ffaf5U, 0x3ca21d903e07b4caU, 0x3dbdfcc33d2a68b7U, 0xbd4c5187bc8dd81eU,
  0xbd1637cebd83d833U, 0x3dc189e2bb18f5faU, 0xbd84b5bd3c1596f6U, 0xbd30236d3d032611U,
  0x3baaa63bbc1de0f3U, 0x3e12b4503e04ca75U, 0x3d8af1943e197995U, 0x3d11512dbd51c78dU,
  0x3d561bd53d998271U, 0xbc1688f2bda36f80U, 0xbd4ee2c8bda88ac9U, 0x3d1c4c92bb10c7a1U,
  0xbd11b991bd186419U, 0x3dce15a23b38dbdaU, 0xbc474de5bb97da34U, 0xbdbc175abb9cb7f0U,
  0xbc2f8c98bd5d09d0U, 0x3d673175be0ba285U, 0x3a4423a73cca6513U, 0xbd15e39d3d9b8f0eU,
  0xbd3fa75dbd2eab41U, 0x3dca5ca13c19a270U, 0x3c9aa1323d3d771dU, 0xbd081589bd117ab6U,
  0xbdb38bf23c54a64fU, 0x3dac6a11be0349aeU, 0xbd31746fbdf3cf1fU, 0xbc3811283c2e30c4U,
  0xbe175f3e3881e6c0U, 0x3c90fb653daf9d4eU, 0x3d937c1dbd670cfdU, 0xbcad0bf1bd880fbbU,
  0x3ce60d053c7bd0a0U, 0x3d7a2c7fbdd30319U, 0xbcb2384abd9f59bbU, 0x3d93803bbcdd6a77U,
  0xbd49f440bc25a404U, 0x3d63739fbbff1894U, 0x3e39d670bd546238U, 0xbdc7b9c9bd35fb30U,
  0x3c259760bcc7451eU, 0x3db35299bc9e20f4U, 0xbd3b50553dcb716eU, 0xbd0a51963d61f180U,
  0xbc813565bd0fddadU, 0x3e3705b13e256960U, 0x3ddbd4ea3e3fd3abU, 0x3c4a76bebdbd6982U,
  0x3dfb372d3cb52487U, 0xbca040be3e0063b0U, 0x3c8a83a23d93a983U, 0x3d0f1b2ebc27f17eU,
  0xbd231c84bd5d0b33U, 0x3d86375d3e034b74U, 0x3dcf5ad53e3f833cU, 0x3cca4001bdee37aaU,
  0x3d2427e8bd144ee7U, 0x3d9624053a4bd797U, 0x3e079a5fbcd750dbU, 0x3d48036ebdd7cee0U,
  0xbdc67bebbd45334aU, 0x3e58f0253dde7866U, 0x3d681a5a3e5965bcU, 0x3da7cb523d3ae10dU,
  0x3de8f0a4bdc53cb5U, 0x3db45da53d65fe16U, 0x3de700a23b49bc60U, 0x3d4beb42bd95befcU,
  0x3d670cafbd894b78U, 0x3e85c9653e0e1247U, 0x3d9bbc5d3de71c20U, 0xbdf5a11abd6b9c82U,
  0x3dadb80c3d9c2562U, 0x3e020ecbbe2de8ecU, 0xbdac9635bd8ab038U, 0x3da3eb51bd5bd8c3U,
  0xbbabff9dbdfdac04U, 0x3e8cc9df3db50da7U, 0x3df690f73c8e044fU, 0xbd8003233dc89e0cU,
  0x3dd8ef023d2b0318U, 0x3db896cdbe4f9183U, 0xbe29da04bd977e16U, 0x3c7c1838bd95a210U,
  0x3d55e714bda0061dU, 0x3e97c3e9bc29b6f2U, 0x3deb5b503d23d70aU, 0xbddd30863de92f24U,
  0x3e29aacf3d8dccc2U, 0x3e098a34be5758f4U, 0xbd682c11bde6426dU, 0xbcaaf888bdc8303aU,
  0x3be35510bdee49dfU, 0x3dab23303d8047b4U, 0x3d991649bd8ee49aU, 0x3d0a7dbdbca9f863U,
  0x3e15bc38bd54a748U, 0x3dcd6fecbe052575U, 0xbd18d786bdf8b332U, 0x3d9c88d8bd45dfc2U,
  0xbce520913cf3af4bU, 0x3d040dc83dc4350eU, 0x3caf2a65bc888604U, 0xbd2b959b3d9b5fc9U,
  0x3b5452c6bd7670b4U, 0x3d5b7785bda2c172U, 0xbdc824ffbd4b262eU, 0xbb5d95e0bdc706edU,
  0xbc854da8bd988a57U, 0x3d48dfe63d5390fcU, 0x3dce3ff0bd09bcb7U, 0xbd3e5d133d2b0e86U,
  0x3e14b040bd0a26f0U, 0x3d09fbf9bdf4dc5aU, 0xbd278ec1bdc469cfU, 0xbdb07417bdaa7758U,
  0xbdc6d89ebde6c9b9U, 0x3e6406653c2a6abaU, 0xbc39e8d03e0f8d32U, 0xbd811f69bd46a00cU,
  0x3e2fb6c5bdce1d41U, 0x3deb091abdf1e69dU, 0xbdbc2ae7be06290eU, 0xbc8384c03d4d006fU,
  0xbd840434be11ca7eU, 0x3e70e7673d5d14eaU, 0x3d3005b6bd9c8d0dU, 0xbd6b5e5dbdd4a164U,
  0x3dd56b9e3cd08b58U, 0x3dd6a386be34b143U, 0xbdef923ebe431512U, 0xbdaac69cbb7ca2e6U,
  0x3c6332bfbdee1acfU, 0x3e0af7b0bd92f8ddU, 0xbc528094bd24a13aU, 0xbbb0024ebd2b22c6U,
  0x3d1cae3dbcb58cfbU, 0x3c134f1ebe23203aU, 0xbe03829dbdb45f04U, 0xbda1bf7dbd938476U,
  0xbb9f2462bca3e983U, 0x3dba8e4f3d36316fU, 0x3d3519bdbd77f85fU, 0xbd2c9705bde11487U,
  0x3d76fd073d53608eU, 0x3dc3599cbbace2d6U, 0xbe2b1991bdd389caU, 0xbca80fb0bdda8560U,
  0x3dfc294abddc9796U, 0x3e2e4d793d297d62U, 0x3c7c2222bd6be237U, 0xbd56375abe14bd4cU,
  0x3da9685e3c94c680U, 0x3d3c3a35bcef8eadU, 0x3cc40df03d11a3c1U, 0xbd325451bbf0b76aU,
  0x3d33b42cbacb85d1U, 0x3e3fba833dc18850U, 0xbce1c8983a10b0cbU, 0xbd63c35abd448955U,
  0x3cfa8fe03dae920aU, 0x3d1b5c0fbd5ea3f0U, 0xbd3dbd25bd0d784eU, 0xbda7eb953c961740U,
  0x3d53aad03db2a99eU, 0x3e4952223dfebfd2U, 0x3bf4d34bbcd2a58fU, 0xbc8d9219bd02668bU,
  0x3e029e3ebdb6fb9aU, 0x3d9110b43d0e5514U, 0xbb10fe813c27e18cU, 0xbd540bb43cdae081U,
  0x3dfb8eb73dbd9036U, 0x3dcd23ca3e053f52U, 0x3d663945bd401d63U, 0xbd24d8d7bd0670f5U,
  0x3db9c0a7bda4ac88U, 0x3e338918bcb42ca2U, 0xbb19be3f3bf935c2U, 0x3d7be352be0425ddU,
  0x3dc069b9bd96782fU, 0x3e3803dc3c1a376bU, 0x3d5c6fd13d1b9db7U, 0xbcaa9daabe255c16U,
  0x3d209dffbc8a9f86U, 0x3dd83f603d9b4019U, 0xbc6e990abdee11a2U, 0x3d6b4346be15a8b6U,
  0x3cb310ab3b3a21d0U, 0x3dc593173dc96299U, 0x3bf683d43dbf1274U, 0xbda7cb7a3d1f6705U,
  0x3e1cb7c63e5b60e0U, 0xbd094424bcb39293U, 0x3e8f08913e02630eU, 0xbca909343ed0ba44U,
  0x3df029173e6c479bU, 0x3e2f0bd53d5e3cfbU, 0x3e69be32bdacad4aU, 0x3d68663c3d57f5bcU,
  0xbcc8e8133e39a870U, 0xbdb02cc3bdd67dceU, 0x3e95237c3dec5f4dU, 0x3dae7fa93e9f3219U,
  0x3d2e87d13ddd8811U, 0x3e18b4ff3ce2bd3eU, 0x3e4fb2edbdc07bfcU, 0x3e160840bd8418b5U,
  0x3cdd44f93d02de63U, 0xbd7b91b53c60f701U, 0x3e216ba93d766902U, 0xbd97b5143ec721aaU,
  0xbda610543e58854cU, 0x3e72a2413df5e272U, 0x3ec0c397be0bb194U, 0x3c3a23febdbef795U,
  0xbe01e9a3bc4b0e50U, 0xbd347297bdcd05e8U, 0x3e8bdf543ac90190U, 0x3cf2efac3e6685bfU,
  0x3a43b0973e0dc409U, 0x3e3a4e193c8e33ffU, 0x3eb8a121be58adf6U, 0xbd35adb6bdb28c5eU,
  0xbd8350cc3d0e6b4bU, 0xbd5954ccbd15e678U, 0x3da8fea83d4611f4U, 0xbc0d34183e506fa2U,
  0xbde1150d3dda2a5eU, 0x3dbe8ec33d98b7dbU, 0x3ea0210abde7d001U, 0xbd8015623c3e3db3U,
  0xbd0214b1bceab3ffU, 0xbdc6beb1bdbf67ceU, 0x3cbd5942bd804e45U, 0x3cd821143e843658U,
  0xbde3b9f73db7d91aU, 0x3e28eb073b6b99eeU, 0x3e506e363c0c9a0dU, 0xbd8db01d3df17c9fU,
  0xbdb43ae3bd72ea83U, 0xbd0cdaf7be10219eU, 0x3d332edbbd8e4cb1U, 0x3d61eab63e737ca9U,
  0x3bc489223c8d4860U, 0x3e1b2d78bcf381b4U, 0x3e79ed933d61c199U, 0xbc23a53f3d3bf8acU,
  0xbe0bec47bdc80393U, 0x3cba0ed9bcf95bfbU, 0x3d46d6b5bd918853U, 0xbd8e7a863e539031U,
  0xbde8c31ebd2b4b19U, 0x3cf627fcbdaf542eU, 0x3e1dcf1f3dea82b4U, 0xbdd2a7043d24826fU,
  0xbcb5620abd40a624U, 0xbcebceedbdaba449U, 0x3d65b470bdf668ceU, 0xbc34dae03c8c3423U,
  0xbd1bb091bcf9cde4U, 0x3df36ff3bd0d0cc7U, 0x3ce6156dbc7d0961U, 0x3d131a383dd95ff6U,
  0xbde05600bdb78ceeU, 0x3cf6c030bde21bbbU, 0xbd671780bd5ae955U, 0xbda00f3f3c925440U,
  0xbd6447d93cd18639U, 0xbbc64f443cdabd90U, 0x3e09f5debd79a0cbU, 0x3b522a9f3dd29ae3U,
  0xbde20405bdbca7faU, 0x3c95280ebd650ac2U, 0x3db47f833da85877U, 0x3d66e04a3dd63f8dU,
  0xbdd2da4cbcc5d73cU, 0x3d252edd3d3124f4U, 0x3d9bc6f2bcaafb1dU, 0xbda8e1babd48e2d6U,
  0xbd3451a3bd42789fU, 0x3cdd1411bd730f48U, 0xbd6601d33cfa8e43U, 0x3d84d6ab3d863139U,
  0xbdfc066cbc3cb2a1U, 0x3e42df5a3d9a08bfU, 0x3ddf75bdbd99ac99U, 0xbd4a1d393cfb4876U,
  0xbdb0a90a3d379adeU, 0xbd55373fbd0e3487U, 0xbda5dcb7bd019590U, 0x3c9240403db1f018U,
  0x3ca7bdbbbdfdbeb8U, 0x3e0e53903c4c9020U, 0x3dd21bf3bd7fde35U, 0xbdaa493a3d10a74fU,
  0xbd112354bbfde698U, 0x3d410290bc537d37U, 0xbdf44fd23ca4e96bU, 0x3ae8f6c03da4e4b2U,
  0xbde5a272bdfa9dbdU, 0x3d454a74bdbdfa12U, 0x3caea2a2bd68481dU, 0x3c9cf8a93e28b087U,
  0xbe161fac3c763168U, 0x3b6bb1ecbd9feb0aU, 0x3cb2e402bcce63f1U, 0x3ca9fe0cb8ad0d64U,
  0xbc485469bd624bfdU, 0x3e29df90bde0a5b8U, 0x3db948edbd462938U, 0xbdda43633e03c6d2U,
  0xbdcfe5403ced9720U, 0x3c623553be113d49U, 0xbdf03782bd754338U, 0xbd2de8f83c2e6980U,
  0x3d4654f2bc1b3e72U, 0x3e050025bd837600U, 0x3dbed14fbdee9d7eU, 0xbd57ade33d91a15bU,
  0xbd0eebbf3d002f87U, 0xbd3778cbbc584705U, 0xbddc79823cb2d33aU, 0x3cee0ac43d04cf19U,
  0xbd73351fbd91784bU, 0x3ce41f31bd256197U, 0x3d72a36cbde24225U, 0xbc6d4569bc40c2d2U,
  0xbd7ad0573ad04edbU, 0x3d00830abcb895f2U, 0xbe144640be18c1f0U, 0xbd579c8ebc681193U,
  0x3c8cd070be041516U, 0xbd15c85bbe07437eU, 0x3d5748efbd747c9dU, 0xbdaffdbe3dc2f700U,
  0x3d2a614c3d9a74ecU, 0x3dc18f66bdbb2551U, 0xbe1e1a23bd9e785eU, 0x3cba5aa4bd6f1ce1U,
  0xbd1333a4bc0517ffU, 0x3db5a139bdf64857U, 0x3d1a81d83a2558beU, 0xbdc29e283e3d9883U,
  0xbd5210c93d02a05eU, 0x3d025860bce800c3U, 0xbe0519e0bde4ccb5U, 0x3daf35173d08eef8U,
  0xbcfb4fddbdd76d4eU, 0x3d5d8256bd809c2dU, 0xbdbadc6cbd6fde4dU, 0x3d2dfe843e45d688U,
  0x3ddad6883dae2690U, 0x3e120f20bc76f1ddU, 0xbe0f4914bc1d6fd1U, 0xbd5d3434ba4321d6U,
  0xbbb4b90c3ca3ffd1U, 0xbae1b3c0bd74172dU, 0xbd6a68593ca52891U, 0x3c697f7a3e25f989U,
  0x3dc88f433d3a717fU, 0x3c983b86bc4273c7U, 0xbc33f8febcbab29aU, 0xbd7ba562ba5938fdU,
  0x3d8b4cb43d804301U, 0x3d8f670f3d8d7504U, 0xbbbbd3a3bcff8c76U, 0x3dd084cd3dc823ccU,
  0x3da95c353cb0a187U, 0x3db3703d3dada423U, 0xbdf7a7013d52d9beU, 0xbd11b0b9be2d0640U,
  0x3e41517b3b339b2fU, 0x3d9357b5bde81a91U, 0xbdb5db4b3d580d22U, 0x3deea43f3c98bba1U,
  0x3dea0a4a3de631dcU, 0x3d02c963bd1efb1cU, 0xbdc3b4c63d8c06a0U, 0xbcf95a54be2fb7f1U,
  0x3db12ba3bd23b7d7U, 0xbe00f642bcbf8be6U, 0xbdfa9c4cbb6c0e2eU, 0x3da6b3a53e07cf42U,
  0x3e30c8e03e2956d7U, 0x3b57e58dbd8da155U, 0xbdbd449c3dbde48cU, 0xbd86309ebda61fa8U,
  0x3e0fee193c4399f4U, 0xbe0904f23cf23509U, 0xbdead2b6bcf566c0U, 0x3cf2c3423dffaa41U,
  0x3c1bab9f3e198dabU, 0x3d8f02f6bcb9e801U, 0xbdbd364c3ca60de8U, 0x3d51e572bdec5392U,
  0x3deb2969bc8aca19U, 0xbcac074c3c845b6aU, 0x3a5bf3183c1202cfU, 0x3d8ff24c3c94639eU,
  0xbd3928df3d80b3ccU, 0xbc132867bdc9a18bU, 0xbd02ddca3cb6aa40U, 0xbc61ef503d89a417U,
  0xbd74324d3d910622U, 0xbdd55c453d49fff2U, 0xbdfecaa9bdc337aaU, 0x3b9deef13e1dcf1eU,
  0xbd30b9d0bd6a8e67U, 0x3da5ad43bc50a925U, 0xbe1ca5d9bdbec7ffU, 0xbdae9c273c62f644U,
  0xbdb74ab8bdc4ee82U, 0xbd3a5cb7bd4f77d2U, 0x3d1075bf3da5e750U, 0xbda0cc063e19832eU,
  0xbd146f88bd54c042U, 0x3cf70a49bd60aa25U, 0xbd08e5743b00753bU, 0x3c7c5018bc9308bcU,
  0xbde78492bdf8212aU, 0xbd15e4f13d85aaa7U, 0x3caf587d3ce81cddU, 0xbe170b253dc3cc78U,
  0x3d6879b73ddd61b9U, 0x3dff3033bbf39884U, 0xbe1f9ae3bdb1bd30U, 0xbd007d0abb977182U,
  0xbc742e23bd84e330U, 0x3d0ab24b3daecf88U, 0xbd98d4c8bd254e2dU, 0x3c170bd43e65e904U,
  0xbc866e3bbd6afa27U, 0x3e1ade2a3db66f06U, 0xbdf0d59539f75948U, 0xbd04e140bdbf455aU,
  0x3e1352e43d74f916U, 0x3c4bfc723dbb7659U, 0xbd9ad3aa3e07b4f0U, 0x3cdcf4e43de2bf52U,
  0x3d57d3353d1e1a74U, 0x3d96df2f3d8a619fU, 0xbc46e97f3dd31ac4U, 0x3d5b760a3d19b8afU,
  0x3dd5c1d9bcd0343eU, 0xbce2bcb9bba06f34U, 0xbdd63ca33e3692e2U, 0x3da710613e235c19U,
  0x3d51d42c3dde1329U, 0x3b1475efbd7bb6f2U, 0x3db78b3e3dc08114U, 0x3d35109abb6d22e5U,
  0x3e3ff0a9bc96c4d6U, 0x3e34d3173deafc0eU, 0x3d10bc3a3bbe7c79U, 0x3d36ce6a3e2787bcU,
  0x3cfdfd7e3d0cbe39U, 0x3de739ebbc56fec8U, 0x3cbc3b31bd8a5c76U, 0x3cf4bbb03d8748d0U,
  0x3d5047303d9022a2U, 0x3dfd99ffbce73bc6U, 0xbce5bb0d3d8c51b3U, 0xbdbcba863d4f6090U,
  0xbcd4b16fbd5ca106U, 0x3d7745ce3d7a6e60U, 0x3d3c7819bd294991U, 0xbd6e50283cc6fb33U,
  0x3cf96a743d608ec8U, 0x3b86d8b1bd112c34U, 0xbdd48023bd95a9ddU, 0x3d2d83b93ded068dU,
  0xbd9e0333bd7902deU, 0x3e12c5e93e199336U, 0xba70e7393d4ff2ffU, 0x3d320f063c7d1c8bU,
  0x3c8e871a3dcc9dcaU, 0x3d51e6913d3672feU, 0xbccbdac4be1d705dU, 0xbc889c9c3dd1e8c9U,
  0xbb01147e3cc8880aU, 0x3e0898353e7eebe0U, 0xbd06e87ebba49a20U, 0xbc697058bd5afab7U,
  0x3d8c834c3dac3e45U, 0xbd794810bcdecec2U, 0xbe17c39d3cd4f014U, 0x3d7fbfad3db82db5U,
  0xbde4a009bd4560f1U, 0x3dcfdcc33e92aa4fU, 0x3d64c74f3e2d7f38U, 0xbdb06d0ebde2d399U,
  0x3e1d2111bbb9b1e1U, 0xbd19d361bd1e4c6cU, 0xbd5c66c1bdd3e31cU, 0x3d560a063c68ea78U,
  0xbe14e1273d163c0fU, 0xbd12692e3dfd2ca4U, 0x3e0c6fc43e22064cU, 0x3d7cedcabdc2991dU,
  0x3e5aec673d49a349U, 0xbd1a38cb3da2e579U, 0xbe1361afbd1e3f0bU, 0x3d9b4d0d3daebe95U,
  0xbb5a3dc2bd2fc2e5U, 0x3dcf4e813e1e09e6U, 0x3d7a018e3e418deaU, 0x3cbb624cbd990a91U,
  0x3dce17b03dc3b9b3U, 0x3c1846de3cb2589cU, 0xbde59b2b3e33882dU, 0x3dfc3f3d3d15b596U,
  0xbd18c8563d29b6fbU, 0xbcfa11993e1542cbU, 0x3e2e19d93d2c4057U, 0x3d523e363cc9ace6U,
  0x3e53f4fe3db96eaeU, 0x3d59c8703dfbcfa4U, 0xbd8ea3123e06c5c2U, 0x3de91c623dc93feeU,
  0x3dad81883dc97e84U, 0x3d41a7b93d7e42bbU, 0x3de92970bbdb9c59U, 0xbd87b584bdc960c0U,
  0x3d861fff3e2928c5U, 0xbd4aa2793dea9acdU, 0x3d0a11823dd0ec34U, 0xbcd1b642bc54ad54U,
  0x3d8fc5073d060736U, 0x3bea24c53dc30183U, 0x3dc25647bc740815U, 0xbc2cc160bccfdaaeU,
  0xbcd33a013d4f77e7U, 0x3c16f5723d2f6723U, 0x3d386ffc3e080b69U, 0x3db9c49d3e091af3U,
  0xbbcc4c3c3da6d890U, 0x3dbec3023d242a15U, 0x3cf3d89fbd6252caU, 0xbd1065d7bdba369dU,
  0x3c322231bd0897c4U, 0xbc906d073d14370bU, 0xbcfe68dc3cfe0a3fU, 0x3c4772363ddf4647U,
  0xbb543a103cdb32b4U, 0xbc21dc553cfbc7acU, 0x3c11bff13df45ed8U, 0xbc994800bdd862e4U,
  0x3da266263dfc8eabU, 0x3c99c03b3e08b118U, 0xbcf9d2d2bbdcc838U, 0xbcae87e63db631d2U,
  0x3e1c18763dc90c54U, 0x3def00913c41130bU, 0x3a99f1543d644876U, 0x3c8f1c00bca7a7bdU,
  0x3e3447d5bbbefef0U, 0xbd16b1ee3dc77ad6U, 0x3d17b9563e0bd42eU, 0x3d30eaa73e4c0f0eU,
  0x3d7799983de5340bU, 0x3db58f973d89df9aU, 0xbc6bfbaebd11391dU, 0xbcac0320bdf3a025U,
  0x3d5d0bf4bd32d1a3U, 0xbcf6537a3d175209U, 0xbd0759883e0bad94U, 0x3ddd3bc13db126d7U,
  0x3e6f7ac23e525ff2U, 0xbb58c40fbd04115cU, 0x3e5e26393e21c69bU, 0x3baf87f03ea1b52aU,
  0x3dd2dff53db17de0U, 0x3e4915153e01c561U, 0x3e88153a3e9be07bU, 0x3e11b0983d012e99U,
  0x3df0ea573da9c615U, 0xbcde1b2cbbd31b93U, 0x3e6e69933d2f9280U, 0xbd0199083e3db5c2U,
  0xbc9a110a3e24b13aU, 0x3e8d1d2a3dc82a93U, 0x3eaad4703d63b53eU, 0x3db3657f3dadd685U,
  0x3cbec2abbd307d47U, 0xbd9e8b7dbdb98994U, 0x3e80a63a3c2da4aeU, 0x3c2567103e8da316U,
  0xbc19e551bca44560U, 0x3dccff253d432565U, 0x3ea224b6bd8ca2d9U, 0xbcd183bf3daf8ca0U,
  0x3d4f608b3d99a8abU, 0x3bf7b467bd37b0d6U, 0x3e2e636dbc4705a9U, 0xbd9204b63e8130f6U,
  0x3b5fe9b8bd6266a1U, 0x3e18a82bbdaf3a28U, 0x3e35dba7bdef30f0U, 0xbd30544b3d9a0b40U,
  0x3cecf013bdc7a6c3U, 0xbc88d5c7bd8bc6a8U, 0x3d2318773dbb72b0U, 0xbd106c183e88ae50U,
  0xbda46cd7bd9ef19aU, 0x3de7ac0dbddfaacdU, 0x3de17b74bd1f22c5U, 0x3da45e313dac450cU,
  0xbddc1d5abd496b23U, 0x3d58d928be29f351U, 0x3c5c9dc53ce0267cU, 0x3d55717e3e26383bU,
  0xbd7b06c6baec4dccU, 0x3d94a7d1bc1a3c7dU, 0xbbf64cb9bd4e223aU, 0x3ba2aab73d43c692U,
  0xbd04446dbd7314cbU, 0x3d749b7ebdea1f57U, 0xbd247a333d63b6c5U, 0x3d90a72b3cf969b3U,
  0xbd36b9f5bda7f483U, 0xbbb4234abdc22e75U, 0xbcb9b7b6bd633c86U, 0xbd710c413ce40bccU,
  0x3cab2489bda40640U, 0x3cf1b937ba9077acU, 0x3c8209cfbdb54e55U, 0x3d643dde3dc3d357U,
  0xbd4a28c53d310a4dU, 0x3dde58303d93c2a1U, 0x3d32660cbda79492U, 0x3d64a1493d4ffc59U,
  0x3cffcf13bd2e6523U, 0x3e06cd8cbdb54eadU, 0x3d2d2696bd4b0511U, 0x3d97e693bceea03bU,
  0x3ad5f6f7bd8983abU, 0x3e1535ef3da6fc35U, 0x3b9a6c853b9edf30U, 0x3d90f1db3db554ccU,
  0xbe01ca6d3c9a6e1eU, 0x3db053d3bc7503b7U, 0xbcb5c05a3d3b3643U, 0x3c703530bd5417d9U,
  0xbdebfeb6bd629153U, 0x3e2e40653d93ec6eU, 0x3d5cbfb0bcd8dc01U, 0xbb50bd9e3e6ca729U,
  0xbd94f3c13c51b4c1U, 0x3e3db657be030087U, 0xbb0de480bdb88ce7U, 0x3d2a5eda3d2126feU,
  0xbe19f535bcb9ee45U, 0x3d04f0d13ce2ed86U, 0x3cf3e771bd4cddaaU, 0xbe0522293e107be4U,
  0xbdb49316bd212830U, 0x3e271a76bb0847faU, 0x3cda0700bd7cff56U, 0x3a83ae003d7f5adeU,
  0xbcfbf80cbddb4535U, 0x3c6d5d523d6c50b0U, 0x3cba084ebce9ea5eU, 0x3cab70403e00e54eU,
  0xbdbeddc5bd7f05c3U, 0x3d98728fbe0069deU, 0xbd0ab3913d4295e0U, 0xbd276a073d903cdbU,
  0xbc943228bda1b937U, 0xbc9212913c9bae98U, 0x3d11f005bca5a5deU, 0xbcfd0b023e6ecf33U,
  0x3d49f222bdef9834U, 0x3dbf7e2fbdee3e86U, 0x3c78e5293d3922a9U, 0x3d82b519bb737791U,
  0xbde7dea23c8b1de3U, 0x3d3283113c77fc77U, 0xbe156e85bdc33c38U, 0x3c4944f03e736affU,
  0x3d1208dcbd3a2e34U, 0x3e7c6f7cbdf4e516U, 0x3b91c1febb916ec1U, 0x3d5d9536bd871bd4U,
  0xbdb9f31bbd097187U, 0xbc9435c4bcb38d25U, 0xbd79f625bce89484U, 0xbc1b76333e19a2d0U,
  0xbd49aecebd15ac3eU, 0x3e20a65ebd811204U, 0x3d34a2febd417da3U, 0x3caa417c3d1609c4U,
  0xbe0d4709bcdf27edU, 0xbd2f05a13b5cdc81U, 0xbd02daa5bc1e4bb7U, 0xbd900f833e61ff1bU,
  0xbdd9aa36bdf12b9fU, 0x3daecd3dbd49c3f3U, 0xbd080510bd7452f9U, 0x3dacea833d81b3d7U,
  0xbe1cb28a3d9dc09fU, 0xbccf32973d6b2afbU, 0x3c0799153e235367U, 0xbe04313e3e5dd186U,
  0x3cfbab6fbd5d0717U, 0x3e87e76fbe026e0dU, 0x3d836df1bc70a214U, 0xbd988b6e3b0b6ae3U,
  0xbd4ad5c3bd72f221U, 0x3cdcf1a5bc7129c8U, 0xbe012a7a3e155348U, 0xbda7b0a63e9f4177U,
  0xbdbe0732bd87437bU, 0x3e8c7e54bd89ea8eU, 0x3d51c6d3bc8f722eU, 0xbd75443b3d7e8265U,
  0xbd456df73d6a225cU, 0x3d2bdd72bb936824U, 0xbde7e89a3da08caeU, 0xbc8e59603e82605cU,
  0xbdc9ea87bc6676b2U, 0x3e046eabbe11daefU, 0x3d0136d03bb0e1aeU, 0x3b2f8d403d29b69eU,
  0xbdaae308bd2162a4U, 0xbd8d451bbd4010cfU, 0xbdded5f53cc89dbeU, 0xbdf6f7c43e7a2937U,
  0xbb10c6b4be0eb00aU, 0x3e018a1cbcc198f3U, 0xbc55d8e1bbd7c488U, 0xbd8de9d8bda45a55U,
  0xbda50e8fbd9cec1cU, 0x3d9543163d83ffdbU, 0x3d64dfc93dd0a217U, 0x3ce570b53e4894abU,
  0x3dad995dbcb8b879U, 0x3e167b0bbd412298U, 0xbdaaa73dbc6fe2a4U, 0x3d506082bdbec92cU,
  0xbdb63aa73d095fdfU, 0xbc0509cabd8c4890U, 0xbddcec093d96527cU, 0xbd8e8aa23df4380bU,
  0x3e01e857bccc8134U, 0x3ddafb323da7b7efU, 0xbe053186bdacda3cU, 0xbd676b10bdf200ffU,
  0x3caf899e3d400b23U, 0xbc9543413cf3532cU, 0xbdc0c33b3dd07a54U, 0x3d15e25f3dd87ecbU,
  0x3dcd4eeabda2c105U, 0x3e85b0a0bce387d6U, 0xbc23c843bd6cd5afU, 0xbda6dbcdbda553c6U,
  0x3e0f086ebd530d69U, 0xbd23ca22bde50e40U, 0xbe4971883d9afeeaU, 0x3d1097d33cc7a2dbU,
  0x3e25db523a6bb81eU, 0x3e0cbc9a3d806dc8U, 0xbd9fbbfcbc96dd60U, 0x3d38fd5abd612bd3U,
  0x3d9957fbbcbb1593U, 0x3c86a631bc3ceb77U, 0xbd88ea8e3d6ba7c8U, 0xbcb0ebdb3dff4e99U,
  0x3e159aa83dfee339U, 0x3dfc1f7e3d663a69U, 0x3d760987bd3ded1fU, 0x3ce97be8bc930ee7U,
  0x3da8978b3df7b9b0U, 0xbd8c617e3d1627b6U, 0xbddfed733d90bde8U, 0x3d987ac73d3f31caU,
  0xbd7802113dee76bbU, 0x3d8e713a3ca04c5dU, 0x3c3c5d5ebd031aa1U, 0x3d0d337a3d909b2cU,
  0xbd89dbf53da84c8fU, 0x3e01a6033a733406U, 0x3b2af487bcdfa178U, 0xbdbbb3693e165255U,
  0x3cfaf4dc3d19dadeU, 0x3db9cdb43cff7985U, 0x3c324d553d002ee7U, 0x3d441a1abc644445U,
  0xbdf8014cbd5edc4bU, 0x3d1b6588bd79891cU, 0xbdb8cf5d3d95005eU, 0xbda5bd7c3dd5f85aU,
  0x3b79e6013d76fe03U, 0x3e2e1a8a3cb59581U, 0xbd826d6bbcfcac34U, 0x3d360f0a3d8e6cafU,
  0xbd432b133c2b60c4U, 0x3d1f601bbd0e64d8U, 0x3c9664e33d547ecbU, 0xbd80b1f43de665f1U,
  0xbd691234bdc42044U, 0x3dc6be183def80e5U, 0x3d5d3d7b3cce341aU, 0x3d736e3abdaadb2bU,
  0xbcbfff2bbd25c0c4U, 0x3cbd12383d19cf74U, 0xbc25659c3dcf141dU, 0xbca47aa73ddd4550U,
  0x3df3a31bbd637e96U, 0x3e267c113e1feeeeU, 0xbd7f516d3d526764U, 0xbcd43496bd30a799U,
  0x3e0361063d1ccb28U, 0x3d9d1f813da314b8U, 0x3c666ae83e673537U, 0x3c1001223e5bfef4U,
  0x3e376ef43d738d0bU, 0x3e08d2ab3d3e0aa4U, 0x3d938b463d9bb07cU, 0xbcb361b8bd1ec79bU,
  0x3cecc31abd63e095U, 0x3e2858873d3654c8U, 0x3c43bf753ea353a8U, 0xbd9485203deefb8cU,
  0x3e62cae73d20866dU, 0x3e589b94bdb9001aU, 0xbd8d17a3bd155d51U, 0x3cfbbfc8bce20d7eU,
  0x3d4b7de3bb4d47f4U, 0x3e5eb8383e3624eaU, 0x3e0fbaa13e70196dU, 0xbd50c1023e858f81U,
  0x3de10f673db501d8U, 0x3e798beabe87cb62U, 0xbe3e53b3bda7944cU, 0xbbebbbb0bd91e8fbU,
  0xbda61ddfbddc4bcbU, 0x3e5409a93dedb3a3U, 0xbd11ee3f3e08d0daU, 0xbdde7a5d3e881a4aU,
  0x3e0d31ecbd57130cU, 0x3e33a52ebe334156U, 0xbda0ad66be203cebU, 0xbd8a0d103be0b8ddU,
  0x3d38affcbddf7ebeU, 0x3e2221f0bce533b4U, 0x3c1d8079bd8a28e5U, 0xbd41b0f43e7c9cb1U,
  0xbc795b74ba9e3217U, 0x3e30f27fbbde6330U, 0xbe2cf231bcd03671U, 0xbd5e4ed0bda04bd8U,
  0x3cddc6183d53d24dU, 0xbcef7d203e0480fdU, 0xbdc1eab63caec74cU, 0xbdde524e3e6b5335U,
  0x3ceee75a3d79cb39U, 0x3df01e4ebda1471aU, 0xbd43f4debd96299bU, 0x3c77db70bdc17ad4U,
  0xbd806e4cbdadf84fU, 0x3cd847123d195dd2U, 0x3d30fe70bc7d6fa4U, 0xba605f333e08953bU,
  0x3d26fe52bbee046aU, 0x3e53efcdbdedbeb9U, 0xbc0a27b2bde781bfU, 0x3d71921abd1ca54dU,
  0xbd8c37c33cfac65bU, 0x3db4ef2a3dd86adaU, 0x3d968cbd3de63aacU, 0xbc9222823e718b35U,
  0x3dc46e513d6fb9e6U, 0x3e013e36bdd16f1eU, 0xbcf2669ebdf38046U, 0xbd964c25bd7e9840U,
  0xbd51f513bbb0738aU, 0x3e27ced63de1c4c4U, 0x3a7437b93df996f6U, 0xbd9107ac3e8ef823U,
  0xbca0dd003cdd1cc4U, 0x3e67cc25bdbbb517U, 0xbddd8c28bcbe522dU, 0x3d841c61bce53fd9U,
  0x3d9c0b0bbdd515d0U, 0x3deb2e183dd16b98U, 0xbcac13a43e1375edU, 0x3c2a3f053e694a4bU,
  0x3d1daea23c53d842U, 0x3e36af87bce3191eU, 0xbd9a8411bd9c3edaU, 0xbcea20d8bdb780baU,
  0xbd708cd1bd4b336cU, 0xbd3d81783db9c577U, 0xbcf8b5103d1f902eU, 0xbda9263a3e8a3839U,
  0x3e0328253dd875f7U, 0x3e80e5023d4a406dU, 0xbd92f8ed3ce62fe8U, 0xbcaab06cbd022a93U,
  0x3d7a8d923c8edde8U, 0x3e0131683e06558dU, 0xbd23c5dd3eb9a1f2U, 0xbd770f043eac4959U,
  0x3e527c463c531bfbU, 0x3eb8135cbd2df068U, 0xbe07a626bd28a565U, 0x3d68979abd35f238U,
  0x3d46565c3aaf21a6U, 0x3d9662fa3e4095acU, 0x3d01c6603ea39857U, 0xbddd0bfd3e86ee1cU,
  0x3e05e09b3d426d4aU, 0x3e9f25bfbcddd317U, 0xbd86f420bd8fa34eU, 0x3d812d2fbd959458U,
  0x3c7a93503d48b45eU, 0x3e8a57713e32f8ecU, 0xbd71379a3eca3639U, 0xbbb1160e3eb6d862U,
  0x3e8bfb803e256a19U, 0x3ed191d13d9dc71eU, 0xbdc0c1253d4efea4U, 0x3d050dfabd745cefU,
  0x3dfc20ee3d66f4c1U, 0x3e6d7d953e0bcf5bU, 0xbd709cf53ede494eU, 0xbd25e30d3ea5ec87U,
  0x3e8204533da0d8e0U, 0x3ea22f673d59534bU, 0xbda82ad63c951cfaU, 0xbd99987fbd8c9f35U,
  0x3e1fd16cbc4fe6b9U, 0x3e9866a63e4e3c05U, 0x3d3285583f0c0cf8U, 0xbcc72c063ebff3d1U,
  0x3e8602d13d0d1522U, 0x3eafe2883d2ba256U, 0xbd53e7f6bd164502U, 0xbc76cf70bd94eab4U,
  0x3e7f37253d3f95c5U, 0x3e92ed0b3e421f51U, 0x3d10938d3eb4f6f8U, 0xbd92a9003ec10522U,
  0x3d0cdc153e1622c8U, 0x3cd057a2bcd82ce0U, 0x3e45fbe53db7eb73U, 0xbd2f85c93de91705U,
  0x3a2fa2793d2b98a7U, 0x3df6faf93d3e5594U, 0x3e4227013e0fb75bU, 0x3d5777a23d8d1bb0U,
  0x3d5b94f63e0eb672U, 0x3cbf98b9bcad7c04U, 0x3c5af6223cdd9399U, 0xbcdc34fc3e23c2c7U,
  0xbd6ffcba3b7fa66fU, 0x3e16df543cdc4f91U, 0x3e1a72e23e1f6166U, 0xbcf49006bc22db7aU,
  0xbd19787c3dde8438U, 0xbd468435bdc14a37U, 0x3e12dcd1bb7344e7U, 0xbba971203d7c7d74U,
  0x3d8bbf7c3d958283U, 0x3af31be33d0e7797U, 0x3c80fbc43e3f0029U, 0x3c8186ccbd1547d6U,
  0xbc978376bb4596e0U, 0xbdeaf8ec3c00c3bcU, 0x3d925a293c9834d6U, 0x3d2c6162b8bc1b80U,
  0xbdb8701ebd24766cU, 0x3c9936febcc1ff78U, 0xbc5b7703bcaaf97dU, 0xbd2179513c12ae69U,
  0xbde8842f3d52cfe7U, 0xbbc6f8b43a48f12bU, 0xbce595f23df65423U, 0xbdb1c6e83dccf477U,
  0xbe32c9a33d56adc0U, 0xbd81e046bd8c8cbaU, 0x3d852c923d8ff299U, 0xbcebfd393c0552f5U,
  0xbd32a039be00fc68U, 0xbd086244bdb1e6b2U, 0x3d478c033d6df881U, 0xbcb352bc3dd581f3U,
  0xbe0e6a53bda589c1U, 0x3d025dc63d94ce50U, 0xbd2da0703a4730abU, 0xbdc4f2403c191b64U,
  0xbe2e306abde04ddcU, 0x3c14e385bdb9deaeU, 0xbd7a6c973d21072dU, 0xbbd573d0bd6c0bf0U,
  0xbe0c700f3d554355U, 0xbc660741bdce5b68U, 0x3da25c353dd647eaU, 0xbd8c83e03dc6167fU,
  0xbce3fec7bdfec240U, 0xbc17c6babd676392U, 0x3db762e33dc03071U, 0xbd1efe703cb1e2f0U,
  0xbe2882933d7fc034U, 0x3cbb9634bcbd1037U, 0xbd8f77d03c889c1aU, 0x3cb833ea3de65650U,
  0xbd790772bdae2700U, 0x3cea51f63c25895dU, 0x3a09d3d53d9da8a0U, 0x3d858d773cb89172U,
  0xbe0148febd54a6b4U, 0x3da12a06bde44090U, 0xbd87fa00bc77c5feU, 0x3d3b1ae13e0894c6U,
  0xbe1c03b0bdb92ce1U, 0x3d8d29513d87b5a5U, 0x3d8113e43d8af279U, 0x3d9b61f13c1462f9U,
  0xbde0f6e0bcf1b95bU, 0x3cef8452bdade2c6U, 0xbd307637bd96aa6aU, 0xb9befc3a3e2b6753U,
  0xbd746207bd9af59eU, 0x3d7e95bcbd72dde3U, 0x3dadb7303d1156cfU, 0x3d8cf127bd7f24c7U,
  0xbde087533de836d4U, 0x3d425484bd335796U, 0x3d6e286dbac043efU, 0xbd1ec3783cee0c36U,
  0xbdd8cf4bbd6010ebU, 0x3df7d8653d609f77U, 0xba749ccbbd765affU, 0xbd37e82a3d9bcfbfU,
  0xbe191cf93c18db57U, 0x3cc121cc3c8dce58U, 0x3cc210b13d38463dU, 0xbe0528173c3713e9U,
  0xbd56cce3bdfbfdaeU, 0x3d81bbcbbd71fc1fU, 0x3ce73f7dbcaa73f0U, 0x3d565bb6bc424369U,
  0xbdb9728cbdc9b882U, 0x3da67a18bd51f4a3U, 0x3ad760c13dadd94aU, 0xbcddedee3d62060aU,
  0xbb19f76a3b8c12e1U, 0x3cf4f354bcd0f75bU, 0x3c6a3695be004764U, 0x3d55ddaabc0ea46dU,
  0xbdacc7aebd365a0aU, 0xbcc861f6bd4d6d65U, 0x3a86e469bd4561d6U, 0x3cff6a493dc0f14fU,
  0xbb5a6609bd0d14f9U, 0x3e3c86ad3d88a64eU, 0xbd5426e9bb841d40U, 0xbd6dfc8abdcd1772U,
  0xbd273289bc40d692U, 0xbc39257ebdbbe5caU, 0xbd1cb149bd0b3d7fU, 0xbaafdff23e0e26c7U,
  0xbd9d724bbdd25335U, 0x3d1ae6183d9d9ee1U, 0x3d7307be3cf9bad8U, 0x3c9c1ef4bda3cd6dU,
  0xbccd7f833da9b4acU, 0x3d9167c8bd227a69U, 0x3d95cd0dbe396c54U, 0x3cd2288bbd0065b0U,
  0xbe2429c2bdb8d3d7U, 0x3dac23863dd56f78U, 0xbd904d04bdd3012eU, 0xbdb4b95e3d590ed7U,
  0xbdc550b23db7c02cU, 0x3df3afa23cb7480cU, 0x3d5c551bbb90590aU, 0xbe0bbf223c0027d7U,
  0xbe0426cfbbfad072U, 0x3e2e41853d64b903U, 0x3c56cb83bd5416a9U, 0x3cee98243d048317U,
  0xbddec0cfbd24bae5U, 0xbb9411963cba1fbeU, 0xbb717f30bd8eeacfU, 0x3cccd7863e0c3669U,
  0xbc25f0d5bdc03f8dU, 0x3d0e59ecbd056fa1U, 0x3bea8ee9bca3573fU, 0x3d633faabce4562eU,
  0xbe103136bd2cf804U, 0x3c6ad853bcbde7b4U, 0xbd106726bc74f789U, 0xbdc213b53e217a08U,
  0x3c11f852bb44df36U, 0x3c4ba94939589709U, 0xbda3c1503c08ef8bU, 0x3d85820d3a93b629U,
  0xbdacd169bd03b13fU, 0x3d20792dbd062911U, 0xbc9209ebbccbc639U, 0xbda571893dddd486U,
  0xbceceae1bd715dfcU, 0x3ddde4423e183a87U, 0xbd2d5767bd3c1415U, 0xbd8af0113c57c5ebU,
  0xbdfe958fbc9217d0U, 0x3d10297fbc006c08U, 0x3d512d973d8c1091U, 0x3d915a0b3b767f30U,
  0x3c01361abd19d8d9U, 0x3da83b1c3d501a02U, 0x3c2a508a3d1acaaeU, 0x3cfd6250bcac0732U,
  0xbb2156a13d340650U, 0x3ce1d3ecbc4e7c8dU, 0xbd114d0f3e07e2d5U, 0xbc3be79b3c408388U,
  0x3dbc1e39bd63d0d2U, 0x3d92e1a73d80d8a5U, 0xbdd5f7a33d36ab16U, 0x3cd5a21cbc85f962U,
  0xbd0253c5bc6bcae5U, 0x3d0fa43f3d8fdc4dU, 0x3dc28bbd3c82df4bU, 0x3d01bdc93d495839U,
  0x3decd322bc5d5ec4U, 0x3e101a6fbd07dd55U, 0x3aaafffb3ce028e2U, 0x3da3a49f3d50db95U,
  0x3e37b558bda273a7U, 0x3d5926333d3fdd7fU, 0xbcdda64b3c6e5c0cU, 0x3dbccc0abd149868U,
  0x3e0117863c094351U, 0xbd5cac86bd8aaf33U, 0x3d408d373bda982eU, 0x3d64bfbabd45ad09U,
  0xbbc36cc83c4c6936U, 0xbd6f24ec3d96a258U, 0x3c05ff92bdaaf7c6U, 0x3cb81330bc826d67U,
  0xbd2cbbcb3d35958fU, 0x3d4f28ffbdfc3d5fU, 0x3c756b4a3d61f48dU, 0xbcc4e8fc3e1ee199U,
  0xbd536e5e3ca37c22U, 0xbd5094bb3ddcb7f1U, 0x3dc0c60ebc956799U, 0x3dafb15bbd8347dfU,
  0xbc0d0080bd67b40bU, 0xbd568bf1bd7ac1edU, 0xbda70316bd82fc79U, 0x3db215633d7dec87U,
  0xbdf7e9423d0b65afU, 0x3cee15193c9f09c5U, 0x3de4d4433ce0a67aU, 0xbcd2b5fbbdcd8222U,
  0xbc639ef63dc0a512U, 0xbdc599f8bd1374d8U, 0xbdbe729c3c6f67f5U, 0x3c96d9943d067deeU,
  0xbdc3b6e0bca20b94U, 0xbb62ef00bce078d0U, 0xbc3d4ad9bd824f47U, 0xbbe32638bd564563U,
  0xbd0d400cbc0db30bU, 0xbd4d6a6abc19d13eU, 0xbca91be73c8855e1U, 0x3d6841c23e244648U,
  0xbe0decaebd9c3c7cU, 0x3e010c5fbd5b313bU, 0x3da43bd13dc1f77cU, 0xbd9eba773d3035b2U,
  0x3cdd387b3d33ed0fU, 0xbc81dababd02e257U, 0xbc35d4d7bd9b4efdU, 0xbd499c253dc7ff6dU,
  0xbd8e9d9c3d77a3b2U, 0xbd2f3bcbbcafc729U, 0xbc2e92c43b572469U, 0xbdf819df3d82eb0fU,
  0x3d2e01113d67e79dU, 0x3dab1612bd0bc603U, 0xbdbb3d8d3d182872U, 0x3c2a5b103e12a8ecU,
  0xba2159ccbcd116faU, 0x3e1023283dfe80e5U, 0x3d3e62bb3e0b90acU, 0xbdba58843dc36a8eU,
  0xbcb543093d86240fU, 0x3c584552be262096U, 0xbd7caf313d919ad4U, 0xbd8a6e613e18a459U,
  0xbe0a82eabc2ebb31U, 0x3d2e6a513d809e91U, 0x3e104de43e3522f4U, 0x3c469221bc38d7c6U,
  0x3d44df14bd26a23fU, 0x3be3413fbdbc75b5U, 0xbbdf4f53bd290472U, 0x3c3c87683e0d1160U,
  0xbd5b8ec3bc0c0dd1U, 0x3df67220bc5831c7U, 0x3d7f26bc3dd60728U, 0xbd2b003f3e0c221dU,
  0x3d80d791bc03c511U, 0x3da132cdbe564e81U, 0xbdfe6fca3a5b1c0bU, 0xbd2d8cbc3c0eba58U,
  0xbd31e172bd476a44U, 0x3d7f32003dfe3a9bU, 0x3d3e0595bc8c1a07U, 0xbe05d91b3d7b3c89U,
  0xbcb96dd7bcb3fba1U, 0x3da29dcdbe040e0fU, 0xbcb67890be00c48aU, 0xba5f4a80bd035dfbU,
  0xbdbef802bd78ae58U, 0x3e0ec7183d8d896eU, 0x3ce32126bdad07fcU, 0xbc8562913decfe2dU,
  0x3c95e34f3d1b45c3U, 0xbba5cf163cd21a1fU, 0xbd13a1b73aeafbeaU, 0xbd91a40d3d9c9952U,
  0xbdf2f8813bf4225eU, 0x3c28d89e3cc42527U, 0x3ceae856bcdbdc43U, 0xbdad3ff53cb63a36U,
  0xbd03b23dbdc01e6dU, 0x3dcc8d77bd579b8aU, 0x3c226c28bdfd4b12U, 0xbcbecde03d98b2e5U,
  0xbd1fc2b03cdb03b1U, 0x3d8f1cd83d99a2cdU, 0xbd95cbd1bd5d29f3U, 0xbdde94ca3dab5087U,
  0xbe05b2d9bde9f69dU, 0xbba0906a3d1f1713U, 0xbd9e75a9bd33bec9U, 0xbc1e59e8bd188633U,
  0xbd416dad3d084258U, 0x3d787ce43da222f6U, 0xbddce1563cb8309eU, 0xbddbf017bcbf80aaU,
  0xbd01df65be0487beU, 0x3e0ca6623b95173fU, 0x3ce487d4bc62a3d2U, 0x3da2788bbd59a31aU,
  0xbe2b4a4abc9e3b1dU, 0x3df398843d4d4d37U, 0xbdce23e43db38b2aU, 0xbdb6ada53d897c62U,
  0xbd694d1abd39960bU, 0x3db7cf91bda968ecU, 0xbdc48eacbd934955U, 0xbaefffc03cd6ccf5U,
  0xbd7b4535bdb87e69U, 0x3e25bc953dcdc282U, 0x3c44bec53e5c1d0fU, 0xbdf51407bcfc7c5cU,
  0x3c56e0c7bc815ffcU, 0x3d8d8e7fbd78fa9eU, 0xbbb3183abd9f4211U, 0xbd71dd96be04fb61U,
  0x3d332dc5bdef11b3U, 0x3dd8b854bbef021dU, 0xbda36ee73dc3b6a4U, 0xbdb532c03d081504U,
  0xbd4ba4a83d59ea43U, 0x3ddcf198bc811f04U, 0xbcc0a7153cf0af75U, 0xbc27d838be0dc29aU,
  0x3cda7814bd6643e8U, 0x3e1219f33c8e3d96U, 0xbb94014b3e8b83d1U, 0xbe1db6b43cb77557U,
  0x3d5940f8bcc7e74bU, 0x3e0302b0be224f11U, 0xbc9717d3be146b1fU, 0x3d8a99cfbcb23226U,
  0x3d5ad01fbceb5c53U, 0x3c9993053e18b1c0U, 0x3d6fc5f63e8383c1U, 0xbdf792433de7e19fU,
  0x3e2f975a3bebf6c7U, 0x3dc65062bd517b7aU, 0xbe216093bd0e0f80U, 0xbc058818bcf30df2U,
  0x3e03c8c3bd841fa7U, 0x3e265ad13ded9984U, 0xbbf6734b3e254c9fU, 0xbd8026e23e7bed13U,
  0x3e1592903d377489U, 0x3e615f8cbcde429dU, 0xbd018062bde2ec6bU, 0xbd55c654bd68cb46U,
  0x3d79547abd9c2287U, 0x3e800fae3e0e9ce2U, 0x3d5670713e8f08deU, 0xbdfc20c33e828323U,
  0x3e27cfb7bc8bcc6dU, 0x3e7ff0093d405a9dU, 0xbdc412a7bc98b296U, 0x3b052b00bd87bc87U,
  0xbbc471c8bd961001U, 0x3e3ccf233d977e50U, 0xbd8254853e8be8b9U, 0xbd9db6513de4f681U,
  0x3e1484ac3dcfc706U, 0x3dbefcf2bd8baacdU, 0xbd483adfbe02baedU, 0xbce46bcabe1ff7a5U,
  0x3c27c603bd0b2542U, 0x3e15efdc3d350cdbU, 0xbd182ddf3e7e7858U, 0xbd7e59423e4685b7U,
  0xbd692442bde6c687U, 0x3dcf6b5f3d97be71U, 0xbe78acc9bd130155U, 0xbd95d0bbbe2970f7U,
  0xbb957d58bd7417dcU, 0xbdd2ef82bde5c290U, 0xbe89fb1fbc59bdd7U, 0x3c0c06d53da96859U,
  0xbde85073bc31b679U, 0x3d750df03bddfceeU, 0xbdd26162bd9b7edcU, 0xbda0cc47be3aae78U,
  0x3cb38407bdb6f99eU, 0xbd985e52bdfb3255U, 0xbe8b41803d8bc72bU, 0xbdfe5c6a3d15e9dcU,
  0xbd14b6c4bd49b2c0U, 0x3d988ff03de5aca2U, 0xbe4e0062bddd58aaU, 0xbd368c55be680060U,
  0xbd240b58bd84a4cbU, 0xbdd309a9be10f167U, 0xbe71d25739c65fd5U, 0xbc887068bce801b0U,
  0x3cc303bebd929f90U, 0x3e29fe573cd89698U, 0xbda9e8f7be11e27cU, 0x3d87e48fbe80935cU,
  0x3d94ea3dbe0b0f16U, 0xbde2bd4bbd632425U, 0xbe3f75b33d5cabeaU, 0x3d907dca3d86fa3bU,
  0x3e5f01d83c65ddcbU, 0x3e0067393dd53bd7U, 0xbe21110dbdbf8460U, 0x3cd85588bdfce5bdU,
  0x3e79242c3be57988U, 0xbd5ef769bd0e7442U, 0xbdf981573e44a68eU, 0x3d50bdfa3dc179cdU,
  0x3e6dddae3d559d89U, 0x3dbccb473d6e4738U, 0xbd3f830bbd629fceU, 0xbd872004be2f5b9dU,
  0x3e023a9fbd8b75d3U, 0xbe1b65d5bd3b663aU, 0xbd4818123e60a81cU, 0x3da82310bd80c921U,
  0x3e43caee3df23851U, 0x3d27dc6d3b71541dU, 0xbdbd1a153d14e332U, 0xbd05c112bd716e40U,
  0x3e2c93dc3c5ba832U, 0xbe1a95593d5076efU, 0xbe3a053b3e0590f3U, 0x3caa031a3a4fee02U,
  0x3dfda98b3dabdeffU, 0xbccedc8ebd3abfc8U, 0xbd04ee7f3dadd193U, 0xbda2448ebde43afeU,
  0x3e6bd18abd068e76U, 0xbbca94963ca99776U, 0xbdd534683dd53f89U, 0x3dd8190bbdc7a32cU,
  0x3e334c2b3d6f4212U, 0x3cfb97363d8559d0U, 0x3bb55becbbca52e6U, 0xbd4d0286bdf87671U,
  0x3e57ad5bbcdb47a7U, 0x3d7fe0503da523c6U, 0xbd06adafbd35d94cU, 0x3cab8454bde6679aU,
  0x3daa6f143de623c7U, 0x3c1acff93c85f902U, 0x3cb7908bbdc04b8cU, 0xbd6f60e0bceb096bU,
  0x3e66e1373d0ee542U, 0xbd7c746f3e0df1a6U, 0xbdc2fd82bd4a6a5fU, 0x3a91661dbc5231c6U,
  0x3de8d3963e2ba6ecU, 0x3d616e9e3d86c5d7U, 0xbd13464bbb16d64aU, 0x3d7d4bfebcc839d2U,
  0x3df73522bd678fb8U, 0xbd0b7f803db96ec3U, 0xbd1ba2143d5d4680U, 0x3d1d303d3d5ef333U,
  0x3dc55e973dec6e76U, 0xbd75cf2a3d2aafb8U, 0xbd90bd783d1b6667U, 0x3add3400bdaed36fU,
  0x3def3e8ebd92d4a2U, 0x3d23896c3ce86165U, 0xbdff00033dc01948U, 0x3de67960bd841707U,
  0x3e26a04d3e0420f1U, 0xbcae829b3c5785b5U, 0x3d8daa1d3d42ad7fU, 0xbc34a7f8bd2a35b2U,
  0x3e3411aebb256c3bU, 0x3c37e1293d861ce0U, 0xbc483bc73d23b586U, 0xbcf775d7bd5fdeb2U,
  0x3e1297d53db95a25U, 0xba8e7a413d80b7caU, 0x3d4553cfbd4084abU, 0xbd8434a63cfbbcabU,
  0x3cd654d13d7316b9U, 0xbce721293e2b6b91U, 0xbb11733fbd820cf0U, 0xbd49bab1bc991011U,
  0x3e0a247f3dbb6882U, 0xbdfe8048bb22b8b4U, 0x3da04aae3d3f1badU, 0x3d70f592bd5386fdU,
  0x3d045a953bc4bae9U, 0x3c609d593e0f2697U, 0x37b96fd43b349255U, 0xbd6e6b99bdf5b776U,
  0x3d2343293dcd1cb7U, 0xbe0071fc3ce52882U, 0xbcd7d1343aaf6711U, 0xbd549e8f3d36d576U,
  0x3c676690bd35aeb1U, 0x3d5f3bc03df98b8aU, 0x3dd019903d1463beU, 0x3e00dd5ebda3bee0U,
  0xbc1eebd5bd3f76a5U, 0xb8fbe8413dcf3415U, 0x3d5823103de870e7U, 0xbce6453cbddaee0bU,
  0x3e00f0363c077cc9U, 0x3db331483da25d1fU, 0x3d5f2aae3de9937cU, 0x3d806440bce32e5fU,
  0xbd3ef1833dcfc550U, 0xbda7481a3e274429U, 0x3dbd5ad83d2890eeU, 0x3d1be8123c129efaU,
  0x3d3154b23de421f3U, 0x3d7b74023e1d1b3dU, 0xbd466e863d4d8492U, 0xbd294596be3b941dU,
  0xbd5d22733cc0ed3cU, 0x3cf50f1f3d9347bfU, 0x3c118e973dcabb5dU, 0xbd9158a2bd1125dcU,
  0x3d19b900bd0f2218U, 0xbcc614d33e07c47dU, 0xbd182c233d83dba1U, 0x3dca5f37bd803691U,
  0xbc40bdf6bcf8b836U, 0x3c0cf2903c34e086U, 0xbd32b5e23dd23810U, 0x3d54ba9ebde3534bU,
  0x3d0b99933d666710U, 0xbc89a1a93d9a372fU, 0x3daf98a43deb38bbU, 0x3cbe49aabd4c5e28U,
  0xbda031dbbdcf71bbU, 0xbe180aeebcd36374U, 0x3bb6229b3dd83eafU, 0xbadadf403d8bfdafU,
  0xbcd03fdebbf69dc5U, 0xbb93bbcc3d63335eU, 0x3d372c663a8a5585U, 0x3d353638bdfffabaU,
  0xbd1bd9773d1e3483U, 0xbe0dafc73da77496U, 0x3c79c96a3dc1e932U, 0x3cf04e1cbd3b161bU,
  0xbd8a440dbc9c3d35U, 0xbd8a364c3cbff9aaU, 0x3dd4ee5bbd879eafU, 0xbd8766b8be132bc1U,
  0xbe3872b63d4fe55cU, 0xbd84aae83c285dacU, 0x3d363fd53b9274f4U, 0xbb01abe03e07042fU,
  0xbe16777f3dcd2eaeU, 0x3b8582c73d90fd4eU, 0x3dcbebadbd8e449fU, 0xbd419571bdf8dfe8U,
  0xbe44a2e63ae5ce33U, 0xbd95acacbcdfe27bU, 0xbd16aed9bd786f2cU, 0xbc2f19003e190f99U,
  0xbdeea9b33d5a774bU, 0x3ba10c0c3db2b0e7U, 0x3e2644823ceaa670U, 0xbda53dd4bdb6b8edU,
  0xbe1208e8be04e9afU, 0xbd90ca97bd11fa0aU, 0x3d7ef0083c23a571U, 0x3d4875e6bcb1596eU,
  0xbe40b9873d9e4ff0U, 0x3db21227bd1cfbb7U, 0x3e234efc3c635cb5U, 0xbdbcad0ebd9a1ac2U,
  0xbdd58d57bdefeb8eU, 0x3d6fc43b3cedff48U, 0xbd31b708bcb097b0U, 0x3ced0db8bd986d5aU,
  0xbb5bf082bb1bfac5U, 0xbd114b90bdecef09U, 0x3d9f5223bda86e8eU, 0x3dc7bf6fbda54e15U,
  0xbc619145bd3b2cc2U, 0xbca393f33e0329abU, 0xbd33c9e53d3a7616U, 0x3d917fc93ca0d238U,
  0x3da0da18bd82e380U, 0x3d8b35f83d598b5cU, 0x3dbd3317bc998847U, 0x3dab9890bc74868cU,
  0x3da764d53b5e6326U, 0xbda206693e1904deU, 0x3d0f4a793d468a32U, 0xbd993d2ebdc3b12fU,
  0x3da224693c71f5b1U, 0xbdbfab66bd16380bU, 0x3dbd52403cecfd81U, 0x3e273efbbe023602U,
  0x3d9373123c7f23eaU, 0xbdf1aa353e16d3e0U, 0x3e25309f3e0aafabU, 0xbd951ed13d5884dcU,
  0x3c137f493d3cd3b0U, 0x3b30442ebd55d7b0U, 0x3db84714bc7c9559U, 0x3d3a2a02be1aebccU,
  0xbdd1e82a3cd57cb8U, 0xbd0111d6bc06ed5fU, 0x3da7afb73d75fc6aU, 0x3d204ccabc0b43ceU,
  0xbdc2cd413dc96386U, 0xbd9a7f9b3cd9608dU, 0x3d357de3bccdcb99U, 0xbcbb6d5fbe2425f0U,
  0xbcd9cfe73d1859b4U, 0xbd1216ba3c52f2e2U, 0xbd5ceff6bc51e7d9U, 0xbd2df1c93da9b15fU,
  0xbe394fd4bd13f5d6U, 0xbaf87168bd8ebe1aU, 0xbcc4b8bcbdfaf783U, 0xbd37ab4abe11f4f4U,
  0xbdf390d9be02e5b3U, 0xbdb745373dbf70ebU, 0xbd4b780fbd894abfU, 0xbcd43446bdb90b02U,
  0xbd654f173d5c5224U, 0xbd21096bbd8cacd4U, 0x3d8da4cabe5819e3U, 0xbda642b2bd70e23dU,
  0xbdee2731ba9ca3edU, 0xbd93a5b23d87532eU, 0xbd532d563cd8fd10U, 0xbbc93750bd0a26d8U,
  0x3bbe74e23c0c7264U, 0xbdef7018be0edf69U, 0xbaf47f32bdad53f3U, 0x3dad11d4bd9b3a30U,
  0x3ad87116bd8d74b6U, 0x3c1042273d24a96dU, 0x3dcc907a3ae70d35U, 0xbd57c0663d963b86U,
  0xbd56ee00bd9c47d4U, 0xbdd6ca56bdc9f06cU, 0xbd26f43ebd3fb57aU, 0x3d6416f5be575013U,
  0x3d1f2676bd5df360U, 0xbc2cbf65bd854537U, 0xbc5bb5a5bb72f7feU, 0xbcf4cb9a3b5d987aU,
  0x3c82eb9ebda4a788U, 0xbbd8e0b93b8eb8acU, 0x3c8ffa06bd1f1fa3U, 0x3d49a7b4bd0d6bd9U,
  0x3d8c5abdbc106daeU, 0xbc86d202bc250a7fU, 0xbcc4248a3da3a23cU, 0xbdb0cd3ebd5862e3U,
  0xbc8300a03d407ad7U, 0x3e0afec13c155044U, 0x3e036ec03ddd04bfU, 0xbbbcf082bb8df25eU,
  0x3e44caca3c4ef462U, 0x3cae1729bdddb738U, 0xbd96fa903cd40297U, 0xbd8692f3bd587062U,
  0xbd5092a03ca5f9c5U, 0x3e4bae2dbd68082fU, 0x3da108d1bc85bfb9U, 0xbcd13746bdc2569cU,
  0x3df150ddbd8ae94bU, 0x3dfdb52abdd17d03U, 0x3a36f66fbe2403fbU, 0xbd128a5b3ddd2520U,
  0xbdd16001bdc1615dU, 0x3e5962f23d11f3e1U, 0x3e148fd03c74d073U, 0x3cdf3faf3cb67d88U,
  0x3e5709c83d214542U, 0xbd7bb394be2fdf38U, 0x3d16b73dbc12a66eU, 0xbce290143d4279c4U,
  0x3b398775bc376b9dU, 0x3e30ff2abd23603dU, 0x3d8c3425bdb6a31bU, 0xbdc9051cbd149b83U,
  0x3d6f70923c457fc1U, 0x3d0d0f78bde439beU, 0xbe1175d8bdbebb93U, 0xbd8b42f73df363a6U,
  0x3caab41bbda28c4fU, 0xbc8335cf3d5c381eU, 0xbd1472dbbe15db6cU, 0x3c8184963d7209e9U,
  0xbd363c72bce30698U, 0x3dacb4e6bd7e97adU, 0xbdf29236bdd01bfdU, 0x3cb4a978bd22d156U,
  0xbd9ed7a6bddb51c3U, 0x3c69b64fbd5106cdU, 0x3bdd0af6be0d4f87U, 0xbd1eb78ebd98a5e4U,
  0xbd98c764bde195e9U, 0xbd945b3b3b9e686aU, 0x3c6ee248bdadb01dU, 0x3d0e7d9a3d02408dU,
  0xbdfb08eb3ca652dbU, 0x3c29590fbd000339U, 0xbe06d161be3d434dU, 0x3d89dc9cbddb017bU,
  0xbe04b887be05e5adU, 0x3ca63632ba68adb0U, 0x3dace5513d7c21e3U, 0xbcdb00603d506da8U,
  0xbdcd32ff3d45a406U, 0xbc131f06bd964933U, 0xbd11b3b3be36b8ecU, 0xbd084184be14be81U,
  0xbe1ac461bb609492U, 0xbe227b9e3dd644aaU, 0xbd8b4712bbeb4015U, 0xbd850eea3dce9b05U,
  0xbda4eebebd9b63caU, 0xbdb1bfdebdd3b321U, 0xbda8d18cbe54c9bbU, 0xbd9b914abe4cc17dU,
  0xbd980c94bbbe4722U, 0xbdd3da613ce669b6U, 0xbd267ac9bccd01efU, 0x3d8edef13ddf2f89U,
  0xbd66cdf8bcef32a9U, 0xbe057ac9bdfc5a97U, 0xbd31824abe345b8cU, 0x3bc78148be709599U,
  0xbe0fce53be24169fU, 0xbe397a063d69b74cU, 0xbd4de0923d45a3f8U, 0x3d0501663dfa2697U,
  0xbc80625cbd04e511U, 0xbdaa2ac9be1decebU, 0x3d88698dbe97410cU, 0x3c15e6d4be7ac640U,
  0xbdc56dd1bd161c03U, 0xbe7337c63d31b6e4U, 0x3ce57dd83da2bd6cU, 0x3d2e56ba3dc39cd0U,
  0xbe15aece3d1202e9U, 0x3c263e74bde9baa6U, 0x3dc6eb65be346c4cU, 0x3d6cf70fbe5da0a6U,
  0x3a520413bd93fcc7U, 0xbdac3708bb05d730U, 0x3d3f20533d4c7db9U, 0xbd9d3c5a3d155254U,
  0x3cc4ff303b559251U, 0x3d177c103d0a3a3cU, 0x3cbb8784bd4d6ffcU, 0xbd2fed5fbd4f9cbbU,
  0x3d3049a1bc717d04U, 0x3cd44c57bd35a8bcU, 0x3d6685393cf32820U, 0xbd47e6aabca0d3d6U,
  0xbdc5f7ac3c288baaU, 0xbd2f410fbd705fc5U, 0x3d0b2ec13ca3253aU, 0xbb96cd95bcf8cecbU,
  0xbdb6b873bda151a4U, 0x3d61f829bd4e675cU, 0xbce847e0bd35c991U, 0x3d12e97cbce281dcU,
  0xbcf74aa0bd25ccc2U, 0x3d0d68fcbcd7cfd6U, 0x3cd74fd53d98e006U, 0xbca2a29c3d4e3038U,
  0x3b9259d9bd6e3217U, 0x3d3f65cabd60e666U, 0x3c3afdb9bbfe1ed8U, 0x3d78c0aabc484641U,
  0xbd37ad373d5c1b31U, 0x3dc09f933cb1ab27U, 0xbd94ef77bcf07502U, 0x3d6f483fbd7d2e75U,
  0xbd59cf0c3d4a6afdU, 0xbc0dca133dc94b53U, 0x3d8992afbc4b0163U, 0x3c315948bd3acb74U,
  0x3d27e0bdbc8e5e6fU, 0x3da9a618bde16ee9U, 0x3d920f86bd822b4cU, 0x3c82a6debcbde576U,
  0x3cf1affbbd4fbb7fU, 0x3d82b9ca3d446466U, 0xbd0c94a83ba28eddU, 0xbd07041cbdd01464U,
  0x3d7126873d96538cU, 0xbc2a8a34bd2088ecU, 0x3d2979cfbc53e5a1U, 0x3d8d90c23bb1e13eU,
  0xbdd51ec7bc8ab812U, 0xbcc4e955bc6a3fbbU, 0x3d7af7803d871151U, 0xbc425b68bd33cf90U,
  0x3d4220debdac704bU, 0xbd32f96abdca8c7dU, 0xbda169e9bda646f6U, 0xbd93ab203d30e6e3U,
  0xbda2fb49bb48cc24U, 0xba8e10643ab2fceeU, 0x3c1761d43d7ee26cU, 0x3d0d335e3cd3ea12U,
  0x3c43fc21bcdfb8d2U, 0x3d2becabbd29f249U, 0xbdb72ee2bd4002b3U, 0xbae2bec6bcefa20fU,
  0xbd8ad30b3d01179cU, 0x3d9d71963d2be26cU, 0x3c8330e1bceade63U, 0x3d0e21043d518be9U,
  0x3d87eb27bcb66a60U, 0xbcdab9f2bd4891e4U, 0x3d1b5d09bc16eec4U, 0xbc6dbf8c3dd50c63U,
  0x3d1f11f6bd26b9fbU, 0x3cf780ec3ca47d06U, 0x3d1a187a3d90313dU, 0x3c63d540bc5d4212U,
  0xbd8c81c7bc3e00dfU, 0xbda739f83d8051acU, 0xbadc1b2dbd491bc9U, 0xbd4b0b5f3d5a92a6U,
  0xbd22bcd63d05d57eU, 0x3c02213d3d248100U, 0x3d89fbc83d2dc90bU, 0xbd3c7be2bcb90f1cU,
  0xbd6fa5ebbd00e22aU, 0xbdc2216fbbbe7be9U, 0xbd730f6bbdbd0019U, 0x3cd5fc54bcfcd73dU,
  0x3d21a4adbb9062bcU, 0x3d626ef03d69d2c3U, 0xbdb6d96abcb8d699U, 0x3d8ae395bd73392aU,
  0x3d91da3f3d8fc491U, 0xbdaa3171bd931ec1U, 0xbdadd8403c614b3aU, 0xbd3d592f3d78df03U,
  0x3c44de4b3cd2c734U, 0x3bcc92213cc11974U, 0x3cefba3fbca931f8U, 0xbcd621d63c430abdU,
  0xbd7cea34bc45c76eU, 0xbd10ab92bc97dba7U, 0x3c62af2e3d80c2f3U, 0x3bf45e25bd94efa2U,
  0xbdba6677bd96005bU, 0xbd9d4a073d2b7ff7U, 0x3d85a5ad3c376563U, 0xbd9c4625bd9e335cU,
  0x3c634bde3d8554c3U, 0xbc33e1fc3d72ab21U, 0x3d10458abda47c4bU, 0xbd6266193c96e676U,
  0x3d4ba2b13d411578U, 0x3d9d97313d2633fdU, 0xbd37a252bd9b4804U, 0xbd3ed4cbbd490a50U,
  0xbd7ed76c3ce3d3a2U, 0xbda18519bda0378fU, 0x3c7dae14bccd7880U, 0xbc8d5700bb36fe0eU,
  0x3c7ac261bd7a5144U, 0xbd6504a73c876130U, 0x3d83508abda8465eU, 0xbcb2e874bd747315U,
  0x3c998d153d78c4beU, 0xbdac441bbc2422b6U, 0xbdbc168cbdc70784U, 0x3d82bfde3d6c73c3U,
  0x3cd0e12cbcaeafd6U, 0xbd84ce683d33df15U, 0xbd698e5e3d911d1eU, 0xbdb16b593d3f1080U,
  0xbbf98a703cb651d1U, 0xbdaddcab3cd923a3U, 0x3cae03243d9283dcU, 0x3d8c939bbd391fb2U,
  0x3d8f10933d36458fU, 0xbbd2c4bdbd83d8b6U, 0x3d89c70f3d514e42U, 0xbda42d4d3d87f6d4U,
  0x3d8997f53d18d247U, 0xbb3ea112bc4d357cU, 0xbc80867cbdd3f280U, 0x3d5923973d82ff6bU,
  0xbc7fba3bbd3c1828U, 0x3cf51200bdc333b5U, 0xbdabcbbdbd206cb6U, 0xbbec8420bd9f9e17U,
  0x3d079cebbd817ac4U, 0x3b0c1a92bd0ff253U, 0x3c62708ebc843019U, 0xbd03edcbbda01720U,
  0xbd8ba9593d83392dU, 0x3cca5927bc4b7737U, 0x3ce0c45fbda15de6U, 0x3d85df79bdc1c77bU,
  0x3d3eb3bb3b839265U, 0xbdae92dfbb88cf6eU, 0xbd3d760bbb079dc4U, 0xbcc75d58bcc39d09U,
  0xbc281c3ebc6ede49U, 0xbdaf7dd0bd8b5f46U, 0x3d875917bdbee96dU, 0xbd9ad4083d5e21ffU,
  0xbd0b31c2bdbdbdc1U, 0xbc8142a73d525367U, 0xbdaaa390bc57c4a4U, 0x3b04ad7ebc24661eU,
  0x3a8eb0a9bc91345dU, 0x3d23f9f9bd82a567U, 0xbd8ecaed3c140a7bU, 0x3d2074a63da30529U,
  0xbc884a2e3d84b0feU, 0x3bce21eabcc18a4bU, 0xbd618300bb251d4cU, 0x3cef65533b388c63U,
  0xbd97d5f6bdb4669dU, 0x3cefc70d3d7ff266U, 0x3d2c62c1bd2226ccU, 0xbda9a641bbb53409U,
  0xbd2d18ff3b8d5a4bU, 0xbc0d155c3be0faaeU, 0xbd9489883c8bfe80U, 0xbc8aa7e23cde55b9U,
  0x3d64957abd765784U, 0xbdc99a7dbcbf861dU, 0xbd982f23bba7c81aU, 0xbd9108dabda32322U,
  0xbbd8ee603d22989bU, 0xbc3d6a68bb4f4270U, 0xbdd522c63c1ee9f7U, 0xbda3be133da3140bU,
  0x3d7456bcbc9e7b8cU, 0xbd7575733d74e31dU, 0xbd01598e3d22fba4U, 0xbca51b9cbc0c178aU,
  0x3d5c68643d39d34fU, 0xbdc50ad43c266e38U, 0xbdb996bdbd9e0a78U, 0xbd7f79aa3d514c5bU,
  0xbd9b677bbc3dc24bU, 0x3c8e8895bd550f7cU, 0x3d85de803cfdf08eU, 0x3c0812a8bdace951U,
  0xbdbb77323d088b20U, 0x3d448daf3d327a28U, 0x3c21b233bc4206afU, 0xbcf87db43c51919eU,
  0xbda68bd03d402a9cU, 0xbd899c273c815a13U, 0x3d21248a3d65ee62U, 0xbd8f2a0abd1ee3d2U,
  0x3c8ea6d3bd9ff9e0U, 0xbd7ba7c13cd150cdU, 0xbdc737da3d83d89aU, 0x3c084eebbd8f66b4U,
  0x3d935be5bd2cf5c8U, 0x3c14644d3c0d7f51U, 0xbd4fd2babd6f96a9U, 0xbd98e22c3ac03fddU,
  0xbd03b64f3c895534U, 0x3d7c93a93d423406U, 0x3d167882bcf32184U, 0xbdb1920dbd8971caU,
  0xbcef020ebdc4702cU, 0xbcea36dfbc57f9acU, 0xbc75703ebd95c10eU, 0x3cac6908bd14f0e2U,
  0xbd9a1ecc3d95d4e9U, 0xbb5ddc653c977cadU, 0xbdbbb53cbda66209U, 0xbd0f705e3d517cc1U,
  0xbd8fd9dc3d316623U, 0x3c5ed7463d1616b2U, 0xbcc2d5d1bd87c621U, 0xbda7f2423db6e3f0U,
  0x3da2fc063b2333f1U, 0x3c5f56b83d4dae98U, 0xbd905dd5bd06d60fU, 0xbc4b17f43d209ec8U,
  0xbdab1615bdbed7aeU, 0x3c0e26ac3c4f3194U, 0x3c545587bcee65c7U, 0xbd92dc673d2a47b8U,
  0xbd993aa53a28d235U, 0xbd9a1b3cbcdfdd7cU, 0xbd120a45bce30b80U, 0xbc378842bc5eb705U,
  0xbd498662bc3345d9U, 0x3c9e07c9bd7c2471U, 0xbd4527fa3d5a242aU, 0x3d39168a3c444419U,
  0xbd839f6fbd198373U, 0x3d59ff893d852aadU, 0x3cbcc9e83d405d53U, 0xbc682fde3d7ca0e5U,
  0xbd0d5eccbdc00af8U, 0x3d2cbf413d609cadU, 0xbc7f764e3d77db53U, 0x3d361ade3dae96d5U,
  0xbd0fb65c3cfac24bU, 0xbcc5f9c83c3a372cU, 0x3d86f946bd89aff0U, 0xbd8b9453bd14e4a9U,
  0xbd25e4d8bdbc2dfbU, 0xbdc19982bba14d76U, 0x3d14ef4abd12862dU, 0xbd74beda3cd3cd48U,
  0x3d950b293ce541d3U, 0x3cce6f5ebdbf790cU, 0xbda77ece3d6f9594U, 0xbdbbb603bd84b554U,
  0xbc4a40e1bcde58d9U, 0xbd292bc9bd1bb094U, 0x3d95dbc1bda0804eU, 0x3d4e750e3b9e91b6U,
  0x3d2da9a13d60dba3U, 0xbcdd41243d97c70fU, 0xbd83809e3d746ea0U, 0x3cae7a223c80ea8aU,
  0xbd1c30e8bd2d1d83U, 0xbcca81163d2c58d1U, 0x3ceef691bd6e7dd9U, 0xbd74d2683d3ce89cU,
  0xbd3da6c3bd80df28U, 0x3d359131bca89a7cU, 0x3d91e8c3bbcf1360U, 0xbd361f72bdac1d4cU,
  0x3d0153603a0483f2U, 0xbb55b7d83cf3e461U, 0x3d74bc773d380f50U, 0xbd1985fd3cd599b1U,
  0x3c010b8fbdb29f73U, 0x3c9f42afbbd87f7cU, 0xbb2752f93d8225d8U, 0x3cfa28f7bd2a3c05U,
  0xbc0c58acbb971a6aU, 0x3d99c7cfbdaaebc7U, 0x3d78cac33d81630dU, 0xbd852aaebd662d27U,
  0x3d5abc5d3b94833cU, 0x3cfd1e7c3d7c1c61U, 0x3d356bad3d03e2b9U, 0xbdbdf1efbce88954U,
  0xbd745f1a3ac264efU, 0xbc3ac024bc72e286U, 0x3d7b61b4bd2f33afU, 0xbd3de5cabdda8bd1U,
  0xbd826221bd829734U, 0xbcdf73f3bdb71e04U, 0x3d24aa74bd62af07U, 0x3d153b3abd19dc47U,
  0x3d09cc06bb2e0a84U, 0xbd9f4372bc52c1e3U, 0x3b81ce51bd8eeac5U, 0x3daaf3673ce96f44U,
  0x3cc0525fbd6f183aU, 0x3d5cfe243d8e4afaU, 0x3d66f4433d0b4fe1U, 0x3d88f5e7bcb96d92U,
  0x3c6984053d8aae7cU, 0xbc9cfb2bbdaf7f30U, 0xbd075efbbdae4058U, 0xbd961547bd075159U,
  0xbd9d3b443d1a9d28U, 0xbd0d4ef03d7a6d86U, 0x3d08c4cdbc12c714U, 0xbdc750a63d4df075U,
  0x3cab6cbcbc4f5f61U, 0xbd9bad4fbd6ce3e8U, 0xbc802fa7bd1c2044U, 0xbd53ce5c3d2f57b5U,
  0x3c821336bc176ebeU, 0xbd39790abcaef634U, 0xbcd98436bc63d303U, 0x3d96adcebd4444f1U,
  0x3c530812bdbcaa6dU, 0xbd7143d0bd53f61fU, 0xbdd030cdbc5b8441U, 0xbd33bcadbd24c99aU,
  0xbd8cd147bce67debU, 0xbc9efa5f3d5c0f15U, 0xbc1d3ac23d19b96bU, 0x3a8ab2b7bb057b0cU,
  0x3caaec8bbd787854U, 0xbcfcce053ba05056U, 0xbcf2bc15bca76c80U, 0x3d0789aabd34fad8U,
  0x3d9d584d3d6064c5U, 0xbcb10dafbdbf33b9U, 0xbda0c7863da00ba7U, 0x3d92c92e3cce3c1eU,
  0xbdbdaff73d15c31aU, 0x3d4d7741bba774b3U, 0x3d826bfc3caeb492U, 0x3cbc6fc03c2cf2c7U,
  0x3d9a3dae3d9b1848U, 0xbd3c5ef2bcdbc16aU, 0xbdaab04f3d866c7fU, 0x3d0117c33c55371fU,
  0xbaf4266fbd811ed8U, 0x3d0688d43d068235U, 0x3d4a8b443d8ef519U, 0xbd994bb2bd39526fU,
  0xbd4979c33d1948bdU, 0xbd32d701bb0ccedcU, 0xbd963cdbbd353400U, 0xbd77dfb7bcaa49afU,
  0x3be1af04bd643de4U, 0xbbee6eccbd2c281fU, 0xbd92fac0bd971007U, 0x3da24bc3bdccb270U,
  0xbd9df2bfbd7aa06fU, 0x3db4903ebd5ed953U, 0xbaa544933d850241U, 0xbdbca1adbd667a94U,
  0xbe1757d1bd203a85U, 0xbd7bdde93e32c01fU, 0xbd2f867dbd7f8716U, 0xbd6b99d8be01d8aeU,
  0xbca85811bd54e2d2U, 0xbdd69a94bd53fffcU, 0xbdd59d79be100969U, 0xb9b10909bd9ad018U,
  0xbe22d199bd5c6399U, 0x3b8b455b3d91d27aU, 0x3cc1aa663d1b17e9U, 0x3dae4a29bdce20a1U,
  0x3dc61edb3c945693U, 0xbe13b04abd1dadd1U, 0x3dbd0dfebd8b99e3U, 0x3d983fe53c17d995U,
  0xbdf31649bcb598e0U, 0xbd3976ae3e767549U, 0xbd2805e3bd0bba13U, 0xbc9626043c41d4bbU,
  0x3cfd5a103d83c47eU, 0xbde5a19abcff5872U, 0x3e171551bd9cc29dU, 0xbd64a3c3bb8d45d9U,
  0xbcd6a486bd784639U, 0xbc6aec603e5450ebU, 0xbd2e5291bd865e49U, 0x3ce45cac3d9d4d15U,
  0xbd82623c3dbc6f4cU, 0xbb1eba9e3db2d30eU, 0x3e3b793cbd27813fU, 0x3d30a5883ce06aa0U,
  0xbdc3433bbba676a4U, 0xbd90e5133e069a50U, 0x3d3bae093d38fc1aU, 0x3ac069c03cd3ac98U,
  0x3da24ab8bc2197b6U, 0xbce3ca1e3dd8dce6U, 0x3e01f0ccbe3f0b69U, 0xbdaa87d8bd9b8511U,
  0x3d6241e1bd59cd49U, 0xbd8451483e284d95U, 0xbdb3d3b73d74ed4cU, 0xbc2004b83cb1d322U,
  0x3e1936813b926cb2U, 0x3ceee04dbc87be33U, 0x3e47f0dbbdd7b918U, 0xbd41636fbb8f6c89U,
  0x3d4cf8e33d0b3774U, 0xbd692a0d3d683e1eU, 0xbdd88a7a3d5df5d1U, 0x3d5b72fa3e13f8b7U,
  0xbd127c7f3d0dcdc1U, 0x3e01587c3db05cb3U, 0x3e225cc6bdae396aU, 0x3a604ad3bd7d0884U,
  0x3d42d4fdbcd15574U, 0xbd9d090f3d34a2d5U, 0x3c81c4253d6946b4U, 0x3da863cb3e00ff8fU,
  0x3d040e05bd3feb24U, 0x3d5a8dcdbdb43eafU, 0x3df78c3fbdd3d22fU, 0xbc8f7934be25af9aU,
  0xbdbee0d93d249578U, 0xbe2070c13e00220fU, 0xbd2980243c11b634U, 0x3c562fe03df4cfebU,
  0xbd9770193d84e836U, 0x3d8a9560bd49052aU, 0x3e3515b8bdf4467fU, 0xbdba03c3be0e3223U,
  0xbd1db4213ced42c5U, 0xbe8257493d6e5d77U, 0xbdcb1f2cbd936302U, 0x3d9738933defb572U,
  0x3d4717d9bd4f7a40U, 0xbc70d55cbc441125U, 0x3e5edd11bd953efaU, 0x3c2e07f7be827189U,
  0xbc639ed1bda554a8U, 0xbe0871e83e3b77d6U, 0xbd04d0a33ce2f99dU, 0xbd5d294f3d71b36fU,
  0x3d52fe1c3cba76c1U, 0xbbad1ee13ca08f59U, 0x3e2a8d763daa4e97U, 0xbd32d1b1be8fe773U,
  0xbd8341163d0e5e83U, 0xbe8e3ec03d0c8194U, 0x3dd01e5d3daefac1U, 0xbc20a908bb033a7bU,
  0x3d2fca56bdf93f4aU, 0x3dc80d84bd8ccc91U, 0x3cd624d93e046fc0U, 0xbbc2e250be23cca8U,
  0xbd2818e93d30e2bcU, 0xbe4f2de53db734a8U, 0x3d9a82cb3d5c8f35U, 0x3cdf26943d2e4e3fU,
  0x3d2950633bdd85beU, 0x3ce42459bc5d8c60U, 0x3e2bbe793d336a9eU, 0x3cd06e1fbd9a71adU,
  0x3de7a38c3dc7305aU, 0xbe25d01b3d423c55U, 0x3d143dc7bc933a16U, 0xbd4521863ca4e705U,
  0x3c99e905bdd22d1aU, 0x3c8fb35c3d32ba1fU, 0x3db4328b3d3605d1U, 0x3daa7b66be04d74bU,
  0x3d7845f73e0c7f54U, 0xbdf7acf2bd3b9dadU, 0x3c896851bd30093cU, 0xbd88397d3dfddbabU,
  0xbdc63704bd825f29U, 0x3ca56e30bd39a912U, 0x3d6481973d5ba735U, 0x3d6b932dbdf30cc6U,
  0xbdaa49a1bd87732bU, 0xbe828bb53d20b75cU, 0xbc8b3e8ebd6f718fU, 0xbcb70e643d380396U,
  0xbc9b87ffbd7e547bU, 0xbd073989bd85cd32U, 0x3dae74c93bb0e4c4U, 0xbd7d0f86bdbca045U,
  0x3cd5bb963ce18ad6U, 0xbdda6ff23d0217a7U, 0xbdac7d1abc79d235U, 0x3a51b0803d287577U,
  0xbe2744a7bde1175dU, 0xbc8512cdbd9d0243U, 0x3d05bd35bb8887a7U, 0x3d6c1c0abdac59faU,
  0xbdd2f700bd816e3dU, 0xbdf4ba86bcfd9837U, 0xbcd899b0bdffc1b2U, 0xbc3fb680bdeead46U,
  0xbe10a799bd64278cU, 0x3d65a40abd7dc8abU, 0x3d855a05bdfa0434U, 0xbd4d2a5ebd13ff3cU,
  0x3d7b2044bd7c46a0U, 0xbdee0af13daf75e9U, 0xbc0e28a4bbbbe6bfU, 0xbd8707443c0c4d07U,
  0xbda3e83abc7dfa7eU, 0x3df3fdab3d457562U, 0x3de1d7b6bdca2315U, 0xbd17db99bcceb9d3U,
  0x3ddf30523d1fac08U, 0xbd75fd113c88e051U, 0x3d8788e13d367d3dU, 0xbd8ef72fbc83b8f9U,
  0xbc66294cbd502713U, 0xbd176657bd4a7897U, 0x3db33ba63d81d1c4U, 0xbcb04d7ebc77195fU,
  0x3dcfe9c2bd13834fU, 0xbd792c323d11044fU, 0x3dae4e273bb78a60U, 0x3d23ebdabc9dc69fU,
  0x3d69dab0bd49fa8eU, 0xbdab659ebd987cc1U, 0x3e061e5e3de2f329U, 0x3d44d5a5bde0a82eU,
  0x3d91999a3dc40801U, 0xbd999d5c3c942c18U, 0xbd2adf91bdf991e1U, 0x3d9ba90b3da383a2U,
  0x3db4a2debbb8fe1fU, 0xbceacdd53d0fad5aU, 0xbac17834bd39f286U, 0xbc886a7cbdb27819U,
  0x3d4c1e4c3d694de5U, 0xbe1c1d5bbad65a25U, 0xbd8095bfbd58b7e7U, 0x3d38d6ca3bc71c26U,
  0x3d609b6b3d1c88abU, 0xbdfa0c9c3c859900U, 0x3d083586bda8bbeaU, 0xbd76cf463cded4b3U,
  0xbbacffdf3bffb6f6U, 0xbdd48c8c3d309c8dU, 0x3d2f338bbe012d08U, 0xbd766340bd20a893U,
  0xbd86979ebc04c348U, 0xbe3918babbc47794U, 0x3ce67d223cf514acU, 0xbda98b993da2df88U,
  0xbd5a15f43da975c7U, 0xbd0272c53d3b4a87U, 0xbd53e7b83ca8ab1bU, 0x3d17bc963b1c6453U,
  0x3d0bd2babdbcfec4U, 0xbe42cd95bd048ad3U, 0xbddaa6debbb3bc14U, 0xbde922b13b7a1d65U,
  0x3ca319763d84310cU, 0x3d0d66823db19084U, 0x3d6801bc3d9af58dU, 0xbd236f44be2864ebU,
  0x3b18b500be061134U, 0xbe7ada71bda40d9fU, 0xbe6155b7bb354629U, 0x3d6659a53e1ba822U,
  0x3c77a7f63d98de46U, 0xbb5bb3e13e2e24b7U, 0x3dd081cc3dd69181U, 0x3d3dad86be01c0e8U,
  0x3e4a27b2bcfd2599U, 0xbe12faa2bdc4ccf9U, 0xbe79d22fbd4583b8U, 0x3e2bec363d0123bbU,
  0x3dd0a7723d6f9089U, 0x3d7d693e3de012b5U, 0x3df04ec33df4518cU, 0x3d4372cebd2e5d9cU,
  0x3e4055333d376ae4U, 0xbe8b2940bd41cf23U, 0xbe1229efbc943e2bU, 0x3ddd4556bdba8ad3U,
  0x3dd37923bcdf3e39U, 0xbda3061e3e023a4eU, 0x3d043407bd9cefecU, 0xbcce05b0bd181e2dU,
  0x3e11c0b33d5421acU, 0xbe8d0054bcaac3d1U, 0xbd0ebe2cbe04f66aU, 0x3df12ed3bd39eee8U,
  0xbd356cf73bf2f02aU, 0xbca154bcbca2f989U, 0xbe22e0acbe0546f5U, 0x3d574aa6bd8d6929U,
  0x3de8895fbd796750U, 0xbe45007abdf1d33bU, 0xbd4d3a10be6e3936U, 0xbd4ed9bdbc3cf2fdU,
  0xbdc4e5da3d6b73ddU, 0xbcae35b13d7782c7U, 0xbe0a28e1bdb824f8U, 0xbc8296fcbd5e3958U,
  0x3d9dfa7b3ce6144bU, 0xbe32d69dbde1f193U, 0xbcf5b93bbe5034a3U, 0xbab8bba43d17a305U,
  0xbe33ba32bc2b7c25U, 0xbccac2f83e2599b0U, 0xbd4647cb3d29e8d5U, 0xbbfd0220bda0847fU,
  0xbdacb4c43d659f38U, 0xbe93e608be1f2b7dU, 0xbdd58e9abe5a437fU, 0x3dbf73d6bd08284fU,
  0xbe87ad97be1e8fc0U, 0xbcd67d363e8e4626U, 0x3d5ec8c43e1cd7cfU, 0x3d7d8006bb396f45U,
  0x3dbba41a3e1d644cU, 0xbeabfc3dbe0a72f4U, 0xbdc68b32be4d2e02U, 0x3d822a8abd847eedU,
  0xbe5ee62ebdce3108U, 0xbd77442b3ed98463U, 0x3e537c4b3dc2e055U, 0xbd70bdcabc8208edU,
  0x3def908d3e359d88U, 0xbe801874bd33a7efU, 0xbdb37ecdbe65430dU, 0x3e3829d2be33b1c1U,
  0xbda2ca5ebe027e04U, 0xbe3a32d73e667cfaU, 0x3dc35a7a3e2b4cfcU, 0x3d896173bd17d006U,
  0xbd9b0b0f3debd9d2U, 0xbdaf3fe5bdc79436U, 0x3d800c70bc2a3389U, 0x3e246ce8bda793deU,
  0x3c972f743a9bbca9U, 0xbdd90f5b3e31db09U, 0x3e3dce213e286fb5U, 0xbd8ff35b3dbd24bdU,
  0xbce1fa6a3d9b3703U, 0x3d414c453cf15502U, 0x3ca4985a3dd1b729U, 0x3d906ec7bcae7338U,
  0x3cabf9a3bdd3804cU, 0xbe07a6013e3b9913U, 0x3da0ca5c3ded57b3U, 0xbd4436093d6808abU,
  0x3dba663c3dc5b883U, 0xbdd2e833be0fb5feU, 0xbdb064de3cbdd541U, 0x3e2d6cd7bd8c613bU,
  0x3cd2ac633db8f310U, 0xbdae11153e762de8U, 0x3e21fd623d99d953U, 0xbd87e821bc9eac00U,
  0x3e9908243e185a85U, 0xbe9cac063cb76059U, 0xbd9449e83cf4e033U, 0x3e4922f1bb5b7999U,
  0xb84d6b243c9c700aU, 0xbde4d8533e42788dU, 0x3e254cd53e271b03U, 0x3bcba4b0bbbedc18U,
  0x3e633fd73e52ea9eU, 0xbea21249bdc2ed0eU, 0x3cfd36533d794094U, 0x3e5816c2bdd39907U,
  0x3da305713e0a718aU, 0xbe3a32d83e883efdU, 0x3e55231c3e1af503U, 0xbc8c75943dd74b2bU,
  0x3df2089b3e29b311U, 0xbe8364193de733ddU, 0xbd64a5963de0c06dU, 0x3e079f72be16635cU,
  0xbd8dbd54bcc2f3d6U, 0xbe7d8f913de769b1U, 0x3e443ca83e2c51eeU, 0x3ce4e42c3e12e6bbU,
  0x3dbd72493e0dbdf8U, 0xbe1ef01c3d6ff1f6U, 0xbc23f342bd137955U, 0x3decd0c3bdffcaeaU,
  0xbd8d1d62bc52f108U, 0xbe6a30573dfc6a5cU, 0x3e3e26703d98cb5cU, 0x3dae19133cff95ebU,
  0x3daf45783da1ad69U, 0xbe1e1505bcbfa7b5U, 0x3d9b11c3be4512d2U, 0x3d0034f9bdf4662bU,
  0xbd21552e3d03b429U, 0xbe7f22c73e0145adU, 0x3d4162753e0d7275U, 0x3d6c6d763d388a63U,
  0x3d3a60613dd12295U, 0xbe46be29bda04855U, 0x3a998f8abd9eb037U, 0x3dfb2c7ebcd018d8U,
  0xbe4adc99bd9e9d19U, 0xbe859b273e2cc0c1U, 0x3e0e34b23d03d0cdU, 0xbd3614b33dd11e1eU,
  0xbcfac345ba7db290U, 0xbdd603eabe036e50U, 0xbd459cb9bdc00ec9U, 0x3d8e0862bdb64c79U,
  0xbd1fa449bdbc1502U, 0xbe9f223cbc99f178U, 0x3dc1bc6c3c2c952aU, 0xbd81fc8bbc351af7U,
  0x3d91e02f3d6d214aU, 0xbe96464ebe02004dU, 0x3bd98ae5bdce709cU, 0x3cd649d8bbfdba21U,
  0xbe20ac87bcbbc55cU, 0xbe72bf113ddb5f2aU, 0x3cd4e9913d9fcd19U, 0x3cdea1403df44533U,
  0x3d8e7e623d5946b9U, 0xbe17202cbe24f51dU, 0xbd98670bbe83399aU, 0x3e41fbaebe476fc6U,
  0xbc17286a3e192a25U, 0xbea5badbbc8a93cdU, 0x3e1cb6793e02685aU, 0x3c145c203dd78d08U,
  0x3e0d8562bbc9c287U, 0xbe1b3004bdea0811U, 0x3da1b3e0bbd31e63U, 0x3df2105ebe2c8651U,
  0xbd961cf2bd703f17U, 0x3e3aecfa3da586bbU, 0xbe2a6751bc1b24d7U, 0x3d33b016be6ac4d8U,
  0xbd5eb82f3ae4b687U, 0x3ce6a7b0bd0b8d2cU, 0xbdacc530bd648cafU, 0x3ca5f0ee3da9898fU,
  0xbd5483bbbbde9cfcU, 0x3d882eb7bd6c87e7U, 0xbd5468e3bda2f8cdU, 0x3d5935d2be2453c0U,
  0x3ac377a3be399536U, 0x3d1ceda1bd6c91e7U, 0xbde9e29b3d946219U, 0x3cdbec443c4e3984U,
  0xbcbc1658bd6df16cU, 0x3d9365c6bc7df247U, 0xbd4d7f06b9abd978U, 0x3d4f8b02be3b0a3aU,
  0xbd436376bd0ab42aU, 0xbd810cef3cfad6f8U, 0xbd91b0443d573132U, 0xbdc6702dbd650635U,
  0xbd4a2858bdbd4aa7U, 0x3e11999fbd4fcba9U, 0xbe0b2c8cbdbfc078U, 0x3ce56460bdb734ceU,
  0xbc76c983bccdfaf4U, 0xbdc96c35bc06264aU, 0xbe13535f3d53031bU, 0xbdc019733d549a44U,
  0x3db60f6d3ced1a0fU, 0x3e1f47f73dbd48bbU, 0xbdc2aa62bda80a61U, 0x3d07363abd40ef39U,
  0x3d2f8130be0b0579U, 0xbe1989c5bd782caaU, 0xbdadd27b3b9fcdbdU, 0xbc720b0dbc737e89U,
  0x3e48ab443a447372U, 0x3c8dafba3cfe766eU, 0xbe0543febdba7f9dU, 0x3da936c7bde7d58dU,
  0x3e5999a93abb18afU, 0xbceb26343dc16db2U, 0xbe2204ed3dc15267U, 0xbbb118cebcf90b88U,
  0x3e6e6c153d8caddbU, 0x3de169943d9a28c2U, 0xbcfb93853da71618U, 0x3ce290bcbda9243dU,
  0x3e89aefe3d718998U, 0xbde0863c3cfb35faU, 0xbe1b527d3e58febcU, 0xbca326813c528723U,
  0x3e0a91053e0e903cU, 0x3da6abc7bd046911U, 0xbd80320bbcb4fdf1U, 0x3d85850bbdc47ee8U,
  0x3ec64d713d7b0a33U, 0xbdf17ed23cbf9d97U, 0xbccf6a583da63933U, 0x3cf2a465bd3675a1U,
  0x3e910ba93dbee129U, 0xbcb7e718bd38b87bU, 0x3d02a2a3bcdd881bU, 0xbd376cedbdb7d476U,
  0x3eb3685a3df25a8eU, 0xbe0756523dc27fd5U, 0xbd0c38fa3e6675dbU, 0x3d850756bd9c0785U,
  0x3e95614b3e495739U, 0x3cbd2327bdb3a305U, 0xbb663caa3cf1454cU, 0x39e71200bc324b52U,
  0x3eb4f0dd3dfb82f7U, 0xbd5b08d93de31b24U, 0x3c8827203e5192cfU, 0x3c3463a0bc758e31U,
  0x3e218fe33e31ee14U, 0x3e298a3bbd820eb1U, 0xbce2a5a3bd54f8a8U, 0x3d48cfd63ca64276U,
  0x3e8fbe9c39c7f6c6U, 0x3c711fa73db162b4U, 0xbdc142073de06896U, 0x3df378e23ca04327U,
  0x3de4842c3e3c3f52U, 0x3df2bad2bd89c22eU, 0x3d1cd23a3dc86820U, 0x3d86884d3d0d969bU,
  0x3e606d923e1ad08fU, 0xbd760af63e4ecca0U, 0x3d1eb4543e3826a8U, 0x3de370323c619aeeU,
  0x3dcf37593e3b5700U, 0xbcfbfebabdb4fbffU, 0x3d5ab9ae3db37c29U, 0xbcb24f543d43dc9aU,
  0x3e7e374a3d3d3494U, 0x3cb68d133d599e8aU, 0xbd73a0243db2cedfU, 0x3dbeb6443d21b47aU,
  0x3d2ce45a3da7dd1cU, 0xbb37a3b93d7e328fU, 0x3d315b5c3d912433U, 0xbbd6a050bcf580d8U,
  0x3e9716443dff040bU, 0xbcd10f763dda547dU, 0xbdd42d633dfb67ffU, 0x3d2ddbf8bd5942c9U,
  0x3da2fbb23d1519ecU, 0xbb9fa7b13d967c66U, 0x3df2f6923d79b59fU, 0x3cdc82683d97f104U,
  0x3e1ddd213cb6487fU, 0xbdd7a1d83d0ff263U, 0xbd8818033e243bfeU, 0x3d4bb2b83d8127a7U,
  0x3cb7246b3bb57152U, 0x3da4dd9b3dc441cdU, 0x3e2ff1013e5506c2U, 0xbd232154bc868f0eU,
  0x3db031483defef7fU, 0xbd1afdbd3dfb984eU, 0x3c6b05743ddd6104U, 0x3d0daae5bd818cfdU,
  0x3db6cf403d5d1356U, 0xbca1d0933e484b4eU, 0x3d81e4273e793567U, 0xbda566ca3c97b0a0U,
